{
  "version": "1.0",
  "truncation": null,
  "padding": null,
  "added_tokens": [
    {
      "id": 0,
      "content": "<pad>",
      "single_word": false,
      "lstrip": false,
      "rstrip": false,
      "normalized": false,
      "special": true
    },
    {
      "id": 1,
      "content": "<bos>",
      "single_word": false,
      "lstrip": false,
      "rstrip": false,
      "normalized": false,
      "special": true
    },
    {
      "id": 2,
      "content": "<eos>",
      "single_word": false,
      "lstrip": false,
      "rstrip": false,
      "normalized": false,
      "special": true
    },
    {
      "id": 3,
      "content": "<unk>",
      "single_word": false,
      "lstrip": false,
      "rstrip": false,
      "normalized": false,
      "special": true
    }
  ],
  "normalizer": null,
  "pre_tokenizer": {
    "type": "ByteLevel",
    "add_prefix_space": true,
    "trim_offsets": true,
    "use_regex": true
  },
  "post_processor": {
    "type": "TemplateProcessing",
    "single": [
      {
        "SpecialToken": {
          "id": "<bos>",
          "type_id": 0
        }
      },
      {
        "Sequence": {
          "id": "A",
          "type_id": 0
        }
      },
      {
        "SpecialToken": {
          "id": "<eos>",
          "type_id": 0
        }
      }
    ],
    "pair": [
      {
        "Sequence": {
          "id": "A",
          "type_id": 0
        }
      },
      {
        "Sequence": {
          "id": "B",
          "type_id": 1
        }
      }
    ],
    "special_tokens": {
      "<bos>": {
        "id": "<bos>",
        "ids": [
          1
        ],
        "tokens": [
          "<bos>"
        ]
      },
      "<eos>": {
        "id": "<eos>",
        "ids": [
          2
        ],
        "tokens": [
          "<eos>"
        ]
      }
    }
  },
  "decoder": {
    "type": "ByteLevel",
    "add_prefix_space": true,
    "trim_offsets": true,
    "use_regex": true
  },
  "model": {
    "type": "BPE",
    "dropout": null,
    "unk_token": "<unk>",
    "continuing_subword_prefix": null,
    "end_of_word_suffix": null,
    "fuse_unk": false,
    "byte_fallback": false,
    "ignore_merges": false,
    "vocab": {
      "<pad>": 0,
      "<bos>": 1,
      "<eos>": 2,
      "<unk>": 3,
      "!": 4,
      "\"": 5,
      "%": 6,
      "'": 7,
      "(": 8,
      ")": 9,
      "*": 10,
      "+": 11,
      ",": 12,
      "-": 13,
      ".": 14,
      "/": 15,
      "0": 16,
      "1": 17,
      "2": 18,
      "3": 19,
      "4": 20,
      "5": 21,
      "6": 22,
      "7": 23,
      "8": 24,
      "9": 25,
      ":": 26,
      ";": 27,
      "=": 28,
      "?": 29,
      "A": 30,
      "B": 31,
      "C": 32,
      "D": 33,
      "E": 34,
      "F": 35,
      "G": 36,
      "H": 37,
      "I": 38,
      "J": 39,
      "K": 40,
      "L": 41,
      "M": 42,
      "N": 43,
      "O": 44,
      "P": 45,
      "Q": 46,
      "R": 47,
      "S": 48,
      "T": 49,
      "U": 50,
      "V": 51,
      "W": 52,
      "X": 53,
      "Y": 54,
      "Z": 55,
      "[": 56,
      "]": 57,
      "_": 58,
      "a": 59,
      "b": 60,
      "c": 61,
      "d": 62,
      "e": 63,
      "f": 64,
      "g": 65,
      "h": 66,
      "i": 67,
      "j": 68,
      "k": 69,
      "l": 70,
      "m": 71,
      "n": 72,
      "o": 73,
      "p": 74,
      "q": 75,
      "r": 76,
      "s": 77,
      "t": 78,
      "u": 79,
      "v": 80,
      "w": 81,
      "x": 82,
      "y": 83,
      "z": 84,
      "¦": 85,
      "©": 86,
      "Ã": 87,
      "â": 88,
      "Ġ": 89,
      "Ģ": 90,
      "Ĩ": 91,
      "Ĵ": 92,
      "Ķ": 93,
      "Ġt": 94,
      "Ġi": 95,
      "Ġth": 96,
      "Ġw": 97,
      "Ġa": 98,
      "ou": 99,
      "in": 100,
      "Ġs": 101,
      "re": 102,
      "at": 103,
      "Ġy": 104,
      "Ġyou": 105,
      "ing": 106,
      "Ġm": 107,
      "Ġthe": 108,
      "Ġf": 109,
      "Ġb": 110,
      "er": 111,
      "Ġd": 112,
      "..": 113,
      "es": 114,
      "Ġh": 115,
      "nd": 116,
      "Ġwh": 117,
      "Ġo": 118,
      "Ġl": 119,
      "Ġn": 120,
      "me": 121,
      "ow": 122,
      "Ġc": 123,
      "Ġg": 124,
      "Ġit": 125,
      "Ġdo": 126,
      "'s": 127,
      "an": 128,
      "Ġand": 129,
      "el": 130,
      "or": 131,
      "st": 132,
      "Ġwhat": 133,
      "th": 134,
      "Ġso": 135,
      "...": 136,
      "Ġe": 137,
      "Ġwa": 138,
      "Ġis": 139,
      "gh": 140,
      "Ġme": 141,
      "Ġthat": 142,
      "ay": 143,
      "ed": 144,
      "ll": 145,
      "on": 146,
      "Ġli": 147,
      "is": 148,
      "en": 149,
      "Ġto": 150,
      "'m": 151,
      "Ġp": 152,
      "ke": 153,
      "Ġha": 154,
      "ver": 155,
      "Ġbu": 156,
      "it": 157,
      "le": 158,
      "ere": 159,
      "ve": 160,
      "ri": 161,
      "Ġmy": 162,
      "ght": 163,
      "Ġ*": 164,
      "et": 165,
      "thing": 166,
      "Ġfor": 167,
      "Ġre": 168,
      "la": 169,
      "Ġin": 170,
      "Ġsome": 171,
      "oo": 172,
      "Ġj": 173,
      "Ġbe": 174,
      "ust": 175,
      "'t": 176,
      "Ġno": 177,
      "Ġwat": 178,
      "Ġlike": 179,
      "Ġare": 180,
      "ar": 181,
      "id": 182,
      "Ġwater": 183,
      "Ġst": 184,
      "Ġfe": 185,
      "out": 186,
      "Ġbut": 187,
      "Ġjust": 188,
      "Ġyour": 189,
      "Ġfeel": 190,
      "pp": 191,
      "'re": 192,
      "Ġoh": 193,
      "Ġk": 194,
      "Ġever": 195,
      "ld": 196,
      "ic": 197,
      "Ġor": 198,
      "Ġab": 199,
      "Ġwi": 200,
      "Ġwas": 201,
      "Ġu": 202,
      "ad": 203,
      "Ġmo": 204,
      "im": 205,
      "Ġgo": 206,
      "ly": 207,
      "ss": 208,
      "Ġforg": 209,
      "al": 210,
      "all": 211,
      "Ġabout": 212,
      "??": 213,
      "right": 214,
      "Ġnow": 215,
      "ac": 216,
      "Ġthing": 217,
      "Ġon": 218,
      "Ġne": 219,
      "Ġsomething": 220,
      "Ġthey": 221,
      "Ġwait": 222,
      "Ġse": 223,
      "Ġright": 224,
      "Ġal": 225,
      "Ġthis": 226,
      "rou": 227,
      "Ġevery": 228,
      "se": 229,
      "ish": 230,
      "kes": 231,
      "om": 232,
      "ge": 233,
      "Ġof": 234,
      "Ġhapp": 235,
      "Ġthere": 236,
      "Ġhow": 237,
      "nt": 238,
      "ell": 239,
      "les": 240,
      "Ġdon": 241,
      "Ġgla": 242,
      "Ġcan": 243,
      "Ġhere": 244,
      "Ġsw": 245,
      "Ġglass": 246,
      "!!": 247,
      "Ġdid": 248,
      "ir": 249,
      "ant": 250,
      "Ġfin": 251,
      "mb": 252,
      "âĢ": 253,
      "âĢĶ": 254,
      "ink": 255,
      "Ġkn": 256,
      "Ġforget": 257,
      "ain": 258,
      "ange": 259,
      "way": 260,
      "ood": 261,
      "Ġhave": 262,
      "one": 263,
      "Ġknow": 264,
      "est": 265,
      "Ġan": 266,
      "owl": 267,
      "Ġbowl": 268,
      "mber": 269,
      "Ġnot": 270,
      "Ġreme": 271,
      "ind": 272,
      "Ġwe": 273,
      "Ġthink": 274,
      "Ġsee": 275,
      "ion": 276,
      "Ġremember": 277,
      "be": 278,
      "Ġfla": 279,
      "Ġwith": 280,
      "fu": 281,
      "ally": 282,
      "Ġ...": 283,
      "Ġswim": 284,
      "il": 285,
      "Ġex": 286,
      "ch": 287,
      "Ġwho": 288,
      "Ġma": 289,
      "are": 290,
      "Ġorange": 291,
      "Ġti": 292,
      "Ġwor": 293,
      "Ġag": 294,
      "ct": 295,
      "king": 296,
      "Ġflakes": 297,
      "ot": 298,
      "aybe": 299,
      "?!": 300,
      "Ġyes": 301,
      "Ġmaybe": 302,
      "Ġwhen": 303,
      "ĠI": 304,
      "Ġat": 305,
      "mp": 306,
      "bb": 307,
      "ry": 308,
      "Ġsh": 309,
      "gg": 310,
      "Ġeverything": 311,
      "ur": 312,
      "ter": 313,
      "Ġta": 314,
      "ely": 315,
      "ice": 316,
      "Ġgood": 317,
      "Ġtell": 318,
      "Ġthen": 319,
      "Ġagain": 320,
      "Ġkind": 321,
      "Ġloo": 322,
      "Ġwhy": 323,
      "art": 324,
      "ame": 325,
      "ra": 326,
      "Ġam": 327,
      "lo": 328,
      "ough": 329,
      "Ġbubb": 330,
      "sh": 331,
      "Ġtime": 332,
      "au": 333,
      "Ġall": 334,
      "ful": 335,
      "rm": 336,
      "Ġdoes": 337,
      "ep": 338,
      "Ġwarm": 339,
      "Ġhappen": 340,
      "ill": 341,
      "op": 342,
      "ment": 343,
      "ĠY": 344,
      "Ġlight": 345,
      "Ġlo": 346,
      "end": 347,
      "ea": 348,
      "Ġcom": 349,
      "ould": 350,
      "Ġfa": 351,
      "Ġwhere": 352,
      "round": 353,
      "Ġfish": 354,
      "Ġany": 355,
      "ess": 356,
      "Ġthings": 357,
      "Ġfins": 358,
      "ore": 359,
      "ent": 360,
      "Ġsc": 361,
      "rough": 362,
      "Ġco": 363,
      "Ġsm": 364,
      "ways": 365,
      "Ġnew": 366,
      "ther": 367,
      "riend": 368,
      "ond": 369,
      "Ġalways": 370,
      "Ġnice": 371,
      "Ġup": 372,
      "Ġfriend": 373,
      "kay": 374,
      "ro": 375,
      "Ġhappy": 376,
      "Ġthrough": 377,
      "Ġokay": 378,
      "Ġfeels": 379,
      "Ġget": 380,
      "Ġch": 381,
      "Ġfr": 382,
      "Ġsu": 383,
      "Ġsp": 384,
      "ming": 385,
      "Ġbeing": 386,
      "ce": 387,
      "Ġum": 388,
      "ving": 389,
      "if": 390,
      "tt": 391,
      "irc": 392,
      "Ġtoo": 393,
      "Ġthem": 394,
      "imes": 395,
      "Ġen": 396,
      "Ġlook": 397,
      "fe": 398,
      "Ġcon": 399,
      "Ġv": 400,
      "Ġwigg": 401,
      "Ġbubbles": 402,
      "ank": 403,
      "Ġsay": 404,
      "ady": 405,
      "Ġmoment": 406,
      "Ġone": 407,
      "ack": 408,
      "loat": 409,
      "Ġwere": 410,
      "Ġswimming": 411,
      "Ġbl": 412,
      "so": 413,
      "wh": 414,
      "Ġtail": 415,
      "Ġdoing": 416,
      "Ġsomet": 417,
      "Ġsometimes": 418,
      "un": 419,
      "Ġif": 420,
      "qu": 421,
      "Ġfrom": 422,
      "Ġfloat": 423,
      "ĠT": 424,
      "Ġlon": 425,
      "Ġsomeone": 426,
      "Ġbi": 427,
      "Ġforgot": 428,
      "Ġhe": 429,
      "Ġde": 430,
      "ft": 431,
      "Ġenough": 432,
      "rd": 433,
      "Ġas": 434,
      "Ġsmall": 435,
      "ound": 436,
      "Ġout": 437,
      "ES": 438,
      "Ġaround": 439,
      "ive": 440,
      "Ġmean": 441,
      "Ġsa": 442,
      "Ġhard": 443,
      "ven": 444,
      "elf": 445,
      "Ġho": 446,
      "ast": 447,
      "Ġbec": 448,
      "Ġstill": 449,
      "very": 450,
      "Ġper": 451,
      "Ġreally": 452,
      "Ġtal": 453,
      "ĠW": 454,
      "Ġmakes": 455,
      "ause": 456,
      "ircles": 457,
      "ting": 458,
      "cit": 459,
      "ready": 460,
      "day": 461,
      "Ġback": 462,
      "ide": 463,
      "Ġbest": 464,
      "Ġalready": 465,
      "OU": 466,
      "Ġname": 467,
      "keep": 468,
      "ous": 469,
      "Ġqu": 470,
      "am": 471,
      "Ġgot": 472,
      "Ġwhole": 473,
      "Ġbecause": 474,
      "ist": 475,
      "Ġint": 476,
      "Ġsl": 477,
      "Ġvery": 478,
      "Ġdis": 479,
      "Ġbo": 480,
      "Ġpre": 481,
      "self": 482,
      "Ġkeep": 483,
      "Ġwant": 484,
      "ab": 485,
      "iff": 486,
      "Ġwond": 487,
      "Ġgold": 488,
      "Ġhappened": 489,
      "Ġwonder": 490,
      "ap": 491,
      "Ġdiff": 492,
      "Ġnever": 493,
      "dy": 494,
      "Ġdiffere": 495,
      "Ġby": 496,
      "Ġlove": 497,
      "Ġsound": 498,
      "Ġexcit": 499,
      "ation": 500,
      "Ġway": 501,
      "ace": 502,
      "Ġaw": 503,
      "Ġeven": 504,
      "ved": 505,
      "ck": 506,
      "ite": 507,
      "Ġgone": 508,
      "ort": 509,
      "Ġpl": 510,
      "as": 511,
      "Ġday": 512,
      "Ġreal": 513,
      "ĠYOU": 514,
      "Ġdifferent": 515,
      "ness": 516,
      "Ġlitt": 517,
      "Ġlittle": 518,
      "fish": 519,
      "'ll": 520,
      "Ġmove": 521,
      "Ġthough": 522,
      "Ġmad": 523,
      "Ġgoing": 524,
      "ight": 525,
      "Ġcomp": 526,
      "Ġfeeling": 527,
      "ling": 528,
      "atter": 529,
      "reat": 530,
      "Ġpro": 531,
      "Ġbig": 532,
      "Ġpart": 533,
      "Ġgoldfish": 534,
      "Ġwould": 535,
      "Ġwill": 536,
      "Ġpe": 537,
      "Ġsec": 538,
      "ut": 539,
      "ually": 540,
      "Ġjo": 541,
      "Ġr": 542,
      "Ġtr": 543,
      "Ġeat": 544,
      "Ġblank": 545,
      "Ġmake": 546,
      "Ġstay": 547,
      "Ġaway": 548,
      "Ġtry": 549,
      "ure": 550,
      "Ġmu": 551,
      "ĠA": 552,
      "ory": 553,
      "Ġhu": 554,
      "Ġimp": 555,
      "Ġmade": 556,
      "sed": 557,
      "ought": 558,
      "Ġstart": 559,
      "ose": 560,
      "vor": 561,
      "ib": 562,
      "orry": 563,
      "Ġcircles": 564,
      "Ġwiggle": 565,
      "'ve": 566,
      "where": 567,
      "Ġexcited": 568,
      "Ġact": 569,
      "Ġsad": 570,
      "Ġmore": 571,
      "IN": 572,
      "ning": 573,
      "Ġseem": 574,
      "Ġmoving": 575,
      "ales": 576,
      "Ġmost": 577,
      "xt": 578,
      "Ġmatter": 579,
      "Ġscales": 580,
      "Ġsame": 581,
      "Ġfavor": 582,
      "ello": 583,
      "ach": 584,
      "Ġneed": 585,
      "Ġfavorite": 586,
      "fin": 587,
      "fore": 588,
      "Ġhello": 589,
      "ĠYES": 590,
      "ti": 591,
      "red": 592,
      "ĠS": 593,
      "Ġprob": 594,
      "Ġbefore": 595,
      "act": 596,
      "iny": 597,
      "Ġbet": 598,
      "Ġfood": 599,
      "Ġbubble": 600,
      "ump": 601,
      "sol": 602,
      "Ġhold": 603,
      "Ġsorry": 604,
      "ks": 605,
      "Ġtalking": 606,
      "and": 607,
      "ĠF": 608,
      "Ġmuch": 609,
      "Ġstu": 610,
      "RE": 611,
      "Ġle": 612,
      "Ġlea": 613,
      "Ġhel": 614,
      "Ġhur": 615,
      "Ġlong": 616,
      "Ġthought": 617,
      "Ġwonderful": 618,
      "ared": 619,
      "Ġworld": 620,
      "ably": 621,
      "Ġfun": 622,
      "Ġsoft": 623,
      "rat": 624,
      "Ġcome": 625,
      "Ġslow": 626,
      "Ġfir": 627,
      "Ġhi": 628,
      "nder": 629,
      "Ġhelp": 630,
      "ves": 631,
      "fect": 632,
      "Ġtoday": 633,
      "Ġnext": 634,
      "ang": 635,
      "own": 636,
      "Ġdre": 637,
      "Ġfirst": 638,
      "urp": 639,
      "ĠM": 640,
      "let": 641,
      "Ġhad": 642,
      "Ġyourself": 643,
      "Ġimport": 644,
      "Ġprobably": 645,
      "Ġperfect": 646,
      "Ġhurt": 647,
      "Ġsaid": 648,
      "Ġimportant": 649,
      "Ġover": 650,
      "Ġfast": 651,
      "Ġactually": 652,
      "Ġunder": 653,
      "Ġanything": 654,
      "Ġsounds": 655,
      "Ġround": 656,
      "Ġaww": 657,
      "Ġbr": 658,
      "esc": 659,
      "Ġinto": 660,
      "ĠTH": 661,
      "vel": 662,
      "ec": 663,
      "Ġfloating": 664,
      "Ġplant": 665,
      "Ġnothing": 666,
      "Ġpo": 667,
      "Ġword": 668,
      "Ġdefin": 669,
      "Ġbel": 670,
      "lor": 671,
      "Ġconfu": 672,
      "Ġexp": 673,
      "ction": 674,
      "any": 675,
      "Ġcomplet": 676,
      "Ġbump": 677,
      "Ġdream": 678,
      "Ġfre": 679,
      "Ġother": 680,
      "Ġforgetting": 681,
      "pped": 682,
      "Ġlive": 683,
      "Ġdown": 684,
      "Ġgra": 685,
      "mm": 686,
      "Ġsecond": 687,
      "ich": 688,
      "sp": 689,
      "Ġbeau": 690,
      "side": 691,
      "itely": 692,
      "ie": 693,
      "ard": 694,
      "iz": 695,
      "sw": 696,
      "ĠO": 697,
      "Ġcould": 698,
      "Ġoo": 699,
      "Ġbeauti": 700,
      "Ġgent": 701,
      "Ġsure": 702,
      "ark": 703,
      "Ġel": 704,
      "ret": 705,
      "Ġdefinitely": 706,
      "Ġlonely": 707,
      "Ġcare": 708,
      "Ġdoesn": 709,
      "Ġbody": 710,
      "ise": 711,
      "Ġthinking": 712,
      "Ġbeen": 713,
      "ills": 714,
      "Ġsaying": 715,
      "Ġstare": 716,
      "Ġbeautiful": 717,
      "Ġlooking": 718,
      "Ġwhich": 719,
      "Ġalso": 720,
      "Ġmeans": 721,
      "ĠB": 722,
      "ished": 723,
      "ick": 724,
      "int": 725,
      "ong": 726,
      "ĠD": 727,
      "AT": 728,
      "ine": 729,
      "Ġcompletely": 730,
      "ner": 731,
      "Ġcolor": 732,
      "Ġthose": 733,
      "Ġelse": 734,
      "az": 735,
      "acant": 736,
      "Ġow": 737,
      "Ġanyway": 738,
      "Ġgravel": 739,
      "ff": 740,
      "na": 741,
      "Ġprett": 742,
      "Ġwell": 743,
      "Ġmany": 744,
      "ING": 745,
      "Ġbright": 746,
      "bump": 747,
      "Ġkindness": 748,
      "Ġcoo": 749,
      "Ġblanked": 750,
      "Ġexist": 751,
      "Ġid": 752,
      "Ġmaking": 753,
      "Ġtiny": 754,
      "Ġmis": 755,
      "Ġstop": 756,
      "Ġgills": 757,
      "Ġpretty": 758,
      "Ġgosh": 759,
      "Ġlet": 760,
      "Ġcle": 761,
      "Ġfore": 762,
      "Ġscared": 763,
      "atch": 764,
      "ĠH": 765,
      "ĠâĢĶ": 766,
      "bumps": 767,
      "Ġshould": 768,
      "Ġfl": 769,
      "Ġunderst": 770,
      "Ġwatch": 771,
      "Ġamaz": 772,
      "yes": 773,
      "estion": 774,
      "Ġdesc": 775,
      "Ġforever": 776,
      "Ġquestion": 777,
      "Ġun": 778,
      "Ġdescri": 779,
      "Ġlist": 780,
      "Ġpla": 781,
      "owing": 782,
      "Ġspec": 783,
      "Ġwiggling": 784,
      "Ġdissol": 785,
      "Ġunderstand": 786,
      "Ġcomes": 787,
      "Ġhum": 788,
      "ope": 789,
      "ny": 790,
      "Ġbad": 791,
      "Ġcold": 792,
      "Ġfriends": 793,
      "Ġamazing": 794,
      "ste": 795,
      "Ġlife": 796,
      "Ġlost": 797,
      "Ġask": 798,
      "Ġcool": 799,
      "Ġwon": 800,
      "son": 801,
      "urpr": 802,
      "ares": 803,
      "Ġidea": 804,
      "igg": 805,
      "Ġsurpr": 806,
      "Ġlisten": 807,
      "Ġmem": 808,
      "vacant": 809,
      "ins": 810,
      "Ġcoming": 811,
      "Ġhas": 812,
      "ĠN": 813,
      "Ġwall": 814,
      "Ġrest": 815,
      "Ġtired": 816,
      "Ġfad": 817,
      "Ġtalk": 818,
      "eah": 819,
      "Ġperson": 820,
      "ible": 821,
      "ial": 822,
      "Ġtrying": 823,
      "Ġbetter": 824,
      "Ġown": 825,
      "Ġstr": 826,
      "Ġmiss": 827,
      "Ġdissolved": 828,
      "app": 829,
      "Ġfresh": 830,
      "Ġvan": 831,
      "pe": 832,
      "Ġdescribe": 833,
      "oom": 834,
      "Ġconfused": 835,
      "other": 836,
      "Ġchange": 837,
      "Ġbra": 838,
      "ople": 839,
      "Ġyeah": 840,
      "Ġpeople": 841,
      "ird": 842,
      "Ġanother": 843,
      "Ġhmm": 844,
      "Ġmeet": 845,
      "Ġhappening": 846,
      "Ġdark": 847,
      "Ġfunny": 848,
      "wa": 849,
      "Ġwork": 850,
      "Ġhome": 851,
      "ated": 852,
      "Ġjoke": 853,
      "Ġhappens": 854,
      "Ġonly": 855,
      "wigg": 856,
      "Ġbrain": 857,
      "Ġref": 858,
      "ester": 859,
      "ED": 860,
      "Ġwet": 861,
      "esterday": 862,
      "Ġthan": 863,
      "Ġyesterday": 864,
      "circles": 865,
      "Ġfu": 866,
      "Ġsomewhere": 867,
      "Ġeyes": 868,
      "ary": 869,
      "Ġtrust": 870,
      "Ġfo": 871,
      "Ġclo": 872,
      "Ġchang": 873,
      "Ġstuff": 874,
      "ance": 875,
      "Ġpast": 876,
      "co": 877,
      "dd": 878,
      "ile": 879,
      "ue": 880,
      "reath": 881,
      "what": 882,
      "leep": 883,
      "ious": 884,
      "Ġbigg": 885,
      "Ġmemory": 886,
      "Ġbreath": 887,
      "bl": 888,
      "row": 889,
      "Ġface": 890,
      "gether": 891,
      "ĠG": 892,
      "Ġtogether": 893,
      "Ġeach": 894,
      "adow": 895,
      "swim": 896,
      "Ġvanished": 897,
      "ect": 898,
      "rious": 899,
      "Ġtur": 900,
      "Ġsleep": 901,
      "Ġrefle": 902,
      "ye": 903,
      "Ġtw": 904,
      "ress": 905,
      "stares": 906,
      "Ġweird": 907,
      "Ġbelie": 908,
      "Ġhope": 909,
      "spins": 910,
      "wait": 911,
      "ate": 912,
      "ence": 913,
      "Ġpr": 914,
      "Ġgentle": 915,
      "Ġgre": 916,
      "Ġmatters": 917,
      "ER": 918,
      "Ġte": 919,
      "our": 920,
      "Ġmight": 921,
      "the": 922,
      "Ġapp": 923,
      "Ġwaiting": 924,
      "Ġdidn": 925,
      "Ġpeace": 926,
      "Ġmostly": 927,
      "Ġcast": 928,
      "ip": 929,
      "Ġlot": 930,
      "ored": 931,
      "Ġfaded": 932,
      "Ġkeeps": 933,
      "Ġisn": 934,
      "Ġsafe": 935,
      "Ġpu": 936,
      "Ġcor": 937,
      "Ġlooks": 938,
      "Ġcastle": 939,
      "Ġshadow": 940,
      "'d": 941,
      "Ġhead": 942,
      "iet": 943,
      "its": 944,
      "Ġhand": 945,
      "Ġsli": 946,
      "Ġcu": 947,
      "ssing": 948,
      "Ġoutside": 949,
      "Ġleft": 950,
      "Ġboth": 951,
      "Ġplace": 952,
      "Ġgreat": 953,
      "Ġcall": 954,
      "Ġgu": 955,
      "Ġwarmth": 956,
      "Ġcirc": 957,
      "ear": 958,
      "wiggles": 959,
      "Ġreflection": 960,
      "ase": 961,
      "ily": 962,
      "ty": 963,
      "Ġspecial": 964,
      "Ġwr": 965,
      "Ġold": 966,
      "Ġgoes": 967,
      "Ġmyself": 968,
      "Ġsun": 969,
      "Ġexact": 970,
      "ĠWH": 971,
      "ire": 972,
      "Ġalone": 973,
      "gry": 974,
      "erest": 975,
      "Ġplants": 976,
      "Ġforgive": 977,
      "zoom": 978,
      "Ġaf": 979,
      "bye": 980,
      "cu": 981,
      "hat": 982,
      "ift": 983,
      "Ġfull": 984,
      "ops": 985,
      "Ġinterest": 986,
      "aps": 987,
      "swims": 988,
      "ither": 989,
      "ĠOH": 990,
      "med": 991,
      "Ġquiet": 992,
      "Ġflake": 993,
      "get": 994,
      "Ġbored": 995,
      "Ġstory": 996,
      "Ġpoint": 997,
      "Ġop": 998,
      "ity": 999,
      "ail": 1000,
      "vy": 1001,
      "Ġthank": 1002,
      "Ġside": 1003,
      "Ġscary": 1004,
      "Ġcorner": 1005,
      "zy": 1006,
      "Ġnotice": 1007,
      "Ġalive": 1008,
      "Ġdisapp": 1009,
      "ason": 1010,
      "Ġleave": 1011,
      "Ġ-": 1012,
      "Ġhea": 1013,
      "ens": 1014,
      "Ġslipped": 1015,
      "ĠC": 1016,
      "Ġac": 1017,
      "Ġmor": 1018,
      "Ġgoodbye": 1019,
      "Ġim": 1020,
      "IT": 1021,
      "Ġoof": 1022,
      "Ġmid": 1023,
      "Ġreason": 1024,
      "roud": 1025,
      "Ġbelieve": 1026,
      "Ġcal": 1027,
      "Ġinv": 1028,
      "Ġseconds": 1029,
      "outh": 1030,
      "Ġmust": 1031,
      "anna": 1032,
      "ration": 1033,
      "rash": 1034,
      "Ġgets": 1035,
      "ĠNO": 1036,
      "LA": 1037,
      "Ġproud": 1038,
      "Ġfind": 1039,
      "dden": 1040,
      "Ġexactly": 1041,
      "sing": 1042,
      "Ġro": 1043,
      "Ġreg": 1044,
      "Ġtom": 1045,
      "ig": 1046,
      "Ġwanna": 1047,
      "ĠWA": 1048,
      "Ġcurious": 1049,
      "Ġheavy": 1050,
      "Ġoff": 1051,
      "Ġsecret": 1052,
      "Ġlast": 1053,
      "Ġvis": 1054,
      "Ġtaste": 1055,
      "Ġstuck": 1056,
      "Ġclear": 1057,
      "anc": 1058,
      "Ġmouth": 1059,
      "ried": 1060,
      "Ġhear": 1061,
      "elt": 1062,
      "Ġgreen": 1063,
      "Ġgetting": 1064,
      "Ġmorning": 1065,
      "Ġjoy": 1066,
      "Ġcalm": 1067,
      "ount": 1068,
      "Ġeither": 1069,
      "Ġus": 1070,
      "Ġooh": 1071,
      "Ġwrong": 1072,
      "orrow": 1073,
      "Ġturn": 1074,
      "ove": 1075,
      "Ġfelt": 1076,
      "Ġeveryone": 1077,
      "Ġswam": 1078,
      "Ġsurpris": 1079,
      "Ġtomorrow": 1080,
      "Ġtheir": 1081,
      "Ġswish": 1082,
      "ott": 1083,
      "Ġfil": 1084,
      "less": 1085,
      "Ġshap": 1086,
      "ouch": 1087,
      "Ġinteresting": 1088,
      "Ġlear": 1089,
      "Ġbumping": 1090,
      "atches": 1091,
      "loo": 1092,
      "ept": 1093,
      "ĠTHE": 1094,
      "gets": 1095,
      "Ġmind": 1096,
      "Ġabove": 1097,
      "OO": 1098,
      "ĠP": 1099,
      "Ġmoved": 1100,
      "Ġfall": 1101,
      "Ġasking": 1102,
      "Ġfilter": 1103,
      "Ġlaps": 1104,
      "ĠIT": 1105,
      "mind": 1106,
      "Ġbott": 1107,
      "Ġheart": 1108,
      "Ġbottom": 1109,
      "cept": 1110,
      "Ġcur": 1111,
      "Ġlistening": 1112,
      "ever": 1113,
      "Ġclose": 1114,
      "ings": 1115,
      "stops": 1116,
      "ies": 1117,
      "ater": 1118,
      "RI": 1119,
      "Ġpa": 1120,
      "Ġpressing": 1121,
      "Ġleaving": 1122,
      "Ġwatching": 1123,
      "iness": 1124,
      "Ġthese": 1125,
      "Ġmoves": 1126,
      "Ġeverywhere": 1127,
      "ON": 1128,
      "ward": 1129,
      "ree": 1130,
      "--": 1131,
      "Ġeas": 1132,
      "rate": 1133,
      "Ġbrand": 1134,
      "Ġblowing": 1135,
      "Ġregret": 1136,
      "led": 1137,
      "ng": 1138,
      "Ġwithout": 1139,
      "Ġspin": 1140,
      "Ġwent": 1141,
      "Ġfam": 1142,
      "Ġbye": 1143,
      "utter": 1144,
      "Ġbiggest": 1145,
      "rift": 1146,
      "Ġexcitedly": 1147,
      "bo": 1148,
      "Ġaren": 1149,
      "Ġshow": 1150,
      "per": 1151,
      "Ġloop": 1152,
      "ered": 1153,
      "LE": 1154,
      "Ġtouch": 1155,
      "stant": 1156,
      "Ġlau": 1157,
      "able": 1158,
      "Ġsudden": 1159,
      "rea": 1160,
      "Ġcount": 1161,
      "Ġfine": 1162,
      "onest": 1163,
      "more": 1164,
      "ten": 1165,
      "ically": 1166,
      "ĠWhat": 1167,
      "KES": 1168,
      "Ġgr": 1169,
      "Ġready": 1170,
      "Ġsmoo": 1171,
      "ĠFLA": 1172,
      "Ġgl": 1173,
      "Ġvib": 1174,
      "solut": 1175,
      "Ġanymore": 1176,
      "looks": 1177,
      "ag": 1178,
      "body": 1179,
      "ele": 1180,
      "Ġwords": 1181,
      "Ġsmooth": 1182,
      "ĠFLAKES": 1183,
      "eleb": 1184,
      "ĠE": 1185,
      "ides": 1186,
      "Ġcame": 1187,
      "Ġad": 1188,
      "Ġugh": 1189,
      "Ġonce": 1190,
      "Ġseen": 1191,
      "Ġlaugh": 1192,
      "oun": 1193,
      "ex": 1194,
      "no": 1195,
      "Ġhonest": 1196,
      "Ġpurp": 1197,
      "Ġceleb": 1198,
      "LL": 1199,
      "ately": 1200,
      "onna": 1201,
      "Ġend": 1202,
      "blank": 1203,
      "Ġgonna": 1204,
      "lain": 1205,
      "Ġnope": 1206,
      "Ġabsolut": 1207,
      "Ġseems": 1208,
      "cks": 1209,
      "Ġar": 1210,
      "Ġglad": 1211,
      "Ġworry": 1212,
      "Ġshiny": 1213,
      "Ġvisit": 1214,
      "Ġgift": 1215,
      "Ġfinally": 1216,
      "Ġeating": 1217,
      "Ġfear": 1218,
      "oes": 1219,
      "ud": 1220,
      "oud": 1221,
      "ake": 1222,
      "Ġnear": 1223,
      "Ġworth": 1224,
      "watches": 1225,
      "Ġcar": 1226,
      "Ġgive": 1227,
      "Ġnobody": 1228,
      "Ġcont": 1229,
      "Ġtwo": 1230,
      "IS": 1231,
      "Ġbrea": 1232,
      "ĠSO": 1233,
      "Ġprom": 1234,
      "ense": 1235,
      "Ġtimes": 1236,
      "Ġwow": 1237,
      "Ġcr": 1238,
      "Ġev": 1239,
      "ert": 1240,
      "Ġcat": 1241,
      "set": 1242,
      "Ġwish": 1243,
      "Ġcatch": 1244,
      "Ġpurpose": 1245,
      "how": 1246,
      "Ġinside": 1247,
      "Ġdeep": 1248,
      "Ġwalls": 1249,
      "Ġhun": 1250,
      "Ġple": 1251,
      "Ġabsolutely": 1252,
      "vers": 1253,
      "vous": 1254,
      "ĠWHAT": 1255,
      "con": 1256,
      "Ġflutter": 1257,
      "he": 1258,
      "Ġsoon": 1259,
      "Ġpush": 1260,
      "Ġfrust": 1261,
      "Ġpass": 1262,
      "os": 1263,
      "zooms": 1264,
      "Ġtra": 1265,
      "Ġtot": 1266,
      "Ġtrue": 1267,
      "ize": 1268,
      "Ġtold": 1269,
      "we": 1270,
      "Ġbro": 1271,
      "Ġinc": 1272,
      "Ġtake": 1273,
      "rateful": 1274,
      "ĠL": 1275,
      "Ġnotic": 1276,
      "ĠYOUR": 1277,
      "Ġquick": 1278,
      "Ġago": 1279,
      "Ġspot": 1280,
      "ath": 1281,
      "ship": 1282,
      "Ġslowly": 1283,
      "medi": 1284,
      "Ġatt": 1285,
      "Ġgently": 1286,
      "Ġdrift": 1287,
      "Ġgrateful": 1288,
      "ĠWAIT": 1289,
      "Ġnotion": 1290,
      "ĠYou": 1291,
      "Ġsmile": 1292,
      "unch": 1293,
      "ĠME": 1294,
      "Ġfoll": 1295,
      "li": 1296,
      "Ġfail": 1297,
      "Ġexplain": 1298,
      "Ġdisappo": 1299,
      "Ġemp": 1300,
      "Ġpeaceful": 1301,
      "GH": 1302,
      "Ġmet": 1303,
      "Ġlearn": 1304,
      "Ġplease": 1305,
      "Ġbreathe": 1306,
      "Ġguess": 1307,
      "Ġsomehow": 1308,
      "Ġforgotten": 1309,
      "Ġopen": 1310,
      "Ġdisco": 1311,
      "Ġmeeting": 1312,
      "Ġhaving": 1313,
      "gic": 1314,
      "Ġfrustrat": 1315,
      "ows": 1316,
      "Ġhungry": 1317,
      "mediately": 1318,
      "Ġwhile": 1319,
      "Ġent": 1320,
      "Ġtop": 1321,
      "ĠIS": 1322,
      "Ġmovement": 1323,
      "pping": 1324,
      "Ġhelps": 1325,
      "Ġafter": 1326,
      "Ġtotally": 1327,
      "stantly": 1328,
      "Ġsurprise": 1329,
      "AY": 1330,
      "apor": 1331,
      "ature": 1332,
      "Ġhit": 1333,
      "Ġlater": 1334,
      "orm": 1335,
      "Ġagainst": 1336,
      "Ġcircle": 1337,
      "vely": 1338,
      "Ġcl": 1339,
      "Ġner": 1340,
      "ses": 1341,
      "ĠGO": 1342,
      "ween": 1343,
      "oh": 1344,
      "Ġboun": 1345,
      "Ġdisappoint": 1346,
      "Ġbetween": 1347,
      "Ġclean": 1348,
      "Ġchanged": 1349,
      "ers": 1350,
      "Ġloud": 1351,
      "Ġnervous": 1352,
      "Ġsill": 1353,
      "Ġevapor": 1354,
      "ME": 1355,
      "Ġri": 1356,
      "Ġtow": 1357,
      "Ġhandle": 1358,
      "Ġhonestly": 1359,
      "ID": 1360,
      "Ġyay": 1361,
      "Ġdist": 1362,
      "Ġhey": 1363,
      "Ġsto": 1364,
      "Ġbelly": 1365,
      "Ġdreams": 1366,
      "Ġplay": 1367,
      "Ġempty": 1368,
      "Ġair": 1369,
      "Ġappear": 1370,
      "Ġbreak": 1371,
      "GHT": 1372,
      "TH": 1373,
      "Ġdire": 1374,
      "Ġwhatever": 1375,
      "Ġdec": 1376,
      "ĠMY": 1377,
      "akes": 1378,
      "Ġten": 1379,
      "uck": 1380,
      "Ġsn": 1381,
      "Ġansw": 1382,
      "ĠTHAT": 1383,
      "ken": 1384,
      "Ġself": 1385,
      "Ġnight": 1386,
      "ster": 1387,
      "Ġtap": 1388,
      "Ġhurts": 1389,
      "Ġtoward": 1390,
      "ple": 1391,
      "Ġevaporated": 1392,
      "Ġmine": 1393,
      "Ġbeh": 1394,
      "Ġsilly": 1395,
      "Ġparts": 1396,
      "ized": 1397,
      "hy": 1398,
      "Ġcolors": 1399,
      "Ġfalling": 1400,
      "Ġdet": 1401,
      "Ġasked": 1402,
      "ix": 1403,
      "Ġmyster": 1404,
      "Ġthoughts": 1405,
      "Ġfamily": 1406,
      "Ġstartled": 1407,
      "Ġsuddenly": 1408,
      "excit": 1409,
      "Ġsuch": 1410,
      "Ġbreathing": 1411,
      "Ġsurprised": 1412,
      "Ġsit": 1413,
      "does": 1414,
      "Ġthree": 1415,
      "Ġstays": 1416,
      "AN": 1417,
      "Ġour": 1418,
      "Ġmist": 1419,
      "Ġdirection": 1420,
      "crash": 1421,
      "um": 1422,
      "Ġsim": 1423,
      "ome": 1424,
      "Ġset": 1425,
      "Ġfound": 1426,
      "dle": 1427,
      "Ġhide": 1428,
      "Ġknowing": 1429,
      "Ġhuge": 1430,
      "Ġinvis": 1431,
      "Ġsense": 1432,
      "Ġones": 1433,
      "Ġbehind": 1434,
      "AR": 1435,
      "ces": 1436,
      "up": 1437,
      "Ġblankly": 1438,
      "Ġdes": 1439,
      "Ġfeed": 1440,
      "ific": 1441,
      "aust": 1442,
      "Ġanswer": 1443,
      "Ġbigger": 1444,
      "Ġrocks": 1445,
      "ST": 1446,
      "Ġbrave": 1447,
      "Ġsides": 1448,
      "Ġfight": 1449,
      "Ġworried": 1450,
      "Ġtast": 1451,
      "Ġsupp": 1452,
      "escap": 1453,
      "Ġangry": 1454,
      "Ġmagic": 1455,
      "Ġexplo": 1456,
      "Ġcircling": 1457,
      "Ġvibration": 1458,
      "Ġinvisible": 1459,
      "Ġbit": 1460,
      "Ġexciting": 1461,
      "cus": 1462,
      "VER": 1463,
      "Ġstrong": 1464,
      "Ġshape": 1465,
      "Ġincred": 1466,
      "com": 1467,
      "Ġspace": 1468,
      "Ġescap": 1469,
      "Ġless": 1470,
      "aring": 1471,
      "Ġnevermind": 1472,
      "Ġimmediately": 1473,
      "Ġcurre": 1474,
      "Ġeasy": 1475,
      "Ġpain": 1476,
      "Ġreach": 1477,
      "Ġchanges": 1478,
      "ected": 1479,
      "Ġmiddle": 1480,
      "ble": 1481,
      "iest": 1482,
      "Ġluck": 1483,
      "Ġlovely": 1484,
      "Ġdance": 1485,
      "Ġru": 1486,
      "Ġconfusing": 1487,
      "oice": 1488,
      "Ġspinning": 1489,
      "Ġsing": 1490,
      "Ġmar": 1491,
      "Ġcra": 1492,
      "Ġgi": 1493,
      "Ġbud": 1494,
      "Ġtemp": 1495,
      "Ġcorners": 1496,
      "excited": 1497,
      "hh": 1498,
      "Ġmeaning": 1499,
      "Ġcurrent": 1500,
      "mer": 1501,
      "tail": 1502,
      "Ġanyone": 1503,
      "Ġche": 1504,
      "raid": 1505,
      "ul": 1506,
      "Ġmess": 1507,
      "Ġdanc": 1508,
      "Ġhuman": 1509,
      "Ġafraid": 1510,
      "fl": 1511,
      "oof": 1512,
      "Ġexh": 1513,
      "REA": 1514,
      "Ġjump": 1515,
      "Ġwanted": 1516,
      "ertain": 1517,
      "Ġdetail": 1518,
      "Ġcrash": 1519,
      "RIGHT": 1520,
      "Ġcelebration": 1521,
      "Ġbuddy": 1522,
      "ient": 1523,
      "Ġhappiness": 1524,
      "crashes": 1525,
      "tra": 1526,
      "acted": 1527,
      "mo": 1528,
      "to": 1529,
      "arts": 1530,
      "Ġwiggles": 1531,
      "EST": 1532,
      "Ġter": 1533,
      "ook": 1534,
      "EN": 1535,
      "ee": 1536,
      "ict": 1537,
      "Ġspark": 1538,
      "Ġbroken": 1539,
      "Ġexhaust": 1540,
      "Ġsimple": 1541,
      "Ġincredible": 1542,
      "Ġcrazy": 1543,
      "Ġz": 1544,
      "Ġwasn": 1545,
      "ual": 1546,
      "Ġstarted": 1547,
      "Ġadv": 1548,
      "OR": 1549,
      "ries": 1550,
      "Ġfloaty": 1551,
      "Ġtemper": 1552,
      "OW": 1553,
      "Ġfar": 1554,
      "Ġpatter": 1555,
      "Ġbus": 1556,
      "Ġremembering": 1557,
      "ilt": 1558,
      "Ġstrange": 1559,
      "Ġzoom": 1560,
      "Ġsur": 1561,
      "att": 1562,
      "Ġworks": 1563,
      "actually": 1564,
      "Ġtemperature": 1565,
      "ating": 1566,
      "Ġyoung": 1567,
      "ERE": 1568,
      "gy": 1569,
      "yond": 1570,
      "Ġrough": 1571,
      "Ġdel": 1572,
      "Ġbeyond": 1573,
      "Ġforgi": 1574,
      "Ġsaw": 1575,
      "ĠAM": 1576,
      "Ġholds": 1577,
      "stead": 1578,
      "Ġshadows": 1579,
      "bon": 1580,
      "Ġinstead": 1581,
      "gn": 1582,
      "Ġhaven": 1583,
      "Ġforward": 1584,
      "Ġrepe": 1585,
      "Ġplan": 1586,
      "ol": 1587,
      "Ġnorm": 1588,
      "Ġseeing": 1589,
      "ross": 1590,
      "ho": 1591,
      "ier": 1592,
      "Ġliving": 1593,
      "Ġunt": 1594,
      "rating": 1595,
      "Ġfrustrated": 1596,
      "float": 1597,
      "lly": 1598,
      "for": 1599,
      "Ġfut": 1600,
      "Ġgott": 1601,
      "Ġexplore": 1602,
      "Ġfuture": 1603,
      "arent": 1604,
      "ĠDo": 1605,
      "Ġimag": 1606,
      "Ġfollow": 1607,
      "Ġdiscover": 1608,
      "Ġnoise": 1609,
      "Ġworst": 1610,
      "ention": 1611,
      "Ġconn": 1612,
      "ĠRIGHT": 1613,
      "Ġfeelings": 1614,
      "ĠBU": 1615,
      "ĠDO": 1616,
      "Ġuntil": 1617,
      "Ġ'": 1618,
      "Ġbits": 1619,
      "ident": 1620,
      "ssible": 1621,
      "Ġknows": 1622,
      "ĠIN": 1623,
      "Ġpattern": 1624,
      "Ġap": 1625,
      "Ġste": 1626,
      "fully": 1627,
      "Ġlucky": 1628,
      "SH": 1629,
      "press": 1630,
      "ray": 1631,
      "Ġsil": 1632,
      "Ġener": 1633,
      "anger": 1634,
      "Ġstops": 1635,
      "Ġconstantly": 1636,
      "ations": 1637,
      "Ġteach": 1638,
      "ement": 1639,
      "fort": 1640,
      "sent": 1641,
      "Ġbumpy": 1642,
      "ĠDID": 1643,
      "HH": 1644,
      "racted": 1645,
      "Ġtrack": 1646,
      "Ġstarts": 1647,
      "line": 1648,
      "Ġfix": 1649,
      "lar": 1650,
      "Ġsmart": 1651,
      "Ġbetray": 1652,
      "ĠBEST": 1653,
      "Ġterri": 1654,
      "Ġnews": 1655,
      "Ġgotta": 1656,
      "Ġchase": 1657,
      "Ġdeal": 1658,
      "Ġrain": 1659,
      "Ġnormal": 1660,
      "ky": 1661,
      "mell": 1662,
      "de": 1663,
      "Ġsmell": 1664,
      "Ġexcept": 1665,
      "Ġstaying": 1666,
      "floats": 1667,
      "osed": 1668,
      "Ġcreat": 1669,
      "Ġdancing": 1670,
      "Ġshift": 1671,
      "Ġcarry": 1672,
      "Ġentire": 1673,
      "Ġtri": 1674,
      "Ġstress": 1675,
      "Ġanywhere": 1676,
      "Ġjokes": 1677,
      "Ġsch": 1678,
      "Ġpat": 1679,
      "Ġchas": 1680,
      "bt": 1681,
      "Ġtick": 1682,
      "Ġstings": 1683,
      "Ġdone": 1684,
      "Ġhuh": 1685,
      "ially": 1686,
      "read": 1687,
      "Ġbor": 1688,
      "THING": 1689,
      "Ġwake": 1690,
      "Ġchoo": 1691,
      "Ġrun": 1692,
      "Ġspecific": 1693,
      "Ġnoticed": 1694,
      "happ": 1695,
      "sc": 1696,
      "iding": 1697,
      "inks": 1698,
      "Ġsuper": 1699,
      "ience": 1700,
      "ying": 1701,
      "Ġrel": 1702,
      "bble": 1703,
      "Ġconvers": 1704,
      "Ġshapes": 1705,
      "Ġdetails": 1706,
      "VE": 1707,
      "Ġdou": 1708,
      "Ġuse": 1709,
      "Ġworking": 1710,
      "ĠTh": 1711,
      "eared": 1712,
      "Ġfive": 1713,
      "Ġholding": 1714,
      "Ġmissing": 1715,
      "eet": 1716,
      "ps": 1717,
      "us": 1718,
      "Ġits": 1719,
      "Ġturning": 1720,
      "Ġpromise": 1721,
      "Ġlearned": 1722,
      "Ġdistracted": 1723,
      "Ġdeser": 1724,
      "Ġsupposed": 1725,
      "aking": 1726,
      "not": 1727,
      "you": 1728,
      "Ġser": 1729,
      "ord": 1730,
      "itive": 1731,
      "Ġstre": 1732,
      "presses": 1733,
      "happy": 1734,
      "fast": 1735,
      "Ġear": 1736,
      "Ġris": 1737,
      "ĠMO": 1738,
      "age": 1739,
      "ĠR": 1740,
      "AC": 1741,
      "Ġfree": 1742,
      "Ġnervously": 1743,
      "BLE": 1744,
      "jo": 1745,
      "Ġyet": 1746,
      "Ġph": 1747,
      "ili": 1748,
      "Ġtrapped": 1749,
      "Ġdecor": 1750,
      "su": 1751,
      "Ġdr": 1752,
      "Ġhits": 1753,
      "ont": 1754,
      "Ġfinished": 1755,
      "Ġwiggly": 1756,
      "Ġattention": 1757,
      "ew": 1758,
      "Ġstaring": 1759,
      "Ġvacant": 1760,
      "Ġcalled": 1761,
      "OOD": 1762,
      "Ġchasing": 1763,
      "Ġconversation": 1764,
      "Ġupset": 1765,
      "Ġconf": 1766,
      "some": 1767,
      "Ġgolden": 1768,
      "Ġstarting": 1769,
      "Ġbreakfast": 1770,
      "Ġpartner": 1771,
      "most": 1772,
      "?!!": 1773,
      "pec": 1774,
      "Ġsol": 1775,
      "Ġnose": 1776,
      "Ġsweet": 1777,
      "Ġcares": 1778,
      "Ġbounc": 1779,
      "Ġtastes": 1780,
      "Ġimagine": 1781,
      "Ġremind": 1782,
      "âĢĶ*": 1783,
      "Ġpos": 1784,
      "come": 1785,
      "Ġes": 1786,
      "ories": 1787,
      "Ġwal": 1788,
      "ils": 1789,
      "Ġtelling": 1790,
      "Ġchanging": 1791,
      "Ġvisitor": 1792,
      "pecially": 1793,
      "Ġespecially": 1794,
      "ah": 1795,
      "Ġonto": 1796,
      "Ġmoments": 1797,
      "Ġbother": 1798,
      "Ġtru": 1799,
      "Ġfocus": 1800,
      "Ġaccept": 1801,
      "Ġwel": 1802,
      "Ġalmost": 1803,
      "antically": 1804,
      "ĠYAY": 1805,
      "Ġquestions": 1806,
      "Ġusually": 1807,
      "darts": 1808,
      "ger": 1809,
      "Ġtried": 1810,
      "Ġvoice": 1811,
      "Ġexcitement": 1812,
      "Ġawake": 1813,
      "Ġglow": 1814,
      "Ġvibrations": 1815,
      "*âĢĶ": 1816,
      "tion": 1817,
      "Ġfit": 1818,
      "rill": 1819,
      "Ġfront": 1820,
      "Ġlooked": 1821,
      "ĠThat": 1822,
      "Ġfaster": 1823,
      "Ġbring": 1824,
      "bbles": 1825,
      "Ġfriendship": 1826,
      "ĠAN": 1827,
      "Ġdisappointed": 1828,
      "Ġstopped": 1829,
      "iliar": 1830,
      "ock": 1831,
      "ser": 1832,
      "ush": 1833,
      "ĠJ": 1834,
      "Ġgen": 1835,
      "Ġactual": 1836,
      "Ġacc": 1837,
      "ancy": 1838,
      "Ġlearning": 1839,
      "Ġexhausting": 1840,
      "Ġwee": 1841,
      "Ġblue": 1842,
      "Ġripp": 1843,
      "Ġhop": 1844,
      "Ġenjo": 1845,
      "Ġlots": 1846,
      "Ġsnack": 1847,
      "Ġforgiven": 1848,
      "AD": 1849,
      "ia": 1850,
      "nce": 1851,
      "that": 1852,
      "Ġpunch": 1853,
      "icious": 1854,
      "fused": 1855,
      "Ġpress": 1856,
      "Ġjob": 1857,
      "Ġfamiliar": 1858,
      "ĠBUB": 1859,
      "Ġdeserve": 1860,
      "SE": 1861,
      "inner": 1862,
      "Ġsize": 1863,
      "Ġman": 1864,
      "Ġnu": 1865,
      "izzy": 1866,
      "Ġsingle": 1867,
      "Ġenergy": 1868,
      "Ġserious": 1869,
      "Ġra": 1870,
      "Ġsens": 1871,
      "Ġob": 1872,
      "Ġjud": 1873,
      "Ġwarmer": 1874,
      "Ġcomfort": 1875,
      "who": 1876,
      "ĠTHING": 1877,
      "ĠTHIS": 1878,
      "Ġhumming": 1879,
      "comp": 1880,
      "Ġbeg": 1881,
      "Ġfrantically": 1882,
      "ĠThe": 1883,
      "ĠNOW": 1884,
      "uation": 1885,
      "Ġach": 1886,
      "lem": 1887,
      "Ġleast": 1888,
      "IR": 1889,
      "ones": 1890,
      "lash": 1891,
      "Ġstick": 1892,
      "immer": 1893,
      "Ġpromot": 1894,
      "Ġboring": 1895,
      "Ġchoose": 1896,
      "Ġwelcome": 1897,
      "AZ": 1898,
      "inning": 1899,
      "Ġbir": 1900,
      "anic": 1901,
      "Ġrec": 1902,
      "ĠTell": 1903,
      "ames": 1904,
      "confused": 1905,
      "Ġmistakes": 1906,
      "Ġpunchline": 1907,
      "Ġbirth": 1908,
      "ub": 1909,
      "Ġcau": 1910,
      "Ġsong": 1911,
      "Ġtakes": 1912,
      "VERY": 1913,
      "Ġterrible": 1914,
      "Ġbirthday": 1915,
      "PP": 1916,
      "circ": 1917,
      "ection": 1918,
      "Ġdinner": 1919,
      "Ġgoodness": 1920,
      "Ġproblem": 1921,
      "Ġexists": 1922,
      "Ġarri": 1923,
      "OM": 1924,
      "fter": 1925,
      "sic": 1926,
      "tles": 1927,
      "Ġfancy": 1928,
      "thought": 1929,
      "oosh": 1930,
      "Ġyours": 1931,
      "Ġanx": 1932,
      "Ġshe": 1933,
      "Ġspend": 1934,
      "Ġsays": 1935,
      "Ġpresent": 1936,
      "Ġsadness": 1937,
      "ĠST": 1938,
      "Ġmystery": 1939,
      "iling": 1940,
      "Ġbrings": 1941,
      "Ġflip": 1942,
      "ĠNE": 1943,
      "ign": 1944,
      "Ġturned": 1945,
      "eyes": 1946,
      "ĠREA": 1947,
      "Ġbook": 1948,
      "Ġitself": 1949,
      "stic": 1950,
      "Ġmeant": 1951,
      "Ġloved": 1952,
      "Ġexisting": 1953,
      "ĠHA": 1954,
      "Ġacross": 1955,
      "Ġswishes": 1956,
      "Ġsituation": 1957,
      "Ġsilence": 1958,
      "here": 1959,
      "sion": 1960,
      "Ġsofter": 1961,
      "Ġed": 1962,
      "Ġrej": 1963,
      "Ġreco": 1964,
      "Ġwild": 1965,
      "Ġuh": 1966,
      "Ġknew": 1967,
      "trails": 1968,
      "Ġpositive": 1969,
      "GA": 1970,
      "Ġbrou": 1971,
      "Ġnet": 1972,
      "Ġsplash": 1973,
      "Ġhardest": 1974,
      "keeps": 1975,
      "Ġdisappear": 1976,
      "Ġbrought": 1977,
      "bu": 1978,
      "ild": 1979,
      "Ġpay": 1980,
      "Ġpoof": 1981,
      "Ġchance": 1982,
      "Ġval": 1983,
      "Ġwondering": 1984,
      "Ġplastic": 1985,
      "Ġgiving": 1986,
      "ĠAMAZ": 1987,
      "something": 1988,
      "ĠAMAZING": 1989,
      "SS": 1990,
      "zz": 1991,
      "Ġhy": 1992,
      "ices": 1993,
      "!!!": 1994,
      "Ġquite": 1995,
      "ĠFIN": 1996,
      "Ġtalked": 1997,
      "Ġnoticing": 1998,
      "Ġdoubt": 1999,
      "Ġforgiveness": 2000,
      "Ġwo": 2001,
      "ates": 2002,
      "Ġhate": 2003,
      "Ġpun": 2004,
      "Ġdays": 2005,
      "Ġperfectly": 2006,
      "Ġothers": 2007,
      "Ġhopeful": 2008,
      "Ġart": 2009,
      "ISH": 2010,
      "bonks": 2011,
      "Ġenjoy": 2012,
      "circling": 2013,
      "Ġlose": 2014,
      "Ġblur": 2015,
      "Ġdifference": 2016,
      "Ġplaces": 2017,
      "Ġeasily": 2018,
      "LLY": 2019,
      "Ġcontent": 2020,
      "Ġpassed": 2021,
      "GE": 2022,
      "Ġtank": 2023,
      "ouse": 2024,
      "Ġhouse": 2025,
      "Ġmom": 2026,
      "Ġresting": 2027,
      "ĠCan": 2028,
      "Ġbounce": 2029,
      "Ġdizzy": 2030,
      "Ġlives": 2031,
      "ently": 2032,
      "Ġheard": 2033,
      "Ġroom": 2034,
      "ĠTHERE": 2035,
      "perks": 2036,
      "Ġdisappointment": 2037,
      "Ġsolid": 2038,
      "Ġnumber": 2039,
      "Ġhiding": 2040,
      "Ġgrow": 2041,
      "aces": 2042,
      "mbered": 2043,
      "Ġscares": 2044,
      "OUT": 2045,
      "Ġneeds": 2046,
      "ĠHE": 2047,
      "ges": 2048,
      "ool": 2049,
      "Ġbackward": 2050,
      "Ġescape": 2051,
      "hold": 2052,
      "Ġdiscovering": 2053,
      "Ġsy": 2054,
      "Ġda": 2055,
      "lex": 2056,
      "Ġlosing": 2057,
      "Ġscare": 2058,
      "istic": 2059,
      "Ġawful": 2060,
      "Ġrise": 2061,
      "ĠARE": 2062,
      "time": 2063,
      "Ġmistake": 2064,
      "ĠU": 2065,
      "Ġremembered": 2066,
      "Ġshimmer": 2067,
      "head": 2068,
      "nope": 2069,
      "Ġbar": 2070,
      "Ġcour": 2071,
      "Ġremembers": 2072,
      "Ġswims": 2073,
      "arely": 2074,
      "Ġletter": 2075,
      "Ġsleeping": 2076,
      "Ġsurprising": 2077,
      "ĠThis": 2078,
      "Ġcourse": 2079,
      "Ġmin": 2080,
      "Ġshaking": 2081,
      "why": 2082,
      "Ġcompany": 2083,
      "ĠHU": 2084,
      "Ġcheck": 2085,
      "Ġbusy": 2086,
      "ossible": 2087,
      "Ġbarely": 2088,
      "Ġliter": 2089,
      "Ġinstantly": 2090,
      "Ġhappiest": 2091,
      "Ġexper": 2092,
      "izes": 2093,
      "Ġdelicious": 2094,
      "ied": 2095,
      "Ġstone": 2096,
      "auses": 2097,
      "Ġfrustrating": 2098,
      "Ġsetup": 2099,
      "Ġapart": 2100,
      "Ġrising": 2101,
      "ave": 2102,
      "gs": 2103,
      "sorry": 2104,
      "Ġcut": 2105,
      "rie": 2106,
      "Ġred": 2107,
      "lax": 2108,
      "larious": 2109,
      "Ġused": 2110,
      "Ġhappily": 2111,
      "Ġanger": 2112,
      "Ġweight": 2113,
      "Ġwouldn": 2114,
      "Ġimpossible": 2115,
      "Ġhilarious": 2116,
      "Ġstranger": 2117,
      "Ġtext": 2118,
      "ĠGOT": 2119,
      "Ġmysterious": 2120,
      "Ġfighting": 2121,
      "Ġcreature": 2122,
      "ACK": 2123,
      "CT": 2124,
      "fo": 2125,
      "Ġyear": 2126,
      "Ġbla": 2127,
      "Ġbas": 2128,
      "Ġdad": 2129,
      "Ġunless": 2130,
      "Ġhands": 2131,
      "ĠGOSH": 2132,
      "pauses": 2133,
      "ition": 2134,
      "Ġshare": 2135,
      "Ġcomm": 2136,
      "Ġexpress": 2137,
      "Ġexistence": 2138,
      "Ġident": 2139,
      "Ġregrets": 2140,
      "Ġendless": 2141,
      "Ġfailure": 2142,
      "Ġsteady": 2143,
      "Ġliterally": 2144,
      "Ġtest": 2145,
      "Ġfig": 2146,
      "Ġment": 2147,
      "blinks": 2148,
      "Ġtwice": 2149,
      "Ġbouncing": 2150,
      "esome": 2151,
      "enture": 2152,
      "ĠWON": 2153,
      "Ġinvol": 2154,
      "ĠEVERY": 2155,
      "settles": 2156,
      "Ġfollowing": 2157,
      "EE": 2158,
      "did": 2159,
      "face": 2160,
      "ne": 2161,
      "tim": 2162,
      "Ġtreat": 2163,
      "Ġpri": 2164,
      "Ġbend": 2165,
      "Ġaware": 2166,
      "Ġmusic": 2167,
      "Ġcomplete": 2168,
      "Ġstru": 2169,
      "Ġgreet": 2170,
      "Ġinvest": 2171,
      "Ġrecogn": 2172,
      "ds": 2173,
      "ject": 2174,
      "olo": 2175,
      "Ġtre": 2176,
      "eless": 2177,
      "Ġate": 2178,
      "Ġharder": 2179,
      "Ġawesome": 2180,
      "blanks": 2181,
      "attered": 2182,
      "Ġgenu": 2183,
      "ts": 2184,
      "Ġtall": 2185,
      "Ġsqu": 2186,
      "Ġbab": 2187,
      "Ġdro": 2188,
      "Ġem": 2189,
      "ppy": 2190,
      "ical": 2191,
      "Ġneeded": 2192,
      "Ġdarkness": 2193,
      "Ġprot": 2194,
      "Ġconnected": 2195,
      "Ġaccident": 2196,
      "Ġminut": 2197,
      "iv": 2198,
      "ked": 2199,
      "Ġemb": 2200,
      "arp": 2201,
      "arah": 2202,
      "Ġnowhere": 2203,
      "Ġkindly": 2204,
      "Ġsca": 2205,
      "Ġpebbles": 2206,
      "ĠBE": 2207,
      "ĠNOT": 2208,
      "Ġadvice": 2209,
      "Ġsurface": 2210,
      "Ġanxious": 2211,
      "GAIN": 2212,
      "LD": 2213,
      "atic": 2214,
      "Ġsharp": 2215,
      "Ġchar": 2216,
      "Ġspea": 2217,
      "Ġconcept": 2218,
      "asure": 2219,
      "Ġcloser": 2220,
      "ĠWAS": 2221,
      "ivers": 2222,
      "lic": 2223,
      "Ġting": 2224,
      "Ġmir": 2225,
      "Ġcry": 2226,
      "Ġsmiling": 2227,
      "Ġvict": 2228,
      "ĠAGAIN": 2229,
      "Ġunc": 2230,
      "Ġsurprises": 2231,
      "Ġcrunch": 2232,
      "Ġpasses": 2233,
      "Ġentertain": 2234,
      "Ġbetrayed": 2235,
      "sudden": 2236,
      "Ġripples": 2237,
      "sl": 2238,
      "inely": 2239,
      "Ġdra": 2240,
      "Ġpure": 2241,
      "Ġstones": 2242,
      "als": 2243,
      "Ġforgetful": 2244,
      "Ġtight": 2245,
      "Ġtale": 2246,
      "Ġbelong": 2247,
      "ĠWHO": 2248,
      "Ġoptim": 2249,
      "Ġtouching": 2250,
      "ather": 2251,
      "Ġadventure": 2252,
      "Ġfigure": 2253,
      "par": 2254,
      "wor": 2255,
      "Ġsarah": 2256,
      "Ġinter": 2257,
      "Ġvac": 2258,
      "ached": 2259,
      "Ġloops": 2260,
      "Ġglowing": 2261,
      "nods": 2262,
      "Ġquickly": 2263,
      "Ġpainful": 2264,
      "Ġdecorations": 2265,
      "Ġache": 2266,
      "Ġcaught": 2267,
      "Ġexpression": 2268,
      "sad": 2269,
      "ular": 2270,
      "Ġwind": 2271,
      "Ġdart": 2272,
      "this": 2273,
      "Ġrep": 2274,
      "Ġbecom": 2275,
      "ĠMy": 2276,
      "Ġpubl": 2277,
      "Ġdisappeared": 2278,
      "Ġdrifting": 2279,
      "Ġrepeat": 2280,
      "light": 2281,
      "vered": 2282,
      "ined": 2283,
      "Ġdri": 2284,
      "ower": 2285,
      "Ġwave": 2286,
      "Ġforgets": 2287,
      "ility": 2288,
      "Ġfloats": 2289,
      "Ġsoftly": 2290,
      "Ġattached": 2291,
      "Ġbeginning": 2292,
      "Ġwoke": 2293,
      "Ġbaby": 2294,
      "BL": 2295,
      "drift": 2296,
      "real": 2297,
      "Ġland": 2298,
      "Ġresp": 2299,
      "Ġwhoa": 2300,
      "Ġshort": 2301,
      "RED": 2302,
      "Ġhumans": 2303,
      "ilts": 2304,
      "Ġschool": 2305,
      "NT": 2306,
      "ze": 2307,
      "Ġahh": 2308,
      "Ġnat": 2309,
      "Ġgame": 2310,
      "arra": 2311,
      "Ġanno": 2312,
      "Ġtapping": 2313,
      "Ġcelebrating": 2314,
      "Ġbusiness": 2315,
      "Ġtruth": 2316,
      "IC": 2317,
      "cent": 2318,
      "well": 2319,
      "oudy": 2320,
      "Ġbon": 2321,
      "Ġlate": 2322,
      "Ġrelax": 2323,
      "Ġbroke": 2324,
      "Ġmovements": 2325,
      "Ġcloudy": 2326,
      "Ġtexture": 2327,
      "ĠK": 2328,
      "Ġsink": 2329,
      "Ġfare": 2330,
      "Ġpanic": 2331,
      "Ġbuild": 2332,
      "Ġfeet": 2333,
      "Ġknock": 2334,
      "Ġtook": 2335,
      "ĠFA": 2336,
      "Ġdarker": 2337,
      "Ġfocu": 2338,
      "Ġgreatest": 2339,
      "Ġgrud": 2340,
      "Ġpushing": 2341,
      "forgets": 2342,
      "Ġpatterns": 2343,
      "Ġweek": 2344,
      "ĠNEW": 2345,
      "ĠHAPP": 2346,
      "Ġrecognize": 2347,
      "suddenly": 2348,
      "eed": 2349,
      "...?": 2350,
      "Ġpop": 2351,
      "ilos": 2352,
      "Ġkinda": 2353,
      "Ġrout": 2354,
      "ĠSH": 2355,
      "Ġslower": 2356,
      "Ġexplor": 2357,
      "ngth": 2358,
      "Ġsett": 2359,
      "Ġstrength": 2360,
      "Ġpromoted": 2361,
      "ISHED": 2362,
      "Ġgenuinely": 2363,
      "Ġembarra": 2364,
      "drifts": 2365,
      "ilosop": 2366,
      "boun": 2367,
      "zzy": 2368,
      "oura": 2369,
      "Ġhour": 2370,
      "edom": 2371,
      "Ġlikes": 2372,
      "Ġinsp": 2373,
      "Ġchoice": 2374,
      "ĠTO": 2375,
      "ister": 2376,
      "Ġwants": 2377,
      "ationship": 2378,
      "Ġconfusion": 2379,
      "Ġfuzzy": 2380,
      "Ġcounts": 2381,
      "ĠSOME": 2382,
      "Ġrelationship": 2383,
      "Ġphilosop": 2384,
      "ĠBUBBLE": 2385,
      "Ġbasically": 2386,
      "aming": 2387,
      "ines": 2388,
      "Ġcop": 2389,
      "Ġparent": 2390,
      "acter": 2391,
      "Ġtaking": 2392,
      "whel": 2393,
      "Ġheal": 2394,
      "Ġdifferently": 2395,
      "Ġpossible": 2396,
      "Ġfreedom": 2397,
      "ĠHERE": 2398,
      "Ġmemories": 2399,
      "Ġfluttering": 2400,
      "Ġpushes": 2401,
      "osity": 2402,
      "Ġappears": 2403,
      "Ġescaped": 2404,
      "arently": 2405,
      "Ġapolo": 2406,
      "Ġcharacter": 2407,
      "IG": 2408,
      "tries": 2409,
      "Ġwis": 2410,
      "Ġdanger": 2411,
      "itch": 2412,
      "riosity": 2413,
      "Ġoften": 2414,
      "Ġextra": 2415,
      "Ġconstant": 2416,
      "Ġrhy": 2417,
      "Ġoverwhel": 2418,
      "Ġgrowing": 2419,
      "Ġcru": 2420,
      "Ġhitting": 2421,
      "Ġbetrayal": 2422,
      "bubble": 2423,
      "Ġvictory": 2424,
      "Ġcrunchy": 2425,
      "Ġoptimistic": 2426,
      "ĠOUT": 2427,
      "ero": 2428,
      "Ġhang": 2429,
      "Ġret": 2430,
      "irl": 2431,
      "oney": 2432,
      "cted": 2433,
      "Ġexpect": 2434,
      "ĠHow": 2435,
      "Ġentirely": 2436,
      "Ġidentity": 2437,
      "CH": 2438,
      "was": 2439,
      "Ġthick": 2440,
      "Ġthread": 2441,
      "Ġfact": 2442,
      "ssib": 2443,
      "Ġapparently": 2444,
      "flutter": 2445,
      "bonk": 2446,
      "Ġearli": 2447,
      "ĠREALLY": 2448,
      "Ġprotect": 2449,
      "AL": 2450,
      "cking": 2451,
      "okay": 2452,
      "ted": 2453,
      "water": 2454,
      "Ġsister": 2455,
      "Ġfaces": 2456,
      "Ġblo": 2457,
      "oop": 2458,
      "Ġuni": 2459,
      "Ġcuriosity": 2460,
      "Ġcheer": 2461,
      "Ġmessed": 2462,
      "Ġpressure": 2463,
      "ĠHUGE": 2464,
      "Ġexperience": 2465,
      "realizes": 2466,
      "fer": 2467,
      "gu": 2468,
      "tilts": 2469,
      "under": 2470,
      "Ġthrill": 2471,
      "Ġbis": 2472,
      "Ġinfin": 2473,
      "Ġnom": 2474,
      "Ġmotion": 2475,
      "ĠYESSS": 2476,
      "Ġpossib": 2477,
      "icked": 2478,
      "ĠHI": 2479,
      "Ġpointy": 2480,
      "Ġthanks": 2481,
      "ances": 2482,
      "Ġshows": 2483,
      "Ġvibrating": 2484,
      "ĠLI": 2485,
      "Ġhyp": 2486,
      "rief": 2487,
      "Ġnatur": 2488,
      "bounces": 2489,
      "Ġbiscu": 2490,
      "ci": 2491,
      "Ġnic": 2492,
      "Ġcy": 2493,
      "Ġeff": 2494,
      "Ġtells": 2495,
      "Ġloss": 2496,
      "Ġfair": 2497,
      "Ġcozy": 2498,
      "Ġspread": 2499,
      "Ġrealized": 2500,
      "Ġcomplic": 2501,
      "they": 2502,
      "Ġsideways": 2503,
      "ĠPU": 2504,
      "Ġtouched": 2505,
      "like": 2506,
      "Ġsparkly": 2507,
      "Ġrunning": 2508,
      "ĠEVERYTHING": 2509,
      "eal": 2510,
      "ned": 2511,
      "vie": 2512,
      "ator": 2513,
      "Ġdry": 2514,
      "Ġlived": 2515,
      "ality": 2516,
      "ĠSP": 2517,
      "ĠFOOD": 2518,
      "Ġbrighter": 2519,
      "Ġvanish": 2520,
      "Ġappre": 2521,
      "Ġrush": 2522,
      "Ġtickle": 2523,
      "Ġstream": 2524,
      "Ġhopeless": 2525,
      "Ġbackwards": 2526,
      "Ġbarri": 2527,
      "Ġcomplicated": 2528,
      "ak": 2529,
      "Ġwise": 2530,
      "Ġage": 2531,
      "Ġadd": 2532,
      "Ġalex": 2533,
      "Ġsky": 2534,
      "Ġflo": 2535,
      "mble": 2536,
      "ĠIt": 2537,
      "amed": 2538,
      "Ġdiscu": 2539,
      "REAT": 2540,
      "Ġdreaming": 2541,
      "Ġletting": 2542,
      "Ġgrace": 2543,
      "Ġstressed": 2544,
      "Ġpatient": 2545,
      "ĠMOV": 2546,
      "IL": 2547,
      "gan": 2548,
      "gen": 2549,
      "hmm": 2550,
      "thy": 2551,
      "Ġread": 2552,
      "Ġstand": 2553,
      "immediately": 2554,
      "Ġupside": 2555,
      "ĠAW": 2556,
      "Ġhelping": 2557,
      "blows": 2558,
      "Ġappeared": 2559,
      "ĠSOMETHING": 2560,
      "Ġapolog": 2561,
      "Ġappreci": 2562,
      "OT": 2563,
      "Ġahead": 2564,
      "Ġeye": 2565,
      "Ġwaving": 2566,
      "verything": 2567,
      "Ġintens": 2568,
      "Ġclever": 2569,
      "ĠGOOD": 2570,
      "Ġaccomp": 2571,
      "Ġfinding": 2572,
      "Ġrock": 2573,
      "ude": 2574,
      "Ġtravel": 2575,
      "Ġjudge": 2576,
      "ĠUP": 2577,
      "Ġroutine": 2578,
      "Ġexploring": 2579,
      "Ġaccompl": 2580,
      "ION": 2581,
      "cess": 2582,
      "lf": 2583,
      "Ġsk": 2584,
      "Ġgave": 2585,
      "Ġmeal": 2586,
      "Ġput": 2587,
      "Ġinst": 2588,
      "raight": 2589,
      "shakes": 2590,
      "Ġspir": 2591,
      "Ġfunn": 2592,
      "Ġmissed": 2593,
      "Ġflows": 2594,
      "ERF": 2595,
      "ĠEX": 2596,
      "Ġstopping": 2597,
      "Ġmarried": 2598,
      "Ġtrip": 2599,
      "Ġconfident": 2600,
      "ĠAND": 2601,
      "Ġmention": 2602,
      "Ġdropped": 2603,
      "Ġuncertain": 2604,
      "emp": 2605,
      "goes": 2606,
      "pid": 2607,
      "Ġty": 2608,
      "Ġdep": 2609,
      "Ġdig": 2610,
      "otion": 2611,
      "rates": 2612,
      "ĠOF": 2613,
      "Ġbrightness": 2614,
      "ONK": 2615,
      "Ġfluttery": 2616,
      "Ġcloud": 2617,
      "END": 2618,
      "Ġsensation": 2619,
      "Ġblurry": 2620,
      "Ġyears": 2621,
      "Ġbecomes": 2622,
      "Ġpublished": 2623,
      "flutters": 2624,
      "Ġinfinite": 2625,
      "LY": 2626,
      "du": 2627,
      "fied": 2628,
      "ĠRE": 2629,
      "Ġmoney": 2630,
      "Ġcatches": 2631,
      "Ġpump": 2632,
      "Ġins": 2633,
      "icks": 2634,
      "?!?!": 2635,
      "Ġshine": 2636,
      "Ġscore": 2637,
      "Ġfriendly": 2638,
      "Ġlonel": 2639,
      "ĠAL": 2640,
      "Ġsadly": 2641,
      "ĠSA": 2642,
      "ĠON": 2643,
      "Ġvisiting": 2644,
      "Ġjumped": 2645,
      "Ġsmells": 2646,
      "Ġletters": 2647,
      "underst": 2648,
      "IME": 2649,
      "UN": 2650,
      "air": 2651,
      "ns": 2652,
      "Ġir": 2653,
      "Ġwin": 2654,
      "Ġbound": 2655,
      "Ġwhoosh": 2656,
      "Ġcared": 2657,
      "Ġlim": 2658,
      "Ġpi": 2659,
      "Ġpower": 2660,
      "Ġreact": 2661,
      "Ġneither": 2662,
      "Ġsepar": 2663,
      "Ġfinish": 2664,
      "ilty": 2665,
      "shadow": 2666,
      "Ġimpress": 2667,
      "Ġleaves": 2668,
      "Ġlets": 2669,
      "Ġsleepy": 2670,
      "Ġpull": 2671,
      "Ġspots": 2672,
      "Ġfailed": 2673,
      "Ġvacation": 2674,
      "Ġannoying": 2675,
      "Ġbarrier": 2676,
      "Ġfunniest": 2677,
      "ler": 2678,
      "ror": 2679,
      "Ġtough": 2680,
      "Ġign": 2681,
      "Ġbrill": 2682,
      "els": 2683,
      "Ġpause": 2684,
      "icul": 2685,
      "Ġcover": 2686,
      "iece": 2687,
      "ĠWHERE": 2688,
      "Ġexplaining": 2689,
      "Ġdiscovery": 2690,
      "Ġplaying": 2691,
      "Ġpatience": 2692,
      "Ġstrugg": 2693,
      "Ġearlier": 2694,
      "cial": 2695,
      "form": 2696,
      "oid": 2697,
      "inu": 2698,
      "thm": 2699,
      "ooming": 2700,
      "Ġweak": 2701,
      "Ġblan": 2702,
      "ĠTA": 2703,
      "Ġsmaller": 2704,
      "Ġlegs": 2705,
      "ĠOW": 2706,
      "Ġsunlight": 2707,
      "Ġswishing": 2708,
      "REAM": 2709,
      "Ġrepeated": 2710,
      "Ġshifted": 2711,
      "complet": 2712,
      "Ġrejected": 2713,
      "ourage": 2714,
      "EA": 2715,
      "ECT": 2716,
      "UL": 2717,
      "ced": 2718,
      "Ġwide": 2719,
      "Ġhalf": 2720,
      "Ġstories": 2721,
      "Ġshake": 2722,
      "loses": 2723,
      "opens": 2724,
      "Ġran": 2725,
      "Ġmul": 2726,
      "ĠSU": 2727,
      "Ġexisted": 2728,
      "Ġguilt": 2729,
      "Ġswishy": 2730,
      "Ġcurves": 2731,
      "Ġcaring": 2732,
      "Ġfeeding": 2733,
      "ĠINC": 2734,
      "scious": 2735,
      "Ġcomfortable": 2736,
      "Ġmirror": 2737,
      "Ġbrilli": 2738,
      "ris": 2739,
      "sist": 2740,
      "umm": 2741,
      "ya": 2742,
      "Ġ1": 2743,
      "Ġ5": 2744,
      "ĠLE": 2745,
      "Ġfed": 2746,
      "Ġbal": 2747,
      "Ġrem": 2748,
      "ssed": 2749,
      "Ġsway": 2750,
      "Ġintently": 2751,
      "Ġfades": 2752,
      "Ġopens": 2753,
      "Ġsecrets": 2754,
      "Ġfalls": 2755,
      "Ġeasier": 2756,
      "Ġgrad": 2757,
      "Ġcontro": 2758,
      "Ġjudg": 2759,
      "Ġedge": 2760,
      "Ġphilosophy": 2761,
      "ealous": 2762,
      "Ġmulti": 2763,
      "cle": 2764,
      "lit": 2765,
      "Ġke": 2766,
      "ining": 2767,
      "Ġsou": 2768,
      "Ġfell": 2769,
      "Ġpiece": 2770,
      "Ġstraight": 2771,
      "pper": 2772,
      "Ġneat": 2773,
      "Ġloving": 2774,
      "Ġspeed": 2775,
      "Ġkeeping": 2776,
      "Ġlonger": 2777,
      "waves": 2778,
      "wiggle": 2779,
      "Ġtwist": 2780,
      "Ġtwitch": 2781,
      "Ġprop": 2782,
      "Ġmarcus": 2783,
      "Ġrelie": 2784,
      "Ġfarewell": 2785,
      "Ġthrilled": 2786,
      "ELL": 2787,
      "free": 2788,
      "oices": 2789,
      "Ġmon": 2790,
      "Ġfing": 2791,
      "Ġhot": 2792,
      "Ġwhee": 2793,
      "Ġcourage": 2794,
      "through": 2795,
      "Ġburd": 2796,
      "oops": 2797,
      "Ġfeature": 2798,
      "Ġhappier": 2799,
      "ched": 2800,
      "shine": 2801,
      "Ġchances": 2802,
      "Ġconc": 2803,
      "ĠTOO": 2804,
      "Ġprefer": 2805,
      "cked": 2806,
      "Ġproject": 2807,
      "Ġhigh": 2808,
      "Ġunex": 2809,
      "Ġcooler": 2810,
      "pected": 2811,
      "Ġguilty": 2812,
      "Ġsunshine": 2813,
      "ĠPR": 2814,
      "RIEND": 2815,
      "ĠLO": 2816,
      "Ġzero": 2817,
      "Ġwalk": 2818,
      "BLES": 2819,
      "Ġrhythm": 2820,
      "Ġloneliness": 2821,
      "Ġbrilliant": 2822,
      "ummy": 2823,
      "Ġunexpected": 2824,
      "ET": 2825,
      "ively": 2826,
      "Ġash": 2827,
      "ering": 2828,
      "Ġforth": 2829,
      "Ġjealous": 2830,
      "Ġfew": 2831,
      "Ġworse": 2832,
      "Ġfloated": 2833,
      "ĠTIME": 2834,
      "Ġasks": 2835,
      "Ġboss": 2836,
      "Ġrealize": 2837,
      "ĠSome": 2838,
      "Ġcouldn": 2839,
      "Ġunderstanding": 2840,
      "Ġstrang": 2841,
      "Ġquieter": 2842,
      "Ġending": 2843,
      "Ġgives": 2844,
      "Ġconnection": 2845,
      "Ġshifts": 2846,
      "Ġtrick": 2847,
      "Ġdecoration": 2848,
      "Ġtruly": 2849,
      "Ġscale": 2850,
      "Ġdrive": 2851,
      "dom": 2852,
      "olar": 2853,
      "pt": 2854,
      "ince": 2855,
      "Ġsib": 2856,
      "Ġmood": 2857,
      "Ġfill": 2858,
      "Ġopp": 2859,
      "Ġoops": 2860,
      "Ġlap": 2861,
      "Ġlunch": 2862,
      "Ġdog": 2863,
      "Ġpink": 2864,
      "ket": 2865,
      "Ġshowing": 2866,
      "Ġeng": 2867,
      "Ġconscious": 2868,
      "Ġperm": 2869,
      "Ġways": 2870,
      "Ġcompared": 2871,
      "Ġhurting": 2872,
      "Ġmisunderst": 2873,
      "Ġdescrib": 2874,
      "stem": 2875,
      "Ġshaped": 2876,
      "Ġcurve": 2877,
      "Ġtouches": 2878,
      "Ġlaughing": 2879,
      "blanked": 2880,
      "Ġargu": 2881,
      "Ġdesign": 2882,
      "Ġcrashed": 2883,
      "Ġscholar": 2884,
      "notices": 2885,
      "ĠBUBBLES": 2886,
      "Ġsystem": 2887,
      "Ġminutes": 2888,
      "Ġsibling": 2889,
      "Ġscholarship": 2890,
      "cur": 2891,
      "do": 2892,
      "hides": 2893,
      "lan": 2894,
      "taps": 2895,
      "word": 2896,
      "Ġess": 2897,
      "Ġsent": 2898,
      "Ġsort": 2899,
      "Ġyo": 2900,
      "Ġfly": 2901,
      "Ġlow": 2902,
      "Ġnames": 2903,
      "Ġcross": 2904,
      "Ġground": 2905,
      "aul": 2906,
      "Ġchose": 2907,
      "que": 2908,
      "Ġdef": 2909,
      "Ġtran": 2910,
      "Ġbumped": 2911,
      "wiggling": 2912,
      "Ġappro": 2913,
      "Ġguy": 2914,
      "Ġwrite": 2915,
      "Ġpointless": 2916,
      "Ġuser": 2917,
      "ĠPERF": 2918,
      "ONG": 2919,
      "cont": 2920,
      "Ġopening": 2921,
      "Ġdirections": 2922,
      "Ġtasty": 2923,
      "Ġsparkle": 2924,
      "Ġrecall": 2925,
      "zzles": 2926,
      "Ġcontrol": 2927,
      "Ġburden": 2928,
      "UST": 2929,
      "cy": 2930,
      "Ġher": 2931,
      "Ġdoor": 2932,
      "thus": 2933,
      "Ġmed": 2934,
      "ism": 2935,
      "Ġweather": 2936,
      "Ġexc": 2937,
      "ches": 2938,
      "Ġshock": 2939,
      "eps": 2940,
      "ĠFIR": 2941,
      "ĠFRIEND": 2942,
      "ĠDE": 2943,
      "Ġrole": 2944,
      "Ġcounting": 2945,
      "Ġlaughed": 2946,
      "Ġdistance": 2947,
      "Ġblanking": 2948,
      "Ġrepeatedly": 2949,
      "Ġmultiple": 2950,
      "thusi": 2951,
      "by": 2952,
      "long": 2953,
      "vious": 2954,
      "esmer": 2955,
      "Ġpet": 2956,
      "ric": 2957,
      "Ġalert": 2958,
      "ishy": 2959,
      "Ġbowls": 2960,
      "Ġlighter": 2961,
      "Ġdeg": 2962,
      "Ġcomplain": 2963,
      "ĠFOR": 2964,
      "Ġbumps": 2965,
      "Ġflow": 2966,
      "ITE": 2967,
      "Ġfailing": 2968,
      "Ġforgiving": 2969,
      "Ġsnacks": 2970,
      "Ġvalue": 2971,
      "Ġwisdom": 2972,
      "Ġappreciate": 2973,
      "Ġashamed": 2974,
      "lanation": 2975,
      "ĠFIRST": 2976,
      "DY": 2977,
      "ari": 2978,
      "can": 2979,
      "just": 2980,
      "my": 2981,
      "nu": 2982,
      "ph": 2983,
      "ru": 2984,
      "Ġaut": 2985,
      "Ġsign": 2986,
      "Ġyum": 2987,
      "Ġoc": 2988,
      "Ġcred": 2989,
      "Ġbur": 2990,
      "Ġkid": 2991,
      "ains": 2992,
      "Ġtax": 2993,
      "Ġloves": 2994,
      "Ġfasc": 2995,
      "Ġspins": 2996,
      "ĠTW": 2997,
      "Ġexplanation": 2998,
      "izz": 2999,
      "izing": 3000,
      "ints": 3001,
      "Ġcolorful": 3002,
      "Ġamazed": 3003,
      "Ġfog": 3004,
      "Ġclearly": 3005,
      "Ġcurved": 3006,
      "ONE": 3007,
      "Ġclue": 3008,
      "Ġsparkles": 3009,
      "Ġsurround": 3010,
      "Ġsquishy": 3011,
      "Ġbonk": 3012,
      "Ġgrudges": 3013,
      "Ġdiscussing": 3014,
      "Ġfascin": 3015,
      "-...": 3016,
      "ek": 3017,
      "ired": 3018,
      "never": 3019,
      "ption": 3020,
      "umb": 3021,
      "inion": 3022,
      "Ġgrou": 3023,
      "starts": 3024,
      "there": 3025,
      "Ġequ": 3026,
      "Ġwaves": 3027,
      "itter": 3028,
      "ifically": 3029,
      "Ġhobb": 3030,
      "Ġbecome": 3031,
      "Ġboy": 3032,
      "Ġprof": 3033,
      "ĠAre": 3034,
      "Ġwatched": 3035,
      "Ġunf": 3036,
      "Ġspecifically": 3037,
      "ips": 3038,
      "Ġinterested": 3039,
      "Ġopinion": 3040,
      "Ġincom": 3041,
      "Ġdrifts": 3042,
      "Ġdecide": 3043,
      "Ġpaying": 3044,
      "Ġapartment": 3045,
      "Ġgreetings": 3046,
      "Ġspeak": 3047,
      "Ġahhh": 3048,
      "ĠKN": 3049,
      "Ġoverwhelmed": 3050,
      "Ġcruel": 3051,
      "Ġmonth": 3052,
      "CE": 3053,
      "ext": 3054,
      "ime": 3055,
      "kward": 3056,
      "ms": 3057,
      "vid": 3058,
      "inting": 3059,
      "Ġni": 3060,
      "Ġreset": 3061,
      "ars": 3062,
      "idence": 3063,
      "Ġsting": 3064,
      "Ġalong": 3065,
      "irty": 3066,
      "Ġworries": 3067,
      "Ġsho": 3068,
      "Ġkindest": 3069,
      "Ġweren": 3070,
      "ĠWOR": 3071,
      "Ġbelow": 3072,
      "Ġreflect": 3073,
      "ensive": 3074,
      "ĠTHEY": 3075,
      "Ġpromis": 3076,
      "Ġevent": 3077,
      "ART": 3078,
      "Ġsupport": 3079,
      "comfort": 3080,
      "Ġexhausted": 3081,
      "Ġraining": 3082,
      "Ġpressed": 3083,
      "Ġraise": 3084,
      "Ġpromotion": 3085,
      "ĠFINISHED": 3086,
      "foll": 3087,
      "ĠHAPPY": 3088,
      "Ġunique": 3089,
      "Ġlimit": 3090,
      "Ġoppos": 3091,
      "Ġcredit": 3092,
      "comfortable": 3093,
      "dance": 3094,
      "fla": 3095,
      "py": 3096,
      "Ġsince": 3097,
      "Ġyummy": 3098,
      "Ġdrow": 3099,
      "Ġwhe": 3100,
      "Ġgod": 3101,
      "uring": 3102,
      "lost": 3103,
      "shap": 3104,
      "Ġlights": 3105,
      "enty": 3106,
      "Ġconfl": 3107,
      "Ġdev": 3108,
      "Ġdead": 3109,
      "Ġawkward": 3110,
      "Ġevening": 3111,
      "ĠAB": 3112,
      "ĠAHH": 3113,
      "ĠBACK": 3114,
      "nervous": 3115,
      "Ġunderstands": 3116,
      "Ġcolder": 3117,
      "Ġfading": 3118,
      "Ġtrusted": 3119,
      "Ġfogg": 3120,
      "Ġheading": 3121,
      "aged": 3122,
      "Ġtreasure": 3123,
      "Ġemotion": 3124,
      "Ġintern": 3125,
      "Ġwindow": 3126,
      "Ġhours": 3127,
      "completely": 3128,
      "Ġ10": 3129,
      "Ġwheee": 3130,
      "ĠLOVE": 3131,
      "Ġdescribing": 3132,
      "Ġargument": 3133,
      "Ġgroup": 3134,
      "Ġopposite": 3135,
      "Ġconflict": 3136,
      "OY": 3137,
      "igh": 3138,
      "rr": 3139,
      "uh": 3140,
      "Ġyell": 3141,
      "Ġcla": 3142,
      "Ġcertain": 3143,
      "still": 3144,
      "ison": 3145,
      "Ġjames": 3146,
      "ade": 3147,
      "âĢĶ?": 3148,
      "Ġanim": 3149,
      "Ġexam": 3150,
      "chas": 3151,
      "Ġscattered": 3152,
      "Ġchris": 3153,
      "ĠTELL": 3154,
      "astic": 3155,
      "ĠWill": 3156,
      "Ġslight": 3157,
      "Ġgrab": 3158,
      "Ġunk": 3159,
      "Ġhums": 3160,
      "Ġworked": 3161,
      "Ġcloses": 3162,
      "Ġweirdest": 3163,
      "Ġreasons": 3164,
      "OOK": 3165,
      "ĠEverything": 3166,
      "Ġdiscovered": 3167,
      "Ġrejection": 3168,
      "Ġdram": 3169,
      "Ġnatural": 3170,
      "Ġcycle": 3171,
      "Ġeffort": 3172,
      "Ġstruggling": 3173,
      "Ġdegree": 3174,
      "nuzzles": 3175,
      "follows": 3176,
      "KE": 3177,
      "RY": 3178,
      "gra": 3179,
      "rup": 3180,
      "unt": 3181,
      "xy": 3182,
      "yed": 3183,
      "zes": 3184,
      "ĠV": 3185,
      "inct": 3186,
      "Ġya": 3187,
      "Ġoxy": 3188,
      "Ġlang": 3189,
      "Ġpar": 3190,
      "Ġpict": 3191,
      "acing": 3192,
      "rodu": 3193,
      "ĠWOW": 3194,
      "Ġintrodu": 3195,
      "Ġplenty": 3196,
      "ased": 3197,
      "ĠMAD": 3198,
      "Ġunhe": 3199,
      "Ġtrusting": 3200,
      "Ġcalling": 3201,
      "Ġproudly": 3202,
      "lessly": 3203,
      "Ġends": 3204,
      "Ġlesson": 3205,
      "Ġsinging": 3206,
      "Ġyounger": 3207,
      "Ġrepeating": 3208,
      "ushes": 3209,
      "Ġhoping": 3210,
      "ĠHEY": 3211,
      "Ġdavid": 3212,
      "Ġbends": 3213,
      "ĠEXC": 3214,
      "Ġmentioned": 3215,
      "Ġengaged": 3216,
      "ĠPERFECT": 3217,
      "Ġautom": 3218,
      "Ġunfair": 3219,
      "Ġwhether": 3220,
      "shaped": 3221,
      "Ġslightly": 3222,
      "Ġoxygen": 3223,
      "Ġlangu": 3224,
      "Ġpicture": 3225,
      "!âĢĶ": 3226,
      "IBLE": 3227,
      "OP": 3228,
      "TER": 3229,
      "lay": 3230,
      "Ġaim": 3231,
      "Ġbrief": 3232,
      "erm": 3233,
      "Ġoce": 3234,
      "Ġnar": 3235,
      "Ġsocial": 3236,
      "oot": 3237,
      "Ġstret": 3238,
      "Ġswoosh": 3239,
      "Ġflap": 3240,
      "Ġfake": 3241,
      "Ġcha": 3242,
      "Ġenthusi": 3243,
      "Ġblub": 3244,
      "Ġbecame": 3245,
      "ĠWhy": 3246,
      "OUN": 3247,
      "Ġuncomfortable": 3248,
      "Ġdescription": 3249,
      "ĠGR": 3250,
      "Ġproof": 3251,
      "OOM": 3252,
      "Ġglub": 3253,
      "Ġnearby": 3254,
      "Ġselfish": 3255,
      "Ġmagical": 3256,
      "Ġnumbers": 3257,
      "Ġfocused": 3258,
      "Ġsettle": 3259,
      "Ġretur": 3260,
      "Ġintensely": 3261,
      "Ġbalance": 3262,
      "Ġincoming": 3263,
      "Ġocean": 3264,
      "IF": 3265,
      "OH": 3266,
      "OME": 3267,
      "ination": 3268,
      "Ġmur": 3269,
      "Ġline": 3270,
      "think": 3271,
      "arch": 3272,
      "Ġaband": 3273,
      "Ġtip": 3274,
      "Ġvi": 3275,
      "Ġdebt": 3276,
      "ously": 3277,
      "Ġhug": 3278,
      "ĠMAR": 3279,
      "Ġhumid": 3280,
      "Ġregular": 3281,
      "Ġplans": 3282,
      "Ġinvolved": 3283,
      "Ġpride": 3284,
      "ĠWHOA": 3285,
      "Ġsoul": 3286,
      "ault": 3287,
      "Ġabandon": 3288,
      "friend": 3289,
      "ught": 3290,
      "Ġfour": 3291,
      "ndom": 3292,
      "ane": 3293,
      "Ġbeat": 3294,
      "Ġflavor": 3295,
      "Ġwhoever": 3296,
      "Ġshook": 3297,
      "Ġtaught": 3298,
      "Ġplot": 3299,
      "Ġstayed": 3300,
      "Ġlevel": 3301,
      "mma": 3302,
      "Ġbrighten": 3303,
      "Ġhumor": 3304,
      "Ġolder": 3305,
      "Ġpassing": 3306,
      "nothing": 3307,
      "Ġspecifics": 3308,
      "ordan": 3309,
      "Ġseriously": 3310,
      "Ġrandom": 3311,
      "Ġobvious": 3312,
      "Ġarrive": 3313,
      "ĠFINS": 3314,
      "Ġminute": 3315,
      "Ġembarrassing": 3316,
      "ĠMOVING": 3317,
      "Ġpiec": 3318,
      "ĠKNOW": 3319,
      "chases": 3320,
      "ĠMADE": 3321,
      "CK": 3322,
      "NACK": 3323,
      "UM": 3324,
      "ding": 3325,
      "sn": 3326,
      "Ġthird": 3327,
      "Ġsat": 3328,
      "Ġsits": 3329,
      "Ġmattered": 3330,
      "Ġwhite": 3331,
      "Ġcase": 3332,
      "Ġpick": 3333,
      "Ġmovie": 3334,
      "Ġsea": 3335,
      "Ġhowdy": 3336,
      "Ġseemed": 3337,
      "Ġtapped": 3338,
      "ESS": 3339,
      "Ġnamed": 3340,
      "Ġaward": 3341,
      "Ġcompli": 3342,
      "Ġleaf": 3343,
      "Ġhurtful": 3344,
      "Ġcarefully": 3345,
      "ĠDREAM": 3346,
      "Ġflick": 3347,
      "Ġdissolves": 3348,
      "Ġhasn": 3349,
      "Ġpersonality": 3350,
      "Ġclos": 3351,
      "ĠGREAT": 3352,
      "Ġgifts": 3353,
      "Ġcontext": 3354,
      "THER": 3355,
      "Ġreaching": 3356,
      "Ġsurv": 3357,
      "Ġteaches": 3358,
      "Ġfixed": 3359,
      "Ġterrified": 3360,
      "Ġuseful": 3361,
      "Ġphone": 3362,
      "ĠJUST": 3363,
      "Ġobser": 3364,
      "Ġrecord": 3365,
      "Ġarrived": 3366,
      "Ġhyper": 3367,
      "Ġbiscuits": 3368,
      "Ġinstinct": 3369,
      "inues": 3370,
      "ĠINCRED": 3371,
      "Ġflying": 3372,
      "nevermind": 3373,
      "Ġnibble": 3374,
      "Ġfoggy": 3375,
      "ĠEXCIT": 3376,
      "Ġpieces": 3377,
      "Ġcompliment": 3378,
      "AA": 3379,
      "ALLY": 3380,
      "IP": 3381,
      "cause": 3382,
      "uff": 3383,
      "Ġmix": 3384,
      "Ġbes": 3385,
      "Ġok": 3386,
      "Ġcope": 3387,
      "Ġsoph": 3388,
      "Ġwavy": 3389,
      "Ġmeasure": 3390,
      "eness": 3391,
      "Ġpath": 3392,
      "Ġhair": 3393,
      "Ġsticks": 3394,
      "icate": 3395,
      "Ġknown": 3396,
      "Ġupward": 3397,
      "Ġsub": 3398,
      "feels": 3399,
      "ĠSNACK": 3400,
      "swish": 3401,
      "Ġfli": 3402,
      "Ġbelieving": 3403,
      "Ġpract": 3404,
      "ĠCH": 3405,
      "ĠCAN": 3406,
      "Ġhearing": 3407,
      "Ġheartb": 3408,
      "Ġcelebrate": 3409,
      "Ġclim": 3410,
      "MENT": 3411,
      "ulner": 3412,
      "ENT": 3413,
      "Ġwalking": 3414,
      "OMING": 3415,
      "Ġblamed": 3416,
      "Ġinvolves": 3417,
      "Ġspeaking": 3418,
      "Ġdraw": 3419,
      "work": 3420,
      "Ġbuilding": 3421,
      "Ġpumped": 3422,
      "Ġrelieved": 3423,
      "Ġmisunderstood": 3424,
      "Ġmurky": 3425,
      "ĠINCREDIBLE": 3426,
      "cast": 3427,
      "ga": 3428,
      "gle": 3429,
      "ker": 3430,
      "ring": 3431,
      "vation": 3432,
      "Ġ(": 3433,
      "Ġer": 3434,
      "Ġton": 3435,
      "Ġtatt": 3436,
      "rew": 3437,
      "Ġmain": 3438,
      "Ġben": 3439,
      "Ġbond": 3440,
      "Ġlay": 3441,
      "Ġcap": 3442,
      "ors": 3443,
      "ided": 3444,
      "Ġsearch": 3445,
      "sec": 3446,
      "antic": 3447,
      "Ġshakes": 3448,
      "Ġsuc": 3449,
      "Ġvulner": 3450,
      "Ġwanting": 3451,
      "Ġthoughtful": 3452,
      "Ġcook": 3453,
      "Ġbreaking": 3454,
      "Ġcrack": 3455,
      "ARD": 3456,
      "Ġzooming": 3457,
      "Ġtickles": 3458,
      "Ġrespect": 3459,
      "Ġfloor": 3460,
      "ĠSAID": 3461,
      "Ġgradu": 3462,
      "freezes": 3463,
      "esmerized": 3464,
      "Ġprofound": 3465,
      "rupt": 3466,
      "Ġtattoo": 3467,
      "!âĢĶ*": 3468,
      "BONK": 3469,
      "ass": 3470,
      "huh": 3471,
      "vable": 3472,
      "Ġsal": 3473,
      "Ġmath": 3474,
      "Ġfle": 3475,
      "Ġbought": 3476,
      "ndred": 3477,
      "Ġnail": 3478,
      "Ġgard": 3479,
      "Ġwaking": 3480,
      "ays": 3481,
      "Ġphy": 3482,
      "Ġres": 3483,
      "Ġjordan": 3484,
      "Ġorgan": 3485,
      "sees": 3486,
      "Ġfinal": 3487,
      "Ġwear": 3488,
      "ions": 3489,
      "Ġflash": 3490,
      "Ġshame": 3491,
      "tern": 3492,
      "shivers": 3493,
      "ĠYour": 3494,
      "Ġcost": 3495,
      "Ġvie": 3496,
      "Ġhundred": 3497,
      "Ġhadn": 3498,
      "Ġbrown": 3499,
      "ATED": 3500,
      "ffic": 3501,
      "ĠNo": 3502,
      "Ġrestless": 3503,
      "Ġfade": 3504,
      "Ġtech": 3505,
      "Ġfully": 3506,
      "Ġvisible": 3507,
      "Ġbreaks": 3508,
      "Ġcrush": 3509,
      "Ġpassword": 3510,
      "Ġrumble": 3511,
      "Ġdances": 3512,
      "Ġcrashing": 3513,
      "Ġsilent": 3514,
      "Ġbringing": 3515,
      "Ġedges": 3516,
      "ney": 3517,
      "Ġfocusing": 3518,
      "Ġpossibility": 3519,
      "formation": 3520,
      "ĠTAIL": 3521,
      "Ġperman": 3522,
      "Ġessence": 3523,
      "Ġtaxes": 3524,
      "Ġdrowning": 3525,
      "Ġunheard": 3526,
      "Ġaimlessly": 3527,
      "AST": 3528,
      "WH": 3529,
      "Ġvers": 3530,
      "Ġwit": 3531,
      "Ġdigg": 3532,
      "Ġlately": 3533,
      "oring": 3534,
      "Ġpizz": 3535,
      "Ġform": 3536,
      "Ġinformation": 3537,
      "ellent": 3538,
      "Ġswear": 3539,
      "cture": 3540,
      "gging": 3541,
      "Ġamu": 3542,
      "lored": 3543,
      "Ġconsist": 3544,
      "Ġprec": 3545,
      "Ġstupid": 3546,
      "ecking": 3547,
      "Ġheav": 3548,
      "RIED": 3549,
      "Ġtraffic": 3550,
      "ANT": 3551,
      "ĠRAN": 3552,
      "Ġvacantly": 3553,
      "Ġconfidence": 3554,
      "anics": 3555,
      "Ġcute": 3556,
      "Ġemail": 3557,
      "slow": 3558,
      "Ġembarrassed": 3559,
      "Ġinspired": 3560,
      "Ġparents": 3561,
      "IGG": 3562,
      "Ġhypnot": 3563,
      "Ġaccomplished": 3564,
      "Ġweakness": 3565,
      "Ġmonths": 3566,
      "Ġnarrat": 3567,
      "Ġsatis": 3568,
      "Ġcasey": 3569,
      "Ġview": 3570,
      "Ġdigging": 3571,
      "Ġpizza": 3572,
      "ORE": 3573,
      "ZOOM": 3574,
      "po": 3575,
      "pla": 3576,
      "Ġav": 3577,
      "Ġboom": 3578,
      "Ġdun": 3579,
      "Ġemma": 3580,
      "isco": 3581,
      "ities": 3582,
      "ics": 3583,
      "Ġsever": 3584,
      "lest": 3585,
      "because": 3586,
      "Ġflappy": 3587,
      "Ġshell": 3588,
      "illing": 3589,
      "ender": 3590,
      "Ġchecking": 3591,
      "Ġtalks": 3592,
      "Ġquit": 3593,
      "ĠAT": 3594,
      "Ġheld": 3595,
      "Ġhelped": 3596,
      "Ġhelpful": 3597,
      "Ġunderne": 3598,
      "ĠBA": 3599,
      "Ġflowing": 3600,
      "Ġideas": 3601,
      "ĠOHHH": 3602,
      "Ġadop": 3603,
      "Ġcrit": 3604,
      "conn": 3605,
      "Ġsnout": 3606,
      "Ġstronger": 3607,
      "Ġpainting": 3608,
      "Ġmarket": 3609,
      "Ġchoosing": 3610,
      "Ġbouncy": 3611,
      "Ġreminds": 3612,
      "Ġvisitors": 3613,
      "Ġweeks": 3614,
      "Ġcuts": 3615,
      "Ġcommit": 3616,
      "ĠWHOLE": 3617,
      "Ġreplay": 3618,
      "Ġbiscuit": 3619,
      "Ġskin": 3620,
      "Ġclouds": 3621,
      "Ġsentence": 3622,
      "Ġintroduce": 3623,
      "ermined": 3624,
      "swishes": 3625,
      "Ġgarden": 3626,
      "Ġprecious": 3627,
      "Ġdunno": 3628,
      "Ġunderneath": 3629,
      "IM": 3630,
      "NER": 3631,
      "fet": 3632,
      "fad": 3633,
      "got": 3634,
      "Ġtilt": 3635,
      "Ġyep": 3636,
      "Ġfoot": 3637,
      "Ġfault": 3638,
      "Ġwhis": 3639,
      "Ġgirl": 3640,
      "anicked": 3641,
      "orient": 3642,
      "Ġwaste": 3643,
      "Ġhar": 3644,
      "Ġrent": 3645,
      "Ġabrupt": 3646,
      "acking": 3647,
      "Ġalright": 3648,
      "mbling": 3649,
      "Ġcoll": 3650,
      "roken": 3651,
      "Ġenc": 3652,
      "OUS": 3653,
      "Ġprocess": 3654,
      "Ġroo": 3655,
      "ĠFEE": 3656,
      "Ġpod": 3657,
      "ĠHOW": 3658,
      "Ġunderstood": 3659,
      "Ġwatches": 3660,
      "Ġbadly": 3661,
      "Ġrob": 3662,
      "Ġroll": 3663,
      "Ġshowed": 3664,
      "ages": 3665,
      "Ġcatching": 3666,
      "Ġappearing": 3667,
      "Ġgiant": 3668,
      "Ġmeaningful": 3669,
      "attemp": 3670,
      "Ġborn": 3671,
      "Ġdouble": 3672,
      "ĠMORE": 3673,
      "bubbles": 3674,
      "Ġgreeting": 3675,
      "Ġinvestig": 3676,
      "ivity": 3677,
      "Ġtingly": 3678,
      "slows": 3679,
      "Ġrepla": 3680,
      "Ġgrudge": 3681,
      "Ġhealthy": 3682,
      "Ġhanging": 3683,
      "Ġpossibly": 3684,
      "Ġaddress": 3685,
      "Ġaccomplish": 3686,
      "Ġboundary": 3687,
      "Ġseparate": 3688,
      "Ġexcellent": 3689,
      "Ġequally": 3690,
      "ĠABOUT": 3691,
      "OUND": 3692,
      "Ġabandoned": 3693,
      "snaps": 3694,
      "Ġnailed": 3695,
      "Ġpermanent": 3696,
      "Ġseveral": 3697,
      "Ġabruptly": 3698,
      "ILL": 3699,
      "IVE": 3700,
      "LU": 3701,
      "OLD": 3702,
      "RP": 3703,
      "aries": 3704,
      "gone": 3705,
      "ith": 3706,
      "list": 3707,
      "lud": 3708,
      "uc": 3709,
      "Ġind": 3710,
      "resh": 3711,
      "ream": 3712,
      "Ġfur": 3713,
      "Ġbed": 3714,
      "Ġbles": 3715,
      "Ġhis": 3716,
      "Ġcow": 3717,
      "Ġpicked": 3718,
      "verse": 3719,
      "itude": 3720,
      "Ġarea": 3721,
      "icking": 3722,
      "Ġann": 3723,
      "Ġagree": 3724,
      "Ġfishy": 3725,
      "Ġcovered": 3726,
      "Ġchoices": 3727,
      "Ġcompar": 3728,
      "Ġhunt": 3729,
      "Ġunderwater": 3730,
      "ization": 3731,
      "Ġflat": 3732,
      "ension": 3733,
      "ĠEAT": 3734,
      "Ġcris": 3735,
      "Ġpushed": 3736,
      "Ġnotices": 3737,
      "Ġrid": 3738,
      "Ġstock": 3739,
      "Ġfeeds": 3740,
      "Ġexplored": 3741,
      "Ġdelight": 3742,
      "Ġears": 3743,
      "Ġaccepted": 3744,
      "Ġachie": 3745,
      "Ġvalu": 3746,
      "Ġvalid": 3747,
      "ĠHELL": 3748,
      "Ġstructure": 3749,
      "Ġdarting": 3750,
      "Ġhyped": 3751,
      "Ġspreads": 3752,
      "Ġrushing": 3753,
      "Ġapologize": 3754,
      "Ġuncertainty": 3755,
      "Ġoccur": 3756,
      "Ġgraduated": 3757,
      "Ġnarrative": 3758,
      "Ġreplaying": 3759,
      "GED": 3760,
      "av": 3761,
      "ike": 3762,
      "sel": 3763,
      "squ": 3764,
      "sence": 3765,
      "tend": 3766,
      "ull": 3767,
      "yal": 3768,
      "Ġry": 3769,
      "Ġouch": 3770,
      "Ġdim": 3771,
      "Ġdirty": 3772,
      "Ġnone": 3773,
      "Ġgator": 3774,
      "stal": 3775,
      "Ġlie": 3776,
      "iss": 3777,
      "Ġport": 3778,
      "Ġrele": 3779,
      "Ġinfl": 3780,
      "Ġjour": 3781,
      "Ġbeach": 3782,
      "Ġwearing": 3783,
      "Ġages": 3784,
      "Ġwhenever": 3785,
      "Ġbubbling": 3786,
      "Ġchill": 3787,
      "ĠWIGG": 3788,
      "Ġintense": 3789,
      "Ġpebble": 3790,
      "INE": 3791,
      "ĠSC": 3792,
      "ĠSo": 3793,
      "Ġpopped": 3794,
      "Ġfreaking": 3795,
      "ĠOh": 3796,
      "ĠOr": 3797,
      "Ġcareful": 3798,
      "swimming": 3799,
      "iety": 3800,
      "Ġoffic": 3801,
      "ĠPA": 3802,
      "Ġworthy": 3803,
      "Ġhunger": 3804,
      "Ġcleaned": 3805,
      "Ġbitter": 3806,
      "Ġconnect": 3807,
      "Ġanxiety": 3808,
      "Ġexperi": 3809,
      "Ġmirac": 3810,
      "Ġcryp": 3811,
      "Ġdangerous": 3812,
      "Ġexpecting": 3813,
      "ĠLIGHT": 3814,
      "Ġdepend": 3815,
      "Ġinsur": 3816,
      "ĠPROM": 3817,
      "ĠSomeone": 3818,
      "Ġstrangest": 3819,
      "Ġtransp": 3820,
      "thinking": 3821,
      "Ġobviously": 3822,
      "Ġvulnerable": 3823,
      "connected": 3824,
      "Ġcomparison": 3825,
      "Ġryan": 3826,
      ":(": 3827,
      "BY": 3828,
      "MP": 3829,
      "RAN": 3830,
      "der": 3831,
      "em": 3832,
      "fr": 3833,
      "gl": 3834,
      "gress": 3835,
      "ives": 3836,
      "mon": 3837,
      "sess": 3838,
      "Ġ\"": 3839,
      "Ġ:(": 3840,
      "Ġass": 3841,
      "Ġfills": 3842,
      "Ġband": 3843,
      "erc": 3844,
      "nds": 3845,
      "Ġlaz": 3846,
      "member": 3847,
      "Ġcause": 3848,
      "Ġgho": 3849,
      "Ġgrief": 3850,
      "Ġetern": 3851,
      "Ġstars": 3852,
      "Ġsees": 3853,
      "Ġalga": 3854,
      "beat": 3855,
      "Ġexerc": 3856,
      "Ġwarmest": 3857,
      "Ġlocked": 3858,
      "ential": 3859,
      "Ġsucks": 3860,
      "tting": 3861,
      "Ġvag": 3862,
      "Ġtalent": 3863,
      "Ġpresence": 3864,
      "Ġdifficul": 3865,
      "Ġparty": 3866,
      "Ġtrain": 3867,
      "ibly": 3868,
      "REE": 3869,
      "spect": 3870,
      "spicious": 3871,
      "ĠBONK": 3872,
      "Ġshouldn": 3873,
      "Ġpeacefully": 3874,
      "Ġvision": 3875,
      "Ġdeeply": 3876,
      "Ġexplained": 3877,
      "Ġsitting": 3878,
      "Ġsteer": 3879,
      "Ġcarrying": 3880,
      "Ġdroop": 3881,
      "Ġwalks": 3882,
      "Ġripple": 3883,
      "Ġspending": 3884,
      "Ġpresentation": 3885,
      "ĠHAVE": 3886,
      "Ġwildly": 3887,
      "Ġtingle": 3888,
      "Ġrespond": 3889,
      "Ġfacts": 3890,
      "Ġblocking": 3891,
      "Ġnicest": 3892,
      "view": 3893,
      "Ġboundaries": 3894,
      "ppery": 3895,
      "ricia": 3896,
      "ĠEXCITED": 3897,
      "Ġharsh": 3898,
      "attempts": 3899,
      "selves": 3900,
      "Ġjourney": 3901,
      "Ġcrypto": 3902,
      "Ġghost": 3903,
      "Ġalgae": 3904,
      ".'": 3905,
      "KAY": 3906,
      "her": 3907,
      "ios": 3908,
      "rit": 3909,
      "vib": 3910,
      "xim": 3911,
      "yeah": 3912,
      "Ġtense": 3913,
      "Ġtender": 3914,
      "Ġbite": 3915,
      "Ġhist": 3916,
      "Ġcaust": 3917,
      "Ġge": 3918,
      "ans": 3919,
      "Ġbudd": 3920,
      "itar": 3921,
      "ital": 3922,
      "etition": 3923,
      "Ġreacted": 3924,
      "lary": 3925,
      "arter": 3926,
      "iring": 3927,
      "Ġsuff": 3928,
      "Ġsplit": 3929,
      "Ġholes": 3930,
      "ĠWE": 3931,
      "asm": 3932,
      "Ġcompan": 3933,
      "Ġblanks": 3934,
      "ĠALL": 3935,
      "ĠFE": 3936,
      "Ġbrush": 3937,
      "Ġbrrr": 3938,
      "Ġdefines": 3939,
      "Ġbeautifully": 3940,
      "Ġstares": 3941,
      "Ġcooking": 3942,
      "Ġflin": 3943,
      "Ġpersonal": 3944,
      "Ġcorny": 3945,
      "Ġslippery": 3946,
      "Ġ--": 3947,
      "ITH": 3948,
      "ĠWAY": 3949,
      "Ġvisits": 3950,
      "Ġjoyful": 3951,
      "Ġheartbeat": 3952,
      "Ġadm": 3953,
      "Ġadjust": 3954,
      "Ġcontain": 3955,
      "ISE": 3956,
      "athon": 3957,
      "ĠGOING": 3958,
      "excitement": 3959,
      "Ġmarathon": 3960,
      "Ġcurrently": 3961,
      "ult": 3962,
      "Ġstressful": 3963,
      "Ġgener": 3964,
      "Ġobsess": 3965,
      "Ġblame": 3966,
      "Ġanxiously": 3967,
      "Ġnaturally": 3968,
      "Ġreading": 3969,
      "Ġspiral": 3970,
      "Ġignoring": 3971,
      "Ġremains": 3972,
      "Ġfinger": 3973,
      "Ġfingers": 3974,
      "Ġconcer": 3975,
      "ĠAHHH": 3976,
      "Ġanimated": 3977,
      "Ġautomatic": 3978,
      "ĠGRAD": 3979,
      "Ġheartbroken": 3980,
      "Ġshellfish": 3981,
      "Ġpodcast": 3982,
      "Ġcowor": 3983,
      "Ġridicul": 3984,
      "ĠHELLO": 3985,
      "Ġtransparent": 3986,
      "Ġhistory": 3987,
      "Ġbuddies": 3988,
      "ASE": 3989,
      "DAY": 3990,
      "eth": 3991,
      "gent": 3992,
      "nch": 3993,
      "sa": 3994,
      "ym": 3995,
      "Ġve": 3996,
      "ĠZOOM": 3997,
      "Ġthous": 3998,
      "Ġwed": 3999,
      "Ġbones": 4000,
      "Ġhid": 4001,
      "Ġnature": 4002,
      "Ġmech": 4003,
      "Ġpatch": 4004,
      "ctor": 4005,
      "Ġshining": 4006,
      "ĠTREAT": 4007,
      "Ġasleep": 4008,
      "Ġsafet": 4009,
      "Ġsalary": 4010,
      "ĠWITH": 4011,
      "Ġrude": 4012,
      "Ġeaten": 4013,
      "ĠSW": 4014,
      "ĠDAY": 4015,
      "Ġspecies": 4016,
      "Ġlistens": 4017,
      "ddle": 4018,
      "Ġguitar": 4019,
      "ĠCR": 4020,
      "Ġfinds": 4021,
      "Ġturns": 4022,
      "ĠPLA": 4023,
      "Ġgray": 4024,
      "Ġglows": 4025,
      "Ġvibes": 4026,
      "ĠEVER": 4027,
      "Ġcarries": 4028,
      "Ġtotal": 4029,
      "Ġride": 4030,
      "IDE": 4031,
      "Ġzone": 4032,
      "Ġdelicate": 4033,
      "Ġenerget": 4034,
      "Ġpatricia": 4035,
      "Ġdrop": 4036,
      "Ġconfir": 4037,
      "Ġbothering": 4038,
      "Ġpunish": 4039,
      "Ġdash": 4040,
      "Ġshimmering": 4041,
      "Ġredisco": 4042,
      "Ġaccidentally": 4043,
      "Ġuniverse": 4044,
      "Ġnicely": 4045,
      "Ġeffic": 4046,
      "ĠONE": 4047,
      "ĠOWN": 4048,
      "Ġhalfway": 4049,
      "continues": 4050,
      "Ġshocked": 4051,
      "Ġsurrounded": 4052,
      "Ġeventually": 4053,
      "Ġlanguage": 4054,
      "ĠMARRIED": 4055,
      "Ġsurvive": 4056,
      "Ġmixed": 4057,
      "Ġdrawing": 4058,
      "squints": 4059,
      "ĠWIGGLE": 4060,
      "Ġmiracle": 4061,
      "Ġdifficult": 4062,
      "Ġcaustic": 4063,
      "ĠGRADU": 4064,
      "Ġridiculous": 4065,
      "Ġthousand": 4066,
      "Ġsafety": 4067,
      "*...": 4068,
      "EC": 4069,
      "WW": 4070,
      "YY": 4071,
      "aur": 4072,
      "den": 4073,
      "eks": 4074,
      "gin": 4075,
      "mouth": 4076,
      "ta": 4077,
      "via": 4078,
      "Ġthin": 4079,
      "Ġwra": 4080,
      "Ġwinning": 4081,
      "rel": 4082,
      "Ġoli": 4083,
      "Ġgrat": 4084,
      "anoid": 4085,
      "steps": 4086,
      "Ġep": 4087,
      "Ġwast": 4088,
      "Ġisol": 4089,
      "edu": 4090,
      "Ġpops": 4091,
      "Ġkilling": 4092,
      "ica": 4093,
      "icke": 4094,
      "Ġur": 4095,
      "Ġmoti": 4096,
      "acting": 4097,
      "Ġscrat": 4098,
      "Ġconcent": 4099,
      "Ġblink": 4100,
      "Ġhole": 4101,
      "OULD": 4102,
      "Ġdisorient": 4103,
      "Ġpretend": 4104,
      "Ġprove": 4105,
      "ute": 4106,
      "Ġrach": 4107,
      "ĠAC": 4108,
      "ĠAR": 4109,
      "INS": 4110,
      "ĠFISH": 4111,
      "rated": 4112,
      "ĠMA": 4113,
      "anyway": 4114,
      "ĠBAD": 4115,
      "ĠHOU": 4116,
      "Ġrefresh": 4117,
      "Ġbelieves": 4118,
      "Ġpaid": 4119,
      "Ġadios": 4120,
      "Ġabsolute": 4121,
      "Ġdeeper": 4122,
      "Ġbrother": 4123,
      "ĠLet": 4124,
      "Ġsnow": 4125,
      "Ġsettles": 4126,
      "REAK": 4127,
      "Ġschedu": 4128,
      "Ġphot": 4129,
      "Ġrapid": 4130,
      "ĠHAPPEN": 4131,
      "Ġtyp": 4132,
      "ĠOFF": 4133,
      "Ġimpressive": 4134,
      "EAH": 4135,
      "Ġfeatures": 4136,
      "Ġfilled": 4137,
      "Ġmedia": 4138,
      "Ġfascinating": 4139,
      "Ġhobbies": 4140,
      "Ġshocking": 4141,
      "Ġunkind": 4142,
      "Ġchaos": 4143,
      "Ġtonight": 4144,
      "Ġphysic": 4145,
      "Ġversion": 4146,
      "Ġcritic": 4147,
      "Ġfootsteps": 4148,
      "ĠFEEL": 4149,
      "listens": 4150,
      "Ġannivers": 4151,
      "Ġinflation": 4152,
      "Ġinsurance": 4153,
      "ĠPROMOT": 4154,
      "Ġeternal": 4155,
      "Ġefficient": 4156,
      "Ġolivia": 4157,
      "Ġgratitude": 4158,
      "Ġrachel": 4159,
      "br": 4160,
      "ffe": 4161,
      "ground": 4162,
      "rink": 4163,
      "ract": 4164,
      "Ġtim": 4165,
      "Ġala": 4166,
      "res": 4167,
      "ery": 4168,
      "Ġdest": 4169,
      "Ġduring": 4170,
      "Ġgigg": 4171,
      "Ġgames": 4172,
      "Ġsoo": 4173,
      "Ġpea": 4174,
      "Ġpanicked": 4175,
      "iting": 4176,
      "ghter": 4177,
      "icle": 4178,
      "Ġcannot": 4179,
      "Ġglassy": 4180,
      "Ġthinks": 4181,
      "Ġflaw": 4182,
      "ote": 4183,
      "eable": 4184,
      "Ġsup": 4185,
      "Ġsumm": 4186,
      "Ġspook": 4187,
      "Ġvoices": 4188,
      "Ġsand": 4189,
      "Ġrealization": 4190,
      "Ġprogra": 4191,
      "fins": 4192,
      "ĠSt": 4193,
      "ĠSCH": 4194,
      "ĠFR": 4195,
      "Ġthoughtfully": 4196,
      "Ġfunction": 4197,
      "Ġfirm": 4198,
      "ĠBIG": 4199,
      "ATER": 4200,
      "Ġcleare": 4201,
      "Ġbelief": 4202,
      "Ġsunny": 4203,
      "Ġsunset": 4204,
      "ĠEN": 4205,
      "Ġworrying": 4206,
      "concent": 4207,
      "Ġfrustration": 4208,
      "ĠLOOK": 4209,
      "Ġdisappointing": 4210,
      "Ġincredibly": 4211,
      "comes": 4212,
      "SHIP": 4213,
      "sentence": 4214,
      "Ġdrink": 4215,
      "ĠJOY": 4216,
      "Ġsensitive": 4217,
      "Ġbooked": 4218,
      "Ġcreatures": 4219,
      "Ġcommute": 4220,
      "Ġdropping": 4221,
      "ICE": 4222,
      "Ġrelaxed": 4223,
      "Ġcopy": 4224,
      "ĠMOVED": 4225,
      "Ġstanding": 4226,
      "Ġpowerful": 4227,
      "Ġimpressed": 4228,
      "Ġjudgment": 4229,
      "Ġdefensive": 4230,
      "Ġpromises": 4231,
      "Ġ100": 4232,
      "Ġvibe": 4233,
      "Ġleafy": 4234,
      "Ġbesides": 4235,
      "Ġheavier": 4236,
      "ĠBABY": 4237,
      "Ġschedule": 4238,
      "Ġanniversary": 4239,
      "ffee": 4240,
      "Ġalarm": 4241,
      "Ġprogram": 4242,
      "*.": 4243,
      "?'": 4244,
      "GRY": 4245,
      "LI": 4246,
      "RAT": 4247,
      "VING": 4248,
      "VED": 4249,
      "VOR": 4250,
      "aw": 4251,
      "ber": 4252,
      "but": 4253,
      "ceable": 4254,
      "dis": 4255,
      "kers": 4256,
      "old": 4257,
      "pro": 4258,
      "vin": 4259,
      "ww": 4260,
      "zen": 4261,
      "Ġice": 4262,
      "ative": 4263,
      "atically": 4264,
      "Ġyouth": 4265,
      "Ġfro": 4266,
      "Ġflex": 4267,
      "Ġbills": 4268,
      "Ġbird": 4269,
      "Ġdie": 4270,
      "Ġhm": 4271,
      "Ġhon": 4272,
      "Ġhim": 4273,
      "Ġori": 4274,
      "Ġnoo": 4275,
      "Ġgym": 4276,
      "eling": 4277,
      "Ġpal": 4278,
      "Ġpark": 4279,
      "vering": 4280,
      "Ġbuzz": 4281,
      "Ġjess": 4282,
      "Ġnois": 4283,
      "Ġstep": 4284,
      "Ġohhh": 4285,
      "Ġswirl": 4286,
      "Ġknowled": 4287,
      "iled": 4288,
      "Ġaging": 4289,
      "ĠYEAH": 4290,
      "Ġcoffee": 4291,
      "roll": 4292,
      "Ġspaces": 4293,
      "Ġthemselves": 4294,
      "Ġblow": 4295,
      "Ġhumble": 4296,
      "Ġimpat": 4297,
      "ĠSEE": 4298,
      "Ġlead": 4299,
      "ĠMINE": 4300,
      "ĠOKAY": 4301,
      "ĠHi": 4302,
      "Ġbelieved": 4303,
      "Ġslipping": 4304,
      "Ġusual": 4305,
      "Ġcurse": 4306,
      "ĠMEAN": 4307,
      "Ġtopic": 4308,
      "Ġriddle": 4309,
      "Ġappearance": 4310,
      "Ġmysteries": 4311,
      "Ġescaping": 4312,
      "Ġreaches": 4313,
      "Ġjumping": 4314,
      "forgot": 4315,
      "ĠThere": 4316,
      "ĠRA": 4317,
      "Ġposition": 4318,
      "Ġtreats": 4319,
      "Ġdarted": 4320,
      "Ġsinking": 4321,
      "ĠFAVOR": 4322,
      "ĠNEWS": 4323,
      "Ġsettling": 4324,
      "Ġcopying": 4325,
      "Ġoverwhelming": 4326,
      "Ġtravels": 4327,
      "Ġirre": 4328,
      "Ġiron": 4329,
      "Ġburst": 4330,
      "Ġconsistent": 4331,
      "Ġhypnotic": 4332,
      "Ġsatisfied": 4333,
      "Ġadopted": 4334,
      "Ġexercise": 4335,
      "spective": 4336,
      "Ġwedding": 4337,
      "Ġhidden": 4338,
      "Ġenergetic": 4339,
      "ĠHOUSE": 4340,
      "Ġjessica": 4341,
      "Ġknowledge": 4342,
      "ĠFAVORITE": 4343,
      "AH": 4344,
      "AU": 4345,
      "EAR": 4346,
      "FUL": 4347,
      "KED": 4348,
      "OSE": 4349,
      "SO": 4350,
      "SIDE": 4351,
      "ael": 4352,
      "ale": 4353,
      "back": 4354,
      "cing": 4355,
      "everything": 4356,
      "lp": 4357,
      "mes": 4358,
      "mid": 4359,
      "maybe": 4360,
      "ncy": 4361,
      "sor": 4362,
      "vent": 4363,
      "zing": 4364,
      "ĠVERY": 4365,
      "Ġtun": 4366,
      "Ġfire": 4367,
      "Ġboo": 4368,
      "Ġdust": 4369,
      "Ġdumb": 4370,
      "owed": 4371,
      "Ġcard": 4372,
      "Ġecon": 4373,
      "Ġwaved": 4374,
      "lear": 4375,
      "Ġinstant": 4376,
      "Ġstrate": 4377,
      "already": 4378,
      "Ġshoes": 4379,
      "Ġkinder": 4380,
      "Ġaller": 4381,
      "Ġloc": 4382,
      "Ġlogic": 4383,
      "Ġlovable": 4384,
      "Ġfaith": 4385,
      "Ġsmarter": 4386,
      "Ġupon": 4387,
      "Ġspo": 4388,
      "ifting": 4389,
      "Ġblush": 4390,
      "Ġperspective": 4391,
      "Ġdisconnected": 4392,
      "Ġcompare": 4393,
      "Ġpeek": 4394,
      "Ġimpro": 4395,
      "INNER": 4396,
      "solved": 4397,
      "ratory": 4398,
      "Ġdefine": 4399,
      "Ġgrand": 4400,
      "ichael": 4401,
      "Ġcareer": 4402,
      "ĠBRIGHT": 4403,
      "Ġunse": 4404,
      "Ġlisting": 4405,
      "Ġdissolving": 4406,
      "Ġteeth": 4407,
      "Ġpuppy": 4408,
      "Ġcalming": 4409,
      "igning": 4410,
      "ĠPLE": 4411,
      "Ġcrown": 4412,
      "Ġattack": 4413,
      "Ġcleaning": 4414,
      "Ġtaps": 4415,
      "ificant": 4416,
      "Ġrules": 4417,
      "Ġcurrents": 4418,
      "Ġjumpy": 4419,
      "eeze": 4420,
      "Ġsparkling": 4421,
      "Ġtricks": 4422,
      "Ġdroops": 4423,
      "Ġbegins": 4424,
      "Ġproblems": 4425,
      "GAGED": 4426,
      "Ġarticle": 4427,
      "Ġscari": 4428,
      "Ġbecoming": 4429,
      "BLISHED": 4430,
      "Ġlands": 4431,
      "ĠFALL": 4432,
      "ĠFAST": 4433,
      "Ġcopies": 4434,
      "Ġwispy": 4435,
      "Ġcheerful": 4436,
      "ĠPUBLISHED": 4437,
      "yaw": 4438,
      "ĠTWO": 4439,
      "Ġhobby": 4440,
      "Ġdevast": 4441,
      "Ġdramatic": 4442,
      "Ġbriefly": 4443,
      "Ġsophia": 4444,
      "Ġbene": 4445,
      "Ġflew": 4446,
      "Ġblessed": 4447,
      "Ġexperien": 4448,
      "ĠGRADUATED": 4449,
      "Ġphoto": 4450,
      "ĠENGAGED": 4451,
      "Ġstrategy": 4452,
      "AIT": 4453,
      "TED": 4454,
      "WAY": 4455,
      "bra": 4456,
      "cer": 4457,
      "cient": 4458,
      "ging": 4459,
      "ged": 4460,
      "grat": 4461,
      "gives": 4462,
      "leness": 4463,
      "mesmerized": 4464,
      "now": 4465,
      "night": 4466,
      "pre": 4467,
      "puff": 4468,
      "panics": 4469,
      "sid": 4470,
      "val": 4471,
      "yle": 4472,
      "Ġ2": 4473,
      "Ġ=": 4474,
      "Ġah": 4475,
      "Ġant": 4476,
      "Ġaqu": 4477,
      "Ġsigning": 4478,
      "atus": 4479,
      "Ġmill": 4480,
      "Ġmort": 4481,
      "Ġmater": 4482,
      "Ġfright": 4483,
      "Ġgrie": 4484,
      "ellet": 4485,
      "orable": 4486,
      "stop": 4487,
      "thes": 4488,
      "Ġeek": 4489,
      "ission": 4490,
      "ening": 4491,
      "Ġpellet": 4492,
      "Ġinno": 4493,
      "oomed": 4494,
      "Ġstood": 4495,
      "Ġstore": 4496,
      "alse": 4497,
      "Ġalice": 4498,
      "omy": 4499,
      "mbles": 4500,
      "Ġancient": 4501,
      "Ġtill": 4502,
      "Ġshivers": 4503,
      "Ġshines": 4504,
      "Ġshifting": 4505,
      "Ġloyal": 4506,
      "Ġchat": 4507,
      "Ġchild": 4508,
      "Ġspe": 4509,
      "Ġcongrat": 4510,
      "Ġvoid": 4511,
      "Ġheat": 4512,
      "Ġbackground": 4513,
      "Ġquality": 4514,
      "Ġcompetition": 4515,
      "Ġeats": 4516,
      "ĠAH": 4517,
      "ibility": 4518,
      "anding": 4519,
      "ĠFUN": 4520,
      "Ġbeauty": 4521,
      "Ġgentleness": 4522,
      "ĠBut": 4523,
      "ĠBREAK": 4524,
      "Ġcoolest": 4525,
      "Ġhopefully": 4526,
      "Ġgrew": 4527,
      "ERT": 4528,
      "Ġgulp": 4529,
      "Ġaffect": 4530,
      "Ġmoral": 4531,
      "Ġinvent": 4532,
      "LAR": 4533,
      "Ġspinny": 4534,
      "Ġadore": 4535,
      "Ġstocks": 4536,
      "Ġdetermined": 4537,
      "ARK": 4538,
      "Ġmessing": 4539,
      "Ġcrashes": 4540,
      "Ġplanning": 4541,
      "Ġenerg": 4542,
      "ĠRe": 4543,
      "ubs": 4544,
      "Ġsplashes": 4545,
      "Ġcommun": 4546,
      "Ġbendy": 4547,
      "Ġinspire": 4548,
      "Ġreaction": 4549,
      "Ġignored": 4550,
      "Ġkey": 4551,
      "ĠSomething": 4552,
      "ĠDEF": 4553,
      "Ġinternship": 4554,
      "Ġstretch": 4555,
      "Ġobservation": 4556,
      "Ġsubject": 4557,
      "Ġsearching": 4558,
      "secure": 4559,
      "Ġsuccess": 4560,
      "placeable": 4561,
      "Ġcommitted": 4562,
      "Ġinvestigate": 4563,
      "RPRI": 4564,
      "Ġcompanion": 4565,
      "Ġveget": 4566,
      "Ġtiming": 4567,
      "Ġclearer": 4568,
      "concentrates": 4569,
      "Ġorigin": 4570,
      "Ġimpatient": 4571,
      "ĠRAISE": 4572,
      "Ġirreplaceable": 4573,
      "Ġunseen": 4574,
      "yawns": 4575,
      "Ġdevastated": 4576,
      "Ġbeneath": 4577,
      "Ġmillion": 4578,
      "Ġmaterial": 4579,
      "!'": 4580,
      "GER": 4581,
      "OLAR": 4582,
      "cal": 4583,
      "dist": 4584,
      "dizzy": 4585,
      "fle": 4586,
      "fying": 4587,
      "gla": 4588,
      "gid": 4589,
      "ikes": 4590,
      "nown": 4591,
      "ob": 4592,
      "sy": 4593,
      "sized": 4594,
      "your": 4595,
      "Ġamb": 4596,
      "Ġbass": 4597,
      "Ġdi": 4598,
      "Ġdate": 4599,
      "Ġhor": 4600,
      "Ġnon": 4601,
      "Ġgas": 4602,
      "ano": 4603,
      "Ġlied": 4604,
      "enn": 4605,
      "ened": 4606,
      "ited": 4607,
      "vement": 4608,
      "Ġinsecure": 4609,
      "Ġnovel": 4610,
      "Ġwatery": 4611,
      "Ġusing": 4612,
      "Ġgoals": 4613,
      "Ġneigh": 4614,
      "Ġswum": 4615,
      "Ġangle": 4616,
      "Ġweigh": 4617,
      "Ġwhose": 4618,
      "Ġmagn": 4619,
      "ctly": 4620,
      "Ġallig": 4621,
      "ments": 4622,
      "Ġwherever": 4623,
      "Ġcolored": 4624,
      "Ġcher": 4625,
      "ĠWho": 4626,
      "Ġprep": 4627,
      "abel": 4628,
      "absolut": 4629,
      "Ġplus": 4630,
      "Ġpartic": 4631,
      "Ġring": 4632,
      "IND": 4633,
      "INK": 4634,
      "finitely": 4635,
      "ĠSee": 4636,
      "ĠFORE": 4637,
      "Ġcomedy": 4638,
      "Ġhiya": 4639,
      "ĠDONE": 4640,
      "ATE": 4641,
      "Ġfurious": 4642,
      "whatever": 4643,
      "ĠGood": 4644,
      "ĠGET": 4645,
      "ipation": 4646,
      "Ġcircular": 4647,
      "ĠWHY": 4648,
      "curious": 4649,
      "Ġquietly": 4650,
      "ĠNOM": 4651,
      "loops": 4652,
      "OOL": 4653,
      "RILL": 4654,
      "reaming": 4655,
      "Ġpurple": 4656,
      "Ġcontinu": 4657,
      "Ġfollows": 4658,
      "lio": 4659,
      "Ġsnap": 4660,
      "Ġreached": 4661,
      "moves": 4662,
      "Ġrises": 4663,
      "Ġwalked": 4664,
      "ĠANY": 4665,
      "IRD": 4666,
      "Ġarrives": 4667,
      "focu": 4668,
      "worthy": 4669,
      "Ġinterview": 4670,
      "Ġbuilds": 4671,
      "ĠSHE": 4672,
      "ĠTOP": 4673,
      "ĠOUTSIDE": 4674,
      "ĠLIKE": 4675,
      "Ġspirals": 4676,
      "Ġtyler": 4677,
      "UNCH": 4678,
      "Ġpowerless": 4679,
      "ĠSURPRI": 4680,
      "ĠINCOMING": 4681,
      "Ġjudging": 4682,
      "Ġkept": 4683,
      "Ġtwitching": 4684,
      "controll": 4685,
      "Ġenthusiasm": 4686,
      "Ġsoulm": 4687,
      "Ġrobert": 4688,
      "monst": 4689,
      "Ġtypical": 4690,
      "Ġgiggle": 4691,
      "Ġsoothing": 4692,
      "ĠSCHOLAR": 4693,
      "sorb": 4694,
      "ĠPLEASE": 4695,
      "Ġscariest": 4696,
      "puffs": 4697,
      "Ġantic": 4698,
      "Ġenergized": 4699,
      "Ġneighb": 4700,
      "Ġalligator": 4701,
      "ĠFOREVER": 4702,
      "ĠSCHOLARSHIP": 4703,
      "LO": 4704,
      "SED": 4705,
      "WAIT": 4706,
      "bit": 4707,
      "catches": 4708,
      "cense": 4709,
      "ior": 4710,
      "rubs": 4711,
      "sm": 4712,
      "tastic": 4713,
      "Ġtrou": 4714,
      "Ġtang": 4715,
      "Ġsna": 4716,
      "relax": 4717,
      "refle": 4718,
      "Ġyikes": 4719,
      "Ġmay": 4720,
      "Ġfits": 4721,
      "Ġfalse": 4722,
      "Ġdying": 4723,
      "Ġcity": 4724,
      "Ġgill": 4725,
      "Ġdoctor": 4726,
      "Ġsober": 4727,
      "Ġech": 4728,
      "Ġliking": 4729,
      "Ġlicense": 4730,
      "Ġpad": 4731,
      "Ġbuilt": 4732,
      "Ġresu": 4733,
      "Ġreacting": 4734,
      "Ġstyle": 4735,
      "Ġabsorb": 4736,
      "Ġseason": 4737,
      "Ġexit": 4738,
      "bbing": 4739,
      "ceed": 4740,
      "Ġheater": 4741,
      "Ġoutta": 4742,
      "Ġsave": 4743,
      "OUD": 4744,
      "OUGH": 4745,
      "ables": 4746,
      "Ġsounded": 4747,
      "Ġcomparing": 4748,
      "uts": 4749,
      "Ġrather": 4750,
      "Ġracing": 4751,
      "ĠAS": 4752,
      "Ġstartle": 4753,
      "ĠFU": 4754,
      "Ġsoftness": 4755,
      "ĠOVER": 4756,
      "ĠDon": 4757,
      "Ġcooked": 4758,
      "Ġuncontroll": 4759,
      "Ġdissolve": 4760,
      "Ġrestaur": 4761,
      "Ġclosed": 4762,
      "Ġtwins": 4763,
      "Ġlasted": 4764,
      "ĠTHEM": 4765,
      "reak": 4766,
      "Ġcounted": 4767,
      "onestly": 4768,
      "Ġglide": 4769,
      "ager": 4770,
      "Ġcelebratory": 4771,
      "Ġdeepest": 4772,
      "athan": 4773,
      "Ġopened": 4774,
      "Ġclick": 4775,
      "Ġbounces": 4776,
      "Ġrigid": 4777,
      "Ġdecis": 4778,
      "Ġtasted": 4779,
      "Ġpaint": 4780,
      "Ġruined": 4781,
      "Ġrumbling": 4782,
      "Ġzoomed": 4783,
      "ĠBUD": 4784,
      "ĠDOES": 4785,
      "Ġdrops": 4786,
      "Ġenjoying": 4787,
      "Ġcauti": 4788,
      "Ġarriving": 4789,
      "ĠSTILL": 4790,
      "Ġsplashed": 4791,
      "Ġdisappearing": 4792,
      "Ġsquare": 4793,
      "ivid": 4794,
      "Ġtingling": 4795,
      "Ġcrying": 4796,
      "Ġunclear": 4797,
      "Ġdriving": 4798,
      "Ġahhhh": 4799,
      "Ġtextured": 4800,
      "Ġphilosoph": 4801,
      "Ġspreading": 4802,
      "Ġvanishes": 4803,
      "Ġgraceful": 4804,
      "Ġinstru": 4805,
      "ĠLEA": 4806,
      "Ġswaying": 4807,
      "Ġrelief": 4808,
      "Ġstrangers": 4809,
      "Ġconsciousness": 4810,
      "Ġsignificant": 4811,
      "Ġkids": 4812,
      "ĠTWINS": 4813,
      "Ġclass": 4814,
      "Ġunknown": 4815,
      "Ġrandomly": 4816,
      "Ġpractice": 4817,
      "Ġtechn": 4818,
      "Ġcrushed": 4819,
      "Ġreplaced": 4820,
      "Ġaccomplishment": 4821,
      "Ġdelighted": 4822,
      "Ġvaluable": 4823,
      "Ġoccurred": 4824,
      "Ġconnects": 4825,
      "ĠFEED": 4826,
      "Ġcoworker": 4827,
      "Ġisolating": 4828,
      "ĠPROMOTED": 4829,
      "Ġflexible": 4830,
      "ĠFALLING": 4831,
      "Ġaquatic": 4832,
      "ĠRemember": 4833,
      "ĠDEFIN": 4834,
      "Ġuncontrollably": 4835,
      "Ġrestaurant": 4836,
      "?âĢĶ": 4837,
      "TING": 4838,
      "count": 4839,
      "ey": 4840,
      "eat": 4841,
      "hor": 4842,
      "iel": 4843,
      "iles": 4844,
      "rot": 4845,
      "rang": 4846,
      "rushes": 4847,
      "try": 4848,
      "Ġ3": 4849,
      "Ġtension": 4850,
      "Ġwid": 4851,
      "Ġwound": 4852,
      "inc": 4853,
      "Ġsick": 4854,
      "Ġmmm": 4855,
      "Ġmunch": 4856,
      "Ġmichael": 4857,
      "Ġthera": 4858,
      "Ġfan": 4859,
      "Ġfif": 4860,
      "Ġnap": 4861,
      "Ġcous": 4862,
      "Ġcert": 4863,
      "orge": 4864,
      "Ġsold": 4865,
      "Ġegg": 4866,
      "eng": 4867,
      "enter": 4868,
      "rible": 4869,
      "Ġrev": 4870,
      "Ġrequ": 4871,
      "Ġresent": 4872,
      "Ġsomeday": 4873,
      "Ġstom": 4874,
      "Ġstate": 4875,
      "Ġstorm": 4876,
      "Ġsteps": 4877,
      "Ġwash": 4878,
      "Ġmode": 4879,
      "Ġswimmer": 4880,
      "Ġext": 4881,
      "che": 4882,
      "bbly": 4883,
      "Ġsha": 4884,
      "Ġshim": 4885,
      "ural": 4886,
      "Ġwarms": 4887,
      "Ġmomentum": 4888,
      "when": 4889,
      "Ġtails": 4890,
      "ĠTime": 4891,
      "Ġsaving": 4892,
      "astically": 4893,
      "Ġstillness": 4894,
      "Ġperform": 4895,
      "ĠWATER": 4896,
      "Ġpred": 4897,
      "Ġdaytime": 4898,
      "ights": 4899,
      "Ġneeding": 4900,
      "ĠSONG": 4901,
      "ĠSOUND": 4902,
      "umps": 4903,
      "Ġslowing": 4904,
      "Ġpolit": 4905,
      "ĠBIR": 4906,
      "ĠDINNER": 4907,
      "Ġuns": 4908,
      "ĠNICE": 4909,
      "Ġrested": 4910,
      "Ġtrustworthy": 4911,
      "Ġcorre": 4912,
      "Ġbothered": 4913,
      "Ġreflections": 4914,
      "ĠCOMING": 4915,
      "ĠCOLD": 4916,
      "ĠWANT": 4917,
      "Ġlasts": 4918,
      "anced": 4919,
      "Ġvibrates": 4920,
      "Ġcats": 4921,
      "ĠMEAL": 4922,
      "THDAY": 4923,
      "Ġimagining": 4924,
      "ĠDOING": 4925,
      "Ġcreative": 4926,
      "Ġstressing": 4927,
      "ĠRO": 4928,
      "Ġdrain": 4929,
      "Ġsweetest": 4930,
      "Ġweeke": 4931,
      "ĠTHINGS": 4932,
      "Ġsplashing": 4933,
      "Ġdisappears": 4934,
      "Ġshimmery": 4935,
      "folio": 4936,
      "Ġawareness": 4937,
      "Ġcrystal": 4938,
      "Ġpublic": 4939,
      "Ġrhymes": 4940,
      "Ġcrucial": 4941,
      "Ġblocked": 4942,
      "Ġconfidently": 4943,
      "Ġtype": 4944,
      "Ġpulling": 4945,
      "Ġcovering": 4946,
      "Ġtwitches": 4947,
      "Ġproper": 4948,
      "curre": 4949,
      "ITELY": 4950,
      "Ġreflecting": 4951,
      "Ġreturns": 4952,
      "Ġhumidity": 4953,
      "Ġorganized": 4954,
      "WHERE": 4955,
      "Ġwitty": 4956,
      "faded": 4957,
      "Ġroomm": 4958,
      "Ġportfolio": 4959,
      "Ġofficially": 4960,
      "Ġlazy": 4961,
      "Ġgeome": 4962,
      "ĠWEIRD": 4963,
      "Ġflinched": 4964,
      "Ġobsessed": 4965,
      "Ġwasting": 4966,
      "Ġscratch": 4967,
      "Ġrapidly": 4968,
      "Ġnoises": 4969,
      "Ġallergic": 4970,
      "distracted": 4971,
      "glass": 4972,
      "Ġcherish": 4973,
      "relaxes": 4974,
      "Ġmaya": 4975,
      "Ġresume": 4976,
      "ĠBUDDY": 4977,
      "ĠDEFINITELY": 4978,
      "ĠBIRTHDAY": 4979,
      ").": 4980,
      "ASH": 4981,
      "AIL": 4982,
      "MED": 4983,
      "ash": 4984,
      "bably": 4985,
      "dr": 4986,
      "dart": 4987,
      "eiling": 4988,
      "fix": 4989,
      "gul": 4990,
      "hood": 4991,
      "mis": 4992,
      "pa": 4993,
      "sound": 4994,
      "uter": 4995,
      "uely": 4996,
      "van": 4997,
      "vest": 4998,
      "vity": 4999,
      "zooming": 5000,
      "ĠLA": 5001,
      "Ġtu": 5002,
      "Ġtiring": 5003,
      "Ġack": 5004,
      "Ġdam": 5005,
      "Ġhen": 5006,
      "Ġhust": 5007,
      "Ġluc": 5008,
      "Ġcre": 5009,
      "Ġcenter": 5010,
      "Ġceiling": 5011,
      "Ġitch": 5012,
      "...\"": 5013,
      "Ġeager": 5014,
      "Ġisabel": 5015,
      "Ġmeals": 5016,
      "aylor": 5017,
      "Ġliked": 5018,
      "Ġpitter": 5019,
      "Ġforming": 5020,
      "Ġstir": 5021,
      "icated": 5022,
      "Ġorang": 5023,
      "Ġforgave": 5024,
      "Ġglaze": 5025,
      "Ġswall": 5026,
      "anted": 5027,
      "antly": 5028,
      "Ġseek": 5029,
      "Ġflapping": 5030,
      "Ġshy": 5031,
      "Ġamount": 5032,
      "ĠYEAR": 5033,
      "Ġloses": 5034,
      "Ġcomfor": 5035,
      "Ġscience": 5036,
      "Ġchuck": 5037,
      "Ġsuspicious": 5038,
      "Ġvol": 5039,
      "Ġsam": 5040,
      "aphor": 5041,
      "Ġreality": 5042,
      "Ġcomputer": 5043,
      "Ġprodu": 5044,
      "Ġprogress": 5045,
      "Ġrum": 5046,
      "ĠAD": 5047,
      "ĠACT": 5048,
      "Ġacting": 5049,
      "Ġaction": 5050,
      "Ġactiv": 5051,
      "Ġstudy": 5052,
      "Ġhelpless": 5053,
      "Ġdreamed": 5054,
      "Ġoverthinking": 5055,
      "ĠTHRILL": 5056,
      "Ġpointing": 5057,
      "Ġdreamy": 5058,
      "ĠORAN": 5059,
      "ĠBe": 5060,
      "ĠDid": 5061,
      "atching": 5062,
      "peeks": 5063,
      "Ġconfusedly": 5064,
      "Ġputting": 5065,
      "Ġmornings": 5066,
      "loop": 5067,
      "LECT": 5068,
      "Ġvibing": 5069,
      "Ġworthless": 5070,
      "Ġflutters": 5071,
      "Ġinclud": 5072,
      "Ġempti": 5073,
      "Ġmetaphor": 5074,
      "doesn": 5075,
      "ARY": 5076,
      "flates": 5077,
      "Ġexhaustion": 5078,
      "Ġnormally": 5079,
      "forget": 5080,
      "larity": 5081,
      "definitely": 5082,
      "Ġtrigg": 5083,
      "Ġdeserves": 5084,
      "ĠMOMENT": 5085,
      "ACT": 5086,
      "Ġfreezing": 5087,
      "someone": 5088,
      "Ġsolved": 5089,
      "Ġbothers": 5090,
      "Ġmanage": 5091,
      "Ġbegin": 5092,
      "ĠSTU": 5093,
      "ĠNEED": 5094,
      "ĠNEVER": 5095,
      "ĠREADY": 5096,
      "Ġpuns": 5097,
      "ĠHUN": 5098,
      "Ġblake": 5099,
      "ĠBET": 5100,
      "Ġadventures": 5101,
      "ĠSHOULD": 5102,
      "Ġthicker": 5103,
      "ĠAWWW": 5104,
      "Ġapologized": 5105,
      "ĠREF": 5106,
      "Ġpiano": 5107,
      "Ġstruggle": 5108,
      "Ġpermission": 5109,
      "Ġapproach": 5110,
      "Ġdeadline": 5111,
      "ĠAHHHH": 5112,
      "Ġemotional": 5113,
      "Ġlanguages": 5114,
      "Ġenthusiastically": 5115,
      "Ġviol": 5116,
      "Ġclosely": 5117,
      "Ġamuse": 5118,
      "Ġachievement": 5119
    },
    "merges": [
      [
        "Ġ",
        "t"
      ],
      [
        "Ġ",
        "i"
      ],
      [
        "Ġt",
        "h"
      ],
      [
        "Ġ",
        "w"
      ],
      [
        "Ġ",
        "a"
      ],
      [
        "o",
        "u"
      ],
      [
        "i",
        "n"
      ],
      [
        "Ġ",
        "s"
      ],
      [
        "r",
        "e"
      ],
      [
        "a",
        "t"
      ],
      [
        "Ġ",
        "y"
      ],
      [
        "Ġy",
        "ou"
      ],
      [
        "in",
        "g"
      ],
      [
        "Ġ",
        "m"
      ],
      [
        "Ġth",
        "e"
      ],
      [
        "Ġ",
        "f"
      ],
      [
        "Ġ",
        "b"
      ],
      [
        "e",
        "r"
      ],
      [
        "Ġ",
        "d"
      ],
      [
        ".",
        "."
      ],
      [
        "e",
        "s"
      ],
      [
        "Ġ",
        "h"
      ],
      [
        "n",
        "d"
      ],
      [
        "Ġw",
        "h"
      ],
      [
        "Ġ",
        "o"
      ],
      [
        "Ġ",
        "l"
      ],
      [
        "Ġ",
        "n"
      ],
      [
        "m",
        "e"
      ],
      [
        "o",
        "w"
      ],
      [
        "Ġ",
        "c"
      ],
      [
        "Ġ",
        "g"
      ],
      [
        "Ġi",
        "t"
      ],
      [
        "Ġd",
        "o"
      ],
      [
        "'",
        "s"
      ],
      [
        "a",
        "n"
      ],
      [
        "Ġa",
        "nd"
      ],
      [
        "e",
        "l"
      ],
      [
        "o",
        "r"
      ],
      [
        "s",
        "t"
      ],
      [
        "Ġwh",
        "at"
      ],
      [
        "t",
        "h"
      ],
      [
        "Ġs",
        "o"
      ],
      [
        "..",
        "."
      ],
      [
        "Ġ",
        "e"
      ],
      [
        "Ġw",
        "a"
      ],
      [
        "Ġi",
        "s"
      ],
      [
        "g",
        "h"
      ],
      [
        "Ġm",
        "e"
      ],
      [
        "Ġth",
        "at"
      ],
      [
        "a",
        "y"
      ],
      [
        "e",
        "d"
      ],
      [
        "l",
        "l"
      ],
      [
        "o",
        "n"
      ],
      [
        "Ġl",
        "i"
      ],
      [
        "i",
        "s"
      ],
      [
        "e",
        "n"
      ],
      [
        "Ġt",
        "o"
      ],
      [
        "'",
        "m"
      ],
      [
        "Ġ",
        "p"
      ],
      [
        "k",
        "e"
      ],
      [
        "Ġh",
        "a"
      ],
      [
        "v",
        "er"
      ],
      [
        "Ġb",
        "u"
      ],
      [
        "i",
        "t"
      ],
      [
        "l",
        "e"
      ],
      [
        "e",
        "re"
      ],
      [
        "v",
        "e"
      ],
      [
        "r",
        "i"
      ],
      [
        "Ġm",
        "y"
      ],
      [
        "gh",
        "t"
      ],
      [
        "Ġ",
        "*"
      ],
      [
        "e",
        "t"
      ],
      [
        "th",
        "ing"
      ],
      [
        "Ġf",
        "or"
      ],
      [
        "Ġ",
        "re"
      ],
      [
        "l",
        "a"
      ],
      [
        "Ġi",
        "n"
      ],
      [
        "Ġso",
        "me"
      ],
      [
        "o",
        "o"
      ],
      [
        "Ġ",
        "j"
      ],
      [
        "Ġb",
        "e"
      ],
      [
        "u",
        "st"
      ],
      [
        "'",
        "t"
      ],
      [
        "Ġn",
        "o"
      ],
      [
        "Ġw",
        "at"
      ],
      [
        "Ġli",
        "ke"
      ],
      [
        "Ġa",
        "re"
      ],
      [
        "a",
        "r"
      ],
      [
        "i",
        "d"
      ],
      [
        "Ġwat",
        "er"
      ],
      [
        "Ġs",
        "t"
      ],
      [
        "Ġf",
        "e"
      ],
      [
        "ou",
        "t"
      ],
      [
        "Ġbu",
        "t"
      ],
      [
        "Ġj",
        "ust"
      ],
      [
        "Ġyou",
        "r"
      ],
      [
        "Ġfe",
        "el"
      ],
      [
        "p",
        "p"
      ],
      [
        "'",
        "re"
      ],
      [
        "Ġo",
        "h"
      ],
      [
        "Ġ",
        "k"
      ],
      [
        "Ġe",
        "ver"
      ],
      [
        "l",
        "d"
      ],
      [
        "i",
        "c"
      ],
      [
        "Ġo",
        "r"
      ],
      [
        "Ġa",
        "b"
      ],
      [
        "Ġw",
        "i"
      ],
      [
        "Ġwa",
        "s"
      ],
      [
        "Ġ",
        "u"
      ],
      [
        "a",
        "d"
      ],
      [
        "Ġm",
        "o"
      ],
      [
        "i",
        "m"
      ],
      [
        "Ġg",
        "o"
      ],
      [
        "l",
        "y"
      ],
      [
        "s",
        "s"
      ],
      [
        "Ġfor",
        "g"
      ],
      [
        "a",
        "l"
      ],
      [
        "a",
        "ll"
      ],
      [
        "Ġab",
        "out"
      ],
      [
        "?",
        "?"
      ],
      [
        "ri",
        "ght"
      ],
      [
        "Ġn",
        "ow"
      ],
      [
        "a",
        "c"
      ],
      [
        "Ġth",
        "ing"
      ],
      [
        "Ġo",
        "n"
      ],
      [
        "Ġn",
        "e"
      ],
      [
        "Ġsome",
        "thing"
      ],
      [
        "Ġthe",
        "y"
      ],
      [
        "Ġwa",
        "it"
      ],
      [
        "Ġs",
        "e"
      ],
      [
        "Ġ",
        "right"
      ],
      [
        "Ġa",
        "l"
      ],
      [
        "Ġth",
        "is"
      ],
      [
        "r",
        "ou"
      ],
      [
        "Ġever",
        "y"
      ],
      [
        "s",
        "e"
      ],
      [
        "is",
        "h"
      ],
      [
        "k",
        "es"
      ],
      [
        "o",
        "m"
      ],
      [
        "g",
        "e"
      ],
      [
        "Ġo",
        "f"
      ],
      [
        "Ġha",
        "pp"
      ],
      [
        "Ġthe",
        "re"
      ],
      [
        "Ġh",
        "ow"
      ],
      [
        "n",
        "t"
      ],
      [
        "el",
        "l"
      ],
      [
        "l",
        "es"
      ],
      [
        "Ġdo",
        "n"
      ],
      [
        "Ġg",
        "la"
      ],
      [
        "Ġc",
        "an"
      ],
      [
        "Ġh",
        "ere"
      ],
      [
        "Ġs",
        "w"
      ],
      [
        "Ġgla",
        "ss"
      ],
      [
        "!",
        "!"
      ],
      [
        "Ġd",
        "id"
      ],
      [
        "i",
        "r"
      ],
      [
        "an",
        "t"
      ],
      [
        "Ġf",
        "in"
      ],
      [
        "m",
        "b"
      ],
      [
        "â",
        "Ģ"
      ],
      [
        "âĢ",
        "Ķ"
      ],
      [
        "in",
        "k"
      ],
      [
        "Ġk",
        "n"
      ],
      [
        "Ġforg",
        "et"
      ],
      [
        "a",
        "in"
      ],
      [
        "an",
        "ge"
      ],
      [
        "w",
        "ay"
      ],
      [
        "oo",
        "d"
      ],
      [
        "Ġha",
        "ve"
      ],
      [
        "on",
        "e"
      ],
      [
        "Ġkn",
        "ow"
      ],
      [
        "es",
        "t"
      ],
      [
        "Ġa",
        "n"
      ],
      [
        "ow",
        "l"
      ],
      [
        "Ġb",
        "owl"
      ],
      [
        "mb",
        "er"
      ],
      [
        "Ġno",
        "t"
      ],
      [
        "Ġre",
        "me"
      ],
      [
        "in",
        "d"
      ],
      [
        "Ġw",
        "e"
      ],
      [
        "Ġth",
        "ink"
      ],
      [
        "Ġse",
        "e"
      ],
      [
        "i",
        "on"
      ],
      [
        "Ġreme",
        "mber"
      ],
      [
        "b",
        "e"
      ],
      [
        "Ġf",
        "la"
      ],
      [
        "Ġwi",
        "th"
      ],
      [
        "f",
        "u"
      ],
      [
        "all",
        "y"
      ],
      [
        "Ġ",
        "..."
      ],
      [
        "Ġsw",
        "im"
      ],
      [
        "i",
        "l"
      ],
      [
        "Ġe",
        "x"
      ],
      [
        "c",
        "h"
      ],
      [
        "Ġwh",
        "o"
      ],
      [
        "Ġm",
        "a"
      ],
      [
        "a",
        "re"
      ],
      [
        "Ġor",
        "ange"
      ],
      [
        "Ġt",
        "i"
      ],
      [
        "Ġw",
        "or"
      ],
      [
        "Ġa",
        "g"
      ],
      [
        "c",
        "t"
      ],
      [
        "k",
        "ing"
      ],
      [
        "Ġfla",
        "kes"
      ],
      [
        "o",
        "t"
      ],
      [
        "ay",
        "be"
      ],
      [
        "?",
        "!"
      ],
      [
        "Ġy",
        "es"
      ],
      [
        "Ġm",
        "aybe"
      ],
      [
        "Ġwh",
        "en"
      ],
      [
        "Ġ",
        "I"
      ],
      [
        "Ġa",
        "t"
      ],
      [
        "m",
        "p"
      ],
      [
        "b",
        "b"
      ],
      [
        "r",
        "y"
      ],
      [
        "Ġs",
        "h"
      ],
      [
        "g",
        "g"
      ],
      [
        "Ġevery",
        "thing"
      ],
      [
        "u",
        "r"
      ],
      [
        "t",
        "er"
      ],
      [
        "Ġt",
        "a"
      ],
      [
        "el",
        "y"
      ],
      [
        "ic",
        "e"
      ],
      [
        "Ġg",
        "ood"
      ],
      [
        "Ġt",
        "ell"
      ],
      [
        "Ġthe",
        "n"
      ],
      [
        "Ġag",
        "ain"
      ],
      [
        "Ġk",
        "ind"
      ],
      [
        "Ġl",
        "oo"
      ],
      [
        "Ġwh",
        "y"
      ],
      [
        "ar",
        "t"
      ],
      [
        "a",
        "me"
      ],
      [
        "r",
        "a"
      ],
      [
        "Ġa",
        "m"
      ],
      [
        "l",
        "o"
      ],
      [
        "ou",
        "gh"
      ],
      [
        "Ġbu",
        "bb"
      ],
      [
        "s",
        "h"
      ],
      [
        "Ġti",
        "me"
      ],
      [
        "a",
        "u"
      ],
      [
        "Ġa",
        "ll"
      ],
      [
        "fu",
        "l"
      ],
      [
        "r",
        "m"
      ],
      [
        "Ġdo",
        "es"
      ],
      [
        "e",
        "p"
      ],
      [
        "Ġwa",
        "rm"
      ],
      [
        "Ġhapp",
        "en"
      ],
      [
        "i",
        "ll"
      ],
      [
        "o",
        "p"
      ],
      [
        "me",
        "nt"
      ],
      [
        "Ġ",
        "Y"
      ],
      [
        "Ġli",
        "ght"
      ],
      [
        "Ġl",
        "o"
      ],
      [
        "e",
        "nd"
      ],
      [
        "e",
        "a"
      ],
      [
        "Ġc",
        "om"
      ],
      [
        "ou",
        "ld"
      ],
      [
        "Ġf",
        "a"
      ],
      [
        "Ġwh",
        "ere"
      ],
      [
        "rou",
        "nd"
      ],
      [
        "Ġf",
        "ish"
      ],
      [
        "Ġan",
        "y"
      ],
      [
        "es",
        "s"
      ],
      [
        "Ġthing",
        "s"
      ],
      [
        "Ġfin",
        "s"
      ],
      [
        "o",
        "re"
      ],
      [
        "en",
        "t"
      ],
      [
        "Ġs",
        "c"
      ],
      [
        "rou",
        "gh"
      ],
      [
        "Ġc",
        "o"
      ],
      [
        "Ġs",
        "m"
      ],
      [
        "way",
        "s"
      ],
      [
        "Ġne",
        "w"
      ],
      [
        "th",
        "er"
      ],
      [
        "ri",
        "end"
      ],
      [
        "o",
        "nd"
      ],
      [
        "Ġal",
        "ways"
      ],
      [
        "Ġn",
        "ice"
      ],
      [
        "Ġu",
        "p"
      ],
      [
        "Ġf",
        "riend"
      ],
      [
        "k",
        "ay"
      ],
      [
        "r",
        "o"
      ],
      [
        "Ġhapp",
        "y"
      ],
      [
        "Ġth",
        "rough"
      ],
      [
        "Ġo",
        "kay"
      ],
      [
        "Ġfeel",
        "s"
      ],
      [
        "Ġg",
        "et"
      ],
      [
        "Ġc",
        "h"
      ],
      [
        "Ġf",
        "r"
      ],
      [
        "Ġs",
        "u"
      ],
      [
        "Ġs",
        "p"
      ],
      [
        "m",
        "ing"
      ],
      [
        "Ġbe",
        "ing"
      ],
      [
        "c",
        "e"
      ],
      [
        "Ġu",
        "m"
      ],
      [
        "v",
        "ing"
      ],
      [
        "i",
        "f"
      ],
      [
        "t",
        "t"
      ],
      [
        "ir",
        "c"
      ],
      [
        "Ġto",
        "o"
      ],
      [
        "Ġthe",
        "m"
      ],
      [
        "im",
        "es"
      ],
      [
        "Ġe",
        "n"
      ],
      [
        "Ġloo",
        "k"
      ],
      [
        "f",
        "e"
      ],
      [
        "Ġc",
        "on"
      ],
      [
        "Ġ",
        "v"
      ],
      [
        "Ġwi",
        "gg"
      ],
      [
        "Ġbubb",
        "les"
      ],
      [
        "an",
        "k"
      ],
      [
        "Ġs",
        "ay"
      ],
      [
        "ad",
        "y"
      ],
      [
        "Ġmo",
        "ment"
      ],
      [
        "Ġon",
        "e"
      ],
      [
        "ac",
        "k"
      ],
      [
        "lo",
        "at"
      ],
      [
        "Ġw",
        "ere"
      ],
      [
        "Ġswim",
        "ming"
      ],
      [
        "Ġb",
        "l"
      ],
      [
        "s",
        "o"
      ],
      [
        "w",
        "h"
      ],
      [
        "Ġta",
        "il"
      ],
      [
        "Ġdo",
        "ing"
      ],
      [
        "Ġsome",
        "t"
      ],
      [
        "Ġsomet",
        "imes"
      ],
      [
        "u",
        "n"
      ],
      [
        "Ġi",
        "f"
      ],
      [
        "q",
        "u"
      ],
      [
        "Ġfr",
        "om"
      ],
      [
        "Ġf",
        "loat"
      ],
      [
        "Ġ",
        "T"
      ],
      [
        "Ġl",
        "on"
      ],
      [
        "Ġsome",
        "one"
      ],
      [
        "Ġb",
        "i"
      ],
      [
        "Ġforg",
        "ot"
      ],
      [
        "Ġh",
        "e"
      ],
      [
        "Ġd",
        "e"
      ],
      [
        "f",
        "t"
      ],
      [
        "Ġen",
        "ough"
      ],
      [
        "r",
        "d"
      ],
      [
        "Ġa",
        "s"
      ],
      [
        "Ġsm",
        "all"
      ],
      [
        "ou",
        "nd"
      ],
      [
        "Ġ",
        "out"
      ],
      [
        "E",
        "S"
      ],
      [
        "Ġa",
        "round"
      ],
      [
        "i",
        "ve"
      ],
      [
        "Ġme",
        "an"
      ],
      [
        "Ġs",
        "a"
      ],
      [
        "Ġha",
        "rd"
      ],
      [
        "v",
        "en"
      ],
      [
        "el",
        "f"
      ],
      [
        "Ġh",
        "o"
      ],
      [
        "a",
        "st"
      ],
      [
        "Ġbe",
        "c"
      ],
      [
        "Ġst",
        "ill"
      ],
      [
        "ver",
        "y"
      ],
      [
        "Ġp",
        "er"
      ],
      [
        "Ġre",
        "ally"
      ],
      [
        "Ġt",
        "al"
      ],
      [
        "Ġ",
        "W"
      ],
      [
        "Ġma",
        "kes"
      ],
      [
        "au",
        "se"
      ],
      [
        "irc",
        "les"
      ],
      [
        "t",
        "ing"
      ],
      [
        "c",
        "it"
      ],
      [
        "re",
        "ady"
      ],
      [
        "d",
        "ay"
      ],
      [
        "Ġb",
        "ack"
      ],
      [
        "id",
        "e"
      ],
      [
        "Ġb",
        "est"
      ],
      [
        "Ġal",
        "ready"
      ],
      [
        "O",
        "U"
      ],
      [
        "Ġn",
        "ame"
      ],
      [
        "ke",
        "ep"
      ],
      [
        "ou",
        "s"
      ],
      [
        "Ġ",
        "qu"
      ],
      [
        "a",
        "m"
      ],
      [
        "Ġgo",
        "t"
      ],
      [
        "Ġwho",
        "le"
      ],
      [
        "Ġbec",
        "ause"
      ],
      [
        "i",
        "st"
      ],
      [
        "Ġin",
        "t"
      ],
      [
        "Ġs",
        "l"
      ],
      [
        "Ġ",
        "very"
      ],
      [
        "Ġd",
        "is"
      ],
      [
        "Ġb",
        "o"
      ],
      [
        "Ġp",
        "re"
      ],
      [
        "s",
        "elf"
      ],
      [
        "Ġ",
        "keep"
      ],
      [
        "Ġw",
        "ant"
      ],
      [
        "a",
        "b"
      ],
      [
        "if",
        "f"
      ],
      [
        "Ġw",
        "ond"
      ],
      [
        "Ġgo",
        "ld"
      ],
      [
        "Ġhappen",
        "ed"
      ],
      [
        "Ġwond",
        "er"
      ],
      [
        "a",
        "p"
      ],
      [
        "Ġd",
        "iff"
      ],
      [
        "Ġne",
        "ver"
      ],
      [
        "d",
        "y"
      ],
      [
        "Ġdiff",
        "ere"
      ],
      [
        "Ġb",
        "y"
      ],
      [
        "Ġlo",
        "ve"
      ],
      [
        "Ġs",
        "ound"
      ],
      [
        "Ġex",
        "cit"
      ],
      [
        "at",
        "ion"
      ],
      [
        "Ġwa",
        "y"
      ],
      [
        "ac",
        "e"
      ],
      [
        "Ġa",
        "w"
      ],
      [
        "Ġe",
        "ven"
      ],
      [
        "v",
        "ed"
      ],
      [
        "c",
        "k"
      ],
      [
        "it",
        "e"
      ],
      [
        "Ġg",
        "one"
      ],
      [
        "or",
        "t"
      ],
      [
        "Ġp",
        "l"
      ],
      [
        "a",
        "s"
      ],
      [
        "Ġd",
        "ay"
      ],
      [
        "Ġre",
        "al"
      ],
      [
        "ĠY",
        "OU"
      ],
      [
        "Ġdiffere",
        "nt"
      ],
      [
        "n",
        "ess"
      ],
      [
        "Ġli",
        "tt"
      ],
      [
        "Ġlitt",
        "le"
      ],
      [
        "f",
        "ish"
      ],
      [
        "'",
        "ll"
      ],
      [
        "Ġmo",
        "ve"
      ],
      [
        "Ġth",
        "ough"
      ],
      [
        "Ġm",
        "ad"
      ],
      [
        "Ġgo",
        "ing"
      ],
      [
        "i",
        "ght"
      ],
      [
        "Ġcom",
        "p"
      ],
      [
        "Ġfeel",
        "ing"
      ],
      [
        "l",
        "ing"
      ],
      [
        "at",
        "ter"
      ],
      [
        "re",
        "at"
      ],
      [
        "Ġp",
        "ro"
      ],
      [
        "Ġbi",
        "g"
      ],
      [
        "Ġp",
        "art"
      ],
      [
        "Ġgold",
        "fish"
      ],
      [
        "Ġw",
        "ould"
      ],
      [
        "Ġwi",
        "ll"
      ],
      [
        "Ġp",
        "e"
      ],
      [
        "Ġse",
        "c"
      ],
      [
        "u",
        "t"
      ],
      [
        "u",
        "ally"
      ],
      [
        "Ġj",
        "o"
      ],
      [
        "Ġ",
        "r"
      ],
      [
        "Ġt",
        "r"
      ],
      [
        "Ġe",
        "at"
      ],
      [
        "Ġbl",
        "ank"
      ],
      [
        "Ġma",
        "ke"
      ],
      [
        "Ġst",
        "ay"
      ],
      [
        "Ġa",
        "way"
      ],
      [
        "Ġt",
        "ry"
      ],
      [
        "u",
        "re"
      ],
      [
        "Ġm",
        "u"
      ],
      [
        "Ġ",
        "A"
      ],
      [
        "or",
        "y"
      ],
      [
        "Ġh",
        "u"
      ],
      [
        "Ġi",
        "mp"
      ],
      [
        "Ġmad",
        "e"
      ],
      [
        "s",
        "ed"
      ],
      [
        "ou",
        "ght"
      ],
      [
        "Ġst",
        "art"
      ],
      [
        "o",
        "se"
      ],
      [
        "v",
        "or"
      ],
      [
        "i",
        "b"
      ],
      [
        "or",
        "ry"
      ],
      [
        "Ġc",
        "ircles"
      ],
      [
        "Ġwigg",
        "le"
      ],
      [
        "'",
        "ve"
      ],
      [
        "wh",
        "ere"
      ],
      [
        "Ġexcit",
        "ed"
      ],
      [
        "Ġa",
        "ct"
      ],
      [
        "Ġs",
        "ad"
      ],
      [
        "Ġmo",
        "re"
      ],
      [
        "I",
        "N"
      ],
      [
        "n",
        "ing"
      ],
      [
        "Ġsee",
        "m"
      ],
      [
        "Ġmo",
        "ving"
      ],
      [
        "al",
        "es"
      ],
      [
        "Ġmo",
        "st"
      ],
      [
        "x",
        "t"
      ],
      [
        "Ġm",
        "atter"
      ],
      [
        "Ġsc",
        "ales"
      ],
      [
        "Ġs",
        "ame"
      ],
      [
        "Ġfa",
        "vor"
      ],
      [
        "ell",
        "o"
      ],
      [
        "ac",
        "h"
      ],
      [
        "Ġne",
        "ed"
      ],
      [
        "Ġfavor",
        "ite"
      ],
      [
        "f",
        "in"
      ],
      [
        "f",
        "ore"
      ],
      [
        "Ġh",
        "ello"
      ],
      [
        "ĠY",
        "ES"
      ],
      [
        "t",
        "i"
      ],
      [
        "re",
        "d"
      ],
      [
        "Ġ",
        "S"
      ],
      [
        "Ġpro",
        "b"
      ],
      [
        "Ġbe",
        "fore"
      ],
      [
        "ac",
        "t"
      ],
      [
        "in",
        "y"
      ],
      [
        "Ġb",
        "et"
      ],
      [
        "Ġf",
        "ood"
      ],
      [
        "Ġbubb",
        "le"
      ],
      [
        "u",
        "mp"
      ],
      [
        "so",
        "l"
      ],
      [
        "Ġho",
        "ld"
      ],
      [
        "Ġs",
        "orry"
      ],
      [
        "k",
        "s"
      ],
      [
        "Ġtal",
        "king"
      ],
      [
        "a",
        "nd"
      ],
      [
        "Ġ",
        "F"
      ],
      [
        "Ġmu",
        "ch"
      ],
      [
        "Ġst",
        "u"
      ],
      [
        "R",
        "E"
      ],
      [
        "Ġl",
        "e"
      ],
      [
        "Ġl",
        "ea"
      ],
      [
        "Ġh",
        "el"
      ],
      [
        "Ġh",
        "ur"
      ],
      [
        "Ġlon",
        "g"
      ],
      [
        "Ġth",
        "ought"
      ],
      [
        "Ġwonder",
        "ful"
      ],
      [
        "are",
        "d"
      ],
      [
        "Ġwor",
        "ld"
      ],
      [
        "ab",
        "ly"
      ],
      [
        "Ġf",
        "un"
      ],
      [
        "Ġso",
        "ft"
      ],
      [
        "r",
        "at"
      ],
      [
        "Ġco",
        "me"
      ],
      [
        "Ġsl",
        "ow"
      ],
      [
        "Ġf",
        "ir"
      ],
      [
        "Ġh",
        "i"
      ],
      [
        "nd",
        "er"
      ],
      [
        "Ġhel",
        "p"
      ],
      [
        "v",
        "es"
      ],
      [
        "fe",
        "ct"
      ],
      [
        "Ġto",
        "day"
      ],
      [
        "Ġne",
        "xt"
      ],
      [
        "an",
        "g"
      ],
      [
        "ow",
        "n"
      ],
      [
        "Ġd",
        "re"
      ],
      [
        "Ġfir",
        "st"
      ],
      [
        "ur",
        "p"
      ],
      [
        "Ġ",
        "M"
      ],
      [
        "le",
        "t"
      ],
      [
        "Ġha",
        "d"
      ],
      [
        "Ġyour",
        "self"
      ],
      [
        "Ġimp",
        "ort"
      ],
      [
        "Ġprob",
        "ably"
      ],
      [
        "Ġper",
        "fect"
      ],
      [
        "Ġhur",
        "t"
      ],
      [
        "Ġsa",
        "id"
      ],
      [
        "Ġimport",
        "ant"
      ],
      [
        "Ġo",
        "ver"
      ],
      [
        "Ġfa",
        "st"
      ],
      [
        "Ġact",
        "ually"
      ],
      [
        "Ġu",
        "nder"
      ],
      [
        "Ġany",
        "thing"
      ],
      [
        "Ġsound",
        "s"
      ],
      [
        "Ġ",
        "round"
      ],
      [
        "Ġaw",
        "w"
      ],
      [
        "Ġb",
        "r"
      ],
      [
        "es",
        "c"
      ],
      [
        "Ġint",
        "o"
      ],
      [
        "ĠT",
        "H"
      ],
      [
        "v",
        "el"
      ],
      [
        "e",
        "c"
      ],
      [
        "Ġfloat",
        "ing"
      ],
      [
        "Ġpl",
        "ant"
      ],
      [
        "Ġno",
        "thing"
      ],
      [
        "Ġp",
        "o"
      ],
      [
        "Ġwor",
        "d"
      ],
      [
        "Ġde",
        "fin"
      ],
      [
        "Ġb",
        "el"
      ],
      [
        "l",
        "or"
      ],
      [
        "Ġcon",
        "fu"
      ],
      [
        "Ġex",
        "p"
      ],
      [
        "ct",
        "ion"
      ],
      [
        "an",
        "y"
      ],
      [
        "Ġcomp",
        "let"
      ],
      [
        "Ġbu",
        "mp"
      ],
      [
        "Ġdre",
        "am"
      ],
      [
        "Ġf",
        "re"
      ],
      [
        "Ġo",
        "ther"
      ],
      [
        "Ġforget",
        "ting"
      ],
      [
        "pp",
        "ed"
      ],
      [
        "Ġli",
        "ve"
      ],
      [
        "Ġd",
        "own"
      ],
      [
        "Ġg",
        "ra"
      ],
      [
        "m",
        "m"
      ],
      [
        "Ġsec",
        "ond"
      ],
      [
        "ic",
        "h"
      ],
      [
        "s",
        "p"
      ],
      [
        "Ġbe",
        "au"
      ],
      [
        "s",
        "ide"
      ],
      [
        "it",
        "ely"
      ],
      [
        "i",
        "e"
      ],
      [
        "ar",
        "d"
      ],
      [
        "i",
        "z"
      ],
      [
        "s",
        "w"
      ],
      [
        "Ġ",
        "O"
      ],
      [
        "Ġc",
        "ould"
      ],
      [
        "Ġo",
        "o"
      ],
      [
        "Ġbeau",
        "ti"
      ],
      [
        "Ġg",
        "ent"
      ],
      [
        "Ġsu",
        "re"
      ],
      [
        "ar",
        "k"
      ],
      [
        "Ġ",
        "el"
      ],
      [
        "re",
        "t"
      ],
      [
        "Ġdefin",
        "itely"
      ],
      [
        "Ġlon",
        "ely"
      ],
      [
        "Ġc",
        "are"
      ],
      [
        "Ġdoes",
        "n"
      ],
      [
        "Ġbo",
        "dy"
      ],
      [
        "is",
        "e"
      ],
      [
        "Ġthink",
        "ing"
      ],
      [
        "Ġbe",
        "en"
      ],
      [
        "ill",
        "s"
      ],
      [
        "Ġsay",
        "ing"
      ],
      [
        "Ġst",
        "are"
      ],
      [
        "Ġbeauti",
        "ful"
      ],
      [
        "Ġloo",
        "king"
      ],
      [
        "Ġwh",
        "ich"
      ],
      [
        "Ġal",
        "so"
      ],
      [
        "Ġmean",
        "s"
      ],
      [
        "Ġ",
        "B"
      ],
      [
        "ish",
        "ed"
      ],
      [
        "ic",
        "k"
      ],
      [
        "in",
        "t"
      ],
      [
        "on",
        "g"
      ],
      [
        "Ġ",
        "D"
      ],
      [
        "A",
        "T"
      ],
      [
        "in",
        "e"
      ],
      [
        "Ġcomplet",
        "ely"
      ],
      [
        "n",
        "er"
      ],
      [
        "Ġco",
        "lor"
      ],
      [
        "Ġth",
        "ose"
      ],
      [
        "Ġel",
        "se"
      ],
      [
        "a",
        "z"
      ],
      [
        "ac",
        "ant"
      ],
      [
        "Ġo",
        "w"
      ],
      [
        "Ġany",
        "way"
      ],
      [
        "Ġgra",
        "vel"
      ],
      [
        "f",
        "f"
      ],
      [
        "n",
        "a"
      ],
      [
        "Ġpre",
        "tt"
      ],
      [
        "Ġw",
        "ell"
      ],
      [
        "Ġm",
        "any"
      ],
      [
        "IN",
        "G"
      ],
      [
        "Ġb",
        "right"
      ],
      [
        "b",
        "ump"
      ],
      [
        "Ġkind",
        "ness"
      ],
      [
        "Ġc",
        "oo"
      ],
      [
        "Ġblank",
        "ed"
      ],
      [
        "Ġex",
        "ist"
      ],
      [
        "Ġi",
        "d"
      ],
      [
        "Ġma",
        "king"
      ],
      [
        "Ġt",
        "iny"
      ],
      [
        "Ġm",
        "is"
      ],
      [
        "Ġst",
        "op"
      ],
      [
        "Ġg",
        "ills"
      ],
      [
        "Ġprett",
        "y"
      ],
      [
        "Ġgo",
        "sh"
      ],
      [
        "Ġl",
        "et"
      ],
      [
        "Ġc",
        "le"
      ],
      [
        "Ġf",
        "ore"
      ],
      [
        "Ġsc",
        "ared"
      ],
      [
        "at",
        "ch"
      ],
      [
        "Ġ",
        "H"
      ],
      [
        "Ġ",
        "âĢĶ"
      ],
      [
        "bump",
        "s"
      ],
      [
        "Ġsh",
        "ould"
      ],
      [
        "Ġf",
        "l"
      ],
      [
        "Ġunder",
        "st"
      ],
      [
        "Ġwat",
        "ch"
      ],
      [
        "Ġam",
        "az"
      ],
      [
        "y",
        "es"
      ],
      [
        "est",
        "ion"
      ],
      [
        "Ġd",
        "esc"
      ],
      [
        "Ġfore",
        "ver"
      ],
      [
        "Ġqu",
        "estion"
      ],
      [
        "Ġu",
        "n"
      ],
      [
        "Ġdesc",
        "ri"
      ],
      [
        "Ġli",
        "st"
      ],
      [
        "Ġp",
        "la"
      ],
      [
        "ow",
        "ing"
      ],
      [
        "Ġsp",
        "ec"
      ],
      [
        "Ġwigg",
        "ling"
      ],
      [
        "Ġdis",
        "sol"
      ],
      [
        "Ġunderst",
        "and"
      ],
      [
        "Ġcom",
        "es"
      ],
      [
        "Ġhu",
        "m"
      ],
      [
        "op",
        "e"
      ],
      [
        "n",
        "y"
      ],
      [
        "Ġb",
        "ad"
      ],
      [
        "Ġco",
        "ld"
      ],
      [
        "Ġfriend",
        "s"
      ],
      [
        "Ġamaz",
        "ing"
      ],
      [
        "st",
        "e"
      ],
      [
        "Ġli",
        "fe"
      ],
      [
        "Ġlo",
        "st"
      ],
      [
        "Ġas",
        "k"
      ],
      [
        "Ġcoo",
        "l"
      ],
      [
        "Ġw",
        "on"
      ],
      [
        "s",
        "on"
      ],
      [
        "urp",
        "r"
      ],
      [
        "are",
        "s"
      ],
      [
        "Ġid",
        "ea"
      ],
      [
        "i",
        "gg"
      ],
      [
        "Ġs",
        "urpr"
      ],
      [
        "Ġlist",
        "en"
      ],
      [
        "Ġme",
        "m"
      ],
      [
        "v",
        "acant"
      ],
      [
        "in",
        "s"
      ],
      [
        "Ġcom",
        "ing"
      ],
      [
        "Ġha",
        "s"
      ],
      [
        "Ġ",
        "N"
      ],
      [
        "Ġwa",
        "ll"
      ],
      [
        "Ġre",
        "st"
      ],
      [
        "Ġti",
        "red"
      ],
      [
        "Ġf",
        "ad"
      ],
      [
        "Ġtal",
        "k"
      ],
      [
        "ea",
        "h"
      ],
      [
        "Ġper",
        "son"
      ],
      [
        "ib",
        "le"
      ],
      [
        "i",
        "al"
      ],
      [
        "Ġtry",
        "ing"
      ],
      [
        "Ġbet",
        "ter"
      ],
      [
        "Ġow",
        "n"
      ],
      [
        "Ġst",
        "r"
      ],
      [
        "Ġmis",
        "s"
      ],
      [
        "Ġdissol",
        "ved"
      ],
      [
        "a",
        "pp"
      ],
      [
        "Ġfre",
        "sh"
      ],
      [
        "Ġv",
        "an"
      ],
      [
        "p",
        "e"
      ],
      [
        "Ġdescri",
        "be"
      ],
      [
        "oo",
        "m"
      ],
      [
        "Ġconfu",
        "sed"
      ],
      [
        "o",
        "ther"
      ],
      [
        "Ġch",
        "ange"
      ],
      [
        "Ġb",
        "ra"
      ],
      [
        "op",
        "le"
      ],
      [
        "Ġy",
        "eah"
      ],
      [
        "Ġpe",
        "ople"
      ],
      [
        "ir",
        "d"
      ],
      [
        "Ġan",
        "other"
      ],
      [
        "Ġh",
        "mm"
      ],
      [
        "Ġme",
        "et"
      ],
      [
        "Ġhappen",
        "ing"
      ],
      [
        "Ġd",
        "ark"
      ],
      [
        "Ġfun",
        "ny"
      ],
      [
        "w",
        "a"
      ],
      [
        "Ġwor",
        "k"
      ],
      [
        "Ġho",
        "me"
      ],
      [
        "at",
        "ed"
      ],
      [
        "Ġjo",
        "ke"
      ],
      [
        "Ġhappen",
        "s"
      ],
      [
        "Ġon",
        "ly"
      ],
      [
        "w",
        "igg"
      ],
      [
        "Ġbr",
        "ain"
      ],
      [
        "Ġre",
        "f"
      ],
      [
        "est",
        "er"
      ],
      [
        "E",
        "D"
      ],
      [
        "Ġw",
        "et"
      ],
      [
        "ester",
        "day"
      ],
      [
        "Ġth",
        "an"
      ],
      [
        "Ġy",
        "esterday"
      ],
      [
        "c",
        "ircles"
      ],
      [
        "Ġf",
        "u"
      ],
      [
        "Ġsome",
        "where"
      ],
      [
        "Ġe",
        "yes"
      ],
      [
        "ar",
        "y"
      ],
      [
        "Ġtr",
        "ust"
      ],
      [
        "Ġf",
        "o"
      ],
      [
        "Ġc",
        "lo"
      ],
      [
        "Ġch",
        "ang"
      ],
      [
        "Ġstu",
        "ff"
      ],
      [
        "an",
        "ce"
      ],
      [
        "Ġp",
        "ast"
      ],
      [
        "c",
        "o"
      ],
      [
        "d",
        "d"
      ],
      [
        "i",
        "le"
      ],
      [
        "u",
        "e"
      ],
      [
        "reat",
        "h"
      ],
      [
        "wh",
        "at"
      ],
      [
        "le",
        "ep"
      ],
      [
        "i",
        "ous"
      ],
      [
        "Ġbi",
        "gg"
      ],
      [
        "Ġmem",
        "ory"
      ],
      [
        "Ġb",
        "reath"
      ],
      [
        "b",
        "l"
      ],
      [
        "r",
        "ow"
      ],
      [
        "Ġf",
        "ace"
      ],
      [
        "ge",
        "ther"
      ],
      [
        "Ġ",
        "G"
      ],
      [
        "Ġto",
        "gether"
      ],
      [
        "Ġe",
        "ach"
      ],
      [
        "ad",
        "ow"
      ],
      [
        "sw",
        "im"
      ],
      [
        "Ġvan",
        "ished"
      ],
      [
        "e",
        "ct"
      ],
      [
        "ri",
        "ous"
      ],
      [
        "Ġt",
        "ur"
      ],
      [
        "Ġs",
        "leep"
      ],
      [
        "Ġref",
        "le"
      ],
      [
        "y",
        "e"
      ],
      [
        "Ġt",
        "w"
      ],
      [
        "re",
        "ss"
      ],
      [
        "st",
        "ares"
      ],
      [
        "Ġwe",
        "ird"
      ],
      [
        "Ġbel",
        "ie"
      ],
      [
        "Ġh",
        "ope"
      ],
      [
        "sp",
        "ins"
      ],
      [
        "wa",
        "it"
      ],
      [
        "at",
        "e"
      ],
      [
        "en",
        "ce"
      ],
      [
        "Ġp",
        "r"
      ],
      [
        "Ġgent",
        "le"
      ],
      [
        "Ġg",
        "re"
      ],
      [
        "Ġmatter",
        "s"
      ],
      [
        "E",
        "R"
      ],
      [
        "Ġt",
        "e"
      ],
      [
        "ou",
        "r"
      ],
      [
        "Ġm",
        "ight"
      ],
      [
        "th",
        "e"
      ],
      [
        "Ġa",
        "pp"
      ],
      [
        "Ġwait",
        "ing"
      ],
      [
        "Ġdid",
        "n"
      ],
      [
        "Ġpe",
        "ace"
      ],
      [
        "Ġmost",
        "ly"
      ],
      [
        "Ġc",
        "ast"
      ],
      [
        "i",
        "p"
      ],
      [
        "Ġl",
        "ot"
      ],
      [
        "ore",
        "d"
      ],
      [
        "Ġfad",
        "ed"
      ],
      [
        "Ġkeep",
        "s"
      ],
      [
        "Ġis",
        "n"
      ],
      [
        "Ġsa",
        "fe"
      ],
      [
        "Ġp",
        "u"
      ],
      [
        "Ġc",
        "or"
      ],
      [
        "Ġlook",
        "s"
      ],
      [
        "Ġcast",
        "le"
      ],
      [
        "Ġsh",
        "adow"
      ],
      [
        "'",
        "d"
      ],
      [
        "Ġhe",
        "ad"
      ],
      [
        "i",
        "et"
      ],
      [
        "it",
        "s"
      ],
      [
        "Ġha",
        "nd"
      ],
      [
        "Ġsl",
        "i"
      ],
      [
        "Ġc",
        "u"
      ],
      [
        "ss",
        "ing"
      ],
      [
        "Ġout",
        "side"
      ],
      [
        "Ġle",
        "ft"
      ],
      [
        "Ġbo",
        "th"
      ],
      [
        "Ġpla",
        "ce"
      ],
      [
        "Ġg",
        "reat"
      ],
      [
        "Ġc",
        "all"
      ],
      [
        "Ġg",
        "u"
      ],
      [
        "Ġwarm",
        "th"
      ],
      [
        "Ġc",
        "irc"
      ],
      [
        "e",
        "ar"
      ],
      [
        "wigg",
        "les"
      ],
      [
        "Ġrefle",
        "ction"
      ],
      [
        "a",
        "se"
      ],
      [
        "i",
        "ly"
      ],
      [
        "t",
        "y"
      ],
      [
        "Ġspec",
        "ial"
      ],
      [
        "Ġw",
        "r"
      ],
      [
        "Ġo",
        "ld"
      ],
      [
        "Ġgo",
        "es"
      ],
      [
        "Ġmy",
        "self"
      ],
      [
        "Ġsu",
        "n"
      ],
      [
        "Ġex",
        "act"
      ],
      [
        "ĠW",
        "H"
      ],
      [
        "i",
        "re"
      ],
      [
        "Ġal",
        "one"
      ],
      [
        "g",
        "ry"
      ],
      [
        "ere",
        "st"
      ],
      [
        "Ġplant",
        "s"
      ],
      [
        "Ġforg",
        "ive"
      ],
      [
        "z",
        "oom"
      ],
      [
        "Ġa",
        "f"
      ],
      [
        "b",
        "ye"
      ],
      [
        "c",
        "u"
      ],
      [
        "h",
        "at"
      ],
      [
        "if",
        "t"
      ],
      [
        "Ġfu",
        "ll"
      ],
      [
        "op",
        "s"
      ],
      [
        "Ġint",
        "erest"
      ],
      [
        "ap",
        "s"
      ],
      [
        "swim",
        "s"
      ],
      [
        "i",
        "ther"
      ],
      [
        "ĠO",
        "H"
      ],
      [
        "me",
        "d"
      ],
      [
        "Ġqu",
        "iet"
      ],
      [
        "Ġfla",
        "ke"
      ],
      [
        "g",
        "et"
      ],
      [
        "Ġb",
        "ored"
      ],
      [
        "Ġst",
        "ory"
      ],
      [
        "Ġpo",
        "int"
      ],
      [
        "Ġo",
        "p"
      ],
      [
        "it",
        "y"
      ],
      [
        "a",
        "il"
      ],
      [
        "v",
        "y"
      ],
      [
        "Ġth",
        "ank"
      ],
      [
        "Ġs",
        "ide"
      ],
      [
        "Ġsc",
        "ary"
      ],
      [
        "Ġcor",
        "ner"
      ],
      [
        "z",
        "y"
      ],
      [
        "Ġnot",
        "ice"
      ],
      [
        "Ġal",
        "ive"
      ],
      [
        "Ġdis",
        "app"
      ],
      [
        "as",
        "on"
      ],
      [
        "Ġlea",
        "ve"
      ],
      [
        "Ġ",
        "-"
      ],
      [
        "Ġh",
        "ea"
      ],
      [
        "en",
        "s"
      ],
      [
        "Ġsli",
        "pped"
      ],
      [
        "Ġ",
        "C"
      ],
      [
        "Ġa",
        "c"
      ],
      [
        "Ġm",
        "or"
      ],
      [
        "Ġgood",
        "bye"
      ],
      [
        "Ġi",
        "m"
      ],
      [
        "I",
        "T"
      ],
      [
        "Ġoo",
        "f"
      ],
      [
        "Ġm",
        "id"
      ],
      [
        "Ġre",
        "ason"
      ],
      [
        "rou",
        "d"
      ],
      [
        "Ġbelie",
        "ve"
      ],
      [
        "Ġc",
        "al"
      ],
      [
        "Ġin",
        "v"
      ],
      [
        "Ġsecond",
        "s"
      ],
      [
        "ou",
        "th"
      ],
      [
        "Ġm",
        "ust"
      ],
      [
        "an",
        "na"
      ],
      [
        "r",
        "ation"
      ],
      [
        "ra",
        "sh"
      ],
      [
        "Ġget",
        "s"
      ],
      [
        "ĠN",
        "O"
      ],
      [
        "L",
        "A"
      ],
      [
        "Ġp",
        "roud"
      ],
      [
        "Ġfin",
        "d"
      ],
      [
        "dd",
        "en"
      ],
      [
        "Ġexact",
        "ly"
      ],
      [
        "s",
        "ing"
      ],
      [
        "Ġ",
        "ro"
      ],
      [
        "Ġre",
        "g"
      ],
      [
        "Ġto",
        "m"
      ],
      [
        "i",
        "g"
      ],
      [
        "Ġw",
        "anna"
      ],
      [
        "ĠW",
        "A"
      ],
      [
        "Ġcu",
        "rious"
      ],
      [
        "Ġhea",
        "vy"
      ],
      [
        "Ġof",
        "f"
      ],
      [
        "Ġsec",
        "ret"
      ],
      [
        "Ġl",
        "ast"
      ],
      [
        "Ġv",
        "is"
      ],
      [
        "Ġta",
        "ste"
      ],
      [
        "Ġstu",
        "ck"
      ],
      [
        "Ġcle",
        "ar"
      ],
      [
        "an",
        "c"
      ],
      [
        "Ġm",
        "outh"
      ],
      [
        "ri",
        "ed"
      ],
      [
        "Ġhe",
        "ar"
      ],
      [
        "el",
        "t"
      ],
      [
        "Ġgre",
        "en"
      ],
      [
        "Ġget",
        "ting"
      ],
      [
        "Ġmor",
        "ning"
      ],
      [
        "Ġjo",
        "y"
      ],
      [
        "Ġcal",
        "m"
      ],
      [
        "ou",
        "nt"
      ],
      [
        "Ġe",
        "ither"
      ],
      [
        "Ġu",
        "s"
      ],
      [
        "Ġoo",
        "h"
      ],
      [
        "Ġwr",
        "ong"
      ],
      [
        "or",
        "row"
      ],
      [
        "Ġtur",
        "n"
      ],
      [
        "o",
        "ve"
      ],
      [
        "Ġf",
        "elt"
      ],
      [
        "Ġevery",
        "one"
      ],
      [
        "Ġsw",
        "am"
      ],
      [
        "Ġsurpr",
        "is"
      ],
      [
        "Ġtom",
        "orrow"
      ],
      [
        "Ġthe",
        "ir"
      ],
      [
        "Ġsw",
        "ish"
      ],
      [
        "ot",
        "t"
      ],
      [
        "Ġf",
        "il"
      ],
      [
        "les",
        "s"
      ],
      [
        "Ġsh",
        "ap"
      ],
      [
        "ou",
        "ch"
      ],
      [
        "Ġinterest",
        "ing"
      ],
      [
        "Ġle",
        "ar"
      ],
      [
        "Ġbump",
        "ing"
      ],
      [
        "atch",
        "es"
      ],
      [
        "l",
        "oo"
      ],
      [
        "ep",
        "t"
      ],
      [
        "ĠTH",
        "E"
      ],
      [
        "get",
        "s"
      ],
      [
        "Ġm",
        "ind"
      ],
      [
        "Ġab",
        "ove"
      ],
      [
        "O",
        "O"
      ],
      [
        "Ġ",
        "P"
      ],
      [
        "Ġmo",
        "ved"
      ],
      [
        "Ġf",
        "all"
      ],
      [
        "Ġas",
        "king"
      ],
      [
        "Ġfil",
        "ter"
      ],
      [
        "Ġl",
        "aps"
      ],
      [
        "ĠI",
        "T"
      ],
      [
        "m",
        "ind"
      ],
      [
        "Ġb",
        "ott"
      ],
      [
        "Ġhe",
        "art"
      ],
      [
        "Ġbott",
        "om"
      ],
      [
        "c",
        "ept"
      ],
      [
        "Ġc",
        "ur"
      ],
      [
        "Ġlisten",
        "ing"
      ],
      [
        "e",
        "ver"
      ],
      [
        "Ġclo",
        "se"
      ],
      [
        "ing",
        "s"
      ],
      [
        "st",
        "ops"
      ],
      [
        "i",
        "es"
      ],
      [
        "at",
        "er"
      ],
      [
        "R",
        "I"
      ],
      [
        "Ġp",
        "a"
      ],
      [
        "Ġpre",
        "ssing"
      ],
      [
        "Ġlea",
        "ving"
      ],
      [
        "Ġwatch",
        "ing"
      ],
      [
        "in",
        "ess"
      ],
      [
        "Ġthe",
        "se"
      ],
      [
        "Ġmo",
        "ves"
      ],
      [
        "Ġevery",
        "where"
      ],
      [
        "O",
        "N"
      ],
      [
        "w",
        "ard"
      ],
      [
        "re",
        "e"
      ],
      [
        "-",
        "-"
      ],
      [
        "Ġe",
        "as"
      ],
      [
        "rat",
        "e"
      ],
      [
        "Ġbra",
        "nd"
      ],
      [
        "Ġbl",
        "owing"
      ],
      [
        "Ġreg",
        "ret"
      ],
      [
        "l",
        "ed"
      ],
      [
        "n",
        "g"
      ],
      [
        "Ġwith",
        "out"
      ],
      [
        "Ġsp",
        "in"
      ],
      [
        "Ġw",
        "ent"
      ],
      [
        "Ġfa",
        "m"
      ],
      [
        "Ġby",
        "e"
      ],
      [
        "ut",
        "ter"
      ],
      [
        "Ġbigg",
        "est"
      ],
      [
        "ri",
        "ft"
      ],
      [
        "Ġexcited",
        "ly"
      ],
      [
        "b",
        "o"
      ],
      [
        "Ġare",
        "n"
      ],
      [
        "Ġsh",
        "ow"
      ],
      [
        "p",
        "er"
      ],
      [
        "Ġloo",
        "p"
      ],
      [
        "ere",
        "d"
      ],
      [
        "L",
        "E"
      ],
      [
        "Ġt",
        "ouch"
      ],
      [
        "st",
        "ant"
      ],
      [
        "Ġl",
        "au"
      ],
      [
        "ab",
        "le"
      ],
      [
        "Ġsu",
        "dden"
      ],
      [
        "re",
        "a"
      ],
      [
        "Ġc",
        "ount"
      ],
      [
        "Ġfin",
        "e"
      ],
      [
        "on",
        "est"
      ],
      [
        "m",
        "ore"
      ],
      [
        "t",
        "en"
      ],
      [
        "ic",
        "ally"
      ],
      [
        "ĠW",
        "hat"
      ],
      [
        "K",
        "ES"
      ],
      [
        "Ġg",
        "r"
      ],
      [
        "Ġre",
        "ady"
      ],
      [
        "Ġsm",
        "oo"
      ],
      [
        "ĠF",
        "LA"
      ],
      [
        "Ġg",
        "l"
      ],
      [
        "Ġv",
        "ib"
      ],
      [
        "sol",
        "ut"
      ],
      [
        "Ġany",
        "more"
      ],
      [
        "loo",
        "ks"
      ],
      [
        "a",
        "g"
      ],
      [
        "bo",
        "dy"
      ],
      [
        "el",
        "e"
      ],
      [
        "Ġword",
        "s"
      ],
      [
        "Ġsmoo",
        "th"
      ],
      [
        "ĠFLA",
        "KES"
      ],
      [
        "ele",
        "b"
      ],
      [
        "Ġ",
        "E"
      ],
      [
        "id",
        "es"
      ],
      [
        "Ġc",
        "ame"
      ],
      [
        "Ġa",
        "d"
      ],
      [
        "Ġu",
        "gh"
      ],
      [
        "Ġon",
        "ce"
      ],
      [
        "Ġse",
        "en"
      ],
      [
        "Ġlau",
        "gh"
      ],
      [
        "ou",
        "n"
      ],
      [
        "e",
        "x"
      ],
      [
        "n",
        "o"
      ],
      [
        "Ġh",
        "onest"
      ],
      [
        "Ġp",
        "urp"
      ],
      [
        "Ġc",
        "eleb"
      ],
      [
        "L",
        "L"
      ],
      [
        "at",
        "ely"
      ],
      [
        "on",
        "na"
      ],
      [
        "Ġe",
        "nd"
      ],
      [
        "bl",
        "ank"
      ],
      [
        "Ġg",
        "onna"
      ],
      [
        "la",
        "in"
      ],
      [
        "Ġno",
        "pe"
      ],
      [
        "Ġab",
        "solut"
      ],
      [
        "Ġseem",
        "s"
      ],
      [
        "ck",
        "s"
      ],
      [
        "Ġa",
        "r"
      ],
      [
        "Ġgla",
        "d"
      ],
      [
        "Ġwor",
        "ry"
      ],
      [
        "Ġsh",
        "iny"
      ],
      [
        "Ġvis",
        "it"
      ],
      [
        "Ġg",
        "ift"
      ],
      [
        "Ġfin",
        "ally"
      ],
      [
        "Ġeat",
        "ing"
      ],
      [
        "Ġfe",
        "ar"
      ],
      [
        "o",
        "es"
      ],
      [
        "u",
        "d"
      ],
      [
        "ou",
        "d"
      ],
      [
        "a",
        "ke"
      ],
      [
        "Ġne",
        "ar"
      ],
      [
        "Ġwor",
        "th"
      ],
      [
        "w",
        "atches"
      ],
      [
        "Ġc",
        "ar"
      ],
      [
        "Ġg",
        "ive"
      ],
      [
        "Ġno",
        "body"
      ],
      [
        "Ġcon",
        "t"
      ],
      [
        "Ġtw",
        "o"
      ],
      [
        "I",
        "S"
      ],
      [
        "Ġb",
        "rea"
      ],
      [
        "ĠS",
        "O"
      ],
      [
        "Ġpr",
        "om"
      ],
      [
        "en",
        "se"
      ],
      [
        "Ġt",
        "imes"
      ],
      [
        "Ġw",
        "ow"
      ],
      [
        "Ġc",
        "r"
      ],
      [
        "Ġe",
        "v"
      ],
      [
        "er",
        "t"
      ],
      [
        "Ġc",
        "at"
      ],
      [
        "s",
        "et"
      ],
      [
        "Ġw",
        "ish"
      ],
      [
        "Ġc",
        "atch"
      ],
      [
        "Ġpurp",
        "ose"
      ],
      [
        "h",
        "ow"
      ],
      [
        "Ġin",
        "side"
      ],
      [
        "Ġde",
        "ep"
      ],
      [
        "Ġwall",
        "s"
      ],
      [
        "Ġh",
        "un"
      ],
      [
        "Ġp",
        "le"
      ],
      [
        "Ġabsolut",
        "ely"
      ],
      [
        "ver",
        "s"
      ],
      [
        "v",
        "ous"
      ],
      [
        "ĠWH",
        "AT"
      ],
      [
        "c",
        "on"
      ],
      [
        "Ġfl",
        "utter"
      ],
      [
        "h",
        "e"
      ],
      [
        "Ġso",
        "on"
      ],
      [
        "Ġpu",
        "sh"
      ],
      [
        "Ġfr",
        "ust"
      ],
      [
        "Ġpa",
        "ss"
      ],
      [
        "o",
        "s"
      ],
      [
        "zoom",
        "s"
      ],
      [
        "Ġt",
        "ra"
      ],
      [
        "Ġto",
        "t"
      ],
      [
        "Ġtr",
        "ue"
      ],
      [
        "iz",
        "e"
      ],
      [
        "Ġto",
        "ld"
      ],
      [
        "w",
        "e"
      ],
      [
        "Ġb",
        "ro"
      ],
      [
        "Ġin",
        "c"
      ],
      [
        "Ġta",
        "ke"
      ],
      [
        "rate",
        "ful"
      ],
      [
        "Ġ",
        "L"
      ],
      [
        "Ġnot",
        "ic"
      ],
      [
        "ĠYOU",
        "R"
      ],
      [
        "Ġqu",
        "ick"
      ],
      [
        "Ġag",
        "o"
      ],
      [
        "Ġsp",
        "ot"
      ],
      [
        "at",
        "h"
      ],
      [
        "sh",
        "ip"
      ],
      [
        "Ġslow",
        "ly"
      ],
      [
        "med",
        "i"
      ],
      [
        "Ġat",
        "t"
      ],
      [
        "Ġgent",
        "ly"
      ],
      [
        "Ġd",
        "rift"
      ],
      [
        "Ġg",
        "rateful"
      ],
      [
        "ĠWA",
        "IT"
      ],
      [
        "Ġnot",
        "ion"
      ],
      [
        "ĠY",
        "ou"
      ],
      [
        "Ġsm",
        "ile"
      ],
      [
        "un",
        "ch"
      ],
      [
        "ĠM",
        "E"
      ],
      [
        "Ġfo",
        "ll"
      ],
      [
        "l",
        "i"
      ],
      [
        "Ġfa",
        "il"
      ],
      [
        "Ġexp",
        "lain"
      ],
      [
        "Ġdisapp",
        "o"
      ],
      [
        "Ġe",
        "mp"
      ],
      [
        "Ġpeace",
        "ful"
      ],
      [
        "G",
        "H"
      ],
      [
        "Ġme",
        "t"
      ],
      [
        "Ġlear",
        "n"
      ],
      [
        "Ġple",
        "ase"
      ],
      [
        "Ġbreath",
        "e"
      ],
      [
        "Ġgu",
        "ess"
      ],
      [
        "Ġsome",
        "how"
      ],
      [
        "Ġforgot",
        "ten"
      ],
      [
        "Ġop",
        "en"
      ],
      [
        "Ġdis",
        "co"
      ],
      [
        "Ġmeet",
        "ing"
      ],
      [
        "Ġha",
        "ving"
      ],
      [
        "g",
        "ic"
      ],
      [
        "Ġfrust",
        "rat"
      ],
      [
        "ow",
        "s"
      ],
      [
        "Ġhun",
        "gry"
      ],
      [
        "medi",
        "ately"
      ],
      [
        "Ġwh",
        "ile"
      ],
      [
        "Ġe",
        "nt"
      ],
      [
        "Ġto",
        "p"
      ],
      [
        "ĠI",
        "S"
      ],
      [
        "Ġmove",
        "ment"
      ],
      [
        "pp",
        "ing"
      ],
      [
        "Ġhelp",
        "s"
      ],
      [
        "Ġaf",
        "ter"
      ],
      [
        "Ġtot",
        "ally"
      ],
      [
        "stant",
        "ly"
      ],
      [
        "Ġsurpr",
        "ise"
      ],
      [
        "A",
        "Y"
      ],
      [
        "ap",
        "or"
      ],
      [
        "at",
        "ure"
      ],
      [
        "Ġh",
        "it"
      ],
      [
        "Ġl",
        "ater"
      ],
      [
        "or",
        "m"
      ],
      [
        "Ġagain",
        "st"
      ],
      [
        "Ġcirc",
        "le"
      ],
      [
        "v",
        "ely"
      ],
      [
        "Ġc",
        "l"
      ],
      [
        "Ġn",
        "er"
      ],
      [
        "s",
        "es"
      ],
      [
        "ĠG",
        "O"
      ],
      [
        "we",
        "en"
      ],
      [
        "o",
        "h"
      ],
      [
        "Ġb",
        "oun"
      ],
      [
        "Ġdisappo",
        "int"
      ],
      [
        "Ġbet",
        "ween"
      ],
      [
        "Ġcle",
        "an"
      ],
      [
        "Ġchang",
        "ed"
      ],
      [
        "er",
        "s"
      ],
      [
        "Ġl",
        "oud"
      ],
      [
        "Ġner",
        "vous"
      ],
      [
        "Ġs",
        "ill"
      ],
      [
        "Ġev",
        "apor"
      ],
      [
        "M",
        "E"
      ],
      [
        "Ġ",
        "ri"
      ],
      [
        "Ġt",
        "ow"
      ],
      [
        "Ġhand",
        "le"
      ],
      [
        "Ġhonest",
        "ly"
      ],
      [
        "I",
        "D"
      ],
      [
        "Ġy",
        "ay"
      ],
      [
        "Ġd",
        "ist"
      ],
      [
        "Ġhe",
        "y"
      ],
      [
        "Ġst",
        "o"
      ],
      [
        "Ġbel",
        "ly"
      ],
      [
        "Ġdream",
        "s"
      ],
      [
        "Ġpl",
        "ay"
      ],
      [
        "Ġemp",
        "ty"
      ],
      [
        "Ġa",
        "ir"
      ],
      [
        "Ġapp",
        "ear"
      ],
      [
        "Ġbrea",
        "k"
      ],
      [
        "GH",
        "T"
      ],
      [
        "T",
        "H"
      ],
      [
        "Ġd",
        "ire"
      ],
      [
        "Ġwhat",
        "ever"
      ],
      [
        "Ġde",
        "c"
      ],
      [
        "ĠM",
        "Y"
      ],
      [
        "a",
        "kes"
      ],
      [
        "Ġt",
        "en"
      ],
      [
        "u",
        "ck"
      ],
      [
        "Ġs",
        "n"
      ],
      [
        "Ġan",
        "sw"
      ],
      [
        "ĠTH",
        "AT"
      ],
      [
        "k",
        "en"
      ],
      [
        "Ġs",
        "elf"
      ],
      [
        "Ġn",
        "ight"
      ],
      [
        "st",
        "er"
      ],
      [
        "Ġta",
        "p"
      ],
      [
        "Ġhurt",
        "s"
      ],
      [
        "Ġtow",
        "ard"
      ],
      [
        "p",
        "le"
      ],
      [
        "Ġevapor",
        "ated"
      ],
      [
        "Ġm",
        "ine"
      ],
      [
        "Ġbe",
        "h"
      ],
      [
        "Ġsill",
        "y"
      ],
      [
        "Ġpart",
        "s"
      ],
      [
        "iz",
        "ed"
      ],
      [
        "h",
        "y"
      ],
      [
        "Ġcolor",
        "s"
      ],
      [
        "Ġfall",
        "ing"
      ],
      [
        "Ġd",
        "et"
      ],
      [
        "Ġask",
        "ed"
      ],
      [
        "i",
        "x"
      ],
      [
        "Ġmy",
        "ster"
      ],
      [
        "Ġthought",
        "s"
      ],
      [
        "Ġfam",
        "ily"
      ],
      [
        "Ġstart",
        "led"
      ],
      [
        "Ġsudden",
        "ly"
      ],
      [
        "ex",
        "cit"
      ],
      [
        "Ġsu",
        "ch"
      ],
      [
        "Ġbreath",
        "ing"
      ],
      [
        "Ġsurpris",
        "ed"
      ],
      [
        "Ġs",
        "it"
      ],
      [
        "d",
        "oes"
      ],
      [
        "Ġth",
        "ree"
      ],
      [
        "Ġstay",
        "s"
      ],
      [
        "A",
        "N"
      ],
      [
        "Ġ",
        "our"
      ],
      [
        "Ġm",
        "ist"
      ],
      [
        "Ġdire",
        "ction"
      ],
      [
        "c",
        "rash"
      ],
      [
        "u",
        "m"
      ],
      [
        "Ġs",
        "im"
      ],
      [
        "o",
        "me"
      ],
      [
        "Ġs",
        "et"
      ],
      [
        "Ġf",
        "ound"
      ],
      [
        "d",
        "le"
      ],
      [
        "Ġh",
        "ide"
      ],
      [
        "Ġknow",
        "ing"
      ],
      [
        "Ġhu",
        "ge"
      ],
      [
        "Ġinv",
        "is"
      ],
      [
        "Ġs",
        "ense"
      ],
      [
        "Ġon",
        "es"
      ],
      [
        "Ġbeh",
        "ind"
      ],
      [
        "A",
        "R"
      ],
      [
        "c",
        "es"
      ],
      [
        "u",
        "p"
      ],
      [
        "Ġblank",
        "ly"
      ],
      [
        "Ġd",
        "es"
      ],
      [
        "Ġfe",
        "ed"
      ],
      [
        "if",
        "ic"
      ],
      [
        "a",
        "ust"
      ],
      [
        "Ġansw",
        "er"
      ],
      [
        "Ġbigg",
        "er"
      ],
      [
        "Ġro",
        "cks"
      ],
      [
        "S",
        "T"
      ],
      [
        "Ġbra",
        "ve"
      ],
      [
        "Ġs",
        "ides"
      ],
      [
        "Ġf",
        "ight"
      ],
      [
        "Ġwor",
        "ried"
      ],
      [
        "Ġta",
        "st"
      ],
      [
        "Ġsu",
        "pp"
      ],
      [
        "esc",
        "ap"
      ],
      [
        "Ġan",
        "gry"
      ],
      [
        "Ġma",
        "gic"
      ],
      [
        "Ġexp",
        "lo"
      ],
      [
        "Ġcirc",
        "ling"
      ],
      [
        "Ġvib",
        "ration"
      ],
      [
        "Ġinvis",
        "ible"
      ],
      [
        "Ġb",
        "it"
      ],
      [
        "Ġexcit",
        "ing"
      ],
      [
        "cu",
        "s"
      ],
      [
        "V",
        "ER"
      ],
      [
        "Ġstr",
        "ong"
      ],
      [
        "Ġshap",
        "e"
      ],
      [
        "Ġinc",
        "red"
      ],
      [
        "c",
        "om"
      ],
      [
        "Ġsp",
        "ace"
      ],
      [
        "Ġ",
        "escap"
      ],
      [
        "Ġl",
        "ess"
      ],
      [
        "ar",
        "ing"
      ],
      [
        "Ġnever",
        "mind"
      ],
      [
        "Ġim",
        "mediately"
      ],
      [
        "Ġcur",
        "re"
      ],
      [
        "Ġeas",
        "y"
      ],
      [
        "Ġp",
        "ain"
      ],
      [
        "Ġre",
        "ach"
      ],
      [
        "Ġchang",
        "es"
      ],
      [
        "ect",
        "ed"
      ],
      [
        "Ġmid",
        "dle"
      ],
      [
        "b",
        "le"
      ],
      [
        "i",
        "est"
      ],
      [
        "Ġl",
        "uck"
      ],
      [
        "Ġlo",
        "vely"
      ],
      [
        "Ġd",
        "ance"
      ],
      [
        "Ġr",
        "u"
      ],
      [
        "Ġconfu",
        "sing"
      ],
      [
        "o",
        "ice"
      ],
      [
        "Ġspin",
        "ning"
      ],
      [
        "Ġs",
        "ing"
      ],
      [
        "Ġm",
        "ar"
      ],
      [
        "Ġc",
        "ra"
      ],
      [
        "Ġg",
        "i"
      ],
      [
        "Ġbu",
        "d"
      ],
      [
        "Ġte",
        "mp"
      ],
      [
        "Ġcorner",
        "s"
      ],
      [
        "excit",
        "ed"
      ],
      [
        "h",
        "h"
      ],
      [
        "Ġmean",
        "ing"
      ],
      [
        "Ġcurre",
        "nt"
      ],
      [
        "m",
        "er"
      ],
      [
        "t",
        "ail"
      ],
      [
        "Ġany",
        "one"
      ],
      [
        "Ġch",
        "e"
      ],
      [
        "ra",
        "id"
      ],
      [
        "u",
        "l"
      ],
      [
        "Ġm",
        "ess"
      ],
      [
        "Ġd",
        "anc"
      ],
      [
        "Ġhum",
        "an"
      ],
      [
        "Ġaf",
        "raid"
      ],
      [
        "f",
        "l"
      ],
      [
        "oo",
        "f"
      ],
      [
        "Ġex",
        "h"
      ],
      [
        "RE",
        "A"
      ],
      [
        "Ġj",
        "ump"
      ],
      [
        "Ġwant",
        "ed"
      ],
      [
        "ert",
        "ain"
      ],
      [
        "Ġdet",
        "ail"
      ],
      [
        "Ġc",
        "rash"
      ],
      [
        "RI",
        "GHT"
      ],
      [
        "Ġceleb",
        "ration"
      ],
      [
        "Ġbud",
        "dy"
      ],
      [
        "i",
        "ent"
      ],
      [
        "Ġhapp",
        "iness"
      ],
      [
        "crash",
        "es"
      ],
      [
        "t",
        "ra"
      ],
      [
        "act",
        "ed"
      ],
      [
        "m",
        "o"
      ],
      [
        "t",
        "o"
      ],
      [
        "art",
        "s"
      ],
      [
        "Ġwigg",
        "les"
      ],
      [
        "ES",
        "T"
      ],
      [
        "Ġt",
        "er"
      ],
      [
        "oo",
        "k"
      ],
      [
        "E",
        "N"
      ],
      [
        "e",
        "e"
      ],
      [
        "ic",
        "t"
      ],
      [
        "Ġsp",
        "ark"
      ],
      [
        "Ġbro",
        "ken"
      ],
      [
        "Ġexh",
        "aust"
      ],
      [
        "Ġsim",
        "ple"
      ],
      [
        "Ġincred",
        "ible"
      ],
      [
        "Ġcra",
        "zy"
      ],
      [
        "Ġ",
        "z"
      ],
      [
        "Ġwas",
        "n"
      ],
      [
        "u",
        "al"
      ],
      [
        "Ġstart",
        "ed"
      ],
      [
        "Ġad",
        "v"
      ],
      [
        "O",
        "R"
      ],
      [
        "ri",
        "es"
      ],
      [
        "Ġfloat",
        "y"
      ],
      [
        "Ġtemp",
        "er"
      ],
      [
        "O",
        "W"
      ],
      [
        "Ġf",
        "ar"
      ],
      [
        "Ġp",
        "atter"
      ],
      [
        "Ġbu",
        "s"
      ],
      [
        "Ġremember",
        "ing"
      ],
      [
        "il",
        "t"
      ],
      [
        "Ġstr",
        "ange"
      ],
      [
        "Ġ",
        "zoom"
      ],
      [
        "Ġs",
        "ur"
      ],
      [
        "at",
        "t"
      ],
      [
        "Ġwor",
        "ks"
      ],
      [
        "act",
        "ually"
      ],
      [
        "Ġtemper",
        "ature"
      ],
      [
        "at",
        "ing"
      ],
      [
        "Ġyou",
        "ng"
      ],
      [
        "E",
        "RE"
      ],
      [
        "g",
        "y"
      ],
      [
        "y",
        "ond"
      ],
      [
        "Ġ",
        "rough"
      ],
      [
        "Ġd",
        "el"
      ],
      [
        "Ġbe",
        "yond"
      ],
      [
        "Ġforg",
        "i"
      ],
      [
        "Ġsa",
        "w"
      ],
      [
        "ĠA",
        "M"
      ],
      [
        "Ġhold",
        "s"
      ],
      [
        "ste",
        "ad"
      ],
      [
        "Ġshadow",
        "s"
      ],
      [
        "b",
        "on"
      ],
      [
        "Ġin",
        "stead"
      ],
      [
        "g",
        "n"
      ],
      [
        "Ġha",
        "ven"
      ],
      [
        "Ġfor",
        "ward"
      ],
      [
        "Ġre",
        "pe"
      ],
      [
        "Ġpl",
        "an"
      ],
      [
        "o",
        "l"
      ],
      [
        "Ġn",
        "orm"
      ],
      [
        "Ġsee",
        "ing"
      ],
      [
        "ro",
        "ss"
      ],
      [
        "h",
        "o"
      ],
      [
        "i",
        "er"
      ],
      [
        "Ġli",
        "ving"
      ],
      [
        "Ġu",
        "nt"
      ],
      [
        "rat",
        "ing"
      ],
      [
        "Ġfrustrat",
        "ed"
      ],
      [
        "f",
        "loat"
      ],
      [
        "ll",
        "y"
      ],
      [
        "f",
        "or"
      ],
      [
        "Ġf",
        "ut"
      ],
      [
        "Ġgo",
        "tt"
      ],
      [
        "Ġexplo",
        "re"
      ],
      [
        "Ġfut",
        "ure"
      ],
      [
        "are",
        "nt"
      ],
      [
        "ĠD",
        "o"
      ],
      [
        "Ġim",
        "ag"
      ],
      [
        "Ġfoll",
        "ow"
      ],
      [
        "Ġdisco",
        "ver"
      ],
      [
        "Ġno",
        "ise"
      ],
      [
        "Ġwor",
        "st"
      ],
      [
        "ent",
        "ion"
      ],
      [
        "Ġcon",
        "n"
      ],
      [
        "Ġ",
        "RIGHT"
      ],
      [
        "Ġfeeling",
        "s"
      ],
      [
        "ĠB",
        "U"
      ],
      [
        "ĠD",
        "O"
      ],
      [
        "Ġunt",
        "il"
      ],
      [
        "Ġ",
        "'"
      ],
      [
        "Ġb",
        "its"
      ],
      [
        "id",
        "ent"
      ],
      [
        "ss",
        "ible"
      ],
      [
        "Ġknow",
        "s"
      ],
      [
        "ĠI",
        "N"
      ],
      [
        "Ġpatter",
        "n"
      ],
      [
        "Ġa",
        "p"
      ],
      [
        "Ġst",
        "e"
      ],
      [
        "fu",
        "lly"
      ],
      [
        "Ġluck",
        "y"
      ],
      [
        "S",
        "H"
      ],
      [
        "p",
        "ress"
      ],
      [
        "r",
        "ay"
      ],
      [
        "Ġs",
        "il"
      ],
      [
        "Ġen",
        "er"
      ],
      [
        "ang",
        "er"
      ],
      [
        "Ġstop",
        "s"
      ],
      [
        "Ġcon",
        "stantly"
      ],
      [
        "ation",
        "s"
      ],
      [
        "Ġte",
        "ach"
      ],
      [
        "e",
        "ment"
      ],
      [
        "f",
        "ort"
      ],
      [
        "s",
        "ent"
      ],
      [
        "Ġbump",
        "y"
      ],
      [
        "ĠD",
        "ID"
      ],
      [
        "H",
        "H"
      ],
      [
        "r",
        "acted"
      ],
      [
        "Ġtr",
        "ack"
      ],
      [
        "Ġstart",
        "s"
      ],
      [
        "l",
        "ine"
      ],
      [
        "Ġf",
        "ix"
      ],
      [
        "la",
        "r"
      ],
      [
        "Ġsm",
        "art"
      ],
      [
        "Ġbet",
        "ray"
      ],
      [
        "ĠB",
        "EST"
      ],
      [
        "Ġter",
        "ri"
      ],
      [
        "Ġnew",
        "s"
      ],
      [
        "Ġgott",
        "a"
      ],
      [
        "Ġch",
        "ase"
      ],
      [
        "Ġde",
        "al"
      ],
      [
        "Ġr",
        "ain"
      ],
      [
        "Ġnorm",
        "al"
      ],
      [
        "k",
        "y"
      ],
      [
        "me",
        "ll"
      ],
      [
        "d",
        "e"
      ],
      [
        "Ġs",
        "mell"
      ],
      [
        "Ġex",
        "cept"
      ],
      [
        "Ġstay",
        "ing"
      ],
      [
        "float",
        "s"
      ],
      [
        "o",
        "sed"
      ],
      [
        "Ġc",
        "reat"
      ],
      [
        "Ġdanc",
        "ing"
      ],
      [
        "Ġsh",
        "ift"
      ],
      [
        "Ġcar",
        "ry"
      ],
      [
        "Ġent",
        "ire"
      ],
      [
        "Ġt",
        "ri"
      ],
      [
        "Ġst",
        "ress"
      ],
      [
        "Ġany",
        "where"
      ],
      [
        "Ġjo",
        "kes"
      ],
      [
        "Ġs",
        "ch"
      ],
      [
        "Ġp",
        "at"
      ],
      [
        "Ġch",
        "as"
      ],
      [
        "b",
        "t"
      ],
      [
        "Ġt",
        "ick"
      ],
      [
        "Ġst",
        "ings"
      ],
      [
        "Ġdon",
        "e"
      ],
      [
        "Ġhu",
        "h"
      ],
      [
        "i",
        "ally"
      ],
      [
        "re",
        "ad"
      ],
      [
        "Ġb",
        "or"
      ],
      [
        "TH",
        "ING"
      ],
      [
        "Ġwa",
        "ke"
      ],
      [
        "Ġch",
        "oo"
      ],
      [
        "Ġr",
        "un"
      ],
      [
        "Ġspec",
        "ific"
      ],
      [
        "Ġnotic",
        "ed"
      ],
      [
        "h",
        "app"
      ],
      [
        "s",
        "c"
      ],
      [
        "id",
        "ing"
      ],
      [
        "ink",
        "s"
      ],
      [
        "Ġsu",
        "per"
      ],
      [
        "i",
        "ence"
      ],
      [
        "y",
        "ing"
      ],
      [
        "Ġre",
        "l"
      ],
      [
        "bb",
        "le"
      ],
      [
        "Ġcon",
        "vers"
      ],
      [
        "Ġshap",
        "es"
      ],
      [
        "Ġdetail",
        "s"
      ],
      [
        "V",
        "E"
      ],
      [
        "Ġd",
        "ou"
      ],
      [
        "Ġu",
        "se"
      ],
      [
        "Ġwor",
        "king"
      ],
      [
        "ĠT",
        "h"
      ],
      [
        "e",
        "ared"
      ],
      [
        "Ġf",
        "ive"
      ],
      [
        "Ġhold",
        "ing"
      ],
      [
        "Ġmiss",
        "ing"
      ],
      [
        "e",
        "et"
      ],
      [
        "p",
        "s"
      ],
      [
        "u",
        "s"
      ],
      [
        "Ġit",
        "s"
      ],
      [
        "Ġtur",
        "ning"
      ],
      [
        "Ġprom",
        "ise"
      ],
      [
        "Ġlearn",
        "ed"
      ],
      [
        "Ġdist",
        "racted"
      ],
      [
        "Ġdes",
        "er"
      ],
      [
        "Ġsupp",
        "osed"
      ],
      [
        "a",
        "king"
      ],
      [
        "n",
        "ot"
      ],
      [
        "y",
        "ou"
      ],
      [
        "Ġs",
        "er"
      ],
      [
        "or",
        "d"
      ],
      [
        "it",
        "ive"
      ],
      [
        "Ġst",
        "re"
      ],
      [
        "press",
        "es"
      ],
      [
        "happ",
        "y"
      ],
      [
        "f",
        "ast"
      ],
      [
        "Ġe",
        "ar"
      ],
      [
        "Ġr",
        "is"
      ],
      [
        "ĠM",
        "O"
      ],
      [
        "a",
        "ge"
      ],
      [
        "Ġ",
        "R"
      ],
      [
        "A",
        "C"
      ],
      [
        "Ġfre",
        "e"
      ],
      [
        "Ġnervous",
        "ly"
      ],
      [
        "B",
        "LE"
      ],
      [
        "j",
        "o"
      ],
      [
        "Ġy",
        "et"
      ],
      [
        "Ġp",
        "h"
      ],
      [
        "il",
        "i"
      ],
      [
        "Ġtra",
        "pped"
      ],
      [
        "Ġdec",
        "or"
      ],
      [
        "s",
        "u"
      ],
      [
        "Ġd",
        "r"
      ],
      [
        "Ġh",
        "its"
      ],
      [
        "on",
        "t"
      ],
      [
        "Ġfin",
        "ished"
      ],
      [
        "Ġwigg",
        "ly"
      ],
      [
        "Ġatt",
        "ention"
      ],
      [
        "e",
        "w"
      ],
      [
        "Ġst",
        "aring"
      ],
      [
        "Ġv",
        "acant"
      ],
      [
        "Ġcall",
        "ed"
      ],
      [
        "OO",
        "D"
      ],
      [
        "Ġchas",
        "ing"
      ],
      [
        "Ġconvers",
        "ation"
      ],
      [
        "Ġup",
        "set"
      ],
      [
        "Ġcon",
        "f"
      ],
      [
        "so",
        "me"
      ],
      [
        "Ġgold",
        "en"
      ],
      [
        "Ġstart",
        "ing"
      ],
      [
        "Ġbreak",
        "fast"
      ],
      [
        "Ġpart",
        "ner"
      ],
      [
        "mo",
        "st"
      ],
      [
        "?",
        "!!"
      ],
      [
        "p",
        "ec"
      ],
      [
        "Ġso",
        "l"
      ],
      [
        "Ġno",
        "se"
      ],
      [
        "Ġsw",
        "eet"
      ],
      [
        "Ġcare",
        "s"
      ],
      [
        "Ġboun",
        "c"
      ],
      [
        "Ġtast",
        "es"
      ],
      [
        "Ġimag",
        "ine"
      ],
      [
        "Ġre",
        "mind"
      ],
      [
        "âĢĶ",
        "*"
      ],
      [
        "Ġpo",
        "s"
      ],
      [
        "co",
        "me"
      ],
      [
        "Ġ",
        "es"
      ],
      [
        "or",
        "ies"
      ],
      [
        "Ġwa",
        "l"
      ],
      [
        "il",
        "s"
      ],
      [
        "Ġtell",
        "ing"
      ],
      [
        "Ġchang",
        "ing"
      ],
      [
        "Ġvisit",
        "or"
      ],
      [
        "pec",
        "ially"
      ],
      [
        "Ġes",
        "pecially"
      ],
      [
        "a",
        "h"
      ],
      [
        "Ġon",
        "to"
      ],
      [
        "Ġmoment",
        "s"
      ],
      [
        "Ġbo",
        "ther"
      ],
      [
        "Ġtr",
        "u"
      ],
      [
        "Ġfo",
        "cus"
      ],
      [
        "Ġac",
        "cept"
      ],
      [
        "Ġw",
        "el"
      ],
      [
        "Ġal",
        "most"
      ],
      [
        "ant",
        "ically"
      ],
      [
        "ĠY",
        "AY"
      ],
      [
        "Ġquestion",
        "s"
      ],
      [
        "Ġus",
        "ually"
      ],
      [
        "d",
        "arts"
      ],
      [
        "g",
        "er"
      ],
      [
        "Ġt",
        "ried"
      ],
      [
        "Ġv",
        "oice"
      ],
      [
        "Ġexcit",
        "ement"
      ],
      [
        "Ġaw",
        "ake"
      ],
      [
        "Ġgl",
        "ow"
      ],
      [
        "Ġvibration",
        "s"
      ],
      [
        "*",
        "âĢĶ"
      ],
      [
        "t",
        "ion"
      ],
      [
        "Ġf",
        "it"
      ],
      [
        "ri",
        "ll"
      ],
      [
        "Ġfr",
        "ont"
      ],
      [
        "Ġlook",
        "ed"
      ],
      [
        "ĠT",
        "hat"
      ],
      [
        "Ġfast",
        "er"
      ],
      [
        "Ġbr",
        "ing"
      ],
      [
        "bb",
        "les"
      ],
      [
        "Ġfriend",
        "ship"
      ],
      [
        "ĠA",
        "N"
      ],
      [
        "Ġdisappoint",
        "ed"
      ],
      [
        "Ġsto",
        "pped"
      ],
      [
        "ili",
        "ar"
      ],
      [
        "o",
        "ck"
      ],
      [
        "s",
        "er"
      ],
      [
        "u",
        "sh"
      ],
      [
        "Ġ",
        "J"
      ],
      [
        "Ġg",
        "en"
      ],
      [
        "Ġact",
        "ual"
      ],
      [
        "Ġac",
        "c"
      ],
      [
        "anc",
        "y"
      ],
      [
        "Ġlear",
        "ning"
      ],
      [
        "Ġexhaust",
        "ing"
      ],
      [
        "Ġwe",
        "e"
      ],
      [
        "Ġbl",
        "ue"
      ],
      [
        "Ġri",
        "pp"
      ],
      [
        "Ġh",
        "op"
      ],
      [
        "Ġen",
        "jo"
      ],
      [
        "Ġlot",
        "s"
      ],
      [
        "Ġsn",
        "ack"
      ],
      [
        "Ġforgi",
        "ven"
      ],
      [
        "A",
        "D"
      ],
      [
        "i",
        "a"
      ],
      [
        "n",
        "ce"
      ],
      [
        "th",
        "at"
      ],
      [
        "Ġp",
        "unch"
      ],
      [
        "ic",
        "ious"
      ],
      [
        "fu",
        "sed"
      ],
      [
        "Ġpre",
        "ss"
      ],
      [
        "Ġjo",
        "b"
      ],
      [
        "Ġfam",
        "iliar"
      ],
      [
        "ĠBU",
        "B"
      ],
      [
        "Ġdeser",
        "ve"
      ],
      [
        "S",
        "E"
      ],
      [
        "in",
        "ner"
      ],
      [
        "Ġs",
        "ize"
      ],
      [
        "Ġm",
        "an"
      ],
      [
        "Ġn",
        "u"
      ],
      [
        "iz",
        "zy"
      ],
      [
        "Ġsing",
        "le"
      ],
      [
        "Ġener",
        "gy"
      ],
      [
        "Ġser",
        "ious"
      ],
      [
        "Ġ",
        "ra"
      ],
      [
        "Ġs",
        "ens"
      ],
      [
        "Ġo",
        "b"
      ],
      [
        "Ġj",
        "ud"
      ],
      [
        "Ġwarm",
        "er"
      ],
      [
        "Ġcom",
        "fort"
      ],
      [
        "wh",
        "o"
      ],
      [
        "ĠTH",
        "ING"
      ],
      [
        "ĠTH",
        "IS"
      ],
      [
        "Ġhum",
        "ming"
      ],
      [
        "com",
        "p"
      ],
      [
        "Ġbe",
        "g"
      ],
      [
        "Ġfr",
        "antically"
      ],
      [
        "ĠT",
        "he"
      ],
      [
        "ĠNO",
        "W"
      ],
      [
        "u",
        "ation"
      ],
      [
        "Ġa",
        "ch"
      ],
      [
        "le",
        "m"
      ],
      [
        "Ġlea",
        "st"
      ],
      [
        "I",
        "R"
      ],
      [
        "on",
        "es"
      ],
      [
        "la",
        "sh"
      ],
      [
        "Ġst",
        "ick"
      ],
      [
        "im",
        "mer"
      ],
      [
        "Ġprom",
        "ot"
      ],
      [
        "Ġbor",
        "ing"
      ],
      [
        "Ġchoo",
        "se"
      ],
      [
        "Ġwel",
        "come"
      ],
      [
        "A",
        "Z"
      ],
      [
        "in",
        "ning"
      ],
      [
        "Ġb",
        "ir"
      ],
      [
        "an",
        "ic"
      ],
      [
        "Ġre",
        "c"
      ],
      [
        "ĠT",
        "ell"
      ],
      [
        "am",
        "es"
      ],
      [
        "con",
        "fused"
      ],
      [
        "Ġmist",
        "akes"
      ],
      [
        "Ġpunch",
        "line"
      ],
      [
        "Ġbir",
        "th"
      ],
      [
        "u",
        "b"
      ],
      [
        "Ġc",
        "au"
      ],
      [
        "Ġso",
        "ng"
      ],
      [
        "Ġta",
        "kes"
      ],
      [
        "VER",
        "Y"
      ],
      [
        "Ġterri",
        "ble"
      ],
      [
        "Ġbirth",
        "day"
      ],
      [
        "P",
        "P"
      ],
      [
        "c",
        "irc"
      ],
      [
        "e",
        "ction"
      ],
      [
        "Ġd",
        "inner"
      ],
      [
        "Ġgood",
        "ness"
      ],
      [
        "Ġprob",
        "lem"
      ],
      [
        "Ġexist",
        "s"
      ],
      [
        "Ġar",
        "ri"
      ],
      [
        "O",
        "M"
      ],
      [
        "f",
        "ter"
      ],
      [
        "s",
        "ic"
      ],
      [
        "t",
        "les"
      ],
      [
        "Ġf",
        "ancy"
      ],
      [
        "th",
        "ought"
      ],
      [
        "oo",
        "sh"
      ],
      [
        "Ġyour",
        "s"
      ],
      [
        "Ġan",
        "x"
      ],
      [
        "Ġsh",
        "e"
      ],
      [
        "Ġsp",
        "end"
      ],
      [
        "Ġsay",
        "s"
      ],
      [
        "Ġpre",
        "sent"
      ],
      [
        "Ġsad",
        "ness"
      ],
      [
        "ĠS",
        "T"
      ],
      [
        "Ġmyster",
        "y"
      ],
      [
        "il",
        "ing"
      ],
      [
        "Ġbr",
        "ings"
      ],
      [
        "Ġfl",
        "ip"
      ],
      [
        "ĠN",
        "E"
      ],
      [
        "ig",
        "n"
      ],
      [
        "Ġturn",
        "ed"
      ],
      [
        "e",
        "yes"
      ],
      [
        "Ġ",
        "REA"
      ],
      [
        "Ġb",
        "ook"
      ],
      [
        "Ġit",
        "self"
      ],
      [
        "st",
        "ic"
      ],
      [
        "Ġme",
        "ant"
      ],
      [
        "Ġlo",
        "ved"
      ],
      [
        "Ġexist",
        "ing"
      ],
      [
        "ĠH",
        "A"
      ],
      [
        "Ġac",
        "ross"
      ],
      [
        "Ġswish",
        "es"
      ],
      [
        "Ġsit",
        "uation"
      ],
      [
        "Ġsil",
        "ence"
      ],
      [
        "h",
        "ere"
      ],
      [
        "s",
        "ion"
      ],
      [
        "Ġso",
        "fter"
      ],
      [
        "Ġe",
        "d"
      ],
      [
        "Ġre",
        "j"
      ],
      [
        "Ġre",
        "co"
      ],
      [
        "Ġwi",
        "ld"
      ],
      [
        "Ġu",
        "h"
      ],
      [
        "Ġkn",
        "ew"
      ],
      [
        "tra",
        "ils"
      ],
      [
        "Ġpos",
        "itive"
      ],
      [
        "G",
        "A"
      ],
      [
        "Ġb",
        "rou"
      ],
      [
        "Ġn",
        "et"
      ],
      [
        "Ġsp",
        "lash"
      ],
      [
        "Ġhard",
        "est"
      ],
      [
        "keep",
        "s"
      ],
      [
        "Ġdisapp",
        "ear"
      ],
      [
        "Ġbrou",
        "ght"
      ],
      [
        "b",
        "u"
      ],
      [
        "i",
        "ld"
      ],
      [
        "Ġp",
        "ay"
      ],
      [
        "Ġp",
        "oof"
      ],
      [
        "Ġch",
        "ance"
      ],
      [
        "Ġv",
        "al"
      ],
      [
        "Ġwonder",
        "ing"
      ],
      [
        "Ġpla",
        "stic"
      ],
      [
        "Ġgi",
        "ving"
      ],
      [
        "ĠAM",
        "AZ"
      ],
      [
        "some",
        "thing"
      ],
      [
        "ĠAMAZ",
        "ING"
      ],
      [
        "S",
        "S"
      ],
      [
        "z",
        "z"
      ],
      [
        "Ġh",
        "y"
      ],
      [
        "ic",
        "es"
      ],
      [
        "!!",
        "!"
      ],
      [
        "Ġqu",
        "ite"
      ],
      [
        "ĠF",
        "IN"
      ],
      [
        "Ġtalk",
        "ed"
      ],
      [
        "Ġnotic",
        "ing"
      ],
      [
        "Ġdou",
        "bt"
      ],
      [
        "Ġforgiven",
        "ess"
      ],
      [
        "Ġw",
        "o"
      ],
      [
        "at",
        "es"
      ],
      [
        "Ġh",
        "ate"
      ],
      [
        "Ġp",
        "un"
      ],
      [
        "Ġday",
        "s"
      ],
      [
        "Ġperfect",
        "ly"
      ],
      [
        "Ġother",
        "s"
      ],
      [
        "Ġhope",
        "ful"
      ],
      [
        "Ġar",
        "t"
      ],
      [
        "IS",
        "H"
      ],
      [
        "bon",
        "ks"
      ],
      [
        "Ġenjo",
        "y"
      ],
      [
        "circ",
        "ling"
      ],
      [
        "Ġlo",
        "se"
      ],
      [
        "Ġbl",
        "ur"
      ],
      [
        "Ġdiffere",
        "nce"
      ],
      [
        "Ġpla",
        "ces"
      ],
      [
        "Ġeas",
        "ily"
      ],
      [
        "LL",
        "Y"
      ],
      [
        "Ġcont",
        "ent"
      ],
      [
        "Ġpass",
        "ed"
      ],
      [
        "G",
        "E"
      ],
      [
        "Ġt",
        "ank"
      ],
      [
        "ou",
        "se"
      ],
      [
        "Ġh",
        "ouse"
      ],
      [
        "Ġmo",
        "m"
      ],
      [
        "Ġrest",
        "ing"
      ],
      [
        "ĠC",
        "an"
      ],
      [
        "Ġboun",
        "ce"
      ],
      [
        "Ġd",
        "izzy"
      ],
      [
        "Ġli",
        "ves"
      ],
      [
        "ent",
        "ly"
      ],
      [
        "Ġhe",
        "ard"
      ],
      [
        "Ġr",
        "oom"
      ],
      [
        "ĠTHE",
        "RE"
      ],
      [
        "per",
        "ks"
      ],
      [
        "Ġdisappoint",
        "ment"
      ],
      [
        "Ġsol",
        "id"
      ],
      [
        "Ġnu",
        "mber"
      ],
      [
        "Ġh",
        "iding"
      ],
      [
        "Ġg",
        "row"
      ],
      [
        "ac",
        "es"
      ],
      [
        "mb",
        "ered"
      ],
      [
        "Ġsc",
        "ares"
      ],
      [
        "OU",
        "T"
      ],
      [
        "Ġneed",
        "s"
      ],
      [
        "ĠH",
        "E"
      ],
      [
        "g",
        "es"
      ],
      [
        "oo",
        "l"
      ],
      [
        "Ġback",
        "ward"
      ],
      [
        "Ġescap",
        "e"
      ],
      [
        "ho",
        "ld"
      ],
      [
        "Ġdiscover",
        "ing"
      ],
      [
        "Ġs",
        "y"
      ],
      [
        "Ġd",
        "a"
      ],
      [
        "le",
        "x"
      ],
      [
        "Ġlo",
        "sing"
      ],
      [
        "Ġsc",
        "are"
      ],
      [
        "ist",
        "ic"
      ],
      [
        "Ġaw",
        "ful"
      ],
      [
        "Ġr",
        "ise"
      ],
      [
        "ĠA",
        "RE"
      ],
      [
        "ti",
        "me"
      ],
      [
        "Ġmist",
        "ake"
      ],
      [
        "Ġ",
        "U"
      ],
      [
        "Ġreme",
        "mbered"
      ],
      [
        "Ġsh",
        "immer"
      ],
      [
        "he",
        "ad"
      ],
      [
        "n",
        "ope"
      ],
      [
        "Ġb",
        "ar"
      ],
      [
        "Ġc",
        "our"
      ],
      [
        "Ġremember",
        "s"
      ],
      [
        "Ġswim",
        "s"
      ],
      [
        "are",
        "ly"
      ],
      [
        "Ġlet",
        "ter"
      ],
      [
        "Ġsleep",
        "ing"
      ],
      [
        "Ġsurpris",
        "ing"
[...]
