{
  "version": "1.0",
  "truncation": null,
  "padding": null,
  "added_tokens": [
    {
      "id": 0,
      "content": "<pad>",
      "single_word": false,
      "lstrip": false,
      "rstrip": false,
      "normalized": false,
      "special": true
    },
    {
      "id": 1,
      "content": "<bos>",
      "single_word": false,
      "lstrip": false,
      "rstrip": false,
      "normalized": false,
      "special": true
    },
    {
      "id": 2,
      "content": "<eos>",
      "single_word": false,
      "lstrip": false,
      "rstrip": false,
      "normalized": false,
      "special": true
    },
    {
      "id": 3,
      "content": "<unk>",
      "single_word": false,
      "lstrip": false,
      "rstrip": false,
      "normalized": false,
      "special": true
    }
  ],
  "normalizer": null,
  "pre_tokenizer": {
    "type": "ByteLevel",
    "add_prefix_space": true,
    "trim_offsets": true,
    "use_regex": true
  },
  "post_processor": {
    "type": "TemplateProcessing",
    "single": [
      {
        "SpecialToken": {
          "id": "<bos>",
          "type_id": 0
        }
      },
      {
        "Sequence": {
          "id": "A",
          "type_id": 0
        }
      },
      {
        "SpecialToken": {
          "id": "<eos>",
          "type_id": 0
        }
      }
    ],
    "pair": [
      {
        "Sequence": {
          "id": "A",
          "type_id": 0
        }
      },
      {
        "Sequence": {
          "id": "B",
          "type_id": 1
        }
      }
    ],
    "special_tokens": {
      "<bos>": {
        "id": "<bos>",
        "ids": [
          1
        ],
        "tokens": [
          "<bos>"
        ]
      },
      "<eos>": {
        "id": "<eos>",
        "ids": [
          2
        ],
        "tokens": [
          "<eos>"
        ]
      }
    }
  },
  "decoder": {
    "type": "ByteLevel",
    "add_prefix_space": true,
    "trim_offsets": true,
    "use_regex": true
  },
  "model": {
    "type": "BPE",
    "dropout": null,
    "unk_token": "<unk>",
    "continuing_subword_prefix": null,
    "end_of_word_suffix": null,
    "fuse_unk": false,
    "byte_fallback": false,
    "ignore_merges": false,
    "vocab": {
      "<pad>": 0,
      "<bos>": 1,
      "<eos>": 2,
      "<unk>": 3,
      "!": 4,
      "%": 5,
      "'": 6,
      "(": 7,
      ")": 8,
      "*": 9,
      "+": 10,
      ",": 11,
      "-": 12,
      ".": 13,
      "0": 14,
      "1": 15,
      "2": 16,
      "3": 17,
      "4": 18,
      "5": 19,
      "6": 20,
      "7": 21,
      "8": 22,
      "9": 23,
      ":": 24,
      "=": 25,
      "?": 26,
      "A": 27,
      "B": 28,
      "C": 29,
      "D": 30,
      "E": 31,
      "F": 32,
      "G": 33,
      "H": 34,
      "I": 35,
      "J": 36,
      "K": 37,
      "L": 38,
      "M": 39,
      "N": 40,
      "O": 41,
      "P": 42,
      "Q": 43,
      "R": 44,
      "S": 45,
      "T": 46,
      "U": 47,
      "V": 48,
      "W": 49,
      "X": 50,
      "Y": 51,
      "Z": 52,
      "a": 53,
      "b": 54,
      "c": 55,
      "d": 56,
      "e": 57,
      "f": 58,
      "g": 59,
      "h": 60,
      "i": 61,
      "j": 62,
      "k": 63,
      "l": 64,
      "m": 65,
      "n": 66,
      "o": 67,
      "p": 68,
      "q": 69,
      "r": 70,
      "s": 71,
      "t": 72,
      "u": 73,
      "v": 74,
      "w": 75,
      "x": 76,
      "y": 77,
      "z": 78,
      "©": 79,
      "Ã": 80,
      "â": 81,
      "Ġ": 82,
      "Ģ": 83,
      "Ķ": 84,
      "Ġt": 85,
      "Ġi": 86,
      "Ġth": 87,
      "Ġw": 88,
      "Ġa": 89,
      "ou": 90,
      "in": 91,
      "er": 92,
      "Ġs": 93,
      "at": 94,
      "Ġy": 95,
      "Ġthe": 96,
      "Ġm": 97,
      "Ġyou": 98,
      "ing": 99,
      "Ġf": 100,
      "Ġb": 101,
      "es": 102,
      "Ġd": 103,
      "re": 104,
      "nd": 105,
      "Ġwh": 106,
      "Ġh": 107,
      "Ġl": 108,
      "ow": 109,
      "Ġn": 110,
      "Ġo": 111,
      "Ġdo": 112,
      "me": 113,
      "Ġand": 114,
      "Ġc": 115,
      "Ġit": 116,
      "Ġis": 117,
      "'s": 118,
      "Ġg": 119,
      "el": 120,
      "th": 121,
      "Ġso": 122,
      "en": 123,
      "an": 124,
      "Ġli": 125,
      "ay": 126,
      "or": 127,
      "st": 128,
      "Ġwhat": 129,
      "Ġe": 130,
      "gh": 131,
      "Ġto": 132,
      "ar": 133,
      "Ġme": 134,
      "ll": 135,
      "ke": 136,
      "Ġwat": 137,
      "ver": 138,
      "Ġthat": 139,
      "Ġwater": 140,
      "ere": 141,
      "Ġbe": 142,
      "ve": 143,
      "ght": 144,
      "le": 145,
      "Ġp": 146,
      "Ġbu": 147,
      "on": 148,
      "is": 149,
      "..": 150,
      "Ġk": 151,
      "thing": 152,
      "oo": 153,
      "ri": 154,
      "Ġin": 155,
      "'t": 156,
      "Ġsome": 157,
      "Ġlike": 158,
      "Ġfe": 159,
      "Ġever": 160,
      "Ġha": 161,
      "Ġno": 162,
      "'m": 163,
      "Ġj": 164,
      "Ġfeel": 165,
      "ust": 166,
      "et": 167,
      "Ġmo": 168,
      "Ġfor": 169,
      "Ġbut": 170,
      "la": 171,
      "ti": 172,
      "ld": 173,
      "Ġmy": 174,
      "ce": 175,
      "Ġjust": 176,
      "Ġare": 177,
      "Ġre": 178,
      "Ġyour": 179,
      "Ġevery": 180,
      "'re": 181,
      "Ġwa": 182,
      "ind": 183,
      "ed": 184,
      "it": 185,
      "kes": 186,
      "out": 187,
      "Ġne": 188,
      "Ġthey": 189,
      "right": 190,
      "Ġse": 191,
      "Ġnow": 192,
      "Ġwi": 193,
      "Ġst": 194,
      "pp": 195,
      "Ġdon": 196,
      "Ġal": 197,
      "Ġhow": 198,
      "Ġu": 199,
      "arm": 200,
      "Ġwarm": 201,
      "...": 202,
      "Ġkind": 203,
      "Ġab": 204,
      "Ġor": 205,
      "Ġkn": 206,
      "id": 207,
      "Ġof": 208,
      "ge": 209,
      "Ġcan": 210,
      "Ġknow": 211,
      "owl": 212,
      "est": 213,
      "Ġco": 214,
      "Ġbowl": 215,
      "Ġright": 216,
      "ch": 217,
      "Ġthing": 218,
      "ad": 219,
      "all": 220,
      "Ġthere": 221,
      "Ġon": 222,
      "Ġgo": 223,
      "Ġabout": 224,
      "Ġlight": 225,
      "ood": 226,
      "se": 227,
      "al": 228,
      "Ġforg": 229,
      "Ġhere": 230,
      "ess": 231,
      "one": 232,
      "Ġoh": 233,
      "be": 234,
      "Ġhapp": 235,
      "way": 236,
      "ent": 237,
      "ly": 238,
      "Ġfla": 239,
      "Ġsomething": 240,
      "Ġthis": 241,
      "Ġwhen": 242,
      "Ġsee": 243,
      "Ġeverything": 244,
      "ange": 245,
      "rou": 246,
      "lo": 247,
      "ink": 248,
      "fu": 249,
      "nt": 250,
      "im": 251,
      "Ġwor": 252,
      "Ġmay": 253,
      "Ġma": 254,
      "Ġmaybe": 255,
      "Ġsh": 256,
      "ish": 257,
      "Ġthink": 258,
      "Ġyes": 259,
      "tt": 260,
      "ft": 261,
      "Ġflakes": 262,
      "Ġsw": 263,
      "Ġnot": 264,
      "Ġti": 265,
      "ful": 266,
      "Ġgood": 267,
      "Ġloo": 268,
      "ment": 269,
      "Ġan": 270,
      "Ġwith": 271,
      "Ġfeels": 272,
      "Ġdoes": 273,
      "ro": 274,
      "mes": 275,
      "Ġlook": 276,
      "ur": 277,
      "ss": 278,
      "mb": 279,
      "Ġhave": 280,
      "Ġwas": 281,
      "Ġall": 282,
      "Ġswim": 283,
      "ck": 284,
      "ra": 285,
      "Ġwhy": 286,
      "ry": 287,
      "Ġorange": 288,
      "ways": 289,
      "Ġalways": 290,
      "Ġsm": 291,
      "Ġat": 292,
      "memb": 293,
      "Ġmoment": 294,
      "ould": 295,
      "Ġrememb": 296,
      "les": 297,
      "ant": 298,
      "Ġforget": 299,
      "Ġgla": 300,
      "au": 301,
      "Ġremember": 302,
      "Ġif": 303,
      "Ġwho": 304,
      "Ġbeing": 305,
      "Ġfa": 306,
      "Ġni": 307,
      "Ġho": 308,
      "Ġtime": 309,
      "Ġta": 310,
      "art": 311,
      "ir": 312,
      "Ġthings": 313,
      "Ġlo": 314,
      "Ġwait": 315,
      "ea": 316,
      "Ġnew": 317,
      "nder": 318,
      "bb": 319,
      "Ġch": 320,
      "ain": 321,
      "fe": 322,
      "ep": 323,
      "ness": 324,
      "Ġag": 325,
      "Ġr": 326,
      "Ġglass": 327,
      "ell": 328,
      "Ġbubb": 329,
      "Ġsomeone": 330,
      "Ġfin": 331,
      "Ġget": 332,
      "Ġsa": 333,
      "Ġdid": 334,
      "ther": 335,
      "Ġagain": 336,
      "Ġnice": 337,
      "round": 338,
      "ct": 339,
      "Ġany": 340,
      "Ġsoft": 341,
      "??": 342,
      "Ġthen": 343,
      "Ġup": 344,
      "Ġwe": 345,
      "ough": 346,
      "Ġthem": 347,
      "Ġsometi": 348,
      "ter": 349,
      "Ġflo": 350,
      "Ġsometimes": 351,
      "Ġsu": 352,
      "Ġmakes": 353,
      "Ġfloat": 354,
      "ving": 355,
      "Ġwhere": 356,
      "Ġsc": 357,
      "Ġsti": 358,
      "Ġtoo": 359,
      "Ġhel": 360,
      "mp": 361,
      "ming": 362,
      "Ġen": 363,
      "Ġsmall": 364,
      "Ġhappy": 365,
      "Ġfish": 366,
      "Ġam": 367,
      "Ġstill": 368,
      "red": 369,
      "Ġok": 370,
      "ally": 371,
      "Ġdi": 372,
      "ff": 373,
      "Ġhappen": 374,
      "Ġmean": 375,
      "il": 376,
      "Ġfins": 377,
      "Ġokay": 378,
      "Ġbo": 379,
      "Ġex": 380,
      "Ġgent": 381,
      "pe": 382,
      "nds": 383,
      "ven": 384,
      "ig": 385,
      "Ġtell": 386,
      "Ġwo": 387,
      "ard": 388,
      "rom": 389,
      "op": 390,
      "Ġbubbles": 391,
      "Ġbec": 392,
      "rie": 393,
      "Ġenough": 394,
      "Ġmove": 395,
      "Ġgi": 396,
      "Ġwonder": 397,
      "Ġfrie": 398,
      "Ġfrom": 399,
      "Ġke": 400,
      "Ġper": 401,
      "Ġone": 402,
      "very": 403,
      "Ġkeep": 404,
      "qu": 405,
      "rough": 406,
      "Ġkindness": 407,
      "Ġbig": 408,
      "Ġvery": 409,
      "ffer": 410,
      "Ġstay": 411,
      "Ġthrough": 412,
      "Ġway": 413,
      "elf": 414,
      "Ġba": 415,
      "Ġdiffer": 416,
      "ong": 417,
      "ause": 418,
      "Ġworld": 419,
      "king": 420,
      "day": 421,
      "Ġlove": 422,
      "Ġbecause": 423,
      "Ġqu": 424,
      "Ġwhole": 425,
      "Ġtry": 426,
      "Ġsay": 427,
      "Ġeven": 428,
      "Ġrest": 429,
      "Ġlitt": 430,
      "Ġlittle": 431,
      "Ġca": 432,
      "Ġdifferent": 433,
      "atter": 434,
      "Ġaround": 435,
      "Ġback": 436,
      "Ġgold": 437,
      "ore": 438,
      "ady": 439,
      "own": 440,
      "self": 441,
      "Ġwill": 442,
      "Ġday": 443,
      "Ġhe": 444,
      "Ġas": 445,
      "ting": 446,
      "Ġwould": 447,
      "Ġhu": 448,
      "Ġbest": 449,
      "Ġwant": 450,
      "Ġthan": 451,
      "Ġwarmth": 452,
      "Ġmatter": 453,
      "rea": 454,
      "ide": 455,
      "Ġgentle": 456,
      "Ġneed": 457,
      "ive": 458,
      "ely": 459,
      "gg": 460,
      "Ġnever": 461,
      "low": 462,
      "Ġfu": 463,
      "Ġreally": 464,
      "Ġmost": 465,
      "Ġbright": 466,
      "Ġbel": 467,
      "Ġum": 468,
      "Ġtr": 469,
      "ves": 470,
      "Ġv": 471,
      "Ġwonderful": 472,
      "Ġcome": 473,
      "Ġswimming": 474,
      "ite": 475,
      "Ġmoving": 476,
      "Ġfriend": 477,
      "Ġsou": 478,
      "Ġea": 479,
      "fect": 480,
      "Ġmore": 481,
      "Ġseem": 482,
      "Ġqui": 483,
      "Ġmu": 484,
      "co": 485,
      "Ġperfect": 486,
      "Ġhard": 487,
      "Ġby": 488,
      "Ġout": 489,
      "Ġmake": 490,
      "Ġwigg": 491,
      "Ġbeau": 492,
      "Ġreal": 493,
      "ic": 494,
      "ang": 495,
      "rat": 496,
      "ark": 497,
      "Ġtoday": 498,
      "ie": 499,
      "reat": 500,
      "Ġpl": 501,
      "Ġsame": 502,
      "Ġmeans": 503,
      "iny": 504,
      "fish": 505,
      "Ġbeauti": 506,
      "dy": 507,
      "Ġsp": 508,
      "Ġnoti": 509,
      "Ġdrea": 510,
      "Ġbeautiful": 511,
      "Ġpe": 512,
      "Ġmuch": 513,
      "Ġhold": 514,
      "Ġhello": 515,
      "Ġgoldfish": 516,
      "'ll": 517,
      "Ġstart": 518,
      "sh": 519,
      "ot": 520,
      "Ġpart": 521,
      "Ġhelp": 522,
      "Ġfood": 523,
      "res": 524,
      "Ġdoesn": 525,
      "ous": 526,
      "Ġtail": 527,
      "ready": 528,
      "Ġalready": 529,
      "Ġcon": 530,
      "tter": 531,
      "ight": 532,
      "Ġlet": 533,
      "Ġjo": 534,
      "Ġdown": 535,
      "tion": 536,
      "Ġquiet": 537,
      "sta": 538,
      "Ġcomes": 539,
      "Ġdream": 540,
      "Ġeat": 541,
      "here": 542,
      "ning": 543,
      "Ġlooking": 544,
      "Ġwere": 545,
      "Ġanything": 546,
      "Ġnothing": 547,
      "vor": 548,
      "Ġbelie": 549,
      "Ġbra": 550,
      "Ġpea": 551,
      "Ġfloating": 552,
      "ople": 553,
      "Ġpeople": 554,
      "Ġstr": 555,
      "Ġpeace": 556,
      "Ġsad": 557,
      "Ġunder": 558,
      "Ġdark": 559,
      "Ġcle": 560,
      "Ġshould": 561,
      "Ġsure": 562,
      "ste": 563,
      "Ġwatch": 564,
      "ion": 565,
      "ort": 566,
      "Ġsca": 567,
      "Ġchange": 568,
      "Ġfavor": 569,
      "Ġgoing": 570,
      "Ġfavorite": 571,
      "ure": 572,
      "Ġyourself": 573,
      "where": 574,
      "ib": 575,
      "lls": 576,
      "Ġtiny": 577,
      "Ġdoing": 578,
      "Ġother": 579,
      "Ġround": 580,
      "ast": 581,
      "!!": 582,
      "'ve": 583,
      "Ġtal": 584,
      "Ġfeeling": 585,
      "Ġey": 586,
      "âĢ": 587,
      "âĢĶ": 588,
      "side": 589,
      "mor": 590,
      "Ġpo": 591,
      "Ġsafe": 592,
      "resh": 593,
      "ret": 594,
      "Ġde": 595,
      "ng": 596,
      "Ġlive": 597,
      "Ġhope": 598,
      "Ġnotice": 599,
      "Ġfir": 600,
      "Ġtrying": 601,
      "sten": 602,
      "ab": 603,
      "Ġfresh": 604,
      "Ġfirst": 605,
      "lor": 606,
      "Ġhome": 607,
      "ose": 608,
      "Ġbetter": 609,
      "Ġpla": 610,
      "Ġscal": 611,
      "Ġsur": 612,
      "Ġeyes": 613,
      "ool": 614,
      "Ġscared": 615,
      "Ġscales": 616,
      "Ġchang": 617,
      "Ġgra": 618,
      "Ġhur": 619,
      "Ġfind": 620,
      "Ġonly": 621,
      "Ġsha": 622,
      "Ġel": 623,
      "Ġlong": 624,
      "Ġlisten": 625,
      "Ġfast": 626,
      "Ġslow": 627,
      "Ġundersta": 628,
      "Ġstop": 629,
      "Ġpro": 630,
      "Ġaway": 631,
      "Ġdes": 632,
      "Ġforgot": 633,
      "Ġbubble": 634,
      "Ġmatters": 635,
      "Ġtur": 636,
      "Ġword": 637,
      "Ġhum": 638,
      "Ġbelieve": 639,
      "Ġwhi": 640,
      "Ġseco": 641,
      "Ġtrust": 642,
      "Ġelse": 643,
      "Ġcolor": 644,
      "ade": 645,
      "Ġplant": 646,
      "Ġcould": 647,
      "vel": 648,
      "ear": 649,
      "Ġpre": 650,
      "Ġcool": 651,
      "Ġ*": 652,
      "Ġsun": 653,
      "Ġunderstand": 654,
      "Ġover": 655,
      "Ġlooks": 656,
      "reath": 657,
      "Ġbreath": 658,
      "Ġeach": 659,
      "Ġhurt": 660,
      "Ġsounds": 661,
      "ise": 662,
      "Ġtired": 663,
      "son": 664,
      "Ġhappens": 665,
      "Ġbef": 666,
      "Ġcare": 667,
      "Ġlon": 668,
      "Ġbefore": 669,
      "Ġimp": 670,
      "Ġlife": 671,
      "Ġlea": 672,
      "Ġwiggle": 673,
      "Ġcold": 674,
      "om": 675,
      "Ġalive": 676,
      "ance": 677,
      "irc": 678,
      "Ġgravel": 679,
      "Ġcirc": 680,
      "Ġmade": 681,
      "leep": 682,
      "ci": 683,
      "ove": 684,
      "Ġkeeps": 685,
      "int": 686,
      "Ġcar": 687,
      "Ġcat": 688,
      "Ġthank": 689,
      "Ġabove": 690,
      "row": 691,
      "to": 692,
      "Ġdis": 693,
      "Ġanyway": 694,
      "Ġshad": 695,
      "ine": 696,
      "Ġcal": 697,
      "Ġtaste": 698,
      "Ġsleep": 699,
      "ner": 700,
      "Ġshadow": 701,
      "Ġbody": 702,
      "Ġgills": 703,
      "Ġcoming": 704,
      "ist": 705,
      "Ġmight": 706,
      "tty": 707,
      "Ġpretty": 708,
      "Ġcalm": 709,
      "pr": 710,
      "Ġfull": 711,
      "Ġlonely": 712,
      "so": 713,
      "Ġhappened": 714,
      "xt": 715,
      "Ġfriends": 716,
      "Ġthose": 717,
      "Ġwork": 718,
      "Ġsor": 719,
      "Ġun": 720,
      "Ġface": 721,
      "Ġsurpr": 722,
      "Ġplace": 723,
      "ces": 724,
      "Ġpu": 725,
      "Ġisn": 726,
      "Ġgone": 727,
      "Ġfun": 728,
      "lu": 729,
      "Ġfore": 730,
      "Ġforgetting": 731,
      "Ġmostly": 732,
      "Ġflake": 733,
      "Ġtalking": 734,
      "any": 735,
      "Ġnext": 736,
      "Ġsaying": 737,
      "Ġforever": 738,
      "Ġsorry": 739,
      "Ġalone": 740,
      "Ġstu": 741,
      "Ġwell": 742,
      "Ġop": 743,
      "Ġprob": 744,
      "Ġcor": 745,
      "cing": 746,
      "Ġthinking": 747,
      "Ġgets": 748,
      "Ġimport": 749,
      "Ġclear": 750,
      "Ġboth": 751,
      "Ġus": 752,
      "Ġwithout": 753,
      "Ġimportant": 754,
      "Ġbeen": 755,
      "other": 756,
      "Ġbad": 757,
      "Ġanother": 758,
      "Ġturn": 759,
      "Ġmeet": 760,
      "Ġexp": 761,
      "Ġna": 762,
      "Ġheart": 763,
      "Ġjoy": 764,
      "Ġcu": 765,
      "Ġshow": 766,
      "Ġtheir": 767,
      "Ġbr": 768,
      "Ġeveryone": 769,
      "ling": 770,
      "Ġforgive": 771,
      "Ġcorner": 772,
      "Ġtru": 773,
      "Ġpeaceful": 774,
      "cri": 775,
      "ence": 776,
      "Ġdescri": 777,
      "Ġsound": 778,
      "iss": 779,
      "Ġeas": 780,
      "Ġcuri": 781,
      "Ġtoge": 782,
      "Ġtogether": 783,
      "Ġthough": 784,
      "Ġcomp": 785,
      "Ġcur": 786,
      "by": 787,
      "Ġspe": 788,
      "Ġdescribe": 789,
      "Ġgift": 790,
      "Ġcircles": 791,
      "ably": 792,
      "Ġprobably": 793,
      "Ġhas": 794,
      "Ġgot": 795,
      "Ġperson": 796,
      "Ġgetting": 797,
      "Ġworth": 798,
      "Ġfo": 799,
      "Ġhand": 800,
      "its": 801,
      "ked": 802,
      "Ġhappening": 803,
      "Ġholds": 804,
      "Ġscar": 805,
      "dle": 806,
      "Ġmiss": 807,
      "ction": 808,
      "Ġmid": 809,
      "Ġsec": 810,
      "Ġhi": 811,
      "Ġgently": 812,
      "rate": 813,
      "Ġsecret": 814,
      "Ġfall": 815,
      "Ġclo": 816,
      "Ġpoint": 817,
      "Ġinto": 818,
      "Ġplants": 819,
      "ouch": 820,
      "ttom": 821,
      "Ġbottom": 822,
      "Ġbring": 823,
      "Ġmiddle": 824,
      "iness": 825,
      "Ġmany": 826,
      "Ġalso": 827,
      "Ġoutside": 828,
      "Ġtouch": 829,
      "Ġcurious": 830,
      "ither": 831,
      "Ġvib": 832,
      "Ġwhich": 833,
      "Ġwatching": 834,
      "ually": 835,
      "Ġmoves": 836,
      "Ġopen": 837,
      "ud": 838,
      "Ġold": 839,
      "Ġwon": 840,
      "Ġseen": 841,
      "Ġexist": 842,
      "Ġgre": 843,
      "erday": 844,
      "Ġyest": 845,
      "Ġyesterday": 846,
      "Ġgive": 847,
      "Ġcou": 848,
      "Ġapp": 849,
      "Ġhear": 850,
      "Ġbrand": 851,
      "Ġvibrat": 852,
      "Ġtop": 853,
      "Ġmyself": 854,
      "Ġinter": 855,
      "Ġdri": 856,
      "Ġwr": 857,
      "Ġtomor": 858,
      "Ġtomorrow": 859,
      "Ġrea": 860,
      "Ġgoodby": 861,
      "ty": 862,
      "Ġname": 863,
      "Ġmemor": 864,
      "Ġnear": 865,
      "Ġwrong": 866,
      "Ġvis": 867,
      "Ġsecond": 868,
      "Ġsmoo": 869,
      "Ġexc": 870,
      "Ġsomewhere": 871,
      "rateful": 872,
      "Ġsmooth": 873,
      "Ġgrateful": 874,
      "Ġglow": 875,
      "Ġgoodbye": 876,
      "Ġseems": 877,
      "ice": 878,
      "ions": 879,
      "Ġinterest": 880,
      "iz": 881,
      "oom": 882,
      "Ġwaiting": 883,
      "Ġmust": 884,
      "'d": 885,
      "Ġac": 886,
      "elt": 887,
      "Ġbigg": 888,
      "Ġworry": 889,
      "Ġglad": 890,
      "Ġclean": 891,
      "ĠY": 892,
      "Ġmor": 893,
      "Ġown": 894,
      "Ġscary": 895,
      "Ġpast": 896,
      "Ġinside": 897,
      "Ġgoes": 898,
      "Ġmorning": 899,
      "ile": 900,
      "ought": 901,
      "Ġru": 902,
      "Ġchanges": 903,
      "Ġfelt": 904,
      "ny": 905,
      "cial": 906,
      "Ġgreen": 907,
      "cu": 908,
      "Ġthought": 909,
      "Ġwet": 910,
      "Ġpat": 911,
      "Ġexcit": 912,
      "Ġeverywhere": 913,
      "ill": 914,
      "act": 915,
      "sing": 916,
      "Ġlost": 917,
      "ase": 918,
      "ible": 919,
      "Ġte": 920,
      "Ġlast": 921,
      "Ġmaking": 922,
      "Ġbrave": 923,
      "app": 924,
      "sed": 925,
      "Ġcast": 926,
      "ward": 927,
      "Ġcame": 928,
      "Ġmemory": 929,
      "Ġeither": 930,
      "Ġdrift": 931,
      "ate": 932,
      "az": 933,
      "Ġresting": 934,
      "Ġconfu": 935,
      "Ġcastle": 936,
      "bo": 937,
      "Ġhelps": 938,
      "Ġwish": 939,
      "Ġdreams": 940,
      "Ġhung": 941,
      "Ġspecial": 942,
      "Ġdidn": 943,
      "Ġlistening": 944,
      "Ġseconds": 945,
      "Ġtap": 946,
      "body": 947,
      "Ġpa": 948,
      "Ġforgi": 949,
      "Ġexact": 950,
      "Ġinteresting": 951,
      "Ġsurpris": 952,
      "Ġtrue": 953,
      "Ġvisit": 954,
      "Ġaw": 955,
      "Ġknowing": 956,
      "Ġdisapp": 957,
      "imp": 958,
      "Ġjoke": 959,
      "Ġact": 960,
      "Ġready": 961,
      "cks": 962,
      "ity": 963,
      "Ġnobody": 964,
      "Ġro": 965,
      "Ġair": 966,
      "Ġsimp": 967,
      "tten": 968,
      "Ġmoved": 969,
      "Ġstays": 970,
      "ever": 971,
      "Ġmovement": 972,
      "Ġsmile": 973,
      "Ġlear": 974,
      "Ġnight": 975,
      "oud": 976,
      "Ġfunny": 977,
      "Ġdan": 978,
      "Ġmi": 979,
      "Ġlot": 980,
      "Ġbreathe": 981,
      "Ġwhile": 982,
      "Ġten": 983,
      "Ġreg": 984,
      "pped": 985,
      "Ġtea": 986,
      "Ġsaid": 987,
      "li": 988,
      "Ġclose": 989,
      "Ġexactly": 990,
      "Ġbrings": 991,
      "Ġleave": 992,
      "Ġteach": 993,
      "Ġonce": 994,
      "Ġfine": 995,
      "ious": 996,
      "ers": 997,
      "Ġstrange": 998,
      "Ġmou": 999,
      "dd": 1000,
      "gic": 1001,
      "Ġanyone": 1002,
      "ound": 1003,
      "Ġbreathing": 1004,
      "Ġpush": 1005,
      "Ġsimple": 1006,
      "Ġaf": 1007,
      "Ġshadows": 1008,
      "ES": 1009,
      "Ġwords": 1010,
      "Ġmouth": 1011,
      "Ġfear": 1012,
      "Ġsofter": 1013,
      "Ġsoon": 1014,
      "Ġwiggling": 1015,
      "ird": 1016,
      "Ġstrong": 1017,
      "ree": 1018,
      "Ġle": 1019,
      "ĠW": 1020,
      "ature": 1021,
      "how": 1022,
      "Ġhad": 1023,
      "less": 1024,
      "Ġra": 1025,
      "Ġcall": 1026,
      "Ġbet": 1027,
      "Ġcatch": 1028,
      "Ġeasy": 1029,
      "raid": 1030,
      "Ġlov": 1031,
      "Ġamaz": 1032,
      "ation": 1033,
      "Ġsomehow": 1034,
      "Ġregret": 1035,
      "Ġafraid": 1036,
      "OU": 1037,
      "Ġgu": 1038,
      "Ġdance": 1039,
      "Ġcares": 1040,
      "Ġmagic": 1041,
      "Ġtemp": 1042,
      "Ġbeco": 1043,
      "Ġstuff": 1044,
      "able": 1045,
      "ace": 1046,
      "Ġfar": 1047,
      "Ġaren": 1048,
      "Ġside": 1049,
      "Ġpass": 1050,
      "Ġtow": 1051,
      "Ġyoung": 1052,
      "Ġinste": 1053,
      "Ġinstead": 1054,
      "ried": 1055,
      "Ġones": 1056,
      "ize": 1057,
      "Ġhappiness": 1058,
      "ump": 1059,
      "Ġref": 1060,
      "Ġdancing": 1061,
      "Ġlovely": 1062,
      "Ġbit": 1063,
      "Ġvibrations": 1064,
      "Ġtoward": 1065,
      "Ġmind": 1066,
      "mm": 1067,
      "pt": 1068,
      "Ġknows": 1069,
      "Ġcolors": 1070,
      "Ġless": 1071,
      "Ġbump": 1072,
      "Ġbored": 1073,
      "fin": 1074,
      "Ġlu": 1075,
      "Ġcount": 1076,
      "Ġhungry": 1077,
      "llow": 1078,
      "Ġstuck": 1079,
      "Ġang": 1080,
      "Ġtast": 1081,
      "Ġtemper": 1082,
      "fter": 1083,
      "Ġhuman": 1084,
      "Ġafter": 1085,
      "led": 1086,
      "Ġactually": 1087,
      "Ġswish": 1088,
      "Ġweird": 1089,
      "Ġtemperature": 1090,
      "Ġri": 1091,
      "Ġtake": 1092,
      "Ġgolden": 1093,
      "Ġcorners": 1094,
      "Ġfil": 1095,
      "Ġhon": 1096,
      "Ġfeed": 1097,
      "Ġshap": 1098,
      "vy": 1099,
      "Ġjud": 1100,
      "Ġtalk": 1101,
      "Ġfilter": 1102,
      "Ġhea": 1103,
      "Ġfollow": 1104,
      "Ġfail": 1105,
      "Ġask": 1106,
      "Ġsurprise": 1107,
      "Ġfalling": 1108,
      "Ġappear": 1109,
      "Ġend": 1110,
      "Ġhandle": 1111,
      "Ġsl": 1112,
      "Ġwarmer": 1113,
      "Ġpati": 1114,
      "zy": 1115,
      "Ġsing": 1116,
      "ĠYOU": 1117,
      "Ġloud": 1118,
      "lease": 1119,
      "Ġhonest": 1120,
      "oice": 1121,
      "Ġgreat": 1122,
      "Ġsill": 1123,
      "Ġamazing": 1124,
      "Ġforward": 1125,
      "Ġmeeting": 1126,
      "tely": 1127,
      "Ġexcited": 1128,
      "Ġeasi": 1129,
      "Ġshapes": 1130,
      "Ġshi": 1131,
      "Ġeating": 1132,
      "Ġforgiven": 1133,
      "we": 1134,
      "our": 1135,
      "Ġfr": 1136,
      "Ġstrang": 1137,
      "Ġdeser": 1138,
      "Ġchance": 1139,
      "Ġspot": 1140,
      "Ġthese": 1141,
      "Ġchanged": 1142,
      "Ġturning": 1143,
      "Ġshiny": 1144,
      "Ġpur": 1145,
      "Ġplease": 1146,
      "tive": 1147,
      "Ġcont": 1148,
      "Ġholding": 1149,
      "Ġad": 1150,
      "cept": 1151,
      "Ġdeep": 1152,
      "Ġtra": 1153,
      "Ġfound": 1154,
      "Ġbrea": 1155,
      "Ġmeaning": 1156,
      "Ġlearn": 1157,
      "Ġquick": 1158,
      "Ġsudd": 1159,
      "Ġsudden": 1160,
      "oh": 1161,
      "ĠI": 1162,
      "Ġtw": 1163,
      "Ġheavy": 1164,
      "Ġtim": 1165,
      "Ġshape": 1166,
      "Ġrefle": 1167,
      "estion": 1168,
      "lain": 1169,
      "Ġquestion": 1170,
      "lutter": 1171,
      "Ġpurp": 1172,
      "Ġemp": 1173,
      "Ġbetwe": 1174,
      "Ġbetween": 1175,
      "Ġ-": 1176,
      "Ġim": 1177,
      "ater": 1178,
      "Ġyet": 1179,
      "Ġsilly": 1180,
      "ĠF": 1181,
      "Ġbl": 1182,
      "Ġexplo": 1183,
      "Ġsen": 1184,
      "Ġmet": 1185,
      "stant": 1186,
      "Ġmista": 1187,
      "ĠT": 1188,
      "Ġ...": 1189,
      "Ġleaving": 1190,
      "Ġbigger": 1191,
      "Ġconfused": 1192,
      "ond": 1193,
      "ster": 1194,
      "pping": 1195,
      "Ġrain": 1196,
      "Ġwhatever": 1197,
      "Ġreason": 1198,
      "Ġliving": 1199,
      "eah": 1200,
      "Ġasking": 1201,
      "Ġyeah": 1202,
      "ones": 1203,
      "Ġmyster": 1204,
      "Ġplay": 1205,
      "Ġmoments": 1206,
      "Ġchanging": 1207,
      "Ġneeds": 1208,
      "owly": 1209,
      "Ġspin": 1210,
      "Ġhide": 1211,
      "ered": 1212,
      "Ġlooked": 1213,
      "Ġslowly": 1214,
      "Ġtimes": 1215,
      "ges": 1216,
      "oy": 1217,
      "Ġed": 1218,
      "Ġawa": 1219,
      "Ġits": 1220,
      "Ġpres": 1221,
      "imm": 1222,
      "Ġrocks": 1223,
      "Ġforgiveness": 1224,
      "Ġz": 1225,
      "Ġbis": 1226,
      "ides": 1227,
      "Ġnoticing": 1228,
      "Ġothers": 1229,
      "Ġbiscu": 1230,
      "mf": 1231,
      "yond": 1232,
      "Ġbeyond": 1233,
      "Ġdire": 1234,
      "Ġsto": 1235,
      "Ġleft": 1236,
      "te": 1237,
      "Ġcl": 1238,
      "Ġrem": 1239,
      "Ġdisco": 1240,
      "Ġbreak": 1241,
      "ies": 1242,
      "Ġblu": 1243,
      "Ġdefin": 1244,
      "Ġid": 1245,
      "Ġcurve": 1246,
      "Ġempty": 1247,
      "Ġexplore": 1248,
      "Ġmine": 1249,
      "Ġluck": 1250,
      "ne": 1251,
      "Ġtakes": 1252,
      "eak": 1253,
      "ress": 1254,
      "Ġflow": 1255,
      "sp": 1256,
      "Ġdirection": 1257,
      "Ġstor": 1258,
      "cted": 1259,
      "?!": 1260,
      "Ġgrow": 1261,
      "Ġwent": 1262,
      "Ġseeing": 1263,
      "Ġshift": 1264,
      "am": 1265,
      "Ġar": 1266,
      "Ġself": 1267,
      "Ġstones": 1268,
      "Ġreach": 1269,
      "Ġpurpose": 1270,
      "ĠO": 1271,
      "Ġmess": 1272,
      "Ġflutter": 1273,
      "Ġste": 1274,
      "RE": 1275,
      "Ġworks": 1276,
      "Ġris": 1277,
      "Ġspark": 1278,
      "Ġtastes": 1279,
      "Ġreflection": 1280,
      "Ġbrightness": 1281,
      "Ġbiggest": 1282,
      "Ġcomple": 1283,
      "rent": 1284,
      "ssible": 1285,
      "mo": 1286,
      "Ġdec": 1287,
      "Ġchoo": 1288,
      "Ġsurprised": 1289,
      "Ġcomf": 1290,
      "Ġdarkness": 1291,
      "si": 1292,
      "oun": 1293,
      "itely": 1294,
      "hi": 1295,
      "Ġgr": 1296,
      "Ġexplain": 1297,
      "Ġes": 1298,
      "Ġbro": 1299,
      "Ġripp": 1300,
      "Ġkindly": 1301,
      "Ġche": 1302,
      "ag": 1303,
      "Ġitself": 1304,
      "Ġinv": 1305,
      "Ġjump": 1306,
      "Ġremind": 1307,
      "Ġwake": 1308,
      "Ġremembering": 1309,
      "Ġdisappo": 1310,
      "Ġdefinitely": 1311,
      "ture": 1312,
      "Ġfi": 1313,
      "Ġshimm": 1314,
      "Ġfuture": 1315,
      "Ġaccept": 1316,
      "Ġvisitor": 1317,
      "more": 1318,
      "Ġcra": 1319,
      "Ġhaving": 1320,
      "Ġanymore": 1321,
      "Ġsays": 1322,
      "Ġdiscover": 1323,
      "os": 1324,
      "ath": 1325,
      "Ġnoise": 1326,
      "Ġgiving": 1327,
      "Ġwow": 1328,
      "Ġooh": 1329,
      "Ġloved": 1330,
      "Ġsense": 1331,
      "Ġawake": 1332,
      "Ġidea": 1333,
      "IN": 1334,
      "Ġhaven": 1335,
      "ĠA": 1336,
      "Ġcarry": 1337,
      "Ġdeserve": 1338,
      "Ġach": 1339,
      "Ġatten": 1340,
      "Ġgentl": 1341,
      "Ġdisappoint": 1342,
      "Ġletting": 1343,
      "Ġboun": 1344,
      "Ġsme": 1345,
      "Ġattention": 1346,
      "Ġconstant": 1347,
      "Ġhopeful": 1348,
      "Ġlucky": 1349,
      "na": 1350,
      "Ġgoodness": 1351,
      "Ġbelly": 1352,
      "Ġjudge": 1353,
      "ky": 1354,
      "Ġhands": 1355,
      "ins": 1356,
      "most": 1357,
      "joy": 1358,
      "Ġalmost": 1359,
      "Ġsuch": 1360,
      "Ġenjoy": 1361,
      "Ġvoice": 1362,
      "Ġparts": 1363,
      "ĠS": 1364,
      "Ġspace": 1365,
      "Ġcomfort": 1366,
      "ert": 1367,
      "Ġset": 1368,
      "Ġdel": 1369,
      "Ġrush": 1370,
      "ken": 1371,
      "med": 1372,
      "Ġsaw": 1373,
      "Ġshar": 1374,
      "Ġusually": 1375,
      "ĠB": 1376,
      "Ġbelong": 1377,
      "Ġonto": 1378,
      "Ġadv": 1379,
      "Ġblue": 1380,
      "hy": 1381,
      "Ġsteady": 1382,
      "Ġbor": 1383,
      "Ġstartled": 1384,
      "Ġcurrent": 1385,
      "gy": 1386,
      "til": 1387,
      "iding": 1388,
      "sw": 1389,
      "Ġbeg": 1390,
      "Ġroom": 1391,
      "Ġstory": 1392,
      "ps": 1393,
      "ul": 1394,
      "Ġevening": 1395,
      "Ġsadness": 1396,
      "oub": 1397,
      "Ġguess": 1398,
      "otten": 1399,
      "Ġbus": 1400,
      "Ġforgotten": 1401,
      "Ġshimmer": 1402,
      "Ġdoub": 1403,
      "Ġworried": 1404,
      "Ġheld": 1405,
      "Ġlau": 1406,
      "Ġga": 1407,
      "ading": 1408,
      "Ġnoticed": 1409,
      "Ġcompletely": 1410,
      "Ġuntil": 1411,
      "Ġfrust": 1412,
      "Ġstre": 1413,
      "Ġslower": 1414,
      "Ġhumming": 1415,
      "Ġbecomes": 1416,
      "Ġache": 1417,
      "HE": 1418,
      "Ġbits": 1419,
      "Ġlaugh": 1420,
      "fer": 1421,
      "Ġbeh": 1422,
      "Ġago": 1423,
      "Ġcircle": 1424,
      "Ġpresent": 1425,
      "sitive": 1426,
      "Ġbroken": 1427,
      "Ġfrustrat": 1428,
      "Ġdifference": 1429,
      "ngth": 1430,
      "Ġangry": 1431,
      "Ġstrength": 1432,
      "Ġlives": 1433,
      "Ġsmart": 1434,
      "Ġexciting": 1435,
      "ĠOH": 1436,
      "Ġfree": 1437,
      "vers": 1438,
      "Ġchoose": 1439,
      "Ġener": 1440,
      "Ġsharp": 1441,
      "iest": 1442,
      "Ġstops": 1443,
      "Ġsides": 1444,
      "Ġear": 1445,
      "Ġquite": 1446,
      "Ġdeal": 1447,
      "ĠM": 1448,
      "Ġlater": 1449,
      "ru": 1450,
      "Ġbehind": 1451,
      "gn": 1452,
      "Ġwalls": 1453,
      "Ġres": 1454,
      "Ġcurves": 1455,
      "Ġrising": 1456,
      "sic": 1457,
      "Ġwall": 1458,
      "Ġanywhere": 1459,
      "Ġstaying": 1460,
      "Ġtold": 1461,
      "igg": 1462,
      "Ġsuddenly": 1463,
      "Ġfit": 1464,
      "Ġdoubt": 1465,
      "ances": 1466,
      "Ġdarker": 1467,
      "Ġbother": 1468,
      "Ġstarting": 1469,
      "Ġquieter": 1470,
      "ertain": 1471,
      "ries": 1472,
      "Ġswam": 1473,
      "Ġglowing": 1474,
      "Ġripples": 1475,
      "Ġsleeping": 1476,
      "Ġstranger": 1477,
      "Ġimag": 1478,
      "Ġmistakes": 1479,
      "ick": 1480,
      "Ġsingle": 1481,
      "ross": 1482,
      "Ġtouches": 1483,
      "Ġpatient": 1484,
      "Ġpatience": 1485,
      "face": 1486,
      "orm": 1487,
      "Ġtick": 1488,
      "Ġbye": 1489,
      "Ġsurface": 1490,
      "LA": 1491,
      "Ġap": 1492,
      "HA": 1493,
      "cy": 1494,
      "Ġcha": 1495,
      "Ġeasier": 1496,
      "Ġfam": 1497,
      "Ġdisappear": 1498,
      "Ġbiscuits": 1499,
      "ated": 1500,
      "Ġfloaty": 1501,
      "Ġshowing": 1502,
      "Ġclos": 1503,
      "Ġoff": 1504,
      "Ġcontent": 1505,
      "atur": 1506,
      "eness": 1507,
      "Ġworking": 1508,
      "rage": 1509,
      "Ġgives": 1510,
      "Ġpositive": 1511,
      "Ġsleepy": 1512,
      "Ġrun": 1513,
      "and": 1514,
      "hh": 1515,
      "tta": 1516,
      "Ġchances": 1517,
      "Ġwiggles": 1518,
      "ĠYES": 1519,
      "ING": 1520,
      "Ġsit": 1521,
      "Ġprom": 1522,
      "Ġrise": 1523,
      "Ġfaster": 1524,
      "Ġfocu": 1525,
      "Ġsett": 1526,
      "ten": 1527,
      "Ġyours": 1528,
      "Ġzoom": 1529,
      "Ġchase": 1530,
      "ĠFLA": 1531,
      "Ġfeelings": 1532,
      "Ġlots": 1533,
      "Ġbusy": 1534,
      "ĠFLAK": 1535,
      "Ġfight": 1536,
      "Ġdro": 1537,
      "Ġpress": 1538,
      "ĠFLAKES": 1539,
      "Ġhug": 1540,
      "Ġwants": 1541,
      "Ġshows": 1542,
      "Ġhonestly": 1543,
      "Ġbegin": 1544,
      "Ġbrighter": 1545,
      "Ġcooler": 1546,
      "Ġpain": 1547,
      "Ġplaces": 1548,
      "Ġmovements": 1549,
      "IG": 1550,
      "Ġ'": 1551,
      "Ġkindest": 1552,
      "Ġarri": 1553,
      "nch": 1554,
      "Ġstopped": 1555,
      "Ġsink": 1556,
      "Ġsize": 1557,
      "ations": 1558,
      "ook": 1559,
      "Ġsupp": 1560,
      "Ġhead": 1561,
      "Ġcourage": 1562,
      "Ġweak": 1563,
      "Ġansw": 1564,
      "Ġtells": 1565,
      "Ġlonel": 1566,
      "Ġinvis": 1567,
      "Ġboring": 1568,
      "Ġenergy": 1569,
      "Ġnic": 1570,
      "Ġwouldn": 1571,
      "Ġinvisible": 1572,
      "age": 1573,
      "Ġtried": 1574,
      "oof": 1575,
      "Ġplan": 1576,
      "Ġplast": 1577,
      "Ġtwo": 1578,
      "Ġedges": 1579,
      "Ġdelic": 1580,
      "Ġimagine": 1581,
      "Ġnatur": 1582,
      "iling": 1583,
      "Ġcompany": 1584,
      "Ġplastic": 1585,
      "ily": 1586,
      "ha": 1587,
      "Ġheal": 1588,
      "Ġconfusing": 1589,
      "Ġgentleness": 1590,
      "LE": 1591,
      "ee": 1592,
      "set": 1593,
      "isp": 1594,
      "Ġuse": 1595,
      "Ġloneliness": 1596,
      "ĠN": 1597,
      "Ġnose": 1598,
      "Ġhiding": 1599,
      "Ġpatter": 1600,
      "Ġagainst": 1601,
      "Ġscare": 1602,
      "Ġsees": 1603,
      "Ġwiggly": 1604,
      "cially": 1605,
      "Ġpay": 1606,
      "eared": 1607,
      "pecially": 1608,
      "come": 1609,
      "Ġcounts": 1610,
      "spins": 1611,
      "Ġespecially": 1612,
      "wigg": 1613,
      "rely": 1614,
      "Ġdist": 1615,
      "Ġdifferently": 1616,
      "Ġlets": 1617,
      "Ġcaring": 1618,
      "ĠWA": 1619,
      "Ġhumans": 1620,
      "Ġour": 1621,
      "Ġshine": 1622,
      "Ġshaking": 1623,
      "Ġdrifting": 1624,
      "Ġlearning": 1625,
      "light": 1626,
      "Ġhit": 1627,
      "ary": 1628,
      "cking": 1629,
      "Ġtapping": 1630,
      "Ġstarted": 1631,
      "Ġfrustrated": 1632,
      "ility": 1633,
      "Ġdreaming": 1634,
      "Ġbrain": 1635,
      "Ġcomfortable": 1636,
      "ier": 1637,
      "Ġtreat": 1638,
      "Ġwel": 1639,
      "time": 1640,
      "Ġshe": 1641,
      "Ġfaces": 1642,
      "Ġconne": 1643,
      "Ġtruly": 1644,
      "Ġperfectly": 1645,
      "lly": 1646,
      "Ġfriendshi": 1647,
      "Ġturned": 1648,
      "Ġvibration": 1649,
      "Ġhmm": 1650,
      "Ġsoftly": 1651,
      "Ġhardest": 1652,
      "Ġeasily": 1653,
      "Ġchasing": 1654,
      "erv": 1655,
      "Ġremembers": 1656,
      "Ġharder": 1657,
      "solu": 1658,
      "Ġmystery": 1659,
      "Ġsmell": 1660,
      "Ġnorm": 1661,
      "Ġstar": 1662,
      "Ġabsolu": 1663,
      "Ġoften": 1664,
      "Ġcozy": 1665,
      "fully": 1666,
      "ca": 1667,
      "ili": 1668,
      "Ġunc": 1669,
      "Ġfre": 1670,
      "Ġreco": 1671,
      "Ġcared": 1672,
      "Ġpossible": 1673,
      "Ġspinning": 1674,
      "Ġgrud": 1675,
      "wiggles": 1676,
      "Ġcreat": 1677,
      "Ġhop": 1678,
      "pect": 1679,
      "Ġhurts": 1680,
      "Ġthoughts": 1681,
      "Ġmysterious": 1682,
      "Ġabsolutely": 1683,
      "Ġgl": 1684,
      "Ġforgiving": 1685,
      "Ġdecor": 1686,
      "Ġnormal": 1687,
      "ved": 1688,
      "Ġwondering": 1689,
      "Ġanger": 1690,
      "Ġcurved": 1691,
      "IT": 1692,
      "Ġswe": 1693,
      "Ġremembered": 1694,
      "Ġneeded": 1695,
      "Ġstru": 1696,
      "Ġneither": 1697,
      "Ġshin": 1698,
      "mble": 1699,
      "Ġnotices": 1700,
      "Ġwelcome": 1701,
      "tim": 1702,
      "Ġstone": 1703,
      "Ġdays": 1704,
      "Ġsurprises": 1705,
      "Ġendless": 1706,
      "Ġmistake": 1707,
      "Ġfriendship": 1708,
      "Ġting": 1709,
      "Ġpure": 1710,
      "Ġbarely": 1711,
      "Ġmusic": 1712,
      "Ġacross": 1713,
      "Ġfix": 1714,
      "Ġbeginning": 1715,
      "he": 1716,
      "Ġtre": 1717,
      "Ġsil": 1718,
      "Ġchoice": 1719,
      "Ġimpo": 1720,
      "istic": 1721,
      "Ġhunger": 1722,
      "Ġadvice": 1723,
      "ek": 1724,
      "Ġeff": 1725,
      "Ġstarts": 1726,
      "shes": 1727,
      "Ġleast": 1728,
      "Ġmissing": 1729,
      "Ġgreatest": 1730,
      "Ġsmiling": 1731,
      "Ġpebb": 1732,
      "Ġleaves": 1733,
      "Ġanswer": 1734,
      "ĠNO": 1735,
      "Ġsweet": 1736,
      "fast": 1737,
      "Ġsna": 1738,
      "Ġwal": 1739,
      "Ġoptim": 1740,
      "Ġbreakfast": 1741,
      "olo": 1742,
      "Ġthree": 1743,
      "Ġhits": 1744,
      "Ġdone": 1745,
      "rac": 1746,
      "Ġsoftness": 1747,
      "Ġimpossible": 1748,
      "ĠD": 1749,
      "Ġlikes": 1750,
      "Ġwasn": 1751,
      "HT": 1752,
      "end": 1753,
      "ns": 1754,
      "zzy": 1755,
      "Ġlate": 1756,
      "ower": 1757,
      "Ġnerv": 1758,
      "Ġjokes": 1759,
      "Ġprefer": 1760,
      "Ġsinging": 1761,
      "HAT": 1762,
      "Ġpromise": 1763,
      "Ġnervous": 1764,
      "Ġage": 1765,
      "eri": 1766,
      "Ġwast": 1767,
      "Ġways": 1768,
      "Ġedge": 1769,
      "Ġsky": 1770,
      "Ġnowhere": 1771,
      "Ġbelieving": 1772,
      "Ġjudg": 1773,
      "Ġflows": 1774,
      "Ġwis": 1775,
      "Ġlim": 1776,
      "Ġmeant": 1777,
      "ssib": 1778,
      "Ġgifts": 1779,
      "Ġscares": 1780,
      "Ġdisappointment": 1781,
      "IGHT": 1782,
      "Ġstrugg": 1783,
      "ew": 1784,
      "Ġfading": 1785,
      "ele": 1786,
      "ident": 1787,
      "Ġworst": 1788,
      "Ġeffort": 1789,
      "ild": 1790,
      "lax": 1791,
      "Ġrelax": 1792,
      "Ġsurprising": 1793,
      "Ġrecogn": 1794,
      "OO": 1795,
      "Ġtu": 1796,
      "Ġmad": 1797,
      "Ġcele": 1798,
      "Ġpret": 1799,
      "Ġloves": 1800,
      "Ġbecome": 1801,
      "Ġcrash": 1802,
      "Ġfocus": 1803,
      "Ġuncertain": 1804,
      "Ġceleb": 1805,
      "wh": 1806,
      "ched": 1807,
      "Ġsmaller": 1808,
      "Ġbackward": 1809,
      "Ġspeak": 1810,
      "Ġpossib": 1811,
      "Ġbiscuit": 1812,
      "Ġapolo": 1813,
      "Ġdelicious": 1814,
      "sure": 1815,
      "Ġter": 1816,
      "Ġsong": 1817,
      "Ġtelling": 1818,
      "Ġbumpy": 1819,
      "Ġcloud": 1820,
      "ut": 1821,
      "ket": 1822,
      "Ġbelief": 1823,
      "Ġlonger": 1824,
      "Ġprote": 1825,
      "Ġsunlight": 1826,
      "Ġtruth": 1827,
      "Ġlearned": 1828,
      "Ġdiscovering": 1829,
      "Ġcloser": 1830,
      "dom": 1831,
      "Ġbrou": 1832,
      "Ġred": 1833,
      "Ġgotta": 1834,
      "Ġstillness": 1835,
      "Ġtrusting": 1836,
      "Ġused": 1837,
      "Ġexperi": 1838,
      "Ġpushing": 1839,
      "Ġblur": 1840,
      "Ġoptimistic": 1841,
      "Ġbrought": 1842,
      "no": 1843,
      "umb": 1844,
      "Ġblo": 1845,
      "Ġpr": 1846,
      "Ġlighter": 1847,
      "enty": 1848,
      "Ġasked": 1849,
      "Ġtouching": 1850,
      "ather": 1851,
      "ating": 1852,
      "Ġprou": 1853,
      "los": 1854,
      "Ġexha": 1855,
      "Ġplenty": 1856,
      "Ġfailure": 1857,
      "Ġfighting": 1858,
      "Ġnatural": 1859,
      "Ġpebbles": 1860,
      "Ġproud": 1861,
      "Ġexhaust": 1862,
      "are": 1863,
      "zoom": 1864,
      "Ġbud": 1865,
      "Ġwaking": 1866,
      "Ġknew": 1867,
      "Ġtaking": 1868,
      "ude": 1869,
      "Ġtrapped": 1870,
      "UB": 1871,
      "Ġfli": 1872,
      "Ġdart": 1873,
      "Ġopp": 1874,
      "Ġpop": 1875,
      "ont": 1876,
      "Ġhey": 1877,
      "Ġfinds": 1878,
      "Ġglows": 1879,
      "Ġregrets": 1880,
      "Ġappears": 1881,
      "reci": 1882,
      "Ġkeeping": 1883,
      "Ġfalls": 1884,
      "Ġtouched": 1885,
      "Ġappreci": 1886,
      "Ġteaches": 1887,
      "Ġpasses": 1888,
      "Ġpassed": 1889,
      "Ġesca": 1890,
      "HERE": 1891,
      "Ġwisdom": 1892,
      "ble": 1893,
      "cked": 1894,
      "osed": 1895,
      "tra": 1896,
      "wor": 1897,
      "Ġphi": 1898,
      "Ġsaf": 1899,
      "Ġgrace": 1900,
      "Ġgave": 1901,
      "Ġterri": 1902,
      "losop": 1903,
      "Ġphilosop": 1904,
      "Ġhate": 1905,
      "iliar": 1906,
      "Ġrecognize": 1907,
      "cess": 1908,
      "ĠR": 1909,
      "Ġwin": 1910,
      "thm": 1911,
      "Ġupset": 1912,
      "Ġstress": 1913,
      "Ġolder": 1914,
      "Ġfront": 1915,
      "Ġsparkles": 1916,
      "Ġfreed": 1917,
      "VE": 1918,
      "lic": 1919,
      "Ġthick": 1920,
      "Ġcru": 1921,
      "Ġbends": 1922,
      "Ġexpect": 1923,
      "Ġshare": 1924,
      "Ġnearby": 1925,
      "Ġfills": 1926,
      "Ġconstantly": 1927,
      "zooms": 1928,
      "Ġfreedom": 1929,
      "per": 1930,
      "Ġheard": 1931,
      "Ġwanted": 1932,
      "Ġspla": 1933,
      "ized": 1934,
      "ĠSO": 1935,
      "head": 1936,
      "UBB": 1937,
      "Ġoppos": 1938,
      "oudy": 1939,
      "Ġcry": 1940,
      "Ġpie": 1941,
      "aught": 1942,
      "Ġrhy": 1943,
      "Ġextra": 1944,
      "Ġquickly": 1945,
      "Ġplaying": 1946,
      "Ġcloudy": 1947,
      "Ġsupposed": 1948,
      "ĠWAIT": 1949,
      "Ġwind": 1950,
      "Ġwise": 1951,
      "oot": 1952,
      "tic": 1953,
      "Ġlose": 1954,
      "cious": 1955,
      "Ġblan": 1956,
      "Ġapolog": 1957,
      "Ġrhythm": 1958,
      "--": 1959,
      "ail": 1960,
      "de": 1961,
      "Ġwarmest": 1962,
      "ures": 1963,
      "eps": 1964,
      "Ġwanting": 1965,
      "Ġpun": 1966,
      "Ġspend": 1967,
      "Ġacc": 1968,
      "Ġcatches": 1969,
      "ĠBUBB": 1970,
      "Ġbuddy": 1971,
      "Ġphilosophy": 1972,
      "rse": 1973,
      "Ġfill": 1974,
      "Ġgosh": 1975,
      "Ġspre": 1976,
      "Ġcourse": 1977,
      "Ġstrangers": 1978,
      "Ġrunning": 1979,
      "Ġtremb": 1980,
      "Ġexperience": 1981,
      "wa": 1982,
      "Ġsear": 1983,
      "Ġkinder": 1984,
      "Ġshort": 1985,
      "Ġfloats": 1986,
      "Ġcarries": 1987,
      "Ġunk": 1988,
      "Ġpushes": 1989,
      "Ġcheer": 1990,
      "Ġreminds": 1991,
      "cra": 1992,
      "Ġfive": 1993,
      "ices": 1994,
      "Ġconvers": 1995,
      "Ġfinding": 1996,
      "osity": 1997,
      "Ġsmells": 1998,
      "Ġpossibility": 1999,
      "oices": 2000,
      "ĠG": 2001,
      "Ġsol": 2002,
      "Ġput": 2003,
      "Ġexists": 2004,
      "Ġaww": 2005,
      "Ġshifts": 2006,
      "Ġgrudges": 2007,
      "Ġopposite": 2008,
      "Ġser": 2009,
      "Ġyay": 2010,
      "Ġpower": 2011,
      "Ġhelping": 2012,
      "Ġjob": 2013,
      "Ġbelieves": 2014,
      "Ġshakes": 2015,
      "Ġcuriosity": 2016,
      "Ġfamiliar": 2017,
      "Ġdr": 2018,
      "lem": 2019,
      "Ġfew": 2020,
      "Ġwoke": 2021,
      "Ġhuge": 2022,
      "shine": 2023,
      "Ġsunshine": 2024,
      "Ġproblem": 2025,
      "Ġdistra": 2026,
      "night": 2027,
      "Ġlaz": 2028,
      "Ġkno": 2029,
      "Ġswims": 2030,
      "wait": 2031,
      "ks": 2032,
      "ue": 2033,
      "um": 2034,
      "Ġbal": 2035,
      "Ġhour": 2036,
      "Ġshake": 2037,
      "Ġstronger": 2038,
      "Ġswishes": 2039,
      "Ġsearch": 2040,
      "Ġtri": 2041,
      "ings": 2042,
      "Ġnet": 2043,
      "oosh": 2044,
      "Ġate": 2045,
      "Ġhuh": 2046,
      "Ġfriendly": 2047,
      "Ġpresence": 2048,
      "att": 2049,
      "Ġwhisp": 2050,
      "Ġnumb": 2051,
      "Ġpatch": 2052,
      "Ġproof": 2053,
      "ĠRIGHT": 2054,
      "HH": 2055,
      "Ġgen": 2056,
      "oney": 2057,
      "Ġexplor": 2058,
      "Ġpath": 2059,
      "Ġfeeds": 2060,
      "Ġtwice": 2061,
      "Ġstruggling": 2062,
      "Ġescape": 2063,
      "Ġaccident": 2064,
      "sel": 2065,
      "Ġwaves": 2066,
      "Ġbecoming": 2067,
      "Ġcontro": 2068,
      "Ġpressure": 2069,
      "Ġprotect": 2070,
      "ens": 2071,
      "Ġends": 2072,
      "Ġpink": 2073,
      "Ġbuild": 2074,
      "Ġloop": 2075,
      "Ġpull": 2076,
      "Ġsecrets": 2077,
      "Ġcelebrat": 2078,
      "Ġow": 2079,
      "Ġahead": 2080,
      "Ġinc": 2081,
      "Ġhot": 2082,
      "Ġlived": 2083,
      "Ġappeared": 2084,
      "Ġdeserves": 2085,
      "Ġgrowing": 2086,
      "Ġvisitors": 2087,
      "Ġhoping": 2088,
      "Ġdecorations": 2089,
      "Ġsilence": 2090,
      "Ġpretend": 2091,
      "Ġappreciate": 2092,
      "Ġsplash": 2093,
      "Ġbalance": 2094,
      "ach": 2095,
      "us": 2096,
      "water": 2097,
      "Ġtot": 2098,
      "Ġlosing": 2099,
      "Ġconf": 2100,
      "Ġconversation": 2101,
      "Ġexploring": 2102,
      "Ġcontrol": 2103,
      "Ġtall": 2104,
      "Ġadd": 2105,
      "Ġmar": 2106,
      "Ġbound": 2107,
      "Ġfed": 2108,
      "Ġrepe": 2109,
      "Ġcover": 2110,
      "Ġnews": 2111,
      "Ġsuc": 2112,
      "gging": 2113,
      "Ġcomplic": 2114,
      "Ġbounce": 2115,
      "Ġcomplicated": 2116,
      "Ġwra": 2117,
      "Ġfoot": 2118,
      "Ġboom": 2119,
      "Ġinfin": 2120,
      "itude": 2121,
      "Ġwherever": 2122,
      "Ġbeauty": 2123,
      "icul": 2124,
      "Ġfog": 2125,
      "Ġmagical": 2126,
      "Ġquestions": 2127,
      "selves": 2128,
      "ately": 2129,
      "Ġfan": 2130,
      "Ġev": 2131,
      "Ġmeal": 2132,
      "Ġret": 2133,
      "Ġfake": 2134,
      "Ġloving": 2135,
      "Ġhurting": 2136,
      "Ġcouldn": 2137,
      "Ġhigh": 2138,
      "Ġmemories": 2139,
      "Ġselfish": 2140,
      "Ġdistracted": 2141,
      "ĠC": 2142,
      "ĠL": 2143,
      "Ġfad": 2144,
      "Ġtight": 2145,
      "Ġthanks": 2146,
      "Ġstrongest": 2147,
      "Ġfeeding": 2148,
      "Ġlazy": 2149,
      "ĠâĢĶ": 2150,
      "Ġyouth": 2151,
      "Ġdry": 2152,
      "Ġcr": 2153,
      "Ġwatches": 2154,
      "Ġturns": 2155,
      "Ġvisiting": 2156,
      "Ġfollowing": 2157,
      "Ġearli": 2158,
      "Ġwindow": 2159,
      "je": 2160,
      "Ġyear": 2161,
      "Ġdim": 2162,
      "Ġrel": 2163,
      "Ġwave": 2164,
      "Ġflavor": 2165,
      "Ġwhoever": 2166,
      "Ġdig": 2167,
      "Ġmirac": 2168,
      "Ġlimit": 2169,
      "Ġuncertainty": 2170,
      "Ġserious": 2171,
      "Ġtotally": 2172,
      "du": 2173,
      "ip": 2174,
      "oes": 2175,
      "Ġsqu": 2176,
      "steps": 2177,
      "Ġfeet": 2178,
      "Ġscore": 2179,
      "Ġstick": 2180,
      "ratitude": 2181,
      "Ġexisting": 2182,
      "Ġjumped": 2183,
      "Ġstaring": 2184,
      "Ġfootsteps": 2185,
      "Ġahh": 2186,
      "Ġfing": 2187,
      "Ġgratitude": 2188,
      "Ġrep": 2189,
      "Ġcomm": 2190,
      "Ġthemselves": 2191,
      "Ġeye": 2192,
      "Ġspeed": 2193,
      "ĠIS": 2194,
      "Ġshifted": 2195,
      "Ġbackwards": 2196,
      "Ġblurry": 2197,
      "crashes": 2198,
      "get": 2199,
      "inner": 2200,
      "Ġmin": 2201,
      "Ġfade": 2202,
      "Ġla": 2203,
      "Ġwatched": 2204,
      "Ġclearly": 2205,
      "Ġcrazy": 2206,
      "Ġsettle": 2207,
      "Ġrout": 2208,
      "Ġwear": 2209,
      "Ġperm": 2210,
      "Ġdef": 2211,
      "Ġsurv": 2212,
      "Ġadvent": 2213,
      "Ġfamily": 2214,
      "Ġweakness": 2215,
      "ctive": 2216,
      "ses": 2217,
      "Ġdang": 2218,
      "Ġbend": 2219,
      "Ġinstant": 2220,
      "Ġwhenever": 2221,
      "Ġweek": 2222,
      "ream": 2223,
      "Ġgreet": 2224,
      "Ġtravel": 2225,
      "Ġrushing": 2226,
      "Ġknock": 2227,
      "attered": 2228,
      "HING": 2229,
      "ouse": 2230,
      "Ġhouse": 2231,
      "Ġhappiest": 2232,
      "Ġdizzy": 2233,
      "Ġvoices": 2234,
      "Ġuni": 2235,
      "Ġflowing": 2236,
      "Ġgame": 2237,
      "Ġapologize": 2238,
      "Ġsuccess": 2239,
      "Ġinfinite": 2240,
      "Ġretur": 2241,
      "LL": 2242,
      "well": 2243,
      "ĠH": 2244,
      "irl": 2245,
      "Ġweight": 2246,
      "ign": 2247,
      "Ġrock": 2248,
      "mmy": 2249,
      "Ġfailing": 2250,
      "ĠME": 2251,
      "Ġshines": 2252,
      "Ġjudgment": 2253,
      "Ġspread": 2254,
      "Ġfades": 2255,
      "Ġsch": 2256,
      "Ġfly": 2257,
      "Ġdinner": 2258,
      "Ġground": 2259,
      "thy": 2260,
      "Ġsuper": 2261,
      "Ġfloated": 2262,
      "Ġprecious": 2263,
      "Ġfully": 2264,
      "Ġsparkle": 2265,
      "Ġbouncing": 2266,
      "Ġconnected": 2267,
      "Ġfancy": 2268,
      "Ġdanger": 2269,
      "fi": 2270,
      "ire": 2271,
      "Ġdep": 2272,
      "ety": 2273,
      "Ġstra": 2274,
      "Ġann": 2275,
      "Ġexcept": 2276,
      "Ġsurround": 2277,
      "Ġpointless": 2278,
      "Ġdisappeared": 2279,
      "ĠWHAT": 2280,
      "Ġsolid": 2281,
      "Ġadventure": 2282,
      "ict": 2283,
      "Ġsn": 2284,
      "Ġmur": 2285,
      "Ġfig": 2286,
      "Ġda": 2287,
      "Ġdoor": 2288,
      "Ġsea": 2289,
      "Ġforgetful": 2290,
      "Ġloss": 2291,
      "Ġfinally": 2292,
      "pected": 2293,
      "Ġbelow": 2294,
      "Ġshowed": 2295,
      "Ġvibrating": 2296,
      "Ġinterested": 2297,
      "Ġguil": 2298,
      "Ġyounger": 2299,
      "Ġpieces": 2300,
      "Ġannoy": 2301,
      "ac": 2302,
      "gen": 2303,
      "ith": 2304,
      "ient": 2305,
      "ual": 2306,
      "Ġcomplain": 2307,
      "Ġapart": 2308,
      "Ġmiracle": 2309,
      "Ġwhe": 2310,
      "Ġob": 2311,
      "Ġsoo": 2312,
      "Ġcost": 2313,
      "Ġhappier": 2314,
      "Ġval": 2315,
      "Ġunderstands": 2316,
      "Ġdances": 2317,
      "Ġstopping": 2318,
      "Ġsparkly": 2319,
      "Ġterrible": 2320,
      "Ġevent": 2321,
      "Ġearlier": 2322,
      "Ġsurvive": 2323,
      "Ġschool": 2324,
      "ON": 2325,
      "ition": 2326,
      "ze": 2327,
      "Ġtrea": 2328,
      "Ġmood": 2329,
      "Ġnope": 2330,
      "Ġhumble": 2331,
      "Ġtalked": 2332,
      "Ġopening": 2333,
      "umps": 2334,
      "Ġrefresh": 2335,
      "ĠYOUR": 2336,
      "Ġspots": 2337,
      "Ġgray": 2338,
      "Ġcheck": 2339,
      "Ġwasting": 2340,
      "Ġyears": 2341,
      "Ġwhether": 2342,
      "Ġsway": 2343,
      "Ġmoney": 2344,
      "Ġwaste": 2345,
      "Ġstand": 2346,
      "Ġalong": 2347,
      "Ġunderstanding": 2348,
      "Ġnaive": 2349,
      "Ġamazed": 2350,
      "Ġraining": 2351,
      "Ġarrive": 2352,
      "Ġpatterns": 2353,
      "Ġcreature": 2354,
      "Ġsnack": 2355,
      "Ġhours": 2356,
      "Ġroutine": 2357,
      "ia": 2358,
      "ĠE": 2359,
      "Ġsli": 2360,
      "Ġwhite": 2361,
      "eless": 2362,
      "Ġpan": 2363,
      "Ġmotion": 2364,
      "Ġlights": 2365,
      "Ġworries": 2366,
      "Ġfact": 2367,
      "bble": 2368,
      "Ġcolder": 2369,
      "Ġtaps": 2370,
      "Ġmix": 2371,
      "Ġcalling": 2372,
      "Ġnicer": 2373,
      "ĠNOW": 2374,
      "Ġmurky": 2375,
      "Ġher": 2376,
      "enti": 2377,
      "Ġinsp": 2378,
      "Ġcope": 2379,
      "Ġwhoa": 2380,
      "Ġfaith": 2381,
      "Ġworthy": 2382,
      "Ġtrack": 2383,
      "Ġdirections": 2384,
      "Ġtickle": 2385,
      "ĠBUBBLE": 2386,
      "Ġeventually": 2387,
      ".'": 2388,
      "Ġrough": 2389,
      "Ġatta": 2390,
      "beat": 2391,
      "Ġfair": 2392,
      "Ġasleep": 2393,
      "Ġcalled": 2394,
      "Ġrid": 2395,
      "Ġchoosing": 2396,
      "Ġinvest": 2397,
      "Ġtingly": 2398,
      "Ġwasted": 2399,
      "Ġtrick": 2400,
      "fied": 2401,
      "Ġstraight": 2402,
      "igh": 2403,
      "line": 2404,
      "ome": 2405,
      "ush": 2406,
      "Ġign": 2407,
      "Ġfle": 2408,
      "Ġwhee": 2409,
      "that": 2410,
      "Ġshook": 2411,
      "Ġcons": 2412,
      "Ġdropped": 2413,
      "Ġshining": 2414,
      "ME": 2415,
      "fic": 2416,
      "xy": 2417,
      "atic": 2418,
      "Ġmed": 2419,
      "oop": 2420,
      "Ġnom": 2421,
      "Ġwarms": 2422,
      "ids": 2423,
      "uring": 2424,
      "Ġweather": 2425,
      "iew": 2426,
      "Ġfogg": 2427,
      "Ġbitter": 2428,
      "Ġtasty": 2429,
      "Ġreaches": 2430,
      "Ġdisappointed": 2431,
      "Ġdrop": 2432,
      "IS": 2433,
      "asure": 2434,
      "ror": 2435,
      "Ġwri": 2436,
      "ince": 2437,
      "Ġsk": 2438,
      "Ġsal": 2439,
      "Ġmattered": 2440,
      "Ġbless": 2441,
      "Ġoxy": 2442,
      "Ġforth": 2443,
      "Ġuh": 2444,
      "Ġknown": 2445,
      "ship": 2446,
      "!!!": 2447,
      "Ġheartbeat": 2448,
      "Ġcatching": 2449,
      "Ġbumping": 2450,
      "ĠDO": 2451,
      "Ġincred": 2452,
      "Ġoxygen": 2453,
      "ah": 2454,
      "bumps": 2455,
      "nown": 2456,
      "par": 2457,
      "ring": 2458,
      "Ġman": 2459,
      "Ġmir": 2460,
      "Ġpri": 2461,
      "tiv": 2462,
      "Ġfare": 2463,
      "Ġappro": 2464,
      "Ġworrying": 2465,
      "Ġdeeper": 2466,
      "Ġgentler": 2467,
      "ĠMO": 2468,
      "Ġcrunch": 2469,
      "Ġflying": 2470,
      "ex": 2471,
      "Ġcaught": 2472,
      "ank": 2473,
      "Ġpar": 2474,
      "Ġreje": 2475,
      "itter": 2476,
      "Ġneat": 2477,
      "Ġsepar": 2478,
      "Ġwild": 2479,
      "Ġstret": 2480,
      "Ġdaytime": 2481,
      "Ġfuzzy": 2482,
      "Ġdreamy": 2483,
      "stence": 2484,
      "Ġslows": 2485,
      "Ġcolorful": 2486,
      "Ġrumble": 2487,
      "ĠTHAT": 2488,
      "Ġmessed": 2489,
      "Ġnicest": 2490,
      "Ġexhausted": 2491,
      "Ġunknown": 2492,
      "Ġsearching": 2493,
      "Ġcelebrating": 2494,
      "Ġpanic": 2495,
      "THING": 2496,
      "cent": 2497,
      "Ġthump": 2498,
      "Ġyu": 2499,
      "Ġfell": 2500,
      "Ġdu": 2501,
      "Ġhar": 2502,
      "Ġlang": 2503,
      "the": 2504,
      "Ġforgets": 2505,
      "Ġsuffer": 2506,
      "Ġbrightest": 2507,
      "Ġvac": 2508,
      "Ġthankful": 2509,
      "Ġbrush": 2510,
      "Ġripple": 2511,
      "Ġpaying": 2512,
      "Ġstars": 2513,
      "Ġblanket": 2514,
      "Ġannoying": 2515,
      "Ġincredible": 2516,
      "Ġmirror": 2517,
      "Ġlangu": 2518,
      "flutter": 2519,
      "ute": 2520,
      "Ġwhoosh": 2521,
      "Ġemb": 2522,
      "Ġbur": 2523,
      "als": 2524,
      "Ġthinks": 2525,
      "Ġanx": 2526,
      "Ġsafer": 2527,
      "Ġvul": 2528,
      "Ġview": 2529,
      "Ġrealize": 2530,
      "Ġlistens": 2531,
      "sol": 2532,
      "Ġsideways": 2533,
      "Ġappearing": 2534,
      "ĠTHERE": 2535,
      "Ġreasons": 2536,
      "Ġdecide": 2537,
      "ular": 2538,
      "Ġtickles": 2539,
      "Ġpattern": 2540,
      "Ġwalking": 2541,
      "Ġexhausting": 2542,
      "Ġsafety": 2543,
      "Ġcheerful": 2544,
      "Ġinstantly": 2545,
      "Ġvulner": 2546,
      "ared": 2547,
      "iately": 2548,
      "ying": 2549,
      "Ġsince": 2550,
      "owed": 2551,
      "Ġins": 2552,
      "Ġint": 2553,
      "Ġstream": 2554,
      "ality": 2555,
      "Ġbrav": 2556,
      "Ġcompare": 2557,
      "Ġvisits": 2558,
      "iled": 2559,
      "Ġending": 2560,
      "Ġfluttering": 2561,
      "mediately": 2562,
      "Ġarrived": 2563,
      "Ġproblems": 2564,
      "Ġspreads": 2565,
      "ER": 2566,
      "iles": 2567,
      "Ġdir": 2568,
      "Ġduring": 2569,
      "Ġmeasure": 2570,
      "Ġprac": 2571,
      "Ġwavy": 2572,
      "Ġwide": 2573,
      "Ġcop": 2574,
      "Ġtax": 2575,
      "ilar": 2576,
      "rief": 2577,
      "Ġfunn": 2578,
      "Ġshivers": 2579,
      "Ġblink": 2580,
      "Ġcomplete": 2581,
      "Ġborn": 2582,
      "Ġhitting": 2583,
      "Ġclouds": 2584,
      "Ġahhh": 2585,
      "Ġfigure": 2586,
      "Ġsoothing": 2587,
      "Ġwheee": 2588,
      "Ġyummy": 2589,
      "Ġharsh": 2590,
      "Ġbravest": 2591,
      "OW": 2592,
      "ray": 2593,
      "Ġbon": 2594,
      "anna": 2595,
      "Ġsmiles": 2596,
      "Ġquietly": 2597,
      "Ġcareful": 2598,
      "Ġdissol": 2599,
      "Ġunex": 2600,
      "Ġjoyful": 2601,
      "Ġdrive": 2602,
      "Ġvisible": 2603,
      "Ġbetray": 2604,
      "Ġstrangest": 2605,
      "Ġfluttery": 2606,
      "Ġchecking": 2607,
      "ĠMY": 2608,
      "sically": 2609,
      "Ġnaturally": 2610,
      "Ġconnection": 2611,
      "Ġdecoration": 2612,
      "Ġblocking": 2613,
      "Ġsafest": 2614,
      "Ġfilled": 2615,
      "Ġrelation": 2616,
      "Ġpracti": 2617,
      "Ġunexpected": 2618,
      "just": 2619,
      "not": 2620,
      "you": 2621,
      "Ġwer": 2622,
      "Ġdet": 2623,
      "Ġliter": 2624,
      "aries": 2625,
      "Ġwaving": 2626,
      "Ġshy": 2627,
      "ished": 2628,
      "Ġtapped": 2629,
      "cts": 2630,
      "Ġexi": 2631,
      "Ġkindnesses": 2632,
      "Ġrestless": 2633,
      "Ġmissed": 2634,
      "like": 2635,
      "Ġswishing": 2636,
      "REA": 2637,
      "Ġtingle": 2638,
      "Ġrepeat": 2639,
      "Ġmixed": 2640,
      "Ġfoggy": 2641,
      "Ġweren": 2642,
      "sion": 2643,
      "Ġbook": 2644,
      "Ġbed": 2645,
      "rill": 2646,
      "Ġugh": 2647,
      "Ġcannot": 2648,
      "Ġbowls": 2649,
      "Ġswirl": 2650,
      "Ġbravery": 2651,
      "Ġscale": 2652,
      "Ġunf": 2653,
      "Ġadm": 2654,
      "ĠIT": 2655,
      "Ġaware": 2656,
      "Ġreaching": 2657,
      "Ġcarrying": 2658,
      "Ġdelight": 2659,
      "Ġbusiness": 2660,
      "Ġresp": 2661,
      "Ġnicely": 2662,
      "Ġcreatures": 2663,
      "Ġstressed": 2664,
      "VER": 2665,
      "Ġnumbers": 2666,
      "Ġpretending": 2667,
      "Ġboundaries": 2668,
      "Ġdirty": 2669,
      "ap": 2670,
      "gs": 2671,
      "ume": 2672,
      "zing": 2673,
      "ates": 2674,
      "Ġfur": 2675,
      "Ġfits": 2676,
      "Ġbes": 2677,
      "Ġoce": 2678,
      "Ġgoof": 2679,
      "Ġequ": 2680,
      "verse": 2681,
      "ism": 2682,
      "Ġjour": 2683,
      "Ġwash": 2684,
      "Ġallowed": 2685,
      "Ġnibble": 2686,
      "Ġaging": 2687,
      "Ġrather": 2688,
      "Ġsticks": 2689,
      "Ġheat": 2690,
      "Ġopens": 2691,
      "Ġhearing": 2692,
      "Ġtext": 2693,
      "Ġswishy": 2694,
      "ĠTH": 2695,
      "ney": 2696,
      "Ġbounces": 2697,
      "Ġshimmering": 2698,
      "Ġtreasure": 2699,
      "Ġfarewell": 2700,
      "flutters": 2701,
      "Ġfunniest": 2702,
      "Ġliterally": 2703,
      "Ġexistence": 2704,
      "Ġocean": 2705,
      "Ġjourney": 2706,
      "LES": 2707,
      "sc": 2708,
      "Ġwanna": 2709,
      "Ġyell": 2710,
      "Ġbir": 2711,
      "Ġbrief": 2712,
      "Ġgon": 2713,
      "Ġph": 2714,
      "ons": 2715,
      "Ġfloor": 2716,
      "Ġbasically": 2717,
      "Ġtran": 2718,
      "Ġunderne": 2719,
      "Ġexcite": 2720,
      "Ġpassing": 2721,
      "Ġheav": 2722,
      "Ġzoo": 2723,
      "Ġbouncy": 2724,
      "swim": 2725,
      "Ġbegins": 2726,
      "Ġdelicate": 2727,
      "Ġgrudge": 2728,
      "Ġlimits": 2729,
      "Ġflick": 2730,
      "Ġwhisper": 2731,
      "Ġdefine": 2732,
      "Ġcrunchy": 2733,
      "Ġvacation": 2734,
      "Ġbirth": 2735,
      "Ġgonna": 2736,
      "Ġunderneath": 2737,
      "ST": 2738,
      "ĠP": 2739,
      "ĠU": 2740,
      "Ġent": 2741,
      "inting": 2742,
      "Ġbi": 2743,
      "Ġcred": 2744,
      "Ġcertain": 2745,
      "Ġfailed": 2746,
      "Ġupside": 2747,
      "tern": 2748,
      "Ġsmallest": 2749,
      "Ġstayed": 2750,
      "Ġclever": 2751,
      "Ġoverwh": 2752,
      "Ġimmediately": 2753,
      "Ġbreaks": 2754,
      "Ġglide": 2755,
      "Ġunkind": 2756,
      "Ġattached": 2757,
      "Ġexcitement": 2758,
      "Ġbirthday": 2759,
      "Ġoverwhel": 2760,
      "does": 2761,
      "happ": 2762,
      "ler": 2763,
      "lay": 2764,
      "ĠHA": 2765,
      "Ġty": 2766,
      "Ġfl": 2767,
      "Ġhilar": 2768,
      "Ġcross": 2769,
      "Ġpick": 2770,
      "Ġstep": 2771,
      "Ġdiff": 2772,
      "ical": 2773,
      "Ġprodu": 2774,
      "Ġsunset": 2775,
      "Ġbringing": 2776,
      "Ġlunch": 2777,
      "ĠTHE": 2778,
      "Ġearn": 2779,
      "Ġsettles": 2780,
      "Ġflip": 2781,
      "Ġguilty": 2782,
      "Ġhilarious": 2783,
      "Ġdifficul": 2784,
      "ts": 2785,
      "Ġtaught": 2786,
      "Ġthin": 2787,
      "orting": 2788,
      "Ġem": 2789,
      "pper": 2790,
      "Ġworse": 2791,
      "Ġgoodnight": 2792,
      "Ġenti": 2793,
      "Ġcircling": 2794,
      "Ġnighttime": 2795,
      "Ġdiscovery": 2796,
      "Ġshifting": 2797,
      "utes": 2798,
      "Ġwhispers": 2799,
      "Ġgenu": 2800,
      "Ġminutes": 2801,
      "Ġuniverse": 2802,
      "Ġinspire": 2803,
      "Ġsuffering": 2804,
      "Ġcredit": 2805,
      "Ġdifficult": 2806,
      "Ġthous": 2807,
      "Ġdra": 2808,
      "Ġcy": 2809,
      "Ġtonight": 2810,
      "ooking": 2811,
      "Ġtook": 2812,
      "Ġrested": 2813,
      "Ġrealized": 2814,
      "Ġhearts": 2815,
      "Ġcompared": 2816,
      "Ġhasn": 2817,
      "Ġrumb": 2818,
      "Ġforgives": 2819,
      "Ġtasted": 2820,
      "Ġbroke": 2821,
      "Ġfrustrating": 2822,
      "Ġsinking": 2823,
      "ĠBUBBLES": 2824,
      "Ġdrown": 2825,
      "iculous": 2826,
      "Ġcrisp": 2827,
      "Ġridiculous": 2828,
      "Ġlanguage": 2829,
      "Ġpractice": 2830,
      "ian": 2831,
      "up": 2832,
      "Ġaut": 2833,
      "Ġsy": 2834,
      "Ġsign": 2835,
      "Ġland": 2836,
      "anent": 2837,
      "stood": 2838,
      "Ġwarming": 2839,
      "Ġkinda": 2840,
      "ops": 2841,
      "Ġhelped": 2842,
      "Ġhumid": 2843,
      "omatic": 2844,
      "Ġsort": 2845,
      "Ġpointy": 2846,
      "Ġconfusion": 2847,
      "Ġdeeply": 2848,
      "Ġbreaking": 2849,
      "Ġpurple": 2850,
      "Ġtreats": 2851,
      "Ġwalk": 2852,
      "Ġtrembles": 2853,
      "Ġnumber": 2854,
      "Ġsurrounded": 2855,
      "Ġwrite": 2856,
      "Ġrelationship": 2857,
      "Ġautomatic": 2858,
      "-...": 2859,
      "EE": 2860,
      "ame": 2861,
      "bor": 2862,
      "gress": 2863,
      "iv": 2864,
      "Ġtest": 2865,
      "Ġtough": 2866,
      "Ġav": 2867,
      "ator": 2868,
      "Ġbar": 2869,
      "Ġbite": 2870,
      "Ġline": 2871,
      "Ġbeat": 2872,
      "lea": 2873,
      "Ġinf": 2874,
      "Ġmov": 2875,
      "Ġhappily": 2876,
      "Ġchose": 2877,
      "Ġbecame": 2878,
      "Ġbeautifully": 2879,
      "Ġbraver": 2880,
      "Ġslowing": 2881,
      "Ġdiscu": 2882,
      "Ġunless": 2883,
      "Ġnap": 2884,
      "Ġcleaned": 2885,
      "immer": 2886,
      "Ġsitting": 2887,
      "Ġuseful": 2888,
      "Ġblocked": 2889,
      "word": 2890,
      "Ġfinger": 2891,
      "Ġfingers": 2892,
      "Ġreplay": 2893,
      "Ġpermanent": 2894,
      "Ġstretch": 2895,
      "Ġanxious": 2896,
      "Ġvulnerable": 2897,
      "Ġdetail": 2898,
      "Ġphone": 2899,
      "swims": 2900,
      "happy": 2901,
      "Ġdiscuss": 2902,
      "AY": 2903,
      "ga": 2904,
      "Ġass": 2905,
      "Ġamb": 2906,
      "Ġsits": 2907,
      "Ġpau": 2908,
      "Ġpause": 2909,
      "Ġrec": 2910,
      "Ġalright": 2911,
      "Ġshell": 2912,
      "Ġeaten": 2913,
      "Ġunderwater": 2914,
      "Ġhums": 2915,
      "Ġbrown": 2916,
      "Ġpassword": 2917,
      "Ġhealthy": 2918,
      "Ġhopeless": 2919,
      "Ġtrembling": 2920,
      "Ġapproach": 2921,
      "Ġtaxes": 2922,
      "Ġdrowning": 2923,
      "lf": 2924,
      "under": 2925,
      "Ġtank": 2926,
      "ines": 2927,
      "Ġben": 2928,
      "Ġbla": 2929,
      "esome": 2930,
      "Ġnature": 2931,
      "ention": 2932,
      "ties": 2933,
      "eaking": 2934,
      "astic": 2935,
      "Ġtalent": 2936,
      "Ġprove": 2937,
      "Ġdisag": 2938,
      "Ġclearer": 2939,
      "Ġnames": 2940,
      "izz": 2941,
      "Ġlasts": 2942,
      "EST": 2943,
      "Ġfollows": 2944,
      "Ġenjoying": 2945,
      "Ġears": 2946,
      "Ġfocused": 2947,
      "Ġpiece": 2948,
      "Ġmarket": 2949,
      "Ġboundary": 2950,
      "Ġwrapped": 2951,
      "Ġwraps": 2952,
      "Ġdaily": 2953,
      "AN": 2954,
      "air": 2955,
      "arent": 2956,
      "con": 2957,
      "lt": 2958,
      "pting": 2959,
      "ined": 2960,
      "Ġmention": 2961,
      "ord": 2962,
      "Ġetern": 2963,
      "arity": 2964,
      "Ġseemed": 2965,
      "rodu": 2966,
      "Ġfinal": 2967,
      "Ġhumor": 2968,
      "Ġspeaking": 2969,
      "Ġshouldn": 2970,
      "Ġdead": 2971,
      "Ġunco": 2972,
      "Ġpunch": 2973,
      "ission": 2974,
      "Ġcurse": 2975,
      "Ġspeci": 2976,
      "Ġactive": 2977,
      "Ġregular": 2978,
      "Ġlegs": 2979,
      "Ġguy": 2980,
      "Ġbumped": 2981,
      "Ġangle": 2982,
      "ledge": 2983,
      "ĠIN": 2984,
      "Ġclarity": 2985,
      "Ġgrows": 2986,
      "ĠAM": 2987,
      "Ġcurrents": 2988,
      "Ġshimmery": 2989,
      "Ġreset": 2990,
      "IGG": 2991,
      "Ġrelaxed": 2992,
      "OOD": 2993,
      "what": 2994,
      "Ġpowerful": 2995,
      "Ġvalue": 2996,
      "VERY": 2997,
      "ĠUP": 2998,
      "bon": 2999,
      "pto": 3000,
      "ĠHE": 3001,
      "Ġkids": 3002,
      "Ġhalf": 3003,
      "Ġja": 3004,
      "Ġheading": 3005,
      "Ġimpro": 3006,
      "Ġusual": 3007,
      "Ġhadn": 3008,
      "Ġblub": 3009,
      "Ġsmarter": 3010,
      "Ġheals": 3011,
      "Ġjudging": 3012,
      "Ġcrashed": 3013,
      "Ġgener": 3014,
      "Ġcovered": 3015,
      "Ġpermission": 3016,
      "Ġobs": 3017,
      "Ġblessed": 3018,
      "Ġembra": 3019,
      "Ġgoofy": 3020,
      "Ġyellow": 3021,
      "Ġdisagree": 3022,
      "Ġeternal": 3023,
      "ID": 3024,
      "den": 3025,
      "ol": 3026,
      "spe": 3027,
      "Ġsat": 3028,
      "Ġmmm": 3029,
      "Ġlow": 3030,
      "Ġcla": 3031,
      "Ġsocial": 3032,
      "llab": 3033,
      "Ġpizz": 3034,
      "ises": 3035,
      "ison": 3036,
      "Ġinst": 3037,
      "cepting": 3038,
      "Ġneigh": 3039,
      "Ġsho": 3040,
      "Ġrests": 3041,
      "Ġheater": 3042,
      "Ġvan": 3043,
      "ortable": 3044,
      "Ġimpat": 3045,
      "Ġclosing": 3046,
      "Ġvibrates": 3047,
      "Ġdrifts": 3048,
      "Ġawesome": 3049,
      "ĠWHERE": 3050,
      "Ġasks": 3051,
      "Ġrises": 3052,
      "Ġcomforting": 3053,
      "ĠAN": 3054,
      "Ġrespect": 3055,
      "Ġsettling": 3056,
      "Ġpressed": 3057,
      "Ġarrives": 3058,
      "who": 3059,
      "Ġcrypto": 3060,
      "Ġpulling": 3061,
      "Ġconfident": 3062,
      "Ġreturn": 3063,
      "Ġequally": 3064,
      "Ġthousand": 3065,
      "Ġpizza": 3066,
      "Ġneighbor": 3067,
      "CK": 3068,
      "bow": 3069,
      "hat": 3070,
      "ial": 3071,
      "kers": 3072,
      "tail": 3073,
      "Ġmath": 3074,
      "Ġoops": 3075,
      "Ġinten": 3076,
      "Ġknowledge": 3077,
      "Ġflap": 3078,
      "lored": 3079,
      "ishy": 3080,
      "Ġchill": 3081,
      "Ġsoftest": 3082,
      "ffic": 3083,
      "Ġgiven": 3084,
      "que": 3085,
      "Ġneeding": 3086,
      "Ġpeacefully": 3087,
      "Ġsunny": 3088,
      "istent": 3089,
      "Ġopin": 3090,
      "Ġcorny": 3091,
      "Ġaccepting": 3092,
      "Ġtender": 3093,
      "Ġroll": 3094,
      "ĠWhat": 3095,
      "Ġlesson": 3096,
      "Ġafterno": 3097,
      "Ġshaped": 3098,
      "Ġtraffic": 3099,
      "Ġsensitive": 3100,
      "mfortable": 3101,
      "Ġstories": 3102,
      "Ġmessing": 3103,
      "Ġlaughing": 3104,
      "Ġenerget": 3105,
      "Ġcontentment": 3106,
      "Ġanswers": 3107,
      "Ġhealing": 3108,
      "Ġstruggle": 3109,
      "Ġcelebrate": 3110,
      "work": 3111,
      "ĠGO": 3112,
      "Ġlimitations": 3113,
      "Ġskin": 3114,
      "Ġintrodu": 3115,
      "Ġbesides": 3116,
      "Ġmovie": 3117,
      "Ġrecall": 3118,
      "Ġbene": 3119,
      "Ġenergetic": 3120,
      "OR": 3121,
      "mer": 3122,
      "sy": 3123,
      "yal": 3124,
      "Ġ1": 3125,
      "erc": 3126,
      "Ġsar": 3127,
      "Ġblow": 3128,
      "Ġcent": 3129,
      "Ġread": 3130,
      "ppy": 3131,
      "Ġalga": 3132,
      "...?": 3133,
      "Ġflash": 3134,
      "Ġexerc": 3135,
      "Ġhugging": 3136,
      "Ġpeek": 3137,
      "Ġparty": 3138,
      "Ġele": 3139,
      "Ġprogress": 3140,
      "Ġcoolness": 3141,
      "Ġnamed": 3142,
      "Ġcleaning": 3143,
      "Ġlead": 3144,
      "ĠWIGG": 3145,
      "Ġstock": 3146,
      "Ġgentlest": 3147,
      "ĠBEST": 3148,
      "Ġsupport": 3149,
      "Ġpretti": 3150,
      "Ġterrified": 3151,
      "Ġbuilding": 3152,
      "Ġsquishy": 3153,
      "Ġwearing": 3154,
      "Ġsnow": 3155,
      "Ġadmit": 3156,
      "Ġtransp": 3157,
      "Ġheavier": 3158,
      "Ġoverwhelmed": 3159,
      "Ġavo": 3160,
      "Ġuncomfortable": 3161,
      "Ġpunchline": 3162,
      "Ġafternoon": 3163,
      "Ġalgae": 3164,
      "der": 3165,
      "ground": 3166,
      "ured": 3167,
      "ĠJ": 3168,
      "Ġtrou": 3169,
      "Ġthrill": 3170,
      "ount": 3171,
      "Ġbones": 3172,
      "Ġhm": 3173,
      "Ġnone": 3174,
      "Ġglu": 3175,
      "orary": 3176,
      "Ġsomeday": 3177,
      "Ġhair": 3178,
      "Ġrent": 3179,
      "fection": 3180,
      "Ġfinish": 3181,
      "Ġdigging": 3182,
      "Ġasha": 3183,
      "Ġbrighten": 3184,
      "Ġspa": 3185,
      "Ġunderstood": 3186,
      "stem": 3187,
      "Ġbelieved": 3188,
      "Ġleaf": 3189,
      "Ġexisted": 3190,
      "Ġtemporary": 3191,
      "Ġlullab": 3192,
      "Ġdeepest": 3193,
      "Ġrainbow": 3194,
      "Ġmysteries": 3195,
      "Ġspins": 3196,
      "Ġjumping": 3197,
      "Ġdiscovered": 3198,
      "ĠARE": 3199,
      "Ġpressing": 3200,
      "Ġdistance": 3201,
      "Ġsnacks": 3202,
      "Ġwinning": 3203,
      "Ġspreading": 3204,
      "Ġrepeating": 3205,
      "ĠEVERY": 3206,
      "Ġignor": 3207,
      "Ġinsur": 3208,
      "Ġemail": 3209,
      "Ġrumbling": 3210,
      "Ġsystem": 3211,
      "Ġassume": 3212,
      "Ġshellfish": 3213,
      "Ġembrace": 3214,
      "Ġashamed": 3215,
      "PP": 3216,
      "ding": 3217,
      "ored": 3218,
      "ted": 3219,
      "Ġfro": 3220,
      "Ġdad": 3221,
      "Ġdimmer": 3222,
      "Ġwhis": 3223,
      "Ġlie": 3224,
      "Ġlist": 3225,
      "ory": 3226,
      "Ġwakes": 3227,
      "Ġalert": 3228,
      "Ġloops": 3229,
      "Ġchild": 3230,
      "Ġsand": 3231,
      "Ġfishy": 3232,
      "Ġgiant": 3233,
      "shap": 3234,
      "Ġroundness": 3235,
      "Ġclosed": 3236,
      "Ġsmiled": 3237,
      "Ġcalls": 3238,
      "Ġlouder": 3239,
      "Ġexplored": 3240,
      "Ġclim": 3241,
      "Ġidenti": 3242,
      "Ġstorm": 3243,
      "Ġdropping": 3244,
      "ooks": 3245,
      "Ġspeaks": 3246,
      "Ġdarting": 3247,
      "Ġthicker": 3248,
      "Ġblank": 3249,
      "Ġminute": 3250,
      "Ġgreetings": 3251,
      "Ġconscious": 3252,
      "tivity": 3253,
      "Ġseparate": 3254,
      "Ġentertain": 3255,
      "Ġproductive": 3256,
      "Ġreplaying": 3257,
      "Ġimprove": 3258,
      "Ġsarah": 3259,
      "ĠWIGGLE": 3260,
      "Ġtransparent": 3261,
      "Ġlullaby": 3262,
      "CT": 3263,
      "ED": 3264,
      "LD": 3265,
      "eal": 3266,
      "tiness": 3267,
      "tastic": 3268,
      "un": 3269,
      "Ġyum": 3270,
      "Ġfright": 3271,
      "Ġfool": 3272,
      "Ġdust": 3273,
      "ndred": 3274,
      "Ġhang": 3275,
      "Ġcrow": 3276,
      "ays": 3277,
      "Ġecon": 3278,
      "Ġtong": 3279,
      "Ġpict": 3280,
      "lace": 3281,
      "Ġrelease": 3282,
      "Ġwaved": 3283,
      "Ġneg": 3284,
      "ided": 3285,
      "Ġmain": 3286,
      "Ġswoosh": 3287,
      "Ġfasc": 3288,
      "Ġhundred": 3289,
      "Ġstartle": 3290,
      "Ġpointing": 3291,
      "Ġmornings": 3292,
      "Ġthoughtful": 3293,
      "Ġawful": 3294,
      "Ġacts": 3295,
      "lict": 3296,
      "Ġlean": 3297,
      "Ġcounting": 3298,
      "Ġtalks": 3299,
      "Ġeasiest": 3300,
      "Ġreflect": 3301,
      "Ġemptiness": 3302,
      "Ġsparkling": 3303,
      "ĠSP": 3304,
      "ĠOHHH": 3305,
      "Ġdisappears": 3306,
      "Ġsettled": 3307,
      "Ġbalanced": 3308,
      "Ġconflict": 3309,
      "ĠLIGHT": 3310,
      "Ġtravels": 3311,
      "Ġvalu": 3312,
      "Ġrefreshing": 3313,
      "Ġstanding": 3314,
      "Ġtexture": 3315,
      "Ġentire": 3316,
      "Ġdetails": 3317,
      "Ġimpatient": 3318,
      "Ġopinion": 3319,
      "Ġglub": 3320,
      "Ġspaces": 3321,
      "Ġwhiskers": 3322,
      "shaped": 3323,
      "Ġtongue": 3324,
      "Ġfascin": 3325,
      "ule": 3326,
      "Ġthird": 3327,
      "Ġale": 3328,
      "Ġsched": 3329,
      "ndom": 3330,
      "Ġhis": 3331,
      "Ġhoney": 3332,
      "Ġcri": 3333,
      "Ġbuz": 3334,
      "oops": 3335,
      "Ġforce": 3336,
      "Ġreward": 3337,
      "Ġorang": 3338,
      "ches": 3339,
      "Ġhobb": 3340,
      "Ġages": 3341,
      "Ġrude": 3342,
      "Ġkept": 3343,
      "Ġspir": 3344,
      "Ġwatcher": 3345,
      "Ġimpress": 3346,
      "Ġcalming": 3347,
      "Ġrandom": 3348,
      "OUT": 3349,
      "Ġguide": 3350,
      "Ġbumps": 3351,
      "Ġart": 3352,
      "Ġrisk": 3353,
      "Ġacceptance": 3354,
      "Ġglance": 3355,
      "Ġgliding": 3356,
      "Ġaddress": 3357,
      "Ġunique": 3358,
      "Ġreturns": 3359,
      "Ġdangerous": 3360,
      "Ġseason": 3361,
      "Ġcosts": 3362,
      "Ġbonk": 3363,
      "Ġdelighted": 3364,
      "Ġgenerous": 3365,
      "Ġsatis": 3366,
      "Ġcrowd": 3367,
      "Ġalex": 3368,
      "Ġschedule": 3369,
      "AR": 3370,
      "SH": 3371,
      "lation": 3372,
      "lks": 3373,
      "looks": 3374,
      "ym": 3375,
      "Ġwisp": 3376,
      "ative": 3377,
      "Ġmort": 3378,
      "Ġmelt": 3379,
      "Ġbird": 3380,
      "rees": 3381,
      "Ġgest": 3382,
      "ooked": 3383,
      "Ġinno": 3384,
      "Ġreading": 3385,
      "Ġoffer": 3386,
      "Ġgotten": 3387,
      "Ġholes": 3388,
      "Ġchoices": 3389,
      "Ġsub": 3390,
      "Ġboss": 3391,
      "Ġrestful": 3392,
      "Ġsoul": 3393,
      "shing": 3394,
      "Ġdeg": 3395,
      "Ġfirm": 3396,
      "Ġhurry": 3397,
      "Ġprof": 3398,
      "Ġpump": 3399,
      "Ġfolks": 3400,
      "Ġpale": 3401,
      "Ġacting": 3402,
      "ĠWH": 3403,
      "Ġgul": 3404,
      "Ġdisappearing": 3405,
      "Ġclosely": 3406,
      "Ġdrops": 3407,
      "Ġsilent": 3408,
      "Ġgraceful": 3409,
      "Ġcruel": 3410,
      "ĠSOME": 3411,
      "Ġpunish": 3412,
      "Ġdrink": 3413,
      "Ġdroop": 3414,
      "Ġguilt": 3415,
      "Ġrefreshed": 3416,
      "ential": 3417,
      "Ġconsistent": 3418,
      "they": 3419,
      "Ġwashes": 3420,
      "ĠTHIS": 3421,
      "ĠHAPP": 3422,
      "Ġflin": 3423,
      "Ġidentity": 3424,
      "Ġwispy": 3425,
      "AT": 3426,
      "EN": 3427,
      "em": 3428,
      "rink": 3429,
      "Ġer": 3430,
      "Ġvers": 3431,
      "inely": 3432,
      "inary": 3433,
      "Ġsent": 3434,
      "ren": 3435,
      "Ġlately": 3436,
      "Ġdog": 3437,
      "elids": 3438,
      "stal": 3439,
      "Ġpet": 3440,
      "Ġpitter": 3441,
      "ites": 3442,
      "Ġsta": 3443,
      "Ġsty": 3444,
      "Ġstrate": 3445,
      "Ġkinds": 3446,
      "Ġcolored": 3447,
      "Ġflaw": 3448,
      "Ġshade": 3449,
      "ains": 3450,
      "Ġagree": 3451,
      "ctor": 3452,
      "Ġweigh": 3453,
      "Ġboy": 3454,
      "Ġwobb": 3455,
      "Ġperfection": 3456,
      "Ġbass": 3457,
      "Ġbackground": 3458,
      "tions": 3459,
      "Ġeyelids": 3460,
      "Ġmeets": 3461,
      "Ġlovable": 3462,
      "Ġtasting": 3463,
      "Ġadjust": 3464,
      "ĠTA": 3465,
      "Ġarg": 3466,
      "Ġmessage": 3467,
      "Ġdeciding": 3468,
      "Ġexplaining": 3469,
      "Ġjumpy": 3470,
      "rum": 3471,
      "Ġgracefully": 3472,
      "Ġcommute": 3473,
      "Ġdepend": 3474,
      "Ġcyn": 3475,
      "Ġcenter": 3476,
      "Ġexercise": 3477,
      "Ġinsurance": 3478,
      "Ġgulp": 3479,
      "Ġstrategy": 3480,
      "ave": 3481,
      "cle": 3482,
      "cur": 3483,
      "cast": 3484,
      "emp": 3485,
      "eiling": 3486,
      "ker": 3487,
      "ma": 3488,
      "pid": 3489,
      "rise": 3490,
      "Ġthunder": 3491,
      "Ġdrow": 3492,
      "Ġhor": 3493,
      "Ġlines": 3494,
      "Ġceiling": 3495,
      "Ġgym": 3496,
      "Ġbeach": 3497,
      "rier": 3498,
      "Ġliked": 3499,
      "Ġmotiv": 3500,
      "Ġrequ": 3501,
      "allow": 3502,
      "ments": 3503,
      "Ġupward": 3504,
      "comp": 3505,
      "ieve": 3506,
      "Ġsunrise": 3507,
      "Ġcareer": 3508,
      "press": 3509,
      "Ġunhappy": 3510,
      "Ġcompar": 3511,
      "Ġpersonality": 3512,
      "Ġcleaner": 3513,
      "liv": 3514,
      "Ġteaching": 3515,
      "Ġfears": 3516,
      "Ġmeaningful": 3517,
      "Ġplayful": 3518,
      "Ġsteer": 3519,
      "Ġdecided": 3520,
      "Ġreminding": 3521,
      "Ġshimmers": 3522,
      "iggle": 3523,
      "Ġtingling": 3524,
      "Ġsweetest": 3525,
      "worthy": 3526,
      "Ġexpecting": 3527,
      "Ġcrying": 3528,
      "Ġtrembled": 3529,
      "ensive": 3530,
      "Ġinclu": 3531,
      "Ġsplashing": 3532,
      "Ġcommon": 3533,
      "Ġlands": 3534,
      "ĠHU": 3535,
      "Ġflex": 3536,
      "Ġsalary": 3537,
      "Ġrejection": 3538,
      "Ġzooming": 3539,
      "Ġbills": 3540,
      "Ġgenuinely": 3541,
      "Ġdiscussing": 3542,
      "Ġbeneath": 3543,
      "Ġ10": 3544,
      "Ġavoid": 3545,
      "Ġtrouble": 3546,
      "Ġfoolish": 3547,
      "Ġeconom": 3548,
      "Ġpicture": 3549,
      "ĠSOMETHING": 3550,
      "Ġdrowsy": 3551,
      "AIN": 3552,
      "OM": 3553,
      "SE": 3554,
      "as": 3555,
      "boun": 3556,
      "cket": 3557,
      "gan": 3558,
      "lish": 3559,
      "looking": 3560,
      "nno": 3561,
      "of": 3562,
      "power": 3563,
      "uation": 3564,
      "vious": 3565,
      "zen": 3566,
      "Ġess": 3567,
      "ĠREA": 3568,
      "Ġwar": 3569,
      "inked": 3570,
      "Ġyo": 3571,
      "Ġdwell": 3572,
      "nding": 3573,
      "Ġhid": 3574,
      "Ġhides": 3575,
      "Ġodd": 3576,
      "Ġoof": 3577,
      "thes": 3578,
      "think": 3579,
      "Ġliking": 3580,
      "orient": 3581,
      "Ġbear": 3582,
      "Ġform": 3583,
      "Ġsever": 3584,
      "Ġstore": 3585,
      "tting": 3586,
      "Ġswum": 3587,
      "Ġtiring": 3588,
      "Ġchar": 3589,
      "redict": 3590,
      "Ġquality": 3591,
      "Ġdeb": 3592,
      "Ġoverthink": 3593,
      "Ġdisorient": 3594,
      "ister": 3595,
      "Ġbadly": 3596,
      "Ġreact": 3597,
      "Ġgoodbyes": 3598,
      "Ġrules": 3599,
      "Ġlevel": 3600,
      "Ġcontin": 3601,
      "Ġtwit": 3602,
      "ĠFA": 3603,
      "Ġdefines": 3604,
      "Ġfreezing": 3605,
      "Ġfocusing": 3606,
      "Ġpainting": 3607,
      "Ġarriving": 3608,
      "Ġplans": 3609,
      "ĠWAS": 3610,
      "Ġdarted": 3611,
      "Ġprotecting": 3612,
      "Ġhigher": 3613,
      "Ġlap": 3614,
      "Ġsuperpower": 3615,
      "Ġflew": 3616,
      "Ġmedit": 3617,
      "Ġmanage": 3618,
      "Ġdunno": 3619,
      "Ġcopy": 3620,
      "Ġbarrier": 3621,
      "Ġintroduce": 3622,
      "ĠEVERYTHING": 3623,
      "Ġfrighten": 3624,
      "rency": 3625,
      "Ġstyle": 3626,
      "bounces": 3627,
      "IL": 3628,
      "VING": 3629,
      "bing": 3630,
      "uck": 3631,
      "Ġau": 3632,
      "ining": 3633,
      "ero": 3634,
      "Ġsick": 3635,
      "Ġfour": 3636,
      "Ġdam": 3637,
      "Ġdying": 3638,
      "ndered": 3639,
      "Ġhim": 3640,
      "Ġoliv": 3641,
      "Ġdoctor": 3642,
      "Ġwhats": 3643,
      "Ġeek": 3644,
      "arr": 3645,
      "Ġpour": 3646,
      "Ġrearr": 3647,
      "ital": 3648,
      "Ġsends": 3649,
      "Ġalarm": 3650,
      "Ġworked": 3651,
      "ault": 3652,
      "arts": 3653,
      "Ġsave": 3654,
      "Ġsoftens": 3655,
      "Ġscrat": 3656,
      "Ġcap": 3657,
      "gged": 3658,
      "Ġspi": 3659,
      "ibility": 3660,
      "Ġpopped": 3661,
      "Ġgrab": 3662,
      "Ġshame": 3663,
      "Ġlistened": 3664,
      "Ġdesign": 3665,
      "Ġtrustworthy": 3666,
      "Ġcats": 3667,
      "Ġcalmer": 3668,
      "Ġpul": 3669,
      "Ġpuns": 3670,
      "Ġcute": 3671,
      "Ġpushed": 3672,
      "Ġrich": 3673,
      "Ġjudges": 3674,
      "Ġhonesty": 3675,
      "Ġsilliness": 3676,
      "Ġcontain": 3677,
      "Ġtwist": 3678,
      "Ġtiming": 3679,
      "Ġstocks": 3680,
      "Ġgrowth": 3681,
      "Ġgrump": 3682,
      "Ġachieve": 3683,
      "Ġsetting": 3684,
      "Ġbelonging": 3685,
      "ĠNE": 3686,
      "Ġescap": 3687,
      "Ġcrystal": 3688,
      "Ġcelebration": 3689,
      "Ġcrown": 3690,
      "Ġgrounded": 3691,
      "Ġmedia": 3692,
      "Ġrespond": 3693,
      "Ġzoomed": 3694,
      "Ġdraw": 3695,
      "Ġinflation": 3696,
      "Ġblame": 3697,
      "Ġspecific": 3698,
      "Ġchilly": 3699,
      "Ġfrozen": 3700,
      "Ġcrowded": 3701,
      "Ġinnocent": 3702,
      "Ġcynical": 3703,
      "Ġseveral": 3704,
      "Ġdisoriented": 3705,
      "Ġolivia": 3706,
      "EA": 3707,
      "GE": 3708,
      "IR": 3709,
      "OH": 3710,
      "OT": 3711,
      "TER": 3712,
      "ends": 3713,
      "for": 3714,
      "ience": 3715,
      "ific": 3716,
      "now": 3717,
      "vig": 3718,
      "ĠOUT": 3719,
      "Ġwit": 3720,
      "Ġsla": 3721,
      "Ġsister": 3722,
      "Ġdumb": 3723,
      "Ġdus": 3724,
      "Ġdrum": 3725,
      "nded": 3726,
      "Ġcli": 3727,
      "Ġge": 3728,
      "Ġgiggle": 3729,
      "Ġech": 3730,
      "Ġpot": 3731,
      "Ġport": 3732,
      "Ġplea": 3733,
      "Ġbuil": 3734,
      "Ġjeal": 3735,
      "Ġmom": 3736,
      "Ġur": 3737,
      "idence": 3738,
      "Ġforgave": 3739,
      "Ġaller": 3740,
      "rag": 3741,
      "Ġhover": 3742,
      "Ġloyal": 3743,
      "Ġsoften": 3744,
      "Ġamu": 3745,
      "Ġdie": 3746,
      "Ġwondered": 3747,
      "Ġperspe": 3748,
      "Ġworlds": 3749,
      "Ġhunt": 3750,
      "Ġshaky": 3751,
      "Ġlistener": 3752,
      "Ġsuns": 3753,
      "Ġcarefully": 3754,
      "Ġbothered": 3755,
      "Ġnavig": 3756,
      "Ġcompli": 3757,
      "Ġopened": 3758,
      "Ġinterru": 3759,
      "izing": 3760,
      "Ġweirdest": 3761,
      "Ġappearance": 3762,
      "Ġslight": 3763,
      "Ġexcitedly": 3764,
      "ĠFEE": 3765,
      "Ġsens": 3766,
      "Ġcrack": 3767,
      "Ġsharing": 3768,
      "Ġconnects": 3769,
      "ilities": 3770,
      "Ġsnap": 3771,
      "Ġwalked": 3772,
      "Ġjudged": 3773,
      "Ġtummy": 3774,
      "Ġexpectations": 3775,
      "tics": 3776,
      "HHH": 3777,
      "Ġprotects": 3778,
      "Ġsquare": 3779,
      "Ġdepends": 3780,
      "Ġsurrounds": 3781,
      "Ġobvious": 3782,
      "ONK": 3783,
      "Ġsalt": 3784,
      "Ġswirls": 3785,
      "Ġhumidity": 3786,
      "Ġignoring": 3787,
      "Ġsatisfied": 3788,
      "Ġgrumpy": 3789,
      "Ġbuilt": 3790,
      "Ġjealous": 3791,
      "Ġperspective": 3792,
      ":(": 3793,
      "FE": 3794,
      "GAIN": 3795,
      "ION": 3796,
      "ffe": 3797,
      "ned": 3798,
      "Ġve": 3799,
      "Ġ:(": 3800,
      "Ġya": 3801,
      "Ġyi": 3802,
      "Ġfal": 3803,
      "Ġble": 3804,
      "Ġhust": 3805,
      "Ġcard": 3806,
      "ane": 3807,
      "Ġliqu": 3808,
      "arra": 3809,
      "Ġwatery": 3810,
      "Ġhazy": 3811,
      "Ġstare": 3812,
      "seco": 3813,
      "Ġanim": 3814,
      "Ġsumm": 3815,
      "Ġsprink": 3816,
      "Ġstartling": 3817,
      "Ġpod": 3818,
      "Ġpoli": 3819,
      "ability": 3820,
      "Ġunp": 3821,
      "Ġpulls": 3822,
      "Ġstupid": 3823,
      "Ġscariest": 3824,
      "Ġvibrate": 3825,
      "illing": 3826,
      "Ġtech": 3827,
      "Ġpace": 3828,
      "Ġrace": 3829,
      "Ġcounted": 3830,
      "Ġshiver": 3831,
      "ĠFOOD": 3832,
      "Ġluckiest": 3833,
      "Ġarti": 3834,
      "Ġideas": 3835,
      "ĠAGAIN": 3836,
      "Ġfrustration": 3837,
      "Ġearly": 3838,
      "Ġbothers": 3839,
      "Ġsituation": 3840,
      "Ġsuppose": 3841,
      "Ġwalks": 3842,
      "ĠDID": 3843,
      "Ġsplashes": 3844,
      "Ġfilling": 3845,
      "Ġputs": 3846,
      "ject": 3847,
      "Ġrelie": 3848,
      "LLY": 3849,
      "Ġtreas": 3850,
      "Ġswaying": 3851,
      "Ġslip": 3852,
      "Ġslipper": 3853,
      "ISH": 3854,
      "ĠMOVE": 3855,
      "Ġdull": 3856,
      "Ġembarra": 3857,
      "Ġbetrayed": 3858,
      "Ġgenuine": 3859,
      "ivid": 3860,
      "bonk": 3861,
      "Ġrainbows": 3862,
      "Ġsentence": 3863,
      "Ġcharact": 3864,
      "Ġspiri": 3865,
      "Ġnavigate": 3866,
      "Ġslightly": 3867,
      "Ġfalse": 3868,
      "Ġliquid": 3869,
      "second": 3870,
      "Ġslippery": 3871,
      "Ġembarrass": 3872,
      "SS": 3873,
      "UST": 3874,
      "ages": 3875,
      "cou": 3876,
      "eth": 3877,
      "gent": 3878,
      "gra": 3879,
      "gage": 3880,
      "rr": 3881,
      "Ġwins": 3882,
      "Ġmat": 3883,
      "Ġmis": 3884,
      "Ġmist": 3885,
      "Ġflu": 3886,
      "Ġlar": 3887,
      "Ġcau": 3888,
      "Ġcooking": 3889,
      "Ġgirl": 3890,
      "through": 3891,
      "Ġemo": 3892,
      "Ġpoof": 3893,
      "Ġpian": 3894,
      "ised": 3895,
      "Ġking": 3896,
      "Ġnoises": 3897,
      "eti": 3898,
      "tious": 3899,
      "Ġable": 3900,
      "ching": 3901,
      "Ġgoals": 3902,
      "Ġseek": 3903,
      "Ġmap": 3904,
      "Ġanci": 3905,
      "antage": 3906,
      "Ġroot": 3907,
      "Ġfinished": 3908,
      "Ġamount": 3909,
      "Ġexpected": 3910,
      "Ġexpress": 3911,
      "Ġdaylight": 3912,
      "Ġmunch": 3913,
      "Ġspl": 3914,
      "Ġrounded": 3915,
      "Ġgrand": 3916,
      "Ġputting": 3917,
      "Ġdescribing": 3918,
      "Ġgrey": 3919,
      "Ġreacted": 3920,
      "Ġteacher": 3921,
      "Ġrare": 3922,
      "ĠFR": 3923,
      "Ġrains": 3924,
      "Ġblush": 3925,
      "ĠST": 3926,
      "Ġrushed": 3927,
      "ĠBONK": 3928,
      "Ġchaos": 3929,
      "Ġcloses": 3930,
      "Ġfreely": 3931,
      "Ġpebble": 3932,
      "Ġprison": 3933,
      "Ġpops": 3934,
      "Ġpowerless": 3935,
      "gets": 3936,
      "Ġbendy": 3937,
      "Ġgreeting": 3938,
      "Ġseparates": 3939,
      "Ġunfair": 3940,
      "Ġrespons": 3941,
      "Ġflickered": 3942,
      "Ġtype": 3943,
      "Ġjames": 3944,
      "Ġintense": 3945,
      "Ġvaluable": 3946,
      "Ġmortgage": 3947,
      "Ġflinched": 3948,
      "Ġerase": 3949,
      "Ġincluding": 3950,
      "Ġeconomy": 3951,
      "Ġhidden": 3952,
      "Ġachievement": 3953,
      "ĠNEW": 3954,
      "Ġslam": 3955,
      "Ġdusk": 3956,
      "Ġpotential": 3957,
      "Ġcompliment": 3958,
      "Ġtreasures": 3959,
      "Ġlarge": 3960,
      "Ġancient": 3961,
      "NT": 3962,
      "OA": 3963,
      "ZOO": 3964,
      "aur": 3965,
      "dest": 3966,
      "darts": 3967,
      "every": 3968,
      "free": 3969,
      "ips": 3970,
      "ms": 3971,
      "mand": 3972,
      "pa": 3973,
      "uter": 3974,
      "Ġtin": 3975,
      "Ġthra": 3976,
      "Ġaction": 3977,
      "Ġyep": 3978,
      "Ġmon": 3979,
      "Ġkiss": 3980,
      "Ġinch": 3981,
      "etition": 3982,
      "Ġwander": 3983,
      "Ġnecess": 3984,
      "cha": 3985,
      "Ġflaps": 3986,
      "Ġshoes": 3987,
      "Ġtire": 3988,
      "irs": 3989,
      "Ġglassy": 3990,
      "Ġenem": 3991,
      "Ġkey": 3992,
      "Ġquit": 3993,
      "Ġwilling": 3994,
      "Ġhugged": 3995,
      "Ġtrade": 3996,
      "Ġplus": 3997,
      "Ġspo": 3998,
      "Ġpartner": 3999,
      "Ġconcent": 4000,
      "Ġdeath": 4001,
      "Ġdemand": 4002,
      "Ġimper": 4003,
      "Ġuseless": 4004,
      "Ġcut": 4005,
      "Ġsounded": 4006,
      "Ġcomputer": 4007,
      "Ġcurving": 4008,
      "Ġpoints": 4009,
      "Ġglowy": 4010,
      "Ġactivity": 4011,
      "Ġaccomp": 4012,
      "ĠYou": 4013,
      "cus": 4014,
      "Ġteeth": 4015,
      "Ġwishing": 4016,
      "Ġvisited": 4017,
      "lio": 4018,
      "Ġguard": 4019,
      "Ġadi": 4020,
      "Ġtwitter": 4021,
      "ĠFIN": 4022,
      "ĠTHING": 4023,
      "Ġzone": 4024,
      "Ġzero": 4025,
      "Ġaccepts": 4026,
      "Ġcrave": 4027,
      "Ġadvantage": 4028,
      "Ġresist": 4029,
      "Ġdoubts": 4030,
      "Ġhugs": 4031,
      "Ġcrashing": 4032,
      "Ġapology": 4033,
      "Ġwinter": 4034,
      "Ġowe": 4035,
      "Ġsquee": 4036,
      "ĠHow": 4037,
      "Ġinspir": 4038,
      "Ġignored": 4039,
      "Ġblessing": 4040,
      "ĠMORE": 4041,
      "Ġstretched": 4042,
      "Ġburst": 4043,
      "Ġcopies": 4044,
      "Ġdissolve": 4045,
      "Ġdissolves": 4046,
      "Ġwhispering": 4047,
      "Ġtyp": 4048,
      "Ġbeats": 4049,
      "Ġmentioned": 4050,
      "Ġinstru": 4051,
      "Ġneighbors": 4052,
      "Ġclimate": 4053,
      "Ġbuzzing": 4054,
      "Ġimpressive": 4055,
      "Ġsubject": 4056,
      "Ġprofound": 4057,
      "Ġmotivated": 4058,
      "Ġsensation": 4059,
      "Ġyikes": 4060,
      "Ġhustle": 4061,
      "ĠMOVED": 4062,
      "Ġpiano": 4063,
      "ET": 4064,
      "OLD": 4065,
      "UN": 4066,
      "YY": 4067,
      "dinary": 4068,
      "ho": 4069,
      "kward": 4070,
      "ris": 4071,
      "vity": 4072,
      "ĠK": 4073,
      "ĠRE": 4074,
      "ĠZOO": 4075,
      "Ġtries": 4076,
      "Ġind": 4077,
      "Ġice": 4078,
      "Ġah": 4079,
      "Ġsig": 4080,
      "Ġfsh": 4081,
      "Ġbang": 4082,
      "Ġnest": 4083,
      "Ġoc": 4084,
      "Ġcous": 4085,
      "Ġclu": 4086,
      "els": 4087,
      "this": 4088,
      "ense": 4089,
      "lear": 4090,
      "isco": 4091,
      "Ġmoon": 4092,
      "Ġrelea": 4093,
      "Ġabs": 4094,
      "Ġordinary": 4095,
      "Ġcoffe": 4096,
      "Ġswir": 4097,
      "Ġfacing": 4098,
      "Ġhole": 4099,
      "Ġchat": 4100,
      "Ġchuck": 4101,
      "Ġagrees": 4102,
      "Ġanytime": 4103,
      "Ġwee": 4104,
      "Ġscattered": 4105,
      "Ġvict": 4106,
      "Ġcomedy": 4107,
      "Ġspooked": 4108,
      "Ġquietest": 4109,
      "Ġeats": 4110,
      "Ġprocess": 4111,
      "Ġcools": 4112,
      "Ġmighty": 4113,
      "Ġunsure": 4114,
      "Ġtruest": 4115,
      "Ġdrip": 4116,
      "izes": 4117,
      "cul": 4118,
      "Ġawkward": 4119,
      "Ġrocked": 4120,
      "Ġsimpler": 4121,
      "Ġtense": 4122,
      "Ġhonor": 4123,
      "Ġendings": 4124,
      "Ġblinked": 4125,
      "ĠTI": 4126,
      "ĠTh": 4127,
      "Ġreached": 4128,
      "ĠON": 4129,
      "Ġreflections": 4130,
      "Ġchecks": 4131,
      "Ġgames": 4132,
      "Ġresul": 4133,
      "ĠNOT": 4134,
      "Ġrelaxing": 4135,
      "Ġexperien": 4136,
      "Ġblock": 4137,
      "crash": 4138,
      "ĠGOOD": 4139,
      "Ġsolve": 4140,
      "Ġtricks": 4141,
      "Ġsplashed": 4142,
      "Ġcovering": 4143,
      "Ġmeals": 4144,
      "Ġcomplaining": 4145,
      "Ġschools": 4146,
      "Ġreject": 4147,
      "Ġcrossed": 4148,
      "Ġambition": 4149,
      "Ġdeadline": 4150,
      "Ġresets": 4151,
      "ĠHELL": 4152,
      "Ġinstin": 4153,
      "Ġvanish": 4154,
      "Ġvanished": 4155,
      "Ġcryptocur": 4156,
      "Ġelect": 4157,
      "Ġsupports": 4158,
      "Ġprettier": 4159,
      "ĠJUST": 4160,
      "Ġthrilling": 4161,
      "Ġfascinating": 4162,
      "Ġhobby": 4163,
      "Ġmelts": 4164,
      "Ġdegree": 4165,
      "ĠHAPPY": 4166,
      "Ġversion": 4167,
      "Ġwobbly": 4168,
      "ĠTAIL": 4169,
      "Ġargu": 4170,
      "Ġdepending": 4171,
      "ĠREALLY": 4172,
      "Ġdebt": 4173,
      "Ġcontinu": 4174,
      "Ġallergic": 4175,
      "Ġinterrupt": 4176,
      "Ġtechn": 4177,
      "Ġcharacter": 4178,
      "Ġspirit": 4179,
      "Ġtiniest": 4180,
      "Ġcoffee": 4181,
      "Ġchuckle": 4182,
      "Ġcryptocurrency": 4183,
      "ACK": 4184,
      "fo": 4185,
      "fla": 4186,
      "iant": 4187,
      "ius": 4188,
      "iety": 4189,
      "ta": 4190,
      "uc": 4191,
      "ya": 4192,
      "Ġouch": 4193,
      "ĠLE": 4194,
      "ĠHERE": 4195,
      "Ġaim": 4196,
      "Ġatt": 4197,
      "Ġmill": 4198,
      "Ġbell": 4199,
      "Ġbrill": 4200,
      "rel": 4201,
      "rew": 4202,
      "Ġnud": 4203,
      "antic": 4204,
      "Ġlift": 4205,
      "Ġeight": 4206,
      "Ġtom": 4207,
      "Ġphy": 4208,
      "Ġkilling": 4209,
      "ric": 4210,
      "Ġfeast": 4211,
      "Ġreti": 4212,
      "Ġrene": 4213,
      "Ġstate": 4214,
      "Ġsteps": 4215,
      "Ġworn": 4216,
      "Ġmagn": 4217,
      "Ġhollow": 4218,
      "Ġtale": 4219,
      "Ġring": 4220,
      "Ġsaving": 4221,
      "ctly": 4222,
      "Ġanybody": 4223,
      "Ġsucks": 4224,
      "Ġstir": 4225,
      "Ġwonders": 4226,
      "Ġreality": 4227,
      "anged": 4228,
      "Ġdreamed": 4229,
      "ote": 4230,
      "stairs": 4231,
      "Ġsaddest": 4232,
      "Ġdear": 4233,
      "stency": 4234,
      "Ġfresher": 4235,
      "Ġproves": 4236,
      "Ġcoolest": 4237,
      "Ġoverhead": 4238,
      "Ġwiggled": 4239,
      "Ġexpensive": 4240,
      "Ġtheirs": 4241,
      "bye": 4242,
      "Ġspecks": 4243,
      "liable": 4244,
      "ĠWOW": 4245,
      "mma": 4246,
      "Ġride": 4247,
      "Ġspinny": 4248,
      "ĠOF": 4249,
      "Ġflutters": 4250,
      "Ġdecis": 4251,
      "sistency": 4252,
      "Ġexplained": 4253,
      "Ġdisappointing": 4254,
      "ĠAH": 4255,
      "Ġlaughed": 4256,
      "Ġresili": 4257,
      "Ġresume": 4258,
      "Ġbothering": 4259,
      "Ġpromises": 4260,
      "Ġsinks": 4261,
      "Ġhealth": 4262,
      "Ġdistur": 4263,
      "ĠWATER": 4264,
      "Ġunclear": 4265,
      "OOK": 4266,
      "Ġtucked": 4267,
      "Ġredisco": 4268,
      "Ġapologies": 4269,
      "Ġnetwork": 4270,
      "Ġgenius": 4271,
      "Ġmarcus": 4272,
      "ĠLI": 4273,
      "Ġearliest": 4274,
      "Ġweeks": 4275,
      "ĠHI": 4276,
      "Ġsnout": 4277,
      "Ġapartment": 4278,
      "Ġanxiety": 4279,
      "Ġvulnerability": 4280,
      "Ġbetrayal": 4281,
      "Ġdelightful": 4282,
      "Ġearned": 4283,
      "Ġentirely": 4284,
      "Ġpausing": 4285,
      "Ġspecies": 4286,
      "Ġthrilled": 4287,
      "CTION": 4288,
      "Ġhanging": 4289,
      "Ġnegle": 4290,
      "ĠSPAR": 4291,
      "Ġcritic": 4292,
      "Ġspirals": 4293,
      "Ġstale": 4294,
      "Ġcomparing": 4295,
      "Ġessence": 4296,
      "Ġmeditation": 4297,
      "Ġportfo": 4298,
      "Ġurgent": 4299,
      "ragile": 4300,
      "Ġobviously": 4301,
      "Ġpodcast": 4302,
      "Ġadios": 4303,
      "Ġclue": 4304,
      "Ġexperiencing": 4305,
      "Ġelectric": 4306,
      "Ġrenew": 4307,
      "ĠSPARK": 4308,
      "Ġportfolio": 4309,
      "!âĢĶ": 4310,
      "OVE": 4311,
      "RA": 4312,
      "ZING": 4313,
      "aa": 4314,
      "av": 4315,
      "bu": 4316,
      "fit": 4317,
      "form": 4318,
      "ger": 4319,
      "hood": 4320,
      "ior": 4321,
      "lest": 4322,
      "otion": 4323,
      "ron": 4324,
      "sa": 4325,
      "sant": 4326,
      "try": 4327,
      "uh": 4328,
      "zz": 4329,
      "Ġry": 4330,
      "Ġtang": 4331,
      "Ġther": 4332,
      "Ġsized": 4333,
      "Ġmes": 4334,
      "Ġmel": 4335,
      "Ġfragile": 4336,
      "Ġnoo": 4337,
      "Ġcre": 4338,
      "Ġcook": 4339,
      "Ġitch": 4340,
      "Ġgator": 4341,
      "Ġgho": 4342,
      "ella": 4343,
      "then": 4344,
      "Ġsore": 4345,
      "Ġpal": 4346,
      "rip": 4347,
      "Ġinves": 4348,
      "Ġhab": 4349,
      "Ġjigg": 4350,
      "Ġjord": 4351,
      "Ġforcing": 4352,
      "tig": 4353,
      "ceed": 4354,
      "Ġreliable": 4355,
      "Ġstom": 4356,
      "Ġorgan": 4357,
      "chel": 4358,
      "Ġswimmer": 4359,
      "Ġloan": 4360,
      "Ġfloppy": 4361,
      "Ġsuits": 4362,
      "Ġenorm": 4363,
      "Ġencou": 4364,
      "riend": 4365,
      "Ġwonderfully": 4366,
      "Ġrestaur": 4367,
      "Ġvo": 4368,
      "Ġrealest": 4369,
      "Ġspring": 4370,
      "Ġpepper": 4371,
      "oted": 4372,
      "Ġhelpful": 4373,
      "Ġtails": 4374,
      "Ġconst": 4375,
      "Ġconsistency": 4376,
      "orts": 4377,
      "ngs": 4378,
      "Ġgravity": 4379,
      "Ġshared": 4380,
      "Ġprov": 4381,
      "some": 4382,
      "Ġusing": 4383,
      "Ġcompan": 4384,
      "Ġworthless": 4385,
      "Ġdriving": 4386,
      "izon": 4387,
      "Ġruined": 4388,
      "Ġlasted": 4389,
      "Ġaffect": 4390,
      "Ġrachel": 4391,
      "Ġlungs": 4392,
      "Ġangles": 4393,
      "Ġsilliest": 4394,
      "Ġfrantic": 4395,
      "Ġreflected": 4396,
      "ĠFISH": 4397,
      "ressed": 4398,
      "Ġrisky": 4399,
      "sition": 4400,
      "Ġrippled": 4401,
      "Ġinvit": 4402,
      "Ġreminder": 4403,
      "Ġsetup": 4404,
      "Ġdouble": 4405,
      "Ġearth": 4406,
      "Ġresent": 4407,
      "atures": 4408,
      "Ġpromised": 4409,
      "Ġpainful": 4410,
      "Ġplanning": 4411,
      "Ġtreating": 4412,
      "Ġwelco": 4413,
      "Ġhopes": 4414,
      "Ġsnail": 4415,
      "Ġtucking": 4416,
      "Ġredemp": 4417,
      "Ġexpects": 4418,
      "Ġspending": 4419,
      "Ġconfidence": 4420,
      "ĠLOVE": 4421,
      "Ġreplace": 4422,
      "Ġcommun": 4423,
      "Ġreturning": 4424,
      "Ġsoothes": 4425,
      "Ġinvestment": 4426,
      "Ġignore": 4427,
      "ficial": 4428,
      "Ġbitterness": 4429,
      "ĠMOVING": 4430,
      "Ġrejected": 4431,
      "Ġlanguages": 4432,
      "Ġbriefly": 4433,
      "Ġheaviness": 4434,
      "Ġbike": 4435,
      "Ġtalented": 4436,
      "bonks": 4437,
      "Ġobserv": 4438,
      "ĠAND": 4439,
      "Ġreflecting": 4440,
      "Ġgesture": 4441,
      "Ġhorizon": 4442,
      "ĠHUGE": 4443,
      "Ġflexible": 4444,
      "redictable": 4445,
      "Ġcontainer": 4446,
      "Ġpolitics": 4447,
      "Ġartificial": 4448,
      "Ġmatches": 4449,
      "Ġmisunder": 4450,
      "Ġemotions": 4451,
      "etitive": 4452,
      "Ġnecessary": 4453,
      "Ġaccomplish": 4454,
      "Ġsqueeze": 4455,
      "ĠREF": 4456,
      "Ġweeke": 4457,
      "ĠHELLO": 4458,
      "Ġmillion": 4459,
      "Ġretire": 4460,
      "Ġrediscover": 4461,
      "ĠSPARKLE": 4462,
      "Ġryan": 4463,
      "Ġmesmer": 4464,
      "Ġghost": 4465,
      "Ġinvestig": 4466,
      "Ġstomach": 4467,
      "Ġenormous": 4468,
      "Ġrestaurant": 4469,
      "Ġredemption": 4470,
      "AZING": 4471,
      "NOW": 4472,
      "OP": 4473,
      "akes": 4474,
      "ball": 4475,
      "ills": 4476,
      "itious": 4477,
      "ls": 4478,
      "lti": 4479,
      "od": 4480,
      "ple": 4481,
      "vid": 4482,
      "warm": 4483,
      "yes": 4484,
      "Ġ(": 4485,
      "Ġtree": 4486,
      "Ġwings": 4487,
      "Ġaqu": 4488,
      "Ġsle": 4489,
      "Ġsways": 4490,
      "Ġboo": 4491,
      "Ġbath": 4492,
      "Ġhy": 4493,
      "Ġhist": 4494,
      "Ġisab": 4495,
      "Ġgro": 4496,
      "Ġgard": 4497,
      "Ġsop": 4498,
      "Ġemma": 4499,
      "Ġbeating": 4500,
      "Ġplo": 4501,
      "Ġfeatures": 4502,
      "Ġnoah": 4503,
      "tie": 4504,
      "Ġreven": 4505,
      "ishes": 4506,
      "Ġswallow": 4507,
      "Ġhomes": 4508,
      "Ġtimeless": 4509,
      "Ġwaits": 4510,
      "bbing": 4511,
      "Ġchris": 4512,
      "feel": 4513,
      "ellig": 4514,
      "Ġsusp": 4515,
      "Ġsuspe": 4516,
      "Ġmeanness": 4517,
      "Ġgill": 4518,
      "Ġmattering": 4519,
      "Ġva": 4520,
      "Ġvast": 4521,
      "Ġvivid": 4522,
      "Ġeager": 4523,
      "Ġmusc": 4524,
      "Ġmulti": 4525,
      "Ġpeak": 4526,
      "Ġsurre": 4527,
      "Ġelsewhere": 4528,
      "Ġshades": 4529,
      "Ġclears": 4530,
      "Ġnapping": 4531,
      "Ġjoys": 4532,
      "Ġbrrr": 4533,
      "Ġspeck": 4534,
      "Ġwhichever": 4535,
      "Ġvisibility": 4536,
      "Ġrule": 4537,
      "Ġconfuse": 4538,
      "Ġconfuses": 4539,
      "Ġroad": 4540,
      "ĠWON": 4541,
      "ĠWOR": 4542,
      "Ġeduc": 4543,
      "Ġdefinition": 4544,
      "nee": 4545,
      "amiliar": 4546,
      "RED": 4547,
      "ĠAL": 4548,
      "ĠAHHH": 4549,
      "Ġfreeing": 4550,
      "Ġfitting": 4551,
      "Ġfamous": 4552,
      "LECTION": 4553,
      "wiggle": 4554,
      "Ġfriendships": 4555,
      "Ġfixed": 4556,
      "Ġsilver": 4557,
      "Ġtug": 4558,
      "Ġtuck": 4559,
      "Ġtuna": 4560,
      "Ġblurs": 4561,
      "Ġcrumb": 4562,
      "Ġblanked": 4563,
      "Ġrhythmic": 4564,
      "Ġconversations": 4565,
      "Ġsucceed": 4566,
      "ĠLOOK": 4567,
      "Ġmiracles": 4568,
      "Ġlimited": 4569,
      "Ġseriously": 4570,
      "Ġdoors": 4571,
      "Ġslipped": 4572,
      "Ġfacts": 4573,
      "Ġriddle": 4574,
      "Ġpanicked": 4575,
      "Ġburn": 4576,
      "Ġintellig": 4577,
      "Ġstreams": 4578,
      "REAT": 4579,
      "Ġunfamiliar": 4580,
      "Ġadmire": 4581,
      "Ġtrans": 4582,
      "Ġcertainty": 4583,
      "Ġoverwhelming": 4584,
      "Ġflat": 4585,
      "Ġambitious": 4586,
      "ĠAMAZING": 4587,
      "Ġobsess": 4588,
      "ĠGOSH": 4589,
      "Ġleads": 4590,
      "Ġprettiest": 4591,
      "Ġdusty": 4592,
      "Ġorangest": 4593,
      "Ġspiral": 4594,
      "Ġgestures": 4595,
      "ĠWHOA": 4596,
      "Ġdroopy": 4597,
      "ĠFAST": 4598,
      "Ġauthen": 4599,
      "Ġscratch": 4600,
      "Ġescaped": 4601,
      "Ġsplit": 4602,
      "Ġwandering": 4603,
      "ĠKNOW": 4604,
      "ĠZOOM": 4605,
      "ĠTIME": 4606,
      "Ġdisturb": 4607,
      "Ġcriticism": 4608,
      "Ġtangled": 4609,
      "Ġjordan": 4610,
      "Ġconstru": 4611,
      "ĠREFLECTION": 4612,
      "Ġinvestigate": 4613,
      "Ġhistory": 4614,
      "Ġisabella": 4615,
      "Ġgarden": 4616,
      "Ġsuspic": 4617,
      "Ġsuspended": 4618,
      "Ġauthentic": 4619,
      "!'": 4620,
      "UR": 4621,
      "ds": 4622,
      "flo": 4623,
      "huh": 4624,
      "ired": 4625,
      "ives": 4626,
      "lan": 4627,
      "mar": 4628,
      "nn": 4629,
      "oi": 4630,
      "sor": 4631,
      "tual": 4632,
      "zed": 4633,
      "Ġwea": 4634,
      "Ġack": 4635,
      "Ġaff": 4636,
      "ination": 4637,
      "Ġsnee": 4638,
      "Ġboop": 4639,
      "read": 4640,
      "ndition": 4641,
      "Ġwha": 4642,
      "Ġharm": 4643,
      "Ġlay": 4644,
      "Ġlying": 4645,
      "Ġoy": 4646,
      "Ġcow": 4647,
      "Ġgrie": 4648,
      "Ġgross": 4649,
      "Ġgpa": 4650,
      "Ġlit": 4651,
      "Ġlies": 4652,
      "Ġlips": 4653,
      "arls": 4654,
      "Ġpiv": 4655,
      "Ġkid": 4656,
      "Ġkoi": 4657,
      "Ġstable": 4658,
      "Ġlightness": 4659,
      "oodbye": 4660,
      "Ġohhh": 4661,
      "being": 4662,
      "Ġflappy": 4663,
      "rot": 4664,
      "lesome": 4665,
      "Ġwholesome": 4666,
      "Ġrays": 4667,
      "Ġbubbly": 4668,
      "Ġsometime": 4669,
      "ters": 4670,
      "Ġsup": 4671,
      "Ġoutcome": 4672,
      "Ġpearls": 4673,
      "Ġhellos": 4674,
      "Ġparting": 4675,
      "Ġconc": 4676,
      "Ġfavorites": 4677,
      "Ġposition": 4678,
      "Ġhomework": 4679,
      "Ġgrain": 4680,
      "Ġlongest": 4681,
      "Ġbreaths": 4682,
      "Ġcircular": 4683,
      "ints": 4684,
      "Ġcarried": 4685,
      "Ġdisg": 4686,
      "Ġpuff": 4687,
      "Ġhiya": 4688,
      "Ġopenings": 4689,
      "Ġdrives": 4690,
      "Ġsmoothly": 4691,
      "Ġwetness": 4692,
      "Ġwishes": 4693,
      "Ġpaw": 4694,
      "Ġsimplic": 4695,
      "Ġsimplest": 4696,
      "ĠWill": 4697,
      "Ġfarther": 4698,
      "Ġtrap": 4699,
      "Ġreflects": 4700,
      "ĠFOR": 4701,
      "Ġremove": 4702,
      "ĠOR": 4703,
      "Ġchecked": 4704,
      "Ġinvol": 4705,
      "ĠSA": 4706,
      "Ġdelays": 4707,
      "Ġgas": 4708,
      "HER": 4709,
      "Ġbehav": 4710,
      "Ġimagining": 4711,
      "Ġclosest": 4712,
      "Ġpromoted": 4713,
      "Ġpaint": 4714,
      "Ġpainted": 4715,
      "Ġtreated": 4716,
      "cas": 4717,
      "Ġfixing": 4718,
      "Ġoptimism": 4719,
      "Ġtunn": 4720,
      "Ġpossibly": 4721,
      "Ġprotected": 4722,
      "noti": 4723,
      "Ġappreciating": 4724,
      "tical": 4725,
      "Ġapologized": 4726,
      "Ġpatches": 4727,
      "ache": 4728,
      "Ġadded": 4729,
      "Ġmarried": 4730,
      "Ġcrad": 4731,
      "Ġrepetitive": 4732,
      "Ġdefault": 4733,
      "Ġfigured": 4734,
      "Ġdavid": 4735,
      "ĠEX": 4736,
      "ometry": 4737,
      "Ġmirrors": 4738,
      "Ġburden": 4739,
      "Ġbedtime": 4740,
      "Ġfurry": 4741,
      "Ġfurther": 4742,
      "Ġtextured": 4743,
      "Ġblack": 4744,
      "Ġlisting": 4745,
      "Ġclimb": 4746,
      "Ġoranges": 4747,
      "Ġhobbies": 4748,
      "Ġseasons": 4749,
      "Ġwarmed": 4750,
      "Ġdwelling": 4751,
      "Ġfrightened": 4752,
      "Ġcapital": 4753,
      "Ġwitness": 4754,
      "Ġgeometry": 4755,
      "Ġpleasant": 4756,
      "Ġamusing": 4757,
      "Ġhunting": 4758,
      "ĠFEEL": 4759,
      "Ġveget": 4760,
      "Ġanimal": 4761,
      "Ġsprinkle": 4762,
      "Ġrelieved": 4763,
      "Ġthrashing": 4764,
      "Ġmonth": 4765,
      "Ġconcentrate": 4766,
      "Ġinstrument": 4767,
      "Ġsigning": 4768,
      "Ġnestle": 4769,
      "Ġcousin": 4770,
      "Ġresults": 4771,
      "Ġinstinct": 4772,
      "Ġelectricity": 4773,
      "Ġmelting": 4774,
      "Ġfrantically": 4775,
      "Ġresentment": 4776,
      "Ġmuscles": 4777,
      "Ġsurrender": 4778,
      "Ġobsessed": 4779,
      "Ġconstruction": 4780,
      "Ġsneeze": 4781,
      "Ġsimplicity": 4782,
      "Ġbehavior": 4783,
      "?'": 4784,
      "AIT": 4785,
      "CE": 4786,
      "ELL": 4787,
      "IEN": 4788,
      "WAIT": 4789,
      "bs": 4790,
      "but": 4791,
      "ctivity": 4792,
      "do": 4793,
      "dies": 4794,
      "ees": 4795,
      "fying": 4796,
      "kay": 4797,
      "mme": 4798,
      "net": 4799,
      "okay": 4800,
      "place": 4801,
      "sized": 4802,
      "table": 4803,
      "unt": 4804,
      "val": 4805,
      "vable": 4806,
      "wise": 4807,
      "Ġfault": 4808,
      "Ġban": 4809,
      "Ġbri": 4810,
      "Ġden": 4811,
      "Ġdating": 4812,
      "Ġhen": 4813,
      "Ġhook": 4814,
      "Ġgrou": 4815,
      "Ġgaz": 4816,
      "thu": 4817,
      "Ġsoa": 4818,
      "Ġlied": 4819,
      "orable": 4820,
      "stine": 4821,
      "Ġtoy": 4822,
      "ari": 4823,
      "Ġhaunt": 4824,
      "Ġmode": 4825,
      "ced": 4826,
      "Ġeverybody": 4827,
      "itar": 4828,
      "ited": 4829,
      "Ġsending": 4830,
      "Ġstrea": 4831,
      "Ġknees": 4832,
      "Ġcoll": 4833,
      "Ġgod": 4834,
      "aly": 4835,
      "Ġflaky": 4836,
      "Ġshallow": 4837,
      "Ġtil": 4838,
      "Ġanti": 4839,
      "Ġallig": 4840,
      "Ġtag": 4841,
      "Ġnewness": 4842,
      "bbles": 4843,
      "Ġcho": 4844,
      "Ġbubbler": 4845,
      "cture": 4846,
      "Ġupstairs": 4847,
      "Ġscience": 4848,
      "Ġsmallness": 4849,
      "Ġdive": 4850,
      "Ġdiet": 4851,
      "Ġexit": 4852,
      "Ġbaby": 4853,
      "icient": 4854,
      "Ġstartup": 4855,
      "shion": 4856,
      "ships": 4857,
      "Ġhelpers": 4858,
      "Ġstring": 4859,
      "Ġsadder": 4860,
      "Ġpoor": 4861,
      "Ġscaly": 4862,
      "Ġslowness": 4863,
      "Ġproper": 4864,
      "Ġdesp": 4865,
      "Ġtiredness": 4866,
      "Ġsleepier": 4867,
      "Ġfuller": 4868,
      "Ġfunction": 4869,
      "Ġcompla": 4870,
      "Ġcompetition": 4871,
      "Ġpersonal": 4872,
      "Ġopenness": 4873,
      "Ġapps": 4874,
      "Ġdrifted": 4875,
      "Ġparent": 4876,
      "Ġrob": 4877,
      "Ġrose": 4878,
      "Ġroyal": 4879,
      "Ġsimply": 4880,
      "ĠWIT": 4881,
      "Ġguitar": 4882,
      "Ġfails": 4883,
      "Ġslides": 4884,
      "weed": 4885,
      "Ġdeserving": 4886,
      "Ġadorable": 4887,
      "Ġtrain": 4888,
      "Ġmeaningless": 4889,
      "Ġsensing": 4890,
      "Ġzi": 4891,
      "Ġdirectly": 4892,
      "Ġblues": 4893,
      "Ġarr": 4894,
      "ĠOW": 4895,
      "Ġmessy": 4896,
      "Ġgrin": 4897,
      "Ġgrad": 4898,
      "Ġbrother": 4899,
      "Ġfire": 4900,
      "Ġshimmy": 4901,
      "Ġcrashes": 4902,
      "ĠAT": 4903,
      "ĠALL": 4904,
      "Ġdisappoints": 4905,
      "Ġrushes": 4906,
      "Ġbelongs": 4907,
      "swishes": 4908,
      "Ġtickly": 4909,
      "Ġconnect": 4910,
      "Ġrecover": 4911,
      "Ġfixes": 4912,
      "Ġtremble": 4913,
      "Ġefficient": 4914,
      "ology": 4915,
      "ĠDo": 4916,
      "Ġpossibilities": 4917,
      "uts": 4918,
      "Ġprotective": 4919,
      "Ġproudly": 4920,
      "Ġexperienced": 4921,
      "ĠGoodbye": 4922,
      "Ġknocking": 4923,
      "Ġknocked": 4924,
      "Ġpaths": 4925,
      "ĠCHA": 4926,
      "ĠCAN": 4927,
      "Ġfaded": 4928,
      "Ġahhhh": 4929,
      "Ġdepth": 4930,
      "Ġseaweed": 4931,
      "Ġannoyed": 4932,
      "Ġslipping": 4933,
      "Ġpriv": 4934,
      "Ġprime": 4935,
      "Ġpristine": 4936,
      "Ġapprove": 4937,
      "Ġparaly": 4938,
      "Ġbonus": 4939,
      "Ġrelationships": 4940,
      "ĠPER": 4941,
      "ĠHAVE": 4942,
      "Ġproductivity": 4943,
      "Ġcycle": 4944,
      "Ġbarrel": 4945,
      "Ġstretching": 4946,
      "Ġdiscussed": 4947,
      "Ġamber": 4948,
      "Ġpauses": 4949,
      "ĠINC": 4950,
      "ĠHEY": 4951,
      "Ġshock": 4952,
      "Ġshopping": 4953,
      "Ġbuzz": 4954,
      "Ġdegrees": 4955,
      "Ġdrooping": 4956,
      "Ġflaws": 4957,
      "OMING": 4958,
      "Ġtwitch": 4959,
      "Ġpouring": 4960,
      "forgets": 4961,
      "ificent": 4962,
      "Ġclick": 4963,
      "Ġecho": 4964,
      "Ġechoes": 4965,
      "Ġloyalty": 4966,
      "Ġblend": 4967,
      "Ġunpredictable": 4968,
      "Ġembarrassed": 4969,
      "Ġmisty": 4970,
      "Ġfluff": 4971,
      "Ġroots": 4972,
      "ĠFRIEN": 4973,
      "Ġenemy": 4974,
      "Ġimperfect": 4975,
      "Ġvictor": 4976,
      "cular": 4977,
      "Ġtechnology": 4978,
      "ĠLEA": 4979,
      "Ġbrilliant": 4980,
      "Ġphysic": 4981,
      "Ġmagnificent": 4982,
      "Ġdecisions": 4983,
      "Ġneglect": 4984,
      "Ġencourage": 4985,
      "Ġobservation": 4986,
      "Ġmisunderstood": 4987,
      "Ġaquatic": 4988,
      "Ġslept": 4989,
      "Ġrevenge": 4990,
      "feeling": 4991,
      "Ġmultiple": 4992,
      "Ġeducation": 4993,
      "Ġafford": 4994,
      "Ġpivot": 4995,
      "Ġhenry": 4996,
      "Ġgaze": 4997,
      "Ġalligator": 4998,
      "ĠWITH": 4999,
      "ĠFRIEND": 5000,
      "BLE": 5001,
      "IVE": 5002,
      "OY": 5003,
      "RY": 5004,
      "UCK": 5005,
      "ake": 5006,
      "br": 5007,
      "bra": 5008,
      "cles": 5009,
      "did": 5010,
      "gized": 5011,
      "her": 5012,
      "hel": 5013,
      "ii": 5014,
      "iving": 5015,
      "rce": 5016,
      "tries": 5017,
      "vely": 5018,
      "wn": 5019,
      "ww": 5020,
      "Ġ7": 5021,
      "Ġ8": 5022,
      "Ġthir": 5023,
      "Ġsim": 5024,
      "Ġfer": 5025,
      "Ġdest": 5026,
      "Ġwhoo": 5027,
      "Ġlower": 5028,
      "Ġnor": 5029,
      "Ġnour": 5030,
      "Ġdogs": 5031,
      "Ġcer": 5032,
      "Ġcoo": 5033,
      "Ġcause": 5034,
      "Ġcity": 5035,
      "anuts": 5036,
      "Ġlif": 5037,
      "Ġlids": 5038,
      "Ġlibr": 5039,
      "sters": 5040,
      "armed": 5041,
      "keting": 5042,
      "Ġbeam": 5043,
      "Ġpark": 5044,
      "Ġpredict": 5045,
      "rift": 5046,
      "rity": 5047,
      "Ġhall": 5048,
      "Ġju": 5049,
      "Ġjam": 5050,
      "eting": 5051,
      "Ġjustice": 5052,
      "kest": 5053,
      "Ġsend": 5054,
      "Ġstur": 5055,
      "Ġflashes": 5056,
      "Ġmax": 5057,
      "Ġmach": 5058,
      "Ġshel": 5059,
      "Ġshout": 5060,
      "Ġshall": 5061,
      "Ġswear": 5062,
      "ury": 5063,
      "ants": 5064,
      "anted": 5065,
      "ires": 5066,
      "Ġran": 5067,
      "ellent": 5068,
      "???": 5069,
      "Ġsuit": 5070,
      "Ġbodies": 5071,
      "Ġwobble": 5072,
      "Ġpersi": 5073,
      "Ġcase": 5074,
      "Ġsource": 5075,
      "Ġhardness": 5076,
      "Ġoutta": 5077,
      "ics": 5078,
      "rated": 5079,
      "Ġpeanuts": 5080,
      "Ġstartles": 5081,
      "Ġfoods": 5082,
      "Ġletters": 5083,
      "Ġsurely": 5084,
      "Ġotherwise": 5085,
      "asty": 5086,
      "Ġpoet": 5087,
      "Ġhummm": 5088,
      "Ġtrusted": 5089,
      "Ġprep": 5090,
      "Ġbreathes": 5091,
      "Ġunw": 5092,
      "Ġunst": 5093,
      "Ġunhe": 5094,
      "Ġforecast": 5095,
      "Ġstudy": 5096,
      "Ġoption": 5097,
      "Ġexplan": 5098,
      "ctions": 5099,
      "Ġclothes": 5100,
      "Ġinternet": 5101,
      "Ġexcellent": 5102,
      "ĠYAY": 5103,
      "Ġpaid": 5104,
      "Ġnightmar": 5105,
      "Ġmike": 5106,
      "Ġmount": 5107,
      "ĠWE": 5108,
      "OUG": 5109,
      "Ġguides": 5110,
      "Ġlucas": 5111,
      "Ġritual": 5112,
      "Ġfollowed": 5113,
      "Ġslide": 5114,
      "Ġslate": 5115,
      "Ġsings": 5116,
      "Ġempti": 5117,
      "Ġbloop": 5118,
      "ĠTELL": 5119
    },
    "merges": [
      [
        "Ġ",
        "t"
      ],
      [
        "Ġ",
        "i"
      ],
      [
        "Ġt",
        "h"
      ],
      [
        "Ġ",
        "w"
      ],
      [
        "Ġ",
        "a"
      ],
      [
        "o",
        "u"
      ],
      [
        "i",
        "n"
      ],
      [
        "e",
        "r"
      ],
      [
        "Ġ",
        "s"
      ],
      [
        "a",
        "t"
      ],
      [
        "Ġ",
        "y"
      ],
      [
        "Ġth",
        "e"
      ],
      [
        "Ġ",
        "m"
      ],
      [
        "Ġy",
        "ou"
      ],
      [
        "in",
        "g"
      ],
      [
        "Ġ",
        "f"
      ],
      [
        "Ġ",
        "b"
      ],
      [
        "e",
        "s"
      ],
      [
        "Ġ",
        "d"
      ],
      [
        "r",
        "e"
      ],
      [
        "n",
        "d"
      ],
      [
        "Ġw",
        "h"
      ],
      [
        "Ġ",
        "h"
      ],
      [
        "Ġ",
        "l"
      ],
      [
        "o",
        "w"
      ],
      [
        "Ġ",
        "n"
      ],
      [
        "Ġ",
        "o"
      ],
      [
        "Ġd",
        "o"
      ],
      [
        "m",
        "e"
      ],
      [
        "Ġa",
        "nd"
      ],
      [
        "Ġ",
        "c"
      ],
      [
        "Ġi",
        "t"
      ],
      [
        "Ġi",
        "s"
      ],
      [
        "'",
        "s"
      ],
      [
        "Ġ",
        "g"
      ],
      [
        "e",
        "l"
      ],
      [
        "t",
        "h"
      ],
      [
        "Ġs",
        "o"
      ],
      [
        "e",
        "n"
      ],
      [
        "a",
        "n"
      ],
      [
        "Ġl",
        "i"
      ],
      [
        "a",
        "y"
      ],
      [
        "o",
        "r"
      ],
      [
        "s",
        "t"
      ],
      [
        "Ġwh",
        "at"
      ],
      [
        "Ġ",
        "e"
      ],
      [
        "g",
        "h"
      ],
      [
        "Ġt",
        "o"
      ],
      [
        "a",
        "r"
      ],
      [
        "Ġm",
        "e"
      ],
      [
        "l",
        "l"
      ],
      [
        "k",
        "e"
      ],
      [
        "Ġw",
        "at"
      ],
      [
        "v",
        "er"
      ],
      [
        "Ġth",
        "at"
      ],
      [
        "Ġwat",
        "er"
      ],
      [
        "er",
        "e"
      ],
      [
        "Ġb",
        "e"
      ],
      [
        "v",
        "e"
      ],
      [
        "gh",
        "t"
      ],
      [
        "l",
        "e"
      ],
      [
        "Ġ",
        "p"
      ],
      [
        "Ġb",
        "u"
      ],
      [
        "o",
        "n"
      ],
      [
        "i",
        "s"
      ],
      [
        ".",
        "."
      ],
      [
        "Ġ",
        "k"
      ],
      [
        "th",
        "ing"
      ],
      [
        "o",
        "o"
      ],
      [
        "r",
        "i"
      ],
      [
        "Ġi",
        "n"
      ],
      [
        "'",
        "t"
      ],
      [
        "Ġso",
        "me"
      ],
      [
        "Ġli",
        "ke"
      ],
      [
        "Ġf",
        "e"
      ],
      [
        "Ġe",
        "ver"
      ],
      [
        "Ġh",
        "a"
      ],
      [
        "Ġn",
        "o"
      ],
      [
        "'",
        "m"
      ],
      [
        "Ġ",
        "j"
      ],
      [
        "Ġfe",
        "el"
      ],
      [
        "u",
        "st"
      ],
      [
        "e",
        "t"
      ],
      [
        "Ġm",
        "o"
      ],
      [
        "Ġf",
        "or"
      ],
      [
        "Ġbu",
        "t"
      ],
      [
        "l",
        "a"
      ],
      [
        "t",
        "i"
      ],
      [
        "l",
        "d"
      ],
      [
        "Ġm",
        "y"
      ],
      [
        "c",
        "e"
      ],
      [
        "Ġj",
        "ust"
      ],
      [
        "Ġa",
        "re"
      ],
      [
        "Ġ",
        "re"
      ],
      [
        "Ġyou",
        "r"
      ],
      [
        "Ġever",
        "y"
      ],
      [
        "'",
        "re"
      ],
      [
        "Ġw",
        "a"
      ],
      [
        "in",
        "d"
      ],
      [
        "e",
        "d"
      ],
      [
        "i",
        "t"
      ],
      [
        "k",
        "es"
      ],
      [
        "ou",
        "t"
      ],
      [
        "Ġn",
        "e"
      ],
      [
        "Ġthe",
        "y"
      ],
      [
        "ri",
        "ght"
      ],
      [
        "Ġs",
        "e"
      ],
      [
        "Ġn",
        "ow"
      ],
      [
        "Ġw",
        "i"
      ],
      [
        "Ġs",
        "t"
      ],
      [
        "p",
        "p"
      ],
      [
        "Ġdo",
        "n"
      ],
      [
        "Ġa",
        "l"
      ],
      [
        "Ġh",
        "ow"
      ],
      [
        "Ġ",
        "u"
      ],
      [
        "ar",
        "m"
      ],
      [
        "Ġw",
        "arm"
      ],
      [
        "..",
        "."
      ],
      [
        "Ġk",
        "ind"
      ],
      [
        "Ġa",
        "b"
      ],
      [
        "Ġo",
        "r"
      ],
      [
        "Ġk",
        "n"
      ],
      [
        "i",
        "d"
      ],
      [
        "Ġo",
        "f"
      ],
      [
        "g",
        "e"
      ],
      [
        "Ġc",
        "an"
      ],
      [
        "Ġkn",
        "ow"
      ],
      [
        "ow",
        "l"
      ],
      [
        "es",
        "t"
      ],
      [
        "Ġc",
        "o"
      ],
      [
        "Ġb",
        "owl"
      ],
      [
        "Ġ",
        "right"
      ],
      [
        "c",
        "h"
      ],
      [
        "Ġth",
        "ing"
      ],
      [
        "a",
        "d"
      ],
      [
        "a",
        "ll"
      ],
      [
        "Ġth",
        "ere"
      ],
      [
        "Ġo",
        "n"
      ],
      [
        "Ġg",
        "o"
      ],
      [
        "Ġab",
        "out"
      ],
      [
        "Ġli",
        "ght"
      ],
      [
        "oo",
        "d"
      ],
      [
        "s",
        "e"
      ],
      [
        "a",
        "l"
      ],
      [
        "Ġfor",
        "g"
      ],
      [
        "Ġh",
        "ere"
      ],
      [
        "es",
        "s"
      ],
      [
        "on",
        "e"
      ],
      [
        "Ġo",
        "h"
      ],
      [
        "b",
        "e"
      ],
      [
        "Ġha",
        "pp"
      ],
      [
        "w",
        "ay"
      ],
      [
        "en",
        "t"
      ],
      [
        "l",
        "y"
      ],
      [
        "Ġf",
        "la"
      ],
      [
        "Ġsome",
        "thing"
      ],
      [
        "Ġth",
        "is"
      ],
      [
        "Ġwh",
        "en"
      ],
      [
        "Ġse",
        "e"
      ],
      [
        "Ġevery",
        "thing"
      ],
      [
        "an",
        "ge"
      ],
      [
        "r",
        "ou"
      ],
      [
        "l",
        "o"
      ],
      [
        "in",
        "k"
      ],
      [
        "f",
        "u"
      ],
      [
        "n",
        "t"
      ],
      [
        "i",
        "m"
      ],
      [
        "Ġw",
        "or"
      ],
      [
        "Ġm",
        "ay"
      ],
      [
        "Ġm",
        "a"
      ],
      [
        "Ġmay",
        "be"
      ],
      [
        "Ġs",
        "h"
      ],
      [
        "is",
        "h"
      ],
      [
        "Ġth",
        "ink"
      ],
      [
        "Ġy",
        "es"
      ],
      [
        "t",
        "t"
      ],
      [
        "f",
        "t"
      ],
      [
        "Ġfla",
        "kes"
      ],
      [
        "Ġs",
        "w"
      ],
      [
        "Ġno",
        "t"
      ],
      [
        "Ġt",
        "i"
      ],
      [
        "fu",
        "l"
      ],
      [
        "Ġg",
        "ood"
      ],
      [
        "Ġl",
        "oo"
      ],
      [
        "me",
        "nt"
      ],
      [
        "Ġa",
        "n"
      ],
      [
        "Ġwi",
        "th"
      ],
      [
        "Ġfeel",
        "s"
      ],
      [
        "Ġdo",
        "es"
      ],
      [
        "r",
        "o"
      ],
      [
        "m",
        "es"
      ],
      [
        "Ġloo",
        "k"
      ],
      [
        "u",
        "r"
      ],
      [
        "s",
        "s"
      ],
      [
        "m",
        "b"
      ],
      [
        "Ġha",
        "ve"
      ],
      [
        "Ġwa",
        "s"
      ],
      [
        "Ġa",
        "ll"
      ],
      [
        "Ġsw",
        "im"
      ],
      [
        "c",
        "k"
      ],
      [
        "r",
        "a"
      ],
      [
        "Ġwh",
        "y"
      ],
      [
        "r",
        "y"
      ],
      [
        "Ġor",
        "ange"
      ],
      [
        "way",
        "s"
      ],
      [
        "Ġal",
        "ways"
      ],
      [
        "Ġs",
        "m"
      ],
      [
        "Ġa",
        "t"
      ],
      [
        "me",
        "mb"
      ],
      [
        "Ġmo",
        "ment"
      ],
      [
        "ou",
        "ld"
      ],
      [
        "Ġre",
        "memb"
      ],
      [
        "l",
        "es"
      ],
      [
        "an",
        "t"
      ],
      [
        "Ġforg",
        "et"
      ],
      [
        "Ġg",
        "la"
      ],
      [
        "a",
        "u"
      ],
      [
        "Ġrememb",
        "er"
      ],
      [
        "Ġi",
        "f"
      ],
      [
        "Ġwh",
        "o"
      ],
      [
        "Ġbe",
        "ing"
      ],
      [
        "Ġf",
        "a"
      ],
      [
        "Ġn",
        "i"
      ],
      [
        "Ġh",
        "o"
      ],
      [
        "Ġti",
        "me"
      ],
      [
        "Ġt",
        "a"
      ],
      [
        "ar",
        "t"
      ],
      [
        "i",
        "r"
      ],
      [
        "Ġthing",
        "s"
      ],
      [
        "Ġl",
        "o"
      ],
      [
        "Ġwa",
        "it"
      ],
      [
        "e",
        "a"
      ],
      [
        "Ġne",
        "w"
      ],
      [
        "nd",
        "er"
      ],
      [
        "b",
        "b"
      ],
      [
        "Ġc",
        "h"
      ],
      [
        "a",
        "in"
      ],
      [
        "f",
        "e"
      ],
      [
        "e",
        "p"
      ],
      [
        "n",
        "ess"
      ],
      [
        "Ġa",
        "g"
      ],
      [
        "Ġ",
        "r"
      ],
      [
        "Ġgla",
        "ss"
      ],
      [
        "el",
        "l"
      ],
      [
        "Ġbu",
        "bb"
      ],
      [
        "Ġsome",
        "one"
      ],
      [
        "Ġf",
        "in"
      ],
      [
        "Ġg",
        "et"
      ],
      [
        "Ġs",
        "a"
      ],
      [
        "Ġd",
        "id"
      ],
      [
        "th",
        "er"
      ],
      [
        "Ġag",
        "ain"
      ],
      [
        "Ġni",
        "ce"
      ],
      [
        "rou",
        "nd"
      ],
      [
        "c",
        "t"
      ],
      [
        "Ġan",
        "y"
      ],
      [
        "Ġso",
        "ft"
      ],
      [
        "?",
        "?"
      ],
      [
        "Ġthe",
        "n"
      ],
      [
        "Ġu",
        "p"
      ],
      [
        "Ġw",
        "e"
      ],
      [
        "ou",
        "gh"
      ],
      [
        "Ġthe",
        "m"
      ],
      [
        "Ġsome",
        "ti"
      ],
      [
        "t",
        "er"
      ],
      [
        "Ġf",
        "lo"
      ],
      [
        "Ġsometi",
        "mes"
      ],
      [
        "Ġs",
        "u"
      ],
      [
        "Ġma",
        "kes"
      ],
      [
        "Ġflo",
        "at"
      ],
      [
        "v",
        "ing"
      ],
      [
        "Ġwh",
        "ere"
      ],
      [
        "Ġs",
        "c"
      ],
      [
        "Ġs",
        "ti"
      ],
      [
        "Ġto",
        "o"
      ],
      [
        "Ġh",
        "el"
      ],
      [
        "m",
        "p"
      ],
      [
        "m",
        "ing"
      ],
      [
        "Ġ",
        "en"
      ],
      [
        "Ġsm",
        "all"
      ],
      [
        "Ġhapp",
        "y"
      ],
      [
        "Ġf",
        "ish"
      ],
      [
        "Ġa",
        "m"
      ],
      [
        "Ġsti",
        "ll"
      ],
      [
        "re",
        "d"
      ],
      [
        "Ġo",
        "k"
      ],
      [
        "all",
        "y"
      ],
      [
        "Ġd",
        "i"
      ],
      [
        "f",
        "f"
      ],
      [
        "Ġhapp",
        "en"
      ],
      [
        "Ġme",
        "an"
      ],
      [
        "i",
        "l"
      ],
      [
        "Ġfin",
        "s"
      ],
      [
        "Ġok",
        "ay"
      ],
      [
        "Ġb",
        "o"
      ],
      [
        "Ġe",
        "x"
      ],
      [
        "Ġg",
        "ent"
      ],
      [
        "p",
        "e"
      ],
      [
        "nd",
        "s"
      ],
      [
        "v",
        "en"
      ],
      [
        "i",
        "g"
      ],
      [
        "Ġt",
        "ell"
      ],
      [
        "Ġw",
        "o"
      ],
      [
        "ar",
        "d"
      ],
      [
        "ro",
        "m"
      ],
      [
        "o",
        "p"
      ],
      [
        "Ġbubb",
        "les"
      ],
      [
        "Ġbe",
        "c"
      ],
      [
        "ri",
        "e"
      ],
      [
        "Ġen",
        "ough"
      ],
      [
        "Ġmo",
        "ve"
      ],
      [
        "Ġg",
        "i"
      ],
      [
        "Ġwo",
        "nder"
      ],
      [
        "Ġf",
        "rie"
      ],
      [
        "Ġf",
        "rom"
      ],
      [
        "Ġ",
        "ke"
      ],
      [
        "Ġp",
        "er"
      ],
      [
        "Ġon",
        "e"
      ],
      [
        "ver",
        "y"
      ],
      [
        "Ġke",
        "ep"
      ],
      [
        "q",
        "u"
      ],
      [
        "rou",
        "gh"
      ],
      [
        "Ġkind",
        "ness"
      ],
      [
        "Ġb",
        "ig"
      ],
      [
        "Ġ",
        "very"
      ],
      [
        "ff",
        "er"
      ],
      [
        "Ġst",
        "ay"
      ],
      [
        "Ġth",
        "rough"
      ],
      [
        "Ġw",
        "ay"
      ],
      [
        "el",
        "f"
      ],
      [
        "Ġb",
        "a"
      ],
      [
        "Ġdi",
        "ffer"
      ],
      [
        "on",
        "g"
      ],
      [
        "au",
        "se"
      ],
      [
        "Ġwor",
        "ld"
      ],
      [
        "k",
        "ing"
      ],
      [
        "d",
        "ay"
      ],
      [
        "Ġlo",
        "ve"
      ],
      [
        "Ġbec",
        "ause"
      ],
      [
        "Ġ",
        "qu"
      ],
      [
        "Ġwho",
        "le"
      ],
      [
        "Ġt",
        "ry"
      ],
      [
        "Ġs",
        "ay"
      ],
      [
        "Ġe",
        "ven"
      ],
      [
        "Ġr",
        "est"
      ],
      [
        "Ġli",
        "tt"
      ],
      [
        "Ġlitt",
        "le"
      ],
      [
        "Ġc",
        "a"
      ],
      [
        "Ġdiffer",
        "ent"
      ],
      [
        "at",
        "ter"
      ],
      [
        "Ġa",
        "round"
      ],
      [
        "Ġba",
        "ck"
      ],
      [
        "Ġgo",
        "ld"
      ],
      [
        "o",
        "re"
      ],
      [
        "ad",
        "y"
      ],
      [
        "ow",
        "n"
      ],
      [
        "s",
        "elf"
      ],
      [
        "Ġwi",
        "ll"
      ],
      [
        "Ġd",
        "ay"
      ],
      [
        "Ġh",
        "e"
      ],
      [
        "Ġa",
        "s"
      ],
      [
        "t",
        "ing"
      ],
      [
        "Ġw",
        "ould"
      ],
      [
        "Ġh",
        "u"
      ],
      [
        "Ġb",
        "est"
      ],
      [
        "Ġw",
        "ant"
      ],
      [
        "Ġth",
        "an"
      ],
      [
        "Ġwarm",
        "th"
      ],
      [
        "Ġm",
        "atter"
      ],
      [
        "re",
        "a"
      ],
      [
        "id",
        "e"
      ],
      [
        "Ġgent",
        "le"
      ],
      [
        "Ġne",
        "ed"
      ],
      [
        "i",
        "ve"
      ],
      [
        "el",
        "y"
      ],
      [
        "g",
        "g"
      ],
      [
        "Ġne",
        "ver"
      ],
      [
        "l",
        "ow"
      ],
      [
        "Ġf",
        "u"
      ],
      [
        "Ġre",
        "ally"
      ],
      [
        "Ġmo",
        "st"
      ],
      [
        "Ġb",
        "right"
      ],
      [
        "Ġb",
        "el"
      ],
      [
        "Ġu",
        "m"
      ],
      [
        "Ġt",
        "r"
      ],
      [
        "v",
        "es"
      ],
      [
        "Ġ",
        "v"
      ],
      [
        "Ġwonder",
        "ful"
      ],
      [
        "Ġco",
        "me"
      ],
      [
        "Ġswim",
        "ming"
      ],
      [
        "it",
        "e"
      ],
      [
        "Ġmo",
        "ving"
      ],
      [
        "Ġfrie",
        "nd"
      ],
      [
        "Ġs",
        "ou"
      ],
      [
        "Ġe",
        "a"
      ],
      [
        "fe",
        "ct"
      ],
      [
        "Ġmo",
        "re"
      ],
      [
        "Ġsee",
        "m"
      ],
      [
        "Ġqu",
        "i"
      ],
      [
        "Ġm",
        "u"
      ],
      [
        "c",
        "o"
      ],
      [
        "Ġper",
        "fect"
      ],
      [
        "Ġh",
        "ard"
      ],
      [
        "Ġb",
        "y"
      ],
      [
        "Ġ",
        "out"
      ],
      [
        "Ġma",
        "ke"
      ],
      [
        "Ġwi",
        "gg"
      ],
      [
        "Ġbe",
        "au"
      ],
      [
        "Ġre",
        "al"
      ],
      [
        "i",
        "c"
      ],
      [
        "an",
        "g"
      ],
      [
        "r",
        "at"
      ],
      [
        "ar",
        "k"
      ],
      [
        "Ġto",
        "day"
      ],
      [
        "i",
        "e"
      ],
      [
        "re",
        "at"
      ],
      [
        "Ġp",
        "l"
      ],
      [
        "Ġsa",
        "me"
      ],
      [
        "Ġmean",
        "s"
      ],
      [
        "in",
        "y"
      ],
      [
        "f",
        "ish"
      ],
      [
        "Ġbeau",
        "ti"
      ],
      [
        "d",
        "y"
      ],
      [
        "Ġs",
        "p"
      ],
      [
        "Ġno",
        "ti"
      ],
      [
        "Ġd",
        "rea"
      ],
      [
        "Ġbeauti",
        "ful"
      ],
      [
        "Ġp",
        "e"
      ],
      [
        "Ġmu",
        "ch"
      ],
      [
        "Ġho",
        "ld"
      ],
      [
        "Ġhel",
        "lo"
      ],
      [
        "Ġgold",
        "fish"
      ],
      [
        "'",
        "ll"
      ],
      [
        "Ġst",
        "art"
      ],
      [
        "s",
        "h"
      ],
      [
        "o",
        "t"
      ],
      [
        "Ġp",
        "art"
      ],
      [
        "Ġhel",
        "p"
      ],
      [
        "Ġf",
        "ood"
      ],
      [
        "r",
        "es"
      ],
      [
        "Ġdoes",
        "n"
      ],
      [
        "ou",
        "s"
      ],
      [
        "Ġta",
        "il"
      ],
      [
        "re",
        "ady"
      ],
      [
        "Ġal",
        "ready"
      ],
      [
        "Ġc",
        "on"
      ],
      [
        "tt",
        "er"
      ],
      [
        "i",
        "ght"
      ],
      [
        "Ġl",
        "et"
      ],
      [
        "Ġj",
        "o"
      ],
      [
        "Ġd",
        "own"
      ],
      [
        "ti",
        "on"
      ],
      [
        "Ġqui",
        "et"
      ],
      [
        "st",
        "a"
      ],
      [
        "Ġco",
        "mes"
      ],
      [
        "Ġdrea",
        "m"
      ],
      [
        "Ġe",
        "at"
      ],
      [
        "h",
        "ere"
      ],
      [
        "n",
        "ing"
      ],
      [
        "Ġlook",
        "ing"
      ],
      [
        "Ġw",
        "ere"
      ],
      [
        "Ġany",
        "thing"
      ],
      [
        "Ġno",
        "thing"
      ],
      [
        "v",
        "or"
      ],
      [
        "Ġbel",
        "ie"
      ],
      [
        "Ġb",
        "ra"
      ],
      [
        "Ġp",
        "ea"
      ],
      [
        "Ġfloat",
        "ing"
      ],
      [
        "op",
        "le"
      ],
      [
        "Ġpe",
        "ople"
      ],
      [
        "Ġst",
        "r"
      ],
      [
        "Ġpea",
        "ce"
      ],
      [
        "Ġs",
        "ad"
      ],
      [
        "Ġu",
        "nder"
      ],
      [
        "Ġd",
        "ark"
      ],
      [
        "Ġc",
        "le"
      ],
      [
        "Ġsh",
        "ould"
      ],
      [
        "Ġsu",
        "re"
      ],
      [
        "st",
        "e"
      ],
      [
        "Ġwat",
        "ch"
      ],
      [
        "i",
        "on"
      ],
      [
        "or",
        "t"
      ],
      [
        "Ġsc",
        "a"
      ],
      [
        "Ġch",
        "ange"
      ],
      [
        "Ġfa",
        "vor"
      ],
      [
        "Ġgo",
        "ing"
      ],
      [
        "Ġfavor",
        "ite"
      ],
      [
        "u",
        "re"
      ],
      [
        "Ġyour",
        "self"
      ],
      [
        "w",
        "here"
      ],
      [
        "i",
        "b"
      ],
      [
        "ll",
        "s"
      ],
      [
        "Ġt",
        "iny"
      ],
      [
        "Ġdo",
        "ing"
      ],
      [
        "Ġo",
        "ther"
      ],
      [
        "Ġ",
        "round"
      ],
      [
        "a",
        "st"
      ],
      [
        "!",
        "!"
      ],
      [
        "'",
        "ve"
      ],
      [
        "Ġt",
        "al"
      ],
      [
        "Ġfeel",
        "ing"
      ],
      [
        "Ġe",
        "y"
      ],
      [
        "â",
        "Ģ"
      ],
      [
        "âĢ",
        "Ķ"
      ],
      [
        "s",
        "ide"
      ],
      [
        "m",
        "or"
      ],
      [
        "Ġp",
        "o"
      ],
      [
        "Ġsa",
        "fe"
      ],
      [
        "res",
        "h"
      ],
      [
        "re",
        "t"
      ],
      [
        "Ġd",
        "e"
      ],
      [
        "n",
        "g"
      ],
      [
        "Ġli",
        "ve"
      ],
      [
        "Ġho",
        "pe"
      ],
      [
        "Ġnoti",
        "ce"
      ],
      [
        "Ġf",
        "ir"
      ],
      [
        "Ġtry",
        "ing"
      ],
      [
        "st",
        "en"
      ],
      [
        "a",
        "b"
      ],
      [
        "Ġf",
        "resh"
      ],
      [
        "Ġfir",
        "st"
      ],
      [
        "l",
        "or"
      ],
      [
        "Ġho",
        "me"
      ],
      [
        "o",
        "se"
      ],
      [
        "Ġbe",
        "tter"
      ],
      [
        "Ġp",
        "la"
      ],
      [
        "Ġsc",
        "al"
      ],
      [
        "Ġs",
        "ur"
      ],
      [
        "Ġey",
        "es"
      ],
      [
        "oo",
        "l"
      ],
      [
        "Ġsca",
        "red"
      ],
      [
        "Ġscal",
        "es"
      ],
      [
        "Ġch",
        "ang"
      ],
      [
        "Ġg",
        "ra"
      ],
      [
        "Ġh",
        "ur"
      ],
      [
        "Ġf",
        "ind"
      ],
      [
        "Ġon",
        "ly"
      ],
      [
        "Ġsh",
        "a"
      ],
      [
        "Ġ",
        "el"
      ],
      [
        "Ġl",
        "ong"
      ],
      [
        "Ġli",
        "sten"
      ],
      [
        "Ġfa",
        "st"
      ],
      [
        "Ġs",
        "low"
      ],
      [
        "Ġunder",
        "sta"
      ],
      [
        "Ġst",
        "op"
      ],
      [
        "Ġp",
        "ro"
      ],
      [
        "Ġa",
        "way"
      ],
      [
        "Ġd",
        "es"
      ],
      [
        "Ġforg",
        "ot"
      ],
      [
        "Ġbubb",
        "le"
      ],
      [
        "Ġmatter",
        "s"
      ],
      [
        "Ġt",
        "ur"
      ],
      [
        "Ġwor",
        "d"
      ],
      [
        "Ġhu",
        "m"
      ],
      [
        "Ġbelie",
        "ve"
      ],
      [
        "Ġwh",
        "i"
      ],
      [
        "Ġse",
        "co"
      ],
      [
        "Ġtr",
        "ust"
      ],
      [
        "Ġel",
        "se"
      ],
      [
        "Ġco",
        "lor"
      ],
      [
        "ad",
        "e"
      ],
      [
        "Ġpl",
        "ant"
      ],
      [
        "Ġc",
        "ould"
      ],
      [
        "v",
        "el"
      ],
      [
        "e",
        "ar"
      ],
      [
        "Ġp",
        "re"
      ],
      [
        "Ġc",
        "ool"
      ],
      [
        "Ġ",
        "*"
      ],
      [
        "Ġsu",
        "n"
      ],
      [
        "Ġundersta",
        "nd"
      ],
      [
        "Ġo",
        "ver"
      ],
      [
        "Ġlook",
        "s"
      ],
      [
        "reat",
        "h"
      ],
      [
        "Ġb",
        "reath"
      ],
      [
        "Ġea",
        "ch"
      ],
      [
        "Ġhur",
        "t"
      ],
      [
        "Ġsou",
        "nds"
      ],
      [
        "is",
        "e"
      ],
      [
        "Ġti",
        "red"
      ],
      [
        "s",
        "on"
      ],
      [
        "Ġhappen",
        "s"
      ],
      [
        "Ġbe",
        "f"
      ],
      [
        "Ġca",
        "re"
      ],
      [
        "Ġl",
        "on"
      ],
      [
        "Ġbef",
        "ore"
      ],
      [
        "Ġi",
        "mp"
      ],
      [
        "Ġli",
        "fe"
      ],
      [
        "Ġl",
        "ea"
      ],
      [
        "Ġwigg",
        "le"
      ],
      [
        "Ġco",
        "ld"
      ],
      [
        "o",
        "m"
      ],
      [
        "Ġal",
        "ive"
      ],
      [
        "an",
        "ce"
      ],
      [
        "ir",
        "c"
      ],
      [
        "Ġgra",
        "vel"
      ],
      [
        "Ġc",
        "irc"
      ],
      [
        "Ġm",
        "ade"
      ],
      [
        "le",
        "ep"
      ],
      [
        "c",
        "i"
      ],
      [
        "o",
        "ve"
      ],
      [
        "Ġkeep",
        "s"
      ],
      [
        "in",
        "t"
      ],
      [
        "Ġc",
        "ar"
      ],
      [
        "Ġc",
        "at"
      ],
      [
        "Ġthan",
        "k"
      ],
      [
        "Ġab",
        "ove"
      ],
      [
        "r",
        "ow"
      ],
      [
        "t",
        "o"
      ],
      [
        "Ġd",
        "is"
      ],
      [
        "Ġany",
        "way"
      ],
      [
        "Ġsh",
        "ad"
      ],
      [
        "in",
        "e"
      ],
      [
        "Ġc",
        "al"
      ],
      [
        "Ġta",
        "ste"
      ],
      [
        "Ġs",
        "leep"
      ],
      [
        "n",
        "er"
      ],
      [
        "Ġshad",
        "ow"
      ],
      [
        "Ġbo",
        "dy"
      ],
      [
        "Ġgi",
        "lls"
      ],
      [
        "Ġco",
        "ming"
      ],
      [
        "i",
        "st"
      ],
      [
        "Ġm",
        "ight"
      ],
      [
        "tt",
        "y"
      ],
      [
        "Ġpre",
        "tty"
      ],
      [
        "Ġcal",
        "m"
      ],
      [
        "p",
        "r"
      ],
      [
        "Ġfu",
        "ll"
      ],
      [
        "Ġlon",
        "ely"
      ],
      [
        "s",
        "o"
      ],
      [
        "Ġhappen",
        "ed"
      ],
      [
        "x",
        "t"
      ],
      [
        "Ġfrie",
        "nds"
      ],
      [
        "Ġth",
        "ose"
      ],
      [
        "Ġwor",
        "k"
      ],
      [
        "Ġso",
        "r"
      ],
      [
        "Ġu",
        "n"
      ],
      [
        "Ġfa",
        "ce"
      ],
      [
        "Ġsur",
        "pr"
      ],
      [
        "Ġpla",
        "ce"
      ],
      [
        "c",
        "es"
      ],
      [
        "Ġp",
        "u"
      ],
      [
        "Ġis",
        "n"
      ],
      [
        "Ġg",
        "one"
      ],
      [
        "Ġfu",
        "n"
      ],
      [
        "l",
        "u"
      ],
      [
        "Ġf",
        "ore"
      ],
      [
        "Ġforget",
        "ting"
      ],
      [
        "Ġmost",
        "ly"
      ],
      [
        "Ġfla",
        "ke"
      ],
      [
        "Ġtal",
        "king"
      ],
      [
        "an",
        "y"
      ],
      [
        "Ġne",
        "xt"
      ],
      [
        "Ġsay",
        "ing"
      ],
      [
        "Ġfore",
        "ver"
      ],
      [
        "Ġsor",
        "ry"
      ],
      [
        "Ġal",
        "one"
      ],
      [
        "Ġst",
        "u"
      ],
      [
        "Ġw",
        "ell"
      ],
      [
        "Ġo",
        "p"
      ],
      [
        "Ġpro",
        "b"
      ],
      [
        "Ġc",
        "or"
      ],
      [
        "c",
        "ing"
      ],
      [
        "Ġthink",
        "ing"
      ],
      [
        "Ġget",
        "s"
      ],
      [
        "Ġimp",
        "ort"
      ],
      [
        "Ġcle",
        "ar"
      ],
      [
        "Ġbo",
        "th"
      ],
      [
        "Ġu",
        "s"
      ],
      [
        "Ġwith",
        "out"
      ],
      [
        "Ġimport",
        "ant"
      ],
      [
        "Ġbe",
        "en"
      ],
      [
        "o",
        "ther"
      ],
      [
        "Ġb",
        "ad"
      ],
      [
        "Ġan",
        "other"
      ],
      [
        "Ġtur",
        "n"
      ],
      [
        "Ġme",
        "et"
      ],
      [
        "Ġex",
        "p"
      ],
      [
        "Ġn",
        "a"
      ],
      [
        "Ġhe",
        "art"
      ],
      [
        "Ġjo",
        "y"
      ],
      [
        "Ġc",
        "u"
      ],
      [
        "Ġsh",
        "ow"
      ],
      [
        "Ġthe",
        "ir"
      ],
      [
        "Ġb",
        "r"
      ],
      [
        "Ġevery",
        "one"
      ],
      [
        "l",
        "ing"
      ],
      [
        "Ġforg",
        "ive"
      ],
      [
        "Ġcor",
        "ner"
      ],
      [
        "Ġtr",
        "u"
      ],
      [
        "Ġpeace",
        "ful"
      ],
      [
        "c",
        "ri"
      ],
      [
        "en",
        "ce"
      ],
      [
        "Ġdes",
        "cri"
      ],
      [
        "Ġsou",
        "nd"
      ],
      [
        "is",
        "s"
      ],
      [
        "Ġea",
        "s"
      ],
      [
        "Ġcu",
        "ri"
      ],
      [
        "Ġto",
        "ge"
      ],
      [
        "Ġtoge",
        "ther"
      ],
      [
        "Ġth",
        "ough"
      ],
      [
        "Ġco",
        "mp"
      ],
      [
        "Ġc",
        "ur"
      ],
      [
        "b",
        "y"
      ],
      [
        "Ġs",
        "pe"
      ],
      [
        "Ġdescri",
        "be"
      ],
      [
        "Ġgi",
        "ft"
      ],
      [
        "Ġcirc",
        "les"
      ],
      [
        "ab",
        "ly"
      ],
      [
        "Ġprob",
        "ably"
      ],
      [
        "Ġha",
        "s"
      ],
      [
        "Ġgo",
        "t"
      ],
      [
        "Ġper",
        "son"
      ],
      [
        "Ġget",
        "ting"
      ],
      [
        "Ġwor",
        "th"
      ],
      [
        "Ġf",
        "o"
      ],
      [
        "Ġha",
        "nd"
      ],
      [
        "it",
        "s"
      ],
      [
        "ke",
        "d"
      ],
      [
        "Ġhappen",
        "ing"
      ],
      [
        "Ġhold",
        "s"
      ],
      [
        "Ġsc",
        "ar"
      ],
      [
        "d",
        "le"
      ],
      [
        "Ġm",
        "iss"
      ],
      [
        "c",
        "tion"
      ],
      [
        "Ġm",
        "id"
      ],
      [
        "Ġse",
        "c"
      ],
      [
        "Ġh",
        "i"
      ],
      [
        "Ġgent",
        "ly"
      ],
      [
        "rat",
        "e"
      ],
      [
        "Ġsec",
        "ret"
      ],
      [
        "Ġf",
        "all"
      ],
      [
        "Ġc",
        "lo"
      ],
      [
        "Ġpo",
        "int"
      ],
      [
        "Ġin",
        "to"
      ],
      [
        "Ġplant",
        "s"
      ],
      [
        "ou",
        "ch"
      ],
      [
        "tt",
        "om"
      ],
      [
        "Ġbo",
        "ttom"
      ],
      [
        "Ġbr",
        "ing"
      ],
      [
        "Ġmid",
        "dle"
      ],
      [
        "in",
        "ess"
      ],
      [
        "Ġm",
        "any"
      ],
      [
        "Ġal",
        "so"
      ],
      [
        "Ġout",
        "side"
      ],
      [
        "Ġt",
        "ouch"
      ],
      [
        "Ġcuri",
        "ous"
      ],
      [
        "i",
        "ther"
      ],
      [
        "Ġv",
        "ib"
      ],
      [
        "Ġwhi",
        "ch"
      ],
      [
        "Ġwatch",
        "ing"
      ],
      [
        "u",
        "ally"
      ],
      [
        "Ġmo",
        "ves"
      ],
      [
        "Ġop",
        "en"
      ],
      [
        "u",
        "d"
      ],
      [
        "Ġo",
        "ld"
      ],
      [
        "Ġw",
        "on"
      ],
      [
        "Ġse",
        "en"
      ],
      [
        "Ġex",
        "ist"
      ],
      [
        "Ġg",
        "re"
      ],
      [
        "er",
        "day"
      ],
      [
        "Ġy",
        "est"
      ],
      [
        "Ġyest",
        "erday"
      ],
      [
        "Ġgi",
        "ve"
      ],
      [
        "Ġc",
        "ou"
      ],
      [
        "Ġa",
        "pp"
      ],
      [
        "Ġhe",
        "ar"
      ],
      [
        "Ġbra",
        "nd"
      ],
      [
        "Ġvib",
        "rat"
      ],
      [
        "Ġto",
        "p"
      ],
      [
        "Ġmy",
        "self"
      ],
      [
        "Ġin",
        "ter"
      ],
      [
        "Ġd",
        "ri"
      ],
      [
        "Ġw",
        "r"
      ],
      [
        "Ġto",
        "mor"
      ],
      [
        "Ġtomor",
        "row"
      ],
      [
        "Ġre",
        "a"
      ],
      [
        "Ġgood",
        "by"
      ],
      [
        "t",
        "y"
      ],
      [
        "Ġna",
        "me"
      ],
      [
        "Ġme",
        "mor"
      ],
      [
        "Ġne",
        "ar"
      ],
      [
        "Ġwr",
        "ong"
      ],
      [
        "Ġv",
        "is"
      ],
      [
        "Ġseco",
        "nd"
      ],
      [
        "Ġsm",
        "oo"
      ],
      [
        "Ġex",
        "c"
      ],
      [
        "Ġsome",
        "where"
      ],
      [
        "rate",
        "ful"
      ],
      [
        "Ġsmoo",
        "th"
      ],
      [
        "Ġg",
        "rateful"
      ],
      [
        "Ġg",
        "low"
      ],
      [
        "Ġgoodby",
        "e"
      ],
      [
        "Ġseem",
        "s"
      ],
      [
        "i",
        "ce"
      ],
      [
        "ion",
        "s"
      ],
      [
        "Ġinter",
        "est"
      ],
      [
        "i",
        "z"
      ],
      [
        "oo",
        "m"
      ],
      [
        "Ġwait",
        "ing"
      ],
      [
        "Ġm",
        "ust"
      ],
      [
        "'",
        "d"
      ],
      [
        "Ġa",
        "c"
      ],
      [
        "el",
        "t"
      ],
      [
        "Ġbig",
        "g"
      ],
      [
        "Ġwor",
        "ry"
      ],
      [
        "Ġgla",
        "d"
      ],
      [
        "Ġcle",
        "an"
      ],
      [
        "Ġ",
        "Y"
      ],
      [
        "Ġm",
        "or"
      ],
      [
        "Ġ",
        "own"
      ],
      [
        "Ġscar",
        "y"
      ],
      [
        "Ġp",
        "ast"
      ],
      [
        "Ġin",
        "side"
      ],
      [
        "Ġgo",
        "es"
      ],
      [
        "Ġmor",
        "ning"
      ],
      [
        "i",
        "le"
      ],
      [
        "ou",
        "ght"
      ],
      [
        "Ġr",
        "u"
      ],
      [
        "Ġchang",
        "es"
      ],
      [
        "Ġf",
        "elt"
      ],
      [
        "n",
        "y"
      ],
      [
        "ci",
        "al"
      ],
      [
        "Ġgre",
        "en"
      ],
      [
        "c",
        "u"
      ],
      [
        "Ġth",
        "ought"
      ],
      [
        "Ġw",
        "et"
      ],
      [
        "Ġp",
        "at"
      ],
      [
        "Ġexc",
        "it"
      ],
      [
        "Ġevery",
        "where"
      ],
      [
        "i",
        "ll"
      ],
      [
        "a",
        "ct"
      ],
      [
        "s",
        "ing"
      ],
      [
        "Ġlo",
        "st"
      ],
      [
        "a",
        "se"
      ],
      [
        "ib",
        "le"
      ],
      [
        "Ġt",
        "e"
      ],
      [
        "Ġl",
        "ast"
      ],
      [
        "Ġma",
        "king"
      ],
      [
        "Ġbra",
        "ve"
      ],
      [
        "a",
        "pp"
      ],
      [
        "s",
        "ed"
      ],
      [
        "Ġca",
        "st"
      ],
      [
        "w",
        "ard"
      ],
      [
        "Ġca",
        "me"
      ],
      [
        "Ġmemor",
        "y"
      ],
      [
        "Ġe",
        "ither"
      ],
      [
        "Ġdri",
        "ft"
      ],
      [
        "at",
        "e"
      ],
      [
        "a",
        "z"
      ],
      [
        "Ġrest",
        "ing"
      ],
      [
        "Ġcon",
        "fu"
      ],
      [
        "Ġcast",
        "le"
      ],
      [
        "b",
        "o"
      ],
      [
        "Ġhelp",
        "s"
      ],
      [
        "Ġw",
        "ish"
      ],
      [
        "Ġdream",
        "s"
      ],
      [
        "Ġhu",
        "ng"
      ],
      [
        "Ġspe",
        "cial"
      ],
      [
        "Ġdid",
        "n"
      ],
      [
        "Ġlisten",
        "ing"
      ],
      [
        "Ġseco",
        "nds"
      ],
      [
        "Ġta",
        "p"
      ],
      [
        "bo",
        "dy"
      ],
      [
        "Ġp",
        "a"
      ],
      [
        "Ġforg",
        "i"
      ],
      [
        "Ġex",
        "act"
      ],
      [
        "Ġinterest",
        "ing"
      ],
      [
        "Ġsurpr",
        "is"
      ],
      [
        "Ġtru",
        "e"
      ],
      [
        "Ġvis",
        "it"
      ],
      [
        "Ġa",
        "w"
      ],
      [
        "Ġknow",
        "ing"
      ],
      [
        "Ġdis",
        "app"
      ],
      [
        "im",
        "p"
      ],
      [
        "Ġjo",
        "ke"
      ],
      [
        "Ġa",
        "ct"
      ],
      [
        "Ġre",
        "ady"
      ],
      [
        "ck",
        "s"
      ],
      [
        "it",
        "y"
      ],
      [
        "Ġno",
        "body"
      ],
      [
        "Ġ",
        "ro"
      ],
      [
        "Ġa",
        "ir"
      ],
      [
        "Ġs",
        "imp"
      ],
      [
        "tt",
        "en"
      ],
      [
        "Ġmove",
        "d"
      ],
      [
        "Ġstay",
        "s"
      ],
      [
        "e",
        "ver"
      ],
      [
        "Ġmove",
        "ment"
      ],
      [
        "Ġsm",
        "ile"
      ],
      [
        "Ġl",
        "ear"
      ],
      [
        "Ġni",
        "ght"
      ],
      [
        "ou",
        "d"
      ],
      [
        "Ġfun",
        "ny"
      ],
      [
        "Ġd",
        "an"
      ],
      [
        "Ġm",
        "i"
      ],
      [
        "Ġlo",
        "t"
      ],
      [
        "Ġbreath",
        "e"
      ],
      [
        "Ġwhi",
        "le"
      ],
      [
        "Ġt",
        "en"
      ],
      [
        "Ġre",
        "g"
      ],
      [
        "pp",
        "ed"
      ],
      [
        "Ġt",
        "ea"
      ],
      [
        "Ġsa",
        "id"
      ],
      [
        "l",
        "i"
      ],
      [
        "Ġclo",
        "se"
      ],
      [
        "Ġexact",
        "ly"
      ],
      [
        "Ġbring",
        "s"
      ],
      [
        "Ġlea",
        "ve"
      ],
      [
        "Ġtea",
        "ch"
      ],
      [
        "Ġon",
        "ce"
      ],
      [
        "Ġfin",
        "e"
      ],
      [
        "i",
        "ous"
      ],
      [
        "er",
        "s"
      ],
      [
        "Ġstr",
        "ange"
      ],
      [
        "Ġm",
        "ou"
      ],
      [
        "d",
        "d"
      ],
      [
        "g",
        "ic"
      ],
      [
        "Ġany",
        "one"
      ],
      [
        "ou",
        "nd"
      ],
      [
        "Ġbreath",
        "ing"
      ],
      [
        "Ġpu",
        "sh"
      ],
      [
        "Ġsimp",
        "le"
      ],
      [
        "Ġa",
        "f"
      ],
      [
        "Ġshadow",
        "s"
      ],
      [
        "E",
        "S"
      ],
      [
        "Ġword",
        "s"
      ],
      [
        "Ġmou",
        "th"
      ],
      [
        "Ġfe",
        "ar"
      ],
      [
        "Ġsoft",
        "er"
      ],
      [
        "Ġso",
        "on"
      ],
      [
        "Ġwigg",
        "ling"
      ],
      [
        "ir",
        "d"
      ],
      [
        "Ġstr",
        "ong"
      ],
      [
        "re",
        "e"
      ],
      [
        "Ġl",
        "e"
      ],
      [
        "Ġ",
        "W"
      ],
      [
        "at",
        "ure"
      ],
      [
        "h",
        "ow"
      ],
      [
        "Ġha",
        "d"
      ],
      [
        "l",
        "ess"
      ],
      [
        "Ġ",
        "ra"
      ],
      [
        "Ġc",
        "all"
      ],
      [
        "Ġbe",
        "t"
      ],
      [
        "Ġcat",
        "ch"
      ],
      [
        "Ġeas",
        "y"
      ],
      [
        "ra",
        "id"
      ],
      [
        "Ġlo",
        "v"
      ],
      [
        "Ġam",
        "az"
      ],
      [
        "at",
        "ion"
      ],
      [
        "Ġsome",
        "how"
      ],
      [
        "Ġreg",
        "ret"
      ],
      [
        "Ġaf",
        "raid"
      ],
      [
        "O",
        "U"
      ],
      [
        "Ġg",
        "u"
      ],
      [
        "Ġd",
        "ance"
      ],
      [
        "Ġcar",
        "es"
      ],
      [
        "Ġma",
        "gic"
      ],
      [
        "Ġte",
        "mp"
      ],
      [
        "Ġbec",
        "o"
      ],
      [
        "Ġstu",
        "ff"
      ],
      [
        "ab",
        "le"
      ],
      [
        "a",
        "ce"
      ],
      [
        "Ġf",
        "ar"
      ],
      [
        "Ġare",
        "n"
      ],
      [
        "Ġs",
        "ide"
      ],
      [
        "Ġpa",
        "ss"
      ],
      [
        "Ġt",
        "ow"
      ],
      [
        "Ġyou",
        "ng"
      ],
      [
        "Ġin",
        "ste"
      ],
      [
        "Ġinste",
        "ad"
      ],
      [
        "ri",
        "ed"
      ],
      [
        "Ġon",
        "es"
      ],
      [
        "iz",
        "e"
      ],
      [
        "Ġhapp",
        "iness"
      ],
      [
        "u",
        "mp"
      ],
      [
        "Ġre",
        "f"
      ],
      [
        "Ġdan",
        "cing"
      ],
      [
        "Ġlov",
        "ely"
      ],
      [
        "Ġb",
        "it"
      ],
      [
        "Ġvibrat",
        "ions"
      ],
      [
        "Ġtow",
        "ard"
      ],
      [
        "Ġm",
        "ind"
      ],
      [
        "m",
        "m"
      ],
      [
        "p",
        "t"
      ],
      [
        "Ġknow",
        "s"
      ],
      [
        "Ġcolor",
        "s"
      ],
      [
        "Ġl",
        "ess"
      ],
      [
        "Ġbu",
        "mp"
      ],
      [
        "Ġbo",
        "red"
      ],
      [
        "f",
        "in"
      ],
      [
        "Ġl",
        "u"
      ],
      [
        "Ġcou",
        "nt"
      ],
      [
        "Ġhung",
        "ry"
      ],
      [
        "ll",
        "ow"
      ],
      [
        "Ġstu",
        "ck"
      ],
      [
        "Ġan",
        "g"
      ],
      [
        "Ġta",
        "st"
      ],
      [
        "Ġtemp",
        "er"
      ],
      [
        "ft",
        "er"
      ],
      [
        "Ġhum",
        "an"
      ],
      [
        "Ġa",
        "fter"
      ],
      [
        "le",
        "d"
      ],
      [
        "Ġact",
        "ually"
      ],
      [
        "Ġsw",
        "ish"
      ],
      [
        "Ġwe",
        "ird"
      ],
      [
        "Ġtemper",
        "ature"
      ],
      [
        "Ġ",
        "ri"
      ],
      [
        "Ġta",
        "ke"
      ],
      [
        "Ġgold",
        "en"
      ],
      [
        "Ġcorner",
        "s"
      ],
      [
        "Ġf",
        "il"
      ],
      [
        "Ġh",
        "on"
      ],
      [
        "Ġfe",
        "ed"
      ],
      [
        "Ġsha",
        "p"
      ],
      [
        "v",
        "y"
      ],
      [
        "Ġj",
        "ud"
      ],
      [
        "Ġtal",
        "k"
      ],
      [
        "Ġfil",
        "ter"
      ],
      [
        "Ġh",
        "ea"
      ],
      [
        "Ġfo",
        "llow"
      ],
      [
        "Ġfa",
        "il"
      ],
      [
        "Ġas",
        "k"
      ],
      [
        "Ġsurpr",
        "ise"
      ],
      [
        "Ġfall",
        "ing"
      ],
      [
        "Ġapp",
        "ear"
      ],
      [
        "Ġe",
        "nd"
      ],
      [
        "Ġhand",
        "le"
      ],
      [
        "Ġs",
        "l"
      ],
      [
        "Ġwarm",
        "er"
      ],
      [
        "Ġpat",
        "i"
      ],
      [
        "z",
        "y"
      ],
      [
        "Ġs",
        "ing"
      ],
      [
        "ĠY",
        "OU"
      ],
      [
        "Ġl",
        "oud"
      ],
      [
        "le",
        "ase"
      ],
      [
        "Ġhon",
        "est"
      ],
      [
        "o",
        "ice"
      ],
      [
        "Ġg",
        "reat"
      ],
      [
        "Ġs",
        "ill"
      ],
      [
        "Ġamaz",
        "ing"
      ],
      [
        "Ġfor",
        "ward"
      ],
      [
        "Ġmeet",
        "ing"
      ],
      [
        "t",
        "ely"
      ],
      [
        "Ġexcit",
        "ed"
      ],
      [
        "Ġeas",
        "i"
      ],
      [
        "Ġshap",
        "es"
      ],
      [
        "Ġsh",
        "i"
      ],
      [
        "Ġeat",
        "ing"
      ],
      [
        "Ġforgi",
        "ven"
      ],
      [
        "w",
        "e"
      ],
      [
        "ou",
        "r"
      ],
      [
        "Ġf",
        "r"
      ],
      [
        "Ġstr",
        "ang"
      ],
      [
        "Ġdes",
        "er"
      ],
      [
        "Ġch",
        "ance"
      ],
      [
        "Ġsp",
        "ot"
      ],
      [
        "Ġthe",
        "se"
      ],
      [
        "Ġchang",
        "ed"
      ],
      [
        "Ġtur",
        "ning"
      ],
      [
        "Ġsh",
        "iny"
      ],
      [
        "Ġp",
        "ur"
      ],
      [
        "Ġp",
        "lease"
      ],
      [
        "ti",
        "ve"
      ],
      [
        "Ġcon",
        "t"
      ],
      [
        "Ġhold",
        "ing"
      ],
      [
        "Ġa",
        "d"
      ],
      [
        "ce",
        "pt"
      ],
      [
        "Ġde",
        "ep"
      ],
      [
        "Ġt",
        "ra"
      ],
      [
        "Ġf",
        "ound"
      ],
      [
        "Ġb",
        "rea"
      ],
      [
        "Ġmean",
        "ing"
      ],
      [
        "Ġlear",
        "n"
      ],
      [
        "Ġqui",
        "ck"
      ],
      [
        "Ġsu",
        "dd"
      ],
      [
        "Ġsudd",
        "en"
      ],
      [
        "o",
        "h"
      ],
      [
        "Ġ",
        "I"
      ],
      [
        "Ġt",
        "w"
      ],
      [
        "Ġhea",
        "vy"
      ],
      [
        "Ġt",
        "im"
      ],
      [
        "Ġsha",
        "pe"
      ],
      [
        "Ġref",
        "le"
      ],
      [
        "es",
        "tion"
      ],
      [
        "la",
        "in"
      ],
      [
        "Ġqu",
        "estion"
      ],
      [
        "lu",
        "tter"
      ],
      [
        "Ġpur",
        "p"
      ],
      [
        "Ġe",
        "mp"
      ],
      [
        "Ġbet",
        "we"
      ],
      [
        "Ġbetwe",
        "en"
      ],
      [
        "Ġ",
        "-"
      ],
      [
        "Ġi",
        "m"
      ],
      [
        "at",
        "er"
      ],
      [
        "Ġy",
        "et"
      ],
      [
        "Ġsill",
        "y"
      ],
      [
        "Ġ",
        "F"
      ],
      [
        "Ġb",
        "l"
      ],
      [
        "Ġexp",
        "lo"
      ],
      [
        "Ġs",
        "en"
      ],
      [
        "Ġme",
        "t"
      ],
      [
        "st",
        "ant"
      ],
      [
        "Ġmi",
        "sta"
      ],
      [
        "Ġ",
        "T"
      ],
      [
        "Ġ",
        "..."
      ],
      [
        "Ġlea",
        "ving"
      ],
      [
        "Ġbigg",
        "er"
      ],
      [
        "Ġconfu",
        "sed"
      ],
      [
        "o",
        "nd"
      ],
      [
        "st",
        "er"
      ],
      [
        "pp",
        "ing"
      ],
      [
        "Ġra",
        "in"
      ],
      [
        "Ġwhat",
        "ever"
      ],
      [
        "Ġrea",
        "son"
      ],
      [
        "Ġli",
        "ving"
      ],
      [
        "ea",
        "h"
      ],
      [
        "Ġas",
        "king"
      ],
      [
        "Ġy",
        "eah"
      ],
      [
        "on",
        "es"
      ],
      [
        "Ġmy",
        "ster"
      ],
      [
        "Ġpl",
        "ay"
      ],
      [
        "Ġmoment",
        "s"
      ],
      [
        "Ġchang",
        "ing"
      ],
      [
        "Ġneed",
        "s"
      ],
      [
        "owl",
        "y"
      ],
      [
        "Ġsp",
        "in"
      ],
      [
        "Ġh",
        "ide"
      ],
      [
        "ere",
        "d"
      ],
      [
        "Ġloo",
        "ked"
      ],
      [
        "Ġsl",
        "owly"
      ],
      [
        "Ġtim",
        "es"
      ],
      [
        "g",
        "es"
      ],
      [
        "o",
        "y"
      ],
      [
        "Ġe",
        "d"
      ],
      [
        "Ġaw",
        "a"
      ],
      [
        "Ġit",
        "s"
      ],
      [
        "Ġp",
        "res"
      ],
      [
        "im",
        "m"
      ],
      [
        "Ġro",
        "cks"
      ],
      [
        "Ġforgiven",
        "ess"
      ],
      [
        "Ġ",
        "z"
      ],
      [
        "Ġb",
        "is"
      ],
      [
        "id",
        "es"
      ],
      [
        "Ġnoti",
        "cing"
      ],
      [
        "Ġother",
        "s"
      ],
      [
        "Ġbis",
        "cu"
      ],
      [
        "m",
        "f"
      ],
      [
        "y",
        "ond"
      ],
      [
        "Ġbe",
        "yond"
      ],
      [
        "Ġdi",
        "re"
      ],
      [
        "Ġst",
        "o"
      ],
      [
        "Ġle",
        "ft"
      ],
      [
        "t",
        "e"
      ],
      [
        "Ġc",
        "l"
      ],
      [
        "Ġre",
        "m"
      ],
      [
        "Ġdis",
        "co"
      ],
      [
        "Ġbrea",
        "k"
      ],
      [
        "i",
        "es"
      ],
      [
        "Ġb",
        "lu"
      ],
      [
        "Ġde",
        "fin"
      ],
      [
        "Ġi",
        "d"
      ],
      [
        "Ġcur",
        "ve"
      ],
      [
        "Ġemp",
        "ty"
      ],
      [
        "Ġexplo",
        "re"
      ],
      [
        "Ġm",
        "ine"
      ],
      [
        "Ġlu",
        "ck"
      ],
      [
        "n",
        "e"
      ],
      [
        "Ġta",
        "kes"
      ],
      [
        "ea",
        "k"
      ],
      [
        "r",
        "ess"
      ],
      [
        "Ġf",
        "low"
      ],
      [
        "s",
        "p"
      ],
      [
        "Ġdire",
        "ction"
      ],
      [
        "Ġst",
        "or"
      ],
      [
        "ct",
        "ed"
      ],
      [
        "?",
        "!"
      ],
      [
        "Ġg",
        "row"
      ],
      [
        "Ġw",
        "ent"
      ],
      [
        "Ġsee",
        "ing"
      ],
      [
        "Ġshi",
        "ft"
      ],
      [
        "a",
        "m"
      ],
      [
        "Ġa",
        "r"
      ],
      [
        "Ġs",
        "elf"
      ],
      [
        "Ġst",
        "ones"
      ],
      [
        "Ġrea",
        "ch"
      ],
      [
        "Ġpurp",
        "ose"
      ],
      [
        "Ġ",
        "O"
      ],
      [
        "Ġm",
        "ess"
      ],
      [
        "Ġf",
        "lutter"
      ],
      [
        "Ġst",
        "e"
      ],
      [
        "R",
        "E"
      ],
      [
        "Ġwork",
        "s"
      ],
      [
        "Ġr",
        "is"
      ],
      [
        "Ġsp",
        "ark"
      ],
      [
        "Ġtast",
        "es"
      ],
      [
        "Ġrefle",
        "ction"
      ],
      [
        "Ġbright",
        "ness"
      ],
      [
        "Ġbigg",
        "est"
      ],
      [
        "Ġcomp",
        "le"
      ],
      [
        "re",
        "nt"
      ],
      [
        "ss",
        "ible"
      ],
      [
        "m",
        "o"
      ],
      [
        "Ġde",
        "c"
      ],
      [
        "Ġch",
        "oo"
      ],
      [
        "Ġsurpris",
        "ed"
      ],
      [
        "Ġco",
        "mf"
      ],
      [
        "Ġdark",
        "ness"
      ],
      [
        "s",
        "i"
      ],
      [
        "ou",
        "n"
      ],
      [
        "it",
        "ely"
      ],
      [
        "h",
        "i"
      ],
      [
        "Ġg",
        "r"
      ],
      [
        "Ġexp",
        "lain"
      ],
      [
        "Ġ",
        "es"
      ],
      [
        "Ġb",
        "ro"
      ],
      [
        "Ġri",
        "pp"
      ],
      [
        "Ġkind",
        "ly"
      ],
      [
        "Ġch",
        "e"
      ],
      [
        "a",
        "g"
      ],
      [
        "Ġit",
        "self"
      ],
      [
        "Ġin",
        "v"
      ],
      [
        "Ġj",
        "ump"
      ],
      [
        "Ġrem",
        "ind"
      ],
      [
        "Ġwa",
        "ke"
      ],
      [
        "Ġremember",
        "ing"
      ],
      [
        "Ġdisapp",
        "o"
      ],
      [
        "Ġdefin",
        "itely"
      ],
      [
        "t",
        "ure"
      ],
      [
        "Ġf",
        "i"
      ],
      [
        "Ġsh",
        "imm"
      ],
      [
        "Ġfu",
        "ture"
      ],
      [
        "Ġac",
        "cept"
      ],
      [
        "Ġvisit",
        "or"
      ],
      [
        "m",
        "ore"
      ],
      [
        "Ġc",
        "ra"
      ],
      [
        "Ġha",
        "ving"
      ],
      [
        "Ġany",
        "more"
      ],
      [
        "Ġsay",
        "s"
      ],
      [
        "Ġdisco",
        "ver"
      ],
      [
        "o",
        "s"
      ],
      [
        "at",
        "h"
      ],
      [
        "Ġno",
        "ise"
      ],
      [
        "Ġgi",
        "ving"
      ],
      [
        "Ġw",
        "ow"
      ],
      [
        "Ġo",
        "oh"
      ],
      [
        "Ġlove",
        "d"
      ],
      [
        "Ġsen",
        "se"
      ],
      [
        "Ġawa",
        "ke"
      ],
      [
        "Ġid",
        "ea"
      ],
      [
        "I",
        "N"
      ],
      [
        "Ġha",
        "ven"
      ],
      [
        "Ġ",
        "A"
      ],
      [
        "Ġcar",
        "ry"
      ],
      [
        "Ġdeser",
        "ve"
      ],
      [
        "Ġa",
        "ch"
      ],
      [
        "Ġa",
        "tten"
      ],
      [
        "Ġgent",
        "l"
      ],
      [
        "Ġdisappo",
        "int"
      ],
      [
        "Ġlet",
        "ting"
      ],
      [
        "Ġb",
        "oun"
      ],
      [
        "Ġs",
        "me"
      ],
      [
        "Ġatten",
        "tion"
      ],
      [
        "Ġcon",
        "stant"
      ],
      [
        "Ġhope",
        "ful"
      ],
      [
        "Ġluck",
        "y"
      ],
      [
        "n",
        "a"
      ],
      [
        "Ġgood",
        "ness"
      ],
      [
        "Ġbel",
        "ly"
      ],
      [
        "Ġjud",
        "ge"
      ],
      [
        "k",
        "y"
      ],
      [
        "Ġha",
        "nds"
      ],
      [
        "in",
        "s"
      ],
      [
        "mo",
        "st"
      ],
      [
        "j",
        "oy"
      ],
      [
        "Ġal",
        "most"
      ],
      [
        "Ġsu",
        "ch"
      ],
      [
        "Ġen",
        "joy"
      ],
      [
        "Ġv",
        "oice"
      ],
      [
        "Ġpart",
        "s"
      ],
      [
        "Ġ",
        "S"
      ],
      [
        "Ġsp",
        "ace"
      ],
      [
        "Ġcomf",
        "ort"
      ],
      [
        "er",
        "t"
      ],
      [
        "Ġs",
        "et"
      ],
      [
        "Ġd",
        "el"
      ],
      [
        "Ġru",
        "sh"
      ],
      [
        "k",
        "en"
      ],
      [
        "me",
        "d"
      ],
      [
        "Ġsa",
        "w"
      ],
      [
        "Ġsh",
        "ar"
      ],
      [
        "Ġus",
        "ually"
      ],
      [
        "Ġ",
        "B"
      ],
      [
        "Ġbel",
        "ong"
      ],
      [
        "Ġon",
        "to"
      ],
      [
        "Ġad",
        "v"
      ],
      [
        "Ġblu",
        "e"
      ],
      [
        "h",
        "y"
      ],
      [
        "Ġste",
        "ady"
      ],
      [
        "Ġb",
        "or"
      ],
      [
        "Ġstart",
        "led"
      ],
      [
        "Ġcur",
        "rent"
      ],
      [
        "g",
        "y"
      ],
      [
        "ti",
        "l"
      ],
      [
        "id",
        "ing"
      ],
      [
        "s",
        "w"
      ],
      [
        "Ġbe",
        "g"
      ],
      [
        "Ġr",
        "oom"
      ],
      [
        "Ġstor",
        "y"
      ],
      [
        "p",
        "s"
      ],
      [
        "u",
        "l"
      ],
      [
        "Ġeven",
        "ing"
      ],
      [
        "Ġsad",
        "ness"
      ],
      [
        "ou",
        "b"
      ],
      [
        "Ġgu",
        "ess"
      ],
      [
        "o",
        "tten"
      ],
      [
        "Ġbu",
        "s"
      ],
      [
        "Ġforg",
        "otten"
      ],
      [
        "Ġshimm",
        "er"
      ],
      [
        "Ġd",
        "oub"
      ],
      [
        "Ġwor",
        "ried"
      ],
      [
        "Ġhel",
        "d"
      ],
      [
        "Ġl",
        "au"
      ],
      [
        "Ġg",
        "a"
      ],
      [
        "ad",
        "ing"
      ],
      [
        "Ġnotice",
        "d"
      ],
      [
        "Ġcomple",
        "tely"
      ],
      [
        "Ġun",
        "til"
      ],
      [
        "Ġfr",
        "ust"
      ],
      [
        "Ġst",
        "re"
      ],
      [
        "Ġslow",
        "er"
      ],
      [
        "Ġhum",
        "ming"
      ],
      [
        "Ġbeco",
        "mes"
      ],
      [
        "Ġach",
        "e"
      ],
      [
        "H",
        "E"
      ],
      [
        "Ġb",
        "its"
      ],
      [
        "Ġlau",
        "gh"
      ],
      [
        "f",
        "er"
      ],
      [
        "Ġbe",
        "h"
      ],
      [
        "Ġag",
        "o"
      ],
      [
        "Ġcirc",
        "le"
      ],
      [
        "Ġpres",
        "ent"
      ],
      [
        "si",
        "tive"
      ],
      [
        "Ġbro",
        "ken"
      ],
      [
        "Ġfrust",
        "rat"
      ],
      [
        "Ġdiffer",
        "ence"
      ],
      [
        "ng",
        "th"
      ],
      [
        "Ġang",
        "ry"
      ],
      [
        "Ġstre",
        "ngth"
      ],
      [
        "Ġli",
        "ves"
      ],
      [
        "Ġsm",
        "art"
      ],
      [
        "Ġexcit",
        "ing"
      ],
      [
        "ĠO",
        "H"
      ],
      [
        "Ġf",
        "ree"
      ],
      [
        "ver",
        "s"
      ],
      [
        "Ġchoo",
        "se"
      ],
      [
        "Ġen",
        "er"
      ],
      [
        "Ġshar",
        "p"
      ],
      [
        "i",
        "est"
      ],
      [
        "Ġstop",
        "s"
      ],
      [
        "Ġs",
        "ides"
      ],
      [
        "Ġe",
        "ar"
      ],
      [
        "Ġqu",
        "ite"
      ],
      [
        "Ġde",
        "al"
      ],
      [
        "Ġ",
        "M"
      ],
      [
        "Ġl",
        "ater"
      ],
      [
        "r",
        "u"
      ],
      [
        "Ġbeh",
        "ind"
      ],
      [
        "g",
        "n"
      ],
      [
        "Ġwa",
        "lls"
      ],
      [
        "Ġr",
        "es"
      ],
      [
        "Ġcur",
        "ves"
      ],
      [
        "Ġris",
        "ing"
      ],
      [
        "s",
        "ic"
      ],
      [
        "Ġwa",
        "ll"
      ],
      [
        "Ġany",
        "where"
      ],
      [
        "Ġstay",
        "ing"
      ],
      [
        "Ġto",
        "ld"
      ],
      [
        "ig",
        "g"
      ],
      [
        "Ġsudden",
        "ly"
      ],
      [
        "Ġf",
        "it"
      ],
      [
        "Ġdoub",
        "t"
      ],
      [
        "an",
        "ces"
      ],
      [
        "Ġdark",
        "er"
      ],
      [
        "Ġbo",
        "ther"
      ],
      [
        "Ġstart",
        "ing"
      ],
      [
        "Ġquiet",
        "er"
      ],
      [
        "ert",
        "ain"
      ],
      [
        "ri",
        "es"
      ],
      [
        "Ġsw",
        "am"
      ],
      [
        "Ġglow",
        "ing"
      ],
      [
        "Ġripp",
        "les"
      ],
      [
        "Ġsleep",
        "ing"
      ],
      [
        "Ġstrang",
        "er"
      ],
      [
        "Ġim",
        "ag"
      ],
      [
        "Ġmista",
        "kes"
      ],
      [
        "i",
        "ck"
      ],
      [
        "Ġsing",
        "le"
      ],
      [
        "ro",
        "ss"
      ],
      [
        "Ġtouch",
        "es"
      ],
      [
        "Ġpati",
        "ent"
      ],
      [
        "Ġpati",
        "ence"
      ],
      [
        "f",
        "ace"
      ],
      [
        "or",
        "m"
      ],
      [
        "Ġti",
        "ck"
      ],
      [
        "Ġby",
        "e"
      ],
      [
        "Ġsur",
        "face"
      ],
      [
        "L",
        "A"
      ],
      [
        "Ġa",
        "p"
      ],
      [
        "H",
        "A"
      ],
      [
        "c",
        "y"
      ],
      [
        "Ġch",
        "a"
      ],
      [
        "Ġeasi",
        "er"
      ],
      [
        "Ġfa",
        "m"
      ],
      [
        "Ġdisapp",
        "ear"
      ],
      [
        "Ġbiscu",
        "its"
      ],
      [
        "at",
        "ed"
      ],
      [
        "Ġfloat",
        "y"
      ],
      [
        "Ġshow",
        "ing"
      ],
      [
        "Ġclo",
        "s"
      ],
      [
        "Ġof",
        "f"
      ],
      [
        "Ġcont",
        "ent"
      ],
      [
        "at",
        "ur"
      ],
      [
        "en",
        "ess"
      ],
      [
        "Ġwor",
        "king"
      ],
      [
        "ra",
        "ge"
      ],
      [
        "Ġgi",
        "ves"
      ],
      [
        "Ġpo",
        "sitive"
      ],
      [
        "Ġsleep",
        "y"
      ],
      [
        "Ġru",
        "n"
      ],
      [
        "a",
        "nd"
      ],
      [
        "h",
        "h"
      ],
      [
        "tt",
        "a"
      ],
      [
        "Ġch",
        "ances"
      ],
      [
        "Ġwigg",
        "les"
      ],
      [
        "ĠY",
        "ES"
      ],
      [
        "IN",
        "G"
      ],
      [
        "Ġs",
        "it"
      ],
      [
        "Ġp",
        "rom"
      ],
      [
        "Ġr",
        "ise"
      ],
      [
        "Ġfast",
        "er"
      ],
      [
        "Ġfo",
        "cu"
      ],
      [
        "Ġset",
        "t"
      ],
      [
        "t",
        "en"
      ],
      [
        "Ġyour",
        "s"
      ],
      [
        "Ġz",
        "oom"
      ],
      [
        "Ġch",
        "ase"
      ],
      [
        "ĠF",
        "LA"
      ],
      [
        "Ġfeeling",
        "s"
      ],
      [
        "Ġlot",
        "s"
      ],
      [
        "Ġbus",
        "y"
      ],
      [
        "ĠFLA",
        "K"
      ],
      [
        "Ġf",
        "ight"
      ],
      [
        "Ġd",
        "ro"
      ],
      [
        "Ġp",
        "ress"
      ],
      [
        "ĠFLAK",
        "ES"
      ],
      [
        "Ġhu",
        "g"
      ],
      [
        "Ġwant",
        "s"
      ],
      [
        "Ġshow",
        "s"
      ],
      [
        "Ġhonest",
        "ly"
      ],
      [
        "Ġbeg",
        "in"
      ],
      [
        "Ġbright",
        "er"
      ],
      [
        "Ġcool",
        "er"
      ],
      [
        "Ġp",
        "ain"
      ],
      [
        "Ġpla",
        "ces"
      ],
      [
        "Ġmovement",
        "s"
      ],
      [
        "I",
        "G"
      ],
      [
        "Ġ",
        "'"
      ],
      [
        "Ġkind",
        "est"
      ],
      [
        "Ġar",
        "ri"
      ],
      [
        "n",
        "ch"
      ],
      [
        "Ġsto",
        "pped"
      ],
      [
        "Ġs",
        "ink"
      ],
      [
        "Ġs",
        "ize"
      ],
      [
        "at",
        "ions"
      ],
      [
        "oo",
        "k"
      ],
      [
        "Ġsu",
        "pp"
      ],
      [
        "Ġhe",
        "ad"
      ],
      [
        "Ġcou",
        "rage"
      ],
      [
        "Ġw",
        "eak"
      ],
      [
        "Ġan",
        "sw"
      ],
      [
        "Ġtell",
        "s"
      ],
      [
        "Ġlon",
        "el"
      ],
      [
        "Ġinv",
        "is"
      ],
      [
        "Ġbor",
        "ing"
      ],
      [
        "Ġener",
        "gy"
      ],
      [
        "Ġni",
        "c"
      ],
      [
        "Ġwould",
        "n"
      ],
      [
        "Ġinvis",
        "ible"
      ],
      [
        "a",
        "ge"
      ],
      [
        "Ġt",
        "ried"
      ],
      [
        "oo",
        "f"
      ],
      [
        "Ġpl",
        "an"
      ],
      [
        "Ġpla",
        "st"
      ],
      [
        "Ġtw",
        "o"
      ],
      [
        "Ġed",
        "ges"
      ],
      [
        "Ġdel",
        "ic"
      ],
      [
        "Ġimag",
        "ine"
      ],
      [
        "Ġn",
        "atur"
      ],
      [
        "il",
        "ing"
      ],
      [
        "Ġcomp",
        "any"
      ],
      [
        "Ġplast",
        "ic"
      ],
      [
        "i",
        "ly"
      ],
      [
        "h",
        "a"
      ],
      [
        "Ġhe",
        "al"
      ],
      [
        "Ġconfu",
        "sing"
      ],
      [
        "Ġgentl",
        "eness"
      ],
      [
        "L",
        "E"
      ],
      [
        "e",
        "e"
      ],
      [
        "s",
        "et"
      ],
      [
        "is",
        "p"
      ],
      [
        "Ġu",
        "se"
      ],
      [
        "Ġlonel",
        "iness"
      ],
      [
        "Ġ",
        "N"
      ],
      [
        "Ġno",
        "se"
      ],
      [
        "Ġh",
        "iding"
      ],
      [
        "Ġp",
        "atter"
      ],
      [
        "Ġagain",
        "st"
      ],
      [
        "Ġsca",
        "re"
      ],
      [
        "Ġse",
        "es"
      ],
      [
        "Ġwigg",
        "ly"
      ],
      [
        "ci",
        "ally"
      ],
      [
        "Ġp",
        "ay"
      ],
      [
        "ea",
        "red"
      ],
      [
        "pe",
        "cially"
      ],
      [
        "co",
        "me"
      ],
      [
        "Ġcount",
        "s"
      ],
      [
        "sp",
        "ins"
      ],
      [
        "Ġes",
        "pecially"
      ],
      [
        "w",
        "igg"
      ],
      [
        "re",
        "ly"
      ],
      [
        "Ġdi",
        "st"
      ],
      [
        "Ġdifferent",
        "ly"
      ],
      [
        "Ġlet",
        "s"
      ],
      [
        "Ġcar",
        "ing"
      ],
      [
        "ĠW",
        "A"
      ],
      [
        "Ġhuman",
        "s"
      ],
      [
        "Ġ",
        "our"
      ],
      [
        "Ġsh",
        "ine"
      ],
      [
        "Ġsha",
        "king"
      ],
      [
        "Ġdrift",
        "ing"
      ],
      [
        "Ġlear",
        "ning"
      ],
      [
        "l",
        "ight"
      ],
      [
        "Ġh",
        "it"
      ],
      [
        "ar",
        "y"
      ],
      [
        "ck",
        "ing"
      ],
      [
        "Ġta",
        "pping"
      ],
      [
        "Ġstart",
        "ed"
      ],
      [
        "Ġfrustrat",
        "ed"
      ],
      [
        "il",
        "ity"
      ],
      [
        "Ġdrea",
        "ming"
      ],
      [
        "Ġbra",
        "in"
      ],
      [
        "Ġcomfort",
        "able"
      ],
      [
        "i",
        "er"
      ],
      [
        "Ġt",
        "reat"
      ],
      [
        "Ġw",
        "el"
      ],
      [
        "ti",
        "me"
      ],
      [
        "Ġsh",
        "e"
      ],
      [
        "Ġfa",
        "ces"
      ],
      [
        "Ġcon",
        "ne"
      ],
      [
        "Ġtru",
        "ly"
      ],
      [
        "Ġperfect",
        "ly"
      ],
      [
        "ll",
        "y"
      ],
      [
        "Ġfriends",
        "hi"
      ],
      [
        "Ġturn",
        "ed"
      ],
      [
        "Ġvibrat",
        "ion"
      ],
      [
        "Ġh",
        "mm"
      ],
      [
        "Ġsoft",
        "ly"
      ],
      [
        "Ġhard",
        "est"
      ],
      [
        "Ġeasi",
        "ly"
      ],
      [
        "Ġcha",
        "sing"
      ],
      [
        "er",
        "v"
      ],
      [
        "Ġremember",
        "s"
      ],
      [
        "Ġhard",
        "er"
      ],
      [
        "so",
        "lu"
      ],
      [
        "Ġmyster",
        "y"
      ],
      [
        "Ġsme",
        "ll"
      ],
      [
        "Ġn",
        "orm"
      ],
      [
        "Ġst",
        "ar"
      ],
      [
        "Ġab",
        "solu"
      ],
      [
        "Ġof",
        "ten"
      ],
      [
        "Ġco",
        "zy"
      ],
      [
        "fu",
        "lly"
      ],
      [
        "c",
        "a"
      ],
      [
        "il",
        "i"
      ],
      [
        "Ġun",
        "c"
      ],
      [
        "Ġf",
        "re"
      ],
      [
        "Ġre",
        "co"
      ],
      [
        "Ġca",
        "red"
      ],
      [
        "Ġpo",
        "ssible"
      ],
      [
        "Ġspin",
        "ning"
      ],
      [
        "Ġgr",
        "ud"
      ],
      [
        "wigg",
        "les"
      ],
      [
        "Ġc",
        "reat"
      ],
      [
        "Ġho",
        "p"
      ],
      [
        "pe",
        "ct"
      ],
      [
        "Ġhurt",
        "s"
      ],
      [
        "Ġthought",
        "s"
      ],
      [
        "Ġmyster",
        "ious"
      ],
      [
        "Ġabsolu",
        "tely"
      ],
      [
        "Ġg",
        "l"
      ],
      [
        "Ġforgi",
        "ving"
      ],
      [
        "Ġdec",
        "or"
      ],
      [
        "Ġnorm",
        "al"
      ],
      [
        "ve",
        "d"
      ],
      [
        "Ġwonder",
        "ing"
      ],
      [
        "Ġang",
        "er"
      ],
      [
        "Ġcurve",
        "d"
      ],
      [
        "I",
        "T"
      ],
      [
        "Ġsw",
        "e"
      ],
      [
        "Ġrememb",
        "ered"
      ],
      [
        "Ġneed",
        "ed"
      ],
      [
        "Ġstr",
        "u"
      ],
      [
        "Ġne",
        "ither"
      ],
      [
        "Ġsh",
        "in"
      ],
      [
        "mb",
        "le"
      ],
      [
        "Ġnoti",
        "ces"
      ],
      [
        "Ġwel",
        "come"
      ],
      [
        "ti",
        "m"
      ],
      [
        "Ġst",
        "one"
      ],
      [
        "Ġday",
        "s"
      ],
      [
        "Ġsurpris",
        "es"
      ],
      [
        "Ġend",
        "less"
      ],
      [
        "Ġmista",
        "ke"
      ],
      [
        "Ġfriendshi",
        "p"
      ],
      [
        "Ġt",
        "ing"
      ],
      [
        "Ġp",
        "ure"
      ],
      [
        "Ġba",
        "rely"
      ],
      [
        "Ġmu",
        "sic"
      ],
      [
        "Ġac",
        "ross"
      ],
      [
        "Ġfi",
        "x"
      ],
      [
        "Ġbegin",
        "ning"
      ],
      [
        "h",
        "e"
      ],
      [
        "Ġt",
        "re"
      ],
      [
        "Ġs",
        "il"
      ],
      [
        "Ġch",
        "oice"
      ],
      [
        "Ġimp",
        "o"
      ],
      [
        "ist",
        "ic"
      ],
      [
        "Ġhung",
        "er"
      ],
      [
        "Ġadv",
        "ice"
      ],
      [
        "e",
        "k"
      ],
      [
        "Ġe",
        "ff"
      ],
      [
        "Ġstart",
        "s"
      ],
      [
        "sh",
        "es"
      ],
      [
        "Ġlea",
        "st"
      ],
      [
        "Ġmiss",
        "ing"
      ],
      [
        "Ġgreat",
        "est"
      ],
      [
        "Ġsm",
        "iling"
      ],
      [
        "Ġpe",
        "bb"
      ],
      [
        "Ġlea",
        "ves"
      ],
      [
        "Ġansw",
        "er"
      ],
      [
        "ĠN",
        "O"
      ],
      [
        "Ġswe",
        "et"
      ],
      [
        "f",
        "ast"
      ],
      [
        "Ġs",
        "na"
      ],
      [
        "Ġwa",
        "l"
      ],
      [
        "Ġop",
        "tim"
      ],
      [
        "Ġbreak",
        "fast"
      ],
      [
        "o",
        "lo"
      ],
      [
        "Ġth",
        "ree"
      ],
      [
        "Ġh",
        "its"
      ],
      [
        "Ġdon",
        "e"
      ],
      [
        "ra",
        "c"
      ],
      [
        "Ġsoft",
        "ness"
      ],
      [
        "Ġimpo",
        "ssible"
      ],
      [
        "Ġ",
        "D"
      ],
      [
        "Ġli",
        "kes"
      ],
      [
        "Ġwas",
        "n"
      ],
      [
        "H",
        "T"
      ],
      [
        "e",
        "nd"
      ],
      [
        "n",
        "s"
      ],
      [
        "z",
        "zy"
      ],
      [
        "Ġl",
        "ate"
      ],
      [
        "ow",
        "er"
      ],
      [
        "Ġn",
        "erv"
      ],
      [
        "Ġjo",
        "kes"
      ],
      [
        "Ġpre",
        "fer"
      ],
      [
        "Ġsing",
        "ing"
      ],
      [
        "HA",
        "T"
      ],
      [
        "Ġprom",
        "ise"
      ],
      [
        "Ġnerv",
        "ous"
      ],
      [
        "Ġa",
        "ge"
      ],
      [
        "er",
        "i"
      ],
      [
        "Ġwa",
        "st"
      ],
      [
        "Ġway",
        "s"
      ],
      [
        "Ġed",
        "ge"
      ],
      [
        "Ġs",
        "ky"
      ],
      [
        "Ġnow",
        "here"
      ],
      [
        "Ġbelie",
        "ving"
      ],
      [
        "Ġjud",
        "g"
      ],
      [
        "Ġflow",
        "s"
      ],
      [
        "Ġw",
        "is"
      ],
      [
        "Ġli",
        "m"
      ],
      [
        "Ġme",
        "ant"
      ],
      [
        "ss",
        "ib"
      ],
      [
        "Ġgift",
        "s"
      ],
      [
        "Ġscar",
        "es"
      ],
      [
        "Ġdisappoint",
        "ment"
      ],
      [
        "IG",
        "HT"
      ],
      [
        "Ġstru",
        "gg"
      ],
      [
        "e",
        "w"
      ],
      [
        "Ġf",
        "ading"
      ],
      [
        "el",
        "e"
      ],
      [
        "id",
        "ent"
      ],
      [
        "Ġwor",
        "st"
      ],
      [
        "Ġeff",
        "ort"
      ],
      [
        "i",
        "ld"
      ],
      [
        "la",
        "x"
      ],
      [
        "Ġre",
        "lax"
      ],
      [
        "Ġsurpris",
        "ing"
      ],
      [
        "Ġreco",
        "gn"
      ],
      [
        "O",
        "O"
      ],
      [
        "Ġt",
        "u"
      ],
      [
        "Ġm",
        "ad"
      ],
      [
        "Ġc",
        "ele"
      ],
      [
        "Ġp",
        "ret"
      ],
      [
        "Ġlo",
        "ves"
      ],
      [
        "Ġbeco",
        "me"
      ],
      [
        "Ġcra",
        "sh"
      ],
      [
        "Ġfocu",
        "s"
      ],
      [
        "Ġunc",
        "ertain"
      ],
      [
        "Ġcele",
        "b"
      ],
      [
        "w",
        "h"
      ],
      [
        "ch",
        "ed"
      ],
      [
        "Ġsmall",
        "er"
      ],
      [
        "Ġback",
        "ward"
      ],
      [
        "Ġsp",
        "eak"
      ],
      [
        "Ġpo",
        "ssib"
      ],
      [
        "Ġbiscu",
        "it"
      ],
      [
        "Ġap",
        "olo"
      ],
      [
        "Ġdelic",
        "ious"
      ],
      [
        "s",
        "ure"
      ],
      [
        "Ġt",
        "er"
      ],
      [
        "Ġso",
        "ng"
      ],
      [
        "Ġtell",
        "ing"
      ],
      [
        "Ġbump",
        "y"
      ],
      [
        "Ġcl",
        "oud"
      ],
      [
        "u",
        "t"
      ],
      [
        "ke",
        "t"
      ],
      [
        "Ġbelie",
        "f"
      ],
      [
        "Ġlong",
        "er"
      ],
      [
        "Ġpro",
        "te"
      ],
      [
        "Ġsun",
        "light"
      ],
      [
        "Ġtru",
        "th"
      ],
      [
        "Ġlearn",
        "ed"
      ],
      [
        "Ġdiscover",
        "ing"
      ],
      [
        "Ġclos",
        "er"
      ],
      [
        "d",
        "om"
      ],
      [
        "Ġb",
        "rou"
      ],
      [
        "Ġre",
        "d"
      ],
      [
        "Ġgo",
        "tta"
      ],
      [
        "Ġstill",
        "ness"
      ],
      [
        "Ġtrust",
        "ing"
      ],
      [
        "Ġus",
        "ed"
      ],
      [
        "Ġexp",
        "eri"
      ],
      [
        "Ġpush",
        "ing"
      ],
      [
        "Ġbl",
        "ur"
      ],
      [
        "Ġoptim",
        "istic"
      ],
      [
        "Ġbrou",
        "ght"
      ],
      [
        "n",
        "o"
      ],
      [
        "u",
        "mb"
      ],
      [
        "Ġb",
        "lo"
      ],
      [
        "Ġp",
        "r"
      ],
      [
        "Ġlight",
        "er"
      ],
      [
        "ent",
        "y"
      ],
      [
        "Ġas",
        "ked"
      ],
      [
        "Ġtouch",
        "ing"
      ],
      [
        "ath",
        "er"
      ],
      [
        "at",
        "ing"
      ],
      [
        "Ġp",
        "rou"
      ],
      [
        "lo",
        "s"
      ],
      [
        "Ġex",
        "ha"
      ],
      [
        "Ġpl",
        "enty"
      ],
      [
        "Ġfail",
        "ure"
      ],
      [
        "Ġfight",
        "ing"
      ],
      [
        "Ġnatur",
        "al"
      ],
      [
        "Ġpebb",
        "les"
      ],
      [
        "Ġprou",
        "d"
      ],
      [
        "Ġexha",
        "ust"
      ],
      [
        "a",
        "re"
      ],
      [
        "z",
        "oom"
      ],
      [
        "Ġbu",
        "d"
      ],
      [
        "Ġwa",
        "king"
      ],
      [
        "Ġkn",
        "ew"
      ],
      [
        "Ġta",
        "king"
      ],
      [
        "ud",
        "e"
      ],
      [
        "Ġtra",
        "pped"
      ],
      [
        "U",
        "B"
      ],
      [
        "Ġf",
        "li"
      ],
      [
        "Ġd",
        "art"
      ],
      [
        "Ġo",
        "pp"
      ],
      [
        "Ġp",
        "op"
      ],
      [
        "on",
        "t"
      ],
      [
        "Ġhe",
        "y"
      ],
      [
        "Ġfind",
        "s"
      ],
      [
        "Ġglow",
        "s"
      ],
      [
        "Ġregret",
        "s"
      ],
      [
        "Ġappear",
        "s"
      ],
      [
        "re",
        "ci"
      ],
      [
        "Ġkeep",
        "ing"
      ],
      [
        "Ġfall",
        "s"
      ],
      [
        "Ġtouch",
        "ed"
      ],
      [
        "Ġapp",
        "reci"
      ],
      [
        "Ġteach",
        "es"
      ],
      [
        "Ġpass",
        "es"
      ],
      [
        "Ġpass",
        "ed"
      ],
      [
        "Ġes",
        "ca"
      ],
      [
        "HE",
        "RE"
      ],
      [
        "Ġwis",
        "dom"
      ],
      [
        "b",
        "le"
      ],
      [
        "c",
        "ked"
      ],
      [
        "o",
        "sed"
      ],
      [
        "t",
        "ra"
      ],
      [
        "w",
        "or"
      ],
      [
        "Ġp",
        "hi"
      ],
      [
        "Ġsa",
        "f"
      ],
      [
        "Ġgra",
        "ce"
      ],
      [
        "Ġga",
        "ve"
      ],
      [
        "Ġter",
        "ri"
      ],
      [
        "los",
        "op"
      ],
      [
        "Ġphi",
        "losop"
      ],
      [
        "Ġh",
        "ate"
      ],
      [
        "ili",
        "ar"
      ],
      [
        "Ġrecogn",
        "ize"
      ],
      [
        "c",
        "ess"
      ],
      [
        "Ġ",
        "R"
      ],
      [
        "Ġw",
        "in"
      ],
      [
        "th",
        "m"
      ],
      [
        "Ġup",
        "set"
      ],
      [
        "Ġstr",
        "ess"
      ],
      [
        "Ġold",
        "er"
      ],
      [
        "Ġfr",
        "ont"
      ],
      [
        "Ġspark",
        "les"
      ],
      [
        "Ġfre",
        "ed"
      ],
      [
        "V",
        "E"
      ],
      [
        "l",
        "ic"
      ],
      [
        "Ġth",
        "ick"
      ],
      [
        "Ġc",
        "ru"
      ],
      [
        "Ġbe",
        "nds"
      ],
      [
        "Ġex",
        "pect"
      ],
      [
        "Ġsha",
        "re"
      ],
      [
        "Ġnear",
        "by"
      ],
      [
        "Ġfi",
        "lls"
      ],
      [
        "Ġconstant",
        "ly"
      ],
      [
        "zoom",
        "s"
      ],
      [
        "Ġfreed",
        "om"
      ],
      [
        "p",
        "er"
      ],
      [
        "Ġhe",
        "ard"
      ],
      [
        "Ġwant",
        "ed"
      ],
      [
        "Ġsp",
        "la"
      ],
      [
        "iz",
        "ed"
      ],
      [
        "ĠS",
        "O"
      ],
      [
        "he",
        "ad"
      ],
      [
        "UB",
        "B"
      ],
      [
        "Ġopp",
        "os"
      ],
      [
        "ou",
        "dy"
      ],
      [
        "Ġc",
        "ry"
      ],
      [
        "Ġp",
        "ie"
      ],
      [
        "au",
        "ght"
      ],
      [
        "Ġr",
        "hy"
      ],
      [
        "Ġex",
        "tra"
      ],
      [
        "Ġquick",
        "ly"
      ],
      [
        "Ġplay",
        "ing"
      ],
      [
        "Ġcl",
        "oudy"
      ],
      [
        "Ġsupp",
        "osed"
      ],
      [
        "ĠWA",
        "IT"
      ],
      [
        "Ġw",
        "ind"
      ],
      [
        "Ġw",
        "ise"
      ],
      [
        "oo",
        "t"
      ],
      [
        "ti",
        "c"
      ],
      [
        "Ġlo",
        "se"
      ],
      [
        "ci",
        "ous"
      ],
      [
        "Ġbl",
        "an"
      ],
      [
        "Ġapolo",
        "g"
      ],
      [
        "Ġrhy",
        "thm"
      ],
      [
        "-",
        "-"
      ],
      [
        "a",
        "il"
      ],
      [
        "d",
        "e"
      ],
      [
        "Ġwarm",
        "est"
      ],
      [
        "ur",
        "es"
      ],
      [
        "ep",
        "s"
      ],
      [
        "Ġwant",
        "ing"
      ],
      [
        "Ġpu",
        "n"
      ],
      [
        "Ġspe",
        "nd"
      ],
      [
        "Ġac",
        "c"
      ],
      [
        "Ġcatch",
        "es"
      ],
      [
        "ĠB",
        "UBB"
      ],
      [
        "Ġbud",
        "dy"
      ],
      [
        "Ġphilosop",
        "hy"
      ],
      [
        "r",
        "se"
      ],
      [
        "Ġf",
        "ill"
      ],
      [
        "Ġgo",
        "sh"
      ],
      [
        "Ġsp",
        "re"
      ],
      [
        "Ġcou",
        "rse"
      ],
      [
        "Ġstrang",
        "ers"
      ],
      [
        "Ġrun",
        "ning"
      ],
      [
        "Ġtre",
        "mb"
      ],
      [
        "Ġexperi",
        "ence"
      ],
      [
        "w",
        "a"
      ],
      [
        "Ġse",
        "ar"
      ],
      [
        "Ġkind",
        "er"
      ],
      [
        "Ġsh",
        "ort"
      ],
      [
        "Ġfloat",
        "s"
      ],
      [
        "Ġcar",
        "ries"
      ],
      [
        "Ġun",
        "k"
      ],
      [
        "Ġpush",
        "es"
      ],
      [
        "Ġche",
        "er"
      ],
      [
        "Ġremind",
        "s"
      ],
      [
        "c",
        "ra"
      ],
      [
        "Ġf",
        "ive"
      ],
      [
        "ic",
        "es"
      ],
      [
        "Ġcon",
        "vers"
      ],
      [
        "Ġfind",
        "ing"
      ],
      [
        "os",
        "ity"
      ],
      [
        "Ġsme",
        "lls"
      ],
      [
        "Ġpossib",
        "ility"
      ],
      [
        "o",
        "ices"
      ],
      [
        "Ġ",
        "G"
      ],
      [
        "Ġso",
        "l"
      ],
      [
        "Ġpu",
        "t"
      ],
      [
        "Ġexist",
        "s"
      ],
      [
        "Ġaw",
        "w"
      ],
      [
        "Ġshift",
        "s"
      ],
      [
        "Ġgrud",
        "ges"
      ],
      [
        "Ġoppos",
        "ite"
      ],
      [
        "Ġs",
        "er"
      ],
      [
        "Ġy",
        "ay"
      ],
      [
        "Ġp",
        "ower"
      ],
      [
        "Ġhelp",
        "ing"
      ],
      [
        "Ġjo",
        "b"
      ],
      [
        "Ġbelie",
        "ves"
      ],
      [
        "Ġsha",
        "kes"
      ],
      [
        "Ġcuri",
        "osity"
      ],
      [
        "Ġfam",
        "iliar"
      ],
      [
        "Ġd",
        "r"
      ],
      [
        "le",
        "m"
      ],
      [
        "Ġfe",
        "w"
      ],
      [
        "Ġwo",
        "ke"
      ],
      [
        "Ġhu",
        "ge"
      ],
      [
        "sh",
        "ine"
      ],
      [
        "Ġsun",
        "shine"
      ],
      [
        "Ġprob",
        "lem"
      ],
      [
        "Ġdist",
        "ra"
      ],
      [
        "n",
        "ight"
      ],
      [
        "Ġl",
        "az"
      ],
      [
        "Ġkn",
        "o"
      ],
      [
        "Ġswim",
        "s"
      ],
      [
        "wa",
        "it"
      ],
[...]
