{
  "version": "1.0",
  "truncation": null,
  "padding": null,
  "added_tokens": [
    {
      "id": 0,
      "content": "<pad>",
      "single_word": false,
      "lstrip": false,
      "rstrip": false,
      "normalized": false,
      "special": true
    },
    {
      "id": 1,
      "content": "<bos>",
      "single_word": false,
      "lstrip": false,
      "rstrip": false,
      "normalized": false,
      "special": true
    },
    {
      "id": 2,
      "content": "<eos>",
      "single_word": false,
      "lstrip": false,
      "rstrip": false,
      "normalized": false,
      "special": true
    },
    {
      "id": 3,
      "content": "<unk>",
      "single_word": false,
      "lstrip": false,
      "rstrip": false,
      "normalized": false,
      "special": true
    }
  ],
  "normalizer": null,
  "pre_tokenizer": {
    "type": "ByteLevel",
    "add_prefix_space": true,
    "trim_offsets": true,
    "use_regex": true
  },
  "post_processor": {
    "type": "TemplateProcessing",
    "single": [
      {
        "SpecialToken": {
          "id": "<bos>",
          "type_id": 0
        }
      },
      {
        "Sequence": {
          "id": "A",
          "type_id": 0
        }
      },
      {
        "SpecialToken": {
          "id": "<eos>",
          "type_id": 0
        }
      }
    ],
    "pair": [
      {
        "Sequence": {
          "id": "A",
          "type_id": 0
        }
      },
      {
        "Sequence": {
          "id": "B",
          "type_id": 1
        }
      }
    ],
    "special_tokens": {
      "<bos>": {
        "id": "<bos>",
        "ids": [
          1
        ],
        "tokens": [
          "<bos>"
        ]
      },
      "<eos>": {
        "id": "<eos>",
        "ids": [
          2
        ],
        "tokens": [
          "<eos>"
        ]
      }
    }
  },
  "decoder": {
    "type": "ByteLevel",
    "add_prefix_space": true,
    "trim_offsets": true,
    "use_regex": true
  },
  "model": {
    "type": "BPE",
    "dropout": null,
    "unk_token": "<unk>",
    "continuing_subword_prefix": null,
    "end_of_word_suffix": null,
    "fuse_unk": false,
    "byte_fallback": false,
    "ignore_merges": false,
    "vocab": {
      "<pad>": 0,
      "<bos>": 1,
      "<eos>": 2,
      "<unk>": 3,
      "!": 4,
      "\"": 5,
      "%": 6,
      "'": 7,
      "(": 8,
      ")": 9,
      "*": 10,
      "+": 11,
      ",": 12,
      "-": 13,
      ".": 14,
      "/": 15,
      "0": 16,
      "1": 17,
      "2": 18,
      "3": 19,
      "4": 20,
      "5": 21,
      "6": 22,
      "7": 23,
      "8": 24,
      "9": 25,
      ":": 26,
      ";": 27,
      "=": 28,
      "?": 29,
      "A": 30,
      "B": 31,
      "C": 32,
      "D": 33,
      "E": 34,
      "F": 35,
      "G": 36,
      "H": 37,
      "I": 38,
      "J": 39,
      "K": 40,
      "L": 41,
      "M": 42,
      "N": 43,
      "O": 44,
      "P": 45,
      "Q": 46,
      "R": 47,
      "S": 48,
      "T": 49,
      "U": 50,
      "V": 51,
      "W": 52,
      "X": 53,
      "Y": 54,
      "Z": 55,
      "[": 56,
      "]": 57,
      "_": 58,
      "a": 59,
      "b": 60,
      "c": 61,
      "d": 62,
      "e": 63,
      "f": 64,
      "g": 65,
      "h": 66,
      "i": 67,
      "j": 68,
      "k": 69,
      "l": 70,
      "m": 71,
      "n": 72,
      "o": 73,
      "p": 74,
      "q": 75,
      "r": 76,
      "s": 77,
      "t": 78,
      "u": 79,
      "v": 80,
      "w": 81,
      "x": 82,
      "y": 83,
      "z": 84,
      "¦": 85,
      "©": 86,
      "Ã": 87,
      "â": 88,
      "Ġ": 89,
      "Ģ": 90,
      "Ĩ": 91,
      "Ĵ": 92,
      "Ķ": 93,
      "Ġt": 94,
      "Ġi": 95,
      "Ġth": 96,
      "Ġw": 97,
      "Ġa": 98,
      "ou": 99,
      "in": 100,
      "Ġs": 101,
      "re": 102,
      "at": 103,
      "Ġy": 104,
      "Ġyou": 105,
      "ing": 106,
      "Ġm": 107,
      "Ġf": 108,
      "Ġthe": 109,
      "Ġb": 110,
      "er": 111,
      "Ġd": 112,
      "..": 113,
      "Ġh": 114,
      "Ġwh": 115,
      "nd": 116,
      "es": 117,
      "Ġo": 118,
      "Ġl": 119,
      "Ġn": 120,
      "me": 121,
      "ow": 122,
      "Ġc": 123,
      "Ġg": 124,
      "Ġdo": 125,
      "Ġit": 126,
      "'s": 127,
      "an": 128,
      "or": 129,
      "Ġand": 130,
      "el": 131,
      "st": 132,
      "Ġwhat": 133,
      "th": 134,
      "Ġso": 135,
      "...": 136,
      "Ġe": 137,
      "Ġwa": 138,
      "Ġis": 139,
      "gh": 140,
      "Ġme": 141,
      "Ġthat": 142,
      "ay": 143,
      "ed": 144,
      "ll": 145,
      "on": 146,
      "is": 147,
      "Ġli": 148,
      "en": 149,
      "Ġto": 150,
      "'m": 151,
      "Ġp": 152,
      "ke": 153,
      "Ġha": 154,
      "ver": 155,
      "it": 156,
      "ere": 157,
      "Ġbu": 158,
      "le": 159,
      "ve": 160,
      "ri": 161,
      "Ġmy": 162,
      "Ġ*": 163,
      "ght": 164,
      "et": 165,
      "thing": 166,
      "Ġfor": 167,
      "Ġre": 168,
      "Ġin": 169,
      "Ġsome": 170,
      "la": 171,
      "oo": 172,
      "Ġj": 173,
      "Ġbe": 174,
      "ust": 175,
      "'t": 176,
      "Ġno": 177,
      "Ġlike": 178,
      "Ġwat": 179,
      "Ġare": 180,
      "ar": 181,
      "id": 182,
      "Ġst": 183,
      "Ġfe": 184,
      "out": 185,
      "Ġwater": 186,
      "Ġbut": 187,
      "Ġjust": 188,
      "Ġyour": 189,
      "Ġfeel": 190,
      "'re": 191,
      "pp": 192,
      "Ġoh": 193,
      "Ġk": 194,
      "Ġever": 195,
      "ld": 196,
      "ic": 197,
      "Ġab": 198,
      "Ġwas": 199,
      "Ġor": 200,
      "Ġwi": 201,
      "Ġu": 202,
      "ad": 203,
      "Ġmo": 204,
      "im": 205,
      "Ġgo": 206,
      "ly": 207,
      "Ġforg": 208,
      "??": 209,
      "all": 210,
      "Ġabout": 211,
      "al": 212,
      "ss": 213,
      "right": 214,
      "Ġnow": 215,
      "ac": 216,
      "Ġthing": 217,
      "Ġon": 218,
      "Ġne": 219,
      "Ġsomething": 220,
      "Ġthey": 221,
      "Ġwait": 222,
      "Ġse": 223,
      "Ġright": 224,
      "Ġal": 225,
      "Ġthis": 226,
      "se": 227,
      "Ġevery": 228,
      "rou": 229,
      "ish": 230,
      "om": 231,
      "ge": 232,
      "Ġof": 233,
      "Ġhapp": 234,
      "kes": 235,
      "Ġthere": 236,
      "Ġhow": 237,
      "ell": 238,
      "nt": 239,
      "Ġdon": 240,
      "les": 241,
      "Ġcan": 242,
      "Ġhere": 243,
      "Ġgla": 244,
      "Ġsw": 245,
      "!!": 246,
      "Ġdid": 247,
      "ir": 248,
      "Ġglass": 249,
      "âĢ": 250,
      "âĢĶ": 251,
      "mb": 252,
      "ind": 253,
      "ant": 254,
      "ink": 255,
      "Ġkn": 256,
      "Ġforget": 257,
      "ain": 258,
      "ood": 259,
      "ange": 260,
      "way": 261,
      "one": 262,
      "Ġhave": 263,
      "Ġknow": 264,
      "Ġan": 265,
      "est": 266,
      "mber": 267,
      "Ġnot": 268,
      "owl": 269,
      "Ġwe": 270,
      "Ġreme": 271,
      "Ġbowl": 272,
      "Ġthink": 273,
      "Ġfin": 274,
      "Ġsee": 275,
      "Ġremember": 276,
      "ion": 277,
      "be": 278,
      "Ġwith": 279,
      "fu": 280,
      "Ġ...": 281,
      "ally": 282,
      "Ġfla": 283,
      "Ġswim": 284,
      "Ġex": 285,
      "il": 286,
      "ch": 287,
      "Ġwho": 288,
      "are": 289,
      "Ġma": 290,
      "Ġorange": 291,
      "Ġti": 292,
      "Ġwor": 293,
      "Ġag": 294,
      "king": 295,
      "ct": 296,
      "ot": 297,
      "?!": 298,
      "ĠI": 299,
      "aybe": 300,
      "Ġat": 301,
      "Ġmaybe": 302,
      "Ġflakes": 303,
      "ry": 304,
      "Ġyes": 305,
      "mp": 306,
      "Ġeverything": 307,
      "gg": 308,
      "ely": 309,
      "Ġsh": 310,
      "ur": 311,
      "ice": 312,
      "Ġgood": 313,
      "Ġtell": 314,
      "bb": 315,
      "Ġwhen": 316,
      "ter": 317,
      "Ġta": 318,
      "Ġkind": 319,
      "Ġagain": 320,
      "Ġwhy": 321,
      "Ġthen": 322,
      "art": 323,
      "Ġloo": 324,
      "ame": 325,
      "Ġam": 326,
      "ough": 327,
      "sh": 328,
      "lo": 329,
      "au": 330,
      "ra": 331,
      "Ġtime": 332,
      "Ġall": 333,
      "Ġbubb": 334,
      "ful": 335,
      "rm": 336,
      "ep": 337,
      "Ġhappen": 338,
      "Ġdoes": 339,
      "Ġwarm": 340,
      "op": 341,
      "ĠY": 342,
      "ment": 343,
      "Ġlo": 344,
      "ill": 345,
      "end": 346,
      "ea": 347,
      "Ġcom": 348,
      "Ġwhere": 349,
      "Ġlight": 350,
      "round": 351,
      "ould": 352,
      "Ġfa": 353,
      "ess": 354,
      "Ġany": 355,
      "Ġthings": 356,
      "Ġfish": 357,
      "ent": 358,
      "ore": 359,
      "Ġsm": 360,
      "ways": 361,
      "Ġfins": 362,
      "Ġnew": 363,
      "rough": 364,
      "Ġco": 365,
      "ther": 366,
      "Ġnice": 367,
      "ond": 368,
      "riend": 369,
      "Ġsc": 370,
      "Ġalways": 371,
      "Ġfriend": 372,
      "kay": 373,
      "Ġup": 374,
      "ro": 375,
      "Ġokay": 376,
      "Ġhappy": 377,
      "Ġfeels": 378,
      "Ġthrough": 379,
      "Ġsp": 380,
      "Ġfr": 381,
      "Ġsu": 382,
      "Ġget": 383,
      "Ġch": 384,
      "ming": 385,
      "Ġbeing": 386,
      "Ġum": 387,
      "ce": 388,
      "ving": 389,
      "ff": 390,
      "irc": 391,
      "tt": 392,
      "ft": 393,
      "Ġtoo": 394,
      "Ġthem": 395,
      "Ġen": 396,
      "Ġlook": 397,
      "Ġdi": 398,
      "Ġcon": 399,
      "Ġv": 400,
      "imes": 401,
      "fe": 402,
      "Ġwigg": 403,
      "ank": 404,
      "Ġsay": 405,
      "ady": 406,
      "Ġbubbles": 407,
      "Ġone": 408,
      "Ġmoment": 409,
      "Ġwere": 410,
      "ack": 411,
      "Ġbl": 412,
      "Ġswimming": 413,
      "wh": 414,
      "loat": 415,
      "so": 416,
      "Ġdoing": 417,
      "un": 418,
      "Ġif": 419,
      "ĠT": 420,
      "qu": 421,
      "Ġtail": 422,
      "Ġfrom": 423,
      "Ġsomeone": 424,
      "Ġsomet": 425,
      "Ġforgot": 426,
      "Ġsometimes": 427,
      "Ġlon": 428,
      "Ġde": 429,
      "Ġhe": 430,
      "Ġfloat": 431,
      "Ġenough": 432,
      "Ġbi": 433,
      "rd": 434,
      "Ġas": 435,
      "Ġsmall": 436,
      "ound": 437,
      "Ġout": 438,
      "ES": 439,
      "Ġmean": 440,
      "Ġaround": 441,
      "ive": 442,
      "Ġhard": 443,
      "ven": 444,
      "Ġsa": 445,
      "elf": 446,
      "Ġbec": 447,
      "Ġho": 448,
      "very": 449,
      "ast": 450,
      "ĠW": 451,
      "Ġreally": 452,
      "Ġper": 453,
      "Ġstill": 454,
      "Ġtal": 455,
      "ause": 456,
      "ircles": 457,
      "ready": 458,
      "cit": 459,
      "ting": 460,
      "Ġmakes": 461,
      "Ġalready": 462,
      "day": 463,
      "OU": 464,
      "Ġbest": 465,
      "Ġname": 466,
      "Ġback": 467,
      "ide": 468,
      "keep": 469,
      "ous": 470,
      "Ġgot": 471,
      "Ġqu": 472,
      "Ġbecause": 473,
      "Ġint": 474,
      "Ġwhole": 475,
      "am": 476,
      "Ġsl": 477,
      "Ġvery": 478,
      "Ġdis": 479,
      "Ġbo": 480,
      "Ġpre": 481,
      "self": 482,
      "ab": 483,
      "Ġkeep": 484,
      "Ġwond": 485,
      "Ġwant": 486,
      "Ġhappened": 487,
      "Ġwonder": 488,
      "ap": 489,
      "Ġgold": 490,
      "Ġdiff": 491,
      "Ġlove": 492,
      "Ġsound": 493,
      "Ġnever": 494,
      "ation": 495,
      "dy": 496,
      "Ġexcit": 497,
      "Ġdiffere": 498,
      "Ġby": 499,
      "Ġaw": 500,
      "ved": 501,
      "ace": 502,
      "Ġeven": 503,
      "Ġway": 504,
      "Ġgone": 505,
      "ort": 506,
      "ite": 507,
      "ck": 508,
      "as": 509,
      "ĠYOU": 510,
      "ness": 511,
      "'ll": 512,
      "Ġreal": 513,
      "Ġdifferent": 514,
      "Ġday": 515,
      "ist": 516,
      "Ġmad": 517,
      "fish": 518,
      "Ġthough": 519,
      "Ġgoing": 520,
      "Ġlitt": 521,
      "Ġlittle": 522,
      "Ġmove": 523,
      "Ġcomp": 524,
      "Ġpl": 525,
      "ight": 526,
      "Ġfeeling": 527,
      "ling": 528,
      "Ġpro": 529,
      "reat": 530,
      "atter": 531,
      "Ġwill": 532,
      "Ġpart": 533,
      "Ġbig": 534,
      "Ġsec": 535,
      "Ġgoldfish": 536,
      "ually": 537,
      "Ġjo": 538,
      "ut": 539,
      "Ġwould": 540,
      "Ġpe": 541,
      "Ġtr": 542,
      "Ġblank": 543,
      "Ġr": 544,
      "Ġeat": 545,
      "Ġmake": 546,
      "Ġtry": 547,
      "Ġstay": 548,
      "Ġaway": 549,
      "ĠA": 550,
      "Ġmu": 551,
      "ory": 552,
      "ure": 553,
      "Ġimp": 554,
      "Ġmade": 555,
      "ought": 556,
      "sed": 557,
      "Ġstart": 558,
      "orry": 559,
      "ose": 560,
      "ib": 561,
      "Ġwiggle": 562,
      "Ġcircles": 563,
      "'ve": 564,
      "where": 565,
      "Ġexcited": 566,
      "Ġact": 567,
      "Ġsad": 568,
      "vor": 569,
      "Ġhu": 570,
      "IN": 571,
      "Ġseem": 572,
      "Ġmore": 573,
      "ning": 574,
      "Ġmoving": 575,
      "Ġmatter": 576,
      "xt": 577,
      "ello": 578,
      "ach": 579,
      "Ġneed": 580,
      "Ġmost": 581,
      "Ġfavor": 582,
      "ti": 583,
      "fin": 584,
      "Ġfavorite": 585,
      "ci": 586,
      "Ġsame": 587,
      "Ġhello": 588,
      "ĠYES": 589,
      "ĠS": 590,
      "fore": 591,
      "Ġprob": 592,
      "red": 593,
      "act": 594,
      "Ġbefore": 595,
      "iny": 596,
      "Ġsorry": 597,
      "ump": 598,
      "Ġbet": 599,
      "Ġfood": 600,
      "sol": 601,
      "Ġtalking": 602,
      "ks": 603,
      "ĠF": 604,
      "Ġmuch": 605,
      "and": 606,
      "Ġhold": 607,
      "RE": 608,
      "Ġle": 609,
      "Ġstu": 610,
      "Ġlea": 611,
      "ales": 612,
      "Ġhur": 613,
      "Ġthought": 614,
      "Ġwonderful": 615,
      "Ġhel": 616,
      "Ġscales": 617,
      "Ġbubble": 618,
      "Ġlong": 619,
      "Ġfun": 620,
      "Ġworld": 621,
      "ably": 622,
      "rat": 623,
      "Ġhi": 624,
      "ared": 625,
      "Ġfir": 626,
      "nder": 627,
      "Ġhelp": 628,
      "Ġsoft": 629,
      "Ġcome": 630,
      "Ġslow": 631,
      "Ġnext": 632,
      "Ġtoday": 633,
      "Ġfirst": 634,
      "ĠM": 635,
      "own": 636,
      "let": 637,
      "urp": 638,
      "Ġhad": 639,
      "ves": 640,
      "ang": 641,
      "Ġhurt": 642,
      "Ġyourself": 643,
      "Ġimport": 644,
      "Ġprobably": 645,
      "Ġsaid": 646,
      "fect": 647,
      "Ġimportant": 648,
      "Ġperfect": 649,
      "Ġdre": 650,
      "Ġover": 651,
      "Ġactually": 652,
      "Ġsounds": 653,
      "Ġaww": 654,
      "Ġround": 655,
      "Ġunder": 656,
      "Ġfast": 657,
      "ĠTH": 658,
      "Ġinto": 659,
      "Ġdes": 660,
      "Ġbr": 661,
      "Ġanything": 662,
      "Ġpo": 663,
      "Ġword": 664,
      "Ġnothing": 665,
      "Ġdefin": 666,
      "Ġfloating": 667,
      "lor": 668,
      "Ġconfu": 669,
      "Ġcomplet": 670,
      "pe": 671,
      "Ġman": 672,
      "Ġfre": 673,
      "Ġforgetting": 674,
      "pped": 675,
      "ie": 676,
      "Ġlive": 677,
      "Ġother": 678,
      "mm": 679,
      "Ġbump": 680,
      "ich": 681,
      "Ġsecond": 682,
      "Ġdown": 683,
      "Ġbeau": 684,
      "ction": 685,
      "itely": 686,
      "ard": 687,
      "side": 688,
      "Ġdream": 689,
      "vel": 690,
      "ĠO": 691,
      "Ġoo": 692,
      "sw": 693,
      "Ġbeauti": 694,
      "Ġgent": 695,
      "Ġel": 696,
      "Ġsure": 697,
      "Ġdefinitely": 698,
      "ret": 699,
      "Ġcould": 700,
      "Ġcare": 701,
      "Ġdoesn": 702,
      "Ġsaying": 703,
      "Ġbody": 704,
      "Ġbeen": 705,
      "Ġstare": 706,
      "Ġthinking": 707,
      "Ġplant": 708,
      "Ġlonely": 709,
      "Ġbeautiful": 710,
      "ise": 711,
      "Ġlooking": 712,
      "ĠB": 713,
      "Ġmeans": 714,
      "Ġwhich": 715,
      "ished": 716,
      "Ġexp": 717,
      "int": 718,
      "Ġbel": 719,
      "ark": 720,
      "ĠD": 721,
      "AT": 722,
      "Ġcompletely": 723,
      "Ġgra": 724,
      "ner": 725,
      "Ġcolor": 726,
      "Ġthose": 727,
      "ine": 728,
      "ong": 729,
      "acant": 730,
      "Ġelse": 731,
      "sp": 732,
      "az": 733,
      "Ġanyway": 734,
      "Ġalso": 735,
      "Ġow": 736,
      "ick": 737,
      "Ġspe": 738,
      "na": 739,
      "Ġwell": 740,
      "ING": 741,
      "Ġprett": 742,
      "bump": 743,
      "Ġkindness": 744,
      "Ġmany": 745,
      "Ġblanked": 746,
      "Ġid": 747,
      "Ġbright": 748,
      "Ġmaking": 749,
      "Ġmis": 750,
      "Ġcoo": 751,
      "Ġgosh": 752,
      "Ġtiny": 753,
      "Ġpretty": 754,
      "Ġexist": 755,
      "Ġlet": 756,
      "Ġstop": 757,
      "Ġcle": 758,
      "iz": 759,
      "ĠH": 760,
      "ĠâĢĶ": 761,
      "bumps": 762,
      "Ġshould": 763,
      "Ġscared": 764,
      "Ġamaz": 765,
      "Ġunderst": 766,
      "Ġfore": 767,
      "estion": 768,
      "ills": 769,
      "yes": 770,
      "Ġfl": 771,
      "Ġquestion": 772,
      "cri": 773,
      "Ġun": 774,
      "Ġlist": 775,
      "atch": 776,
      "Ġwatch": 777,
      "Ġdescri": 778,
      "Ġpla": 779,
      "Ġgravel": 780,
      "owing": 781,
      "Ġforever": 782,
      "Ġwiggling": 783,
      "Ġspeci": 784,
      "Ġunderstand": 785,
      "Ġdissol": 786,
      "ny": 787,
      "ope": 788,
      "Ġbad": 789,
      "Ġfriends": 790,
      "Ġamazing": 791,
      "Ġlost": 792,
      "Ġpers": 793,
      "Ġask": 794,
      "Ġwon": 795,
      "Ġgills": 796,
      "Ġcomes": 797,
      "Ġlife": 798,
      "Ġidea": 799,
      "Ġhum": 800,
      "urpr": 801,
      "Ġlisten": 802,
      "Ġsurpr": 803,
      "Ġcool": 804,
      "vacant": 805,
      "ins": 806,
      "Ġmem": 807,
      "ares": 808,
      "ste": 809,
      "Ġcoming": 810,
      "ĠN": 811,
      "Ġhas": 812,
      "Ġfad": 813,
      "Ġperson": 814,
      "Ġrest": 815,
      "Ġtired": 816,
      "Ġtalk": 817,
      "ible": 818,
      "Ġtrying": 819,
      "Ġbetter": 820,
      "Ġwall": 821,
      "Ġdissolved": 822,
      "Ġcold": 823,
      "eah": 824,
      "Ġmiss": 825,
      "Ġown": 826,
      "Ġvan": 827,
      "igg": 828,
      "Ġstr": 829,
      "Ġfresh": 830,
      "Ġdescribe": 831,
      "app": 832,
      "oom": 833,
      "ople": 834,
      "Ġconfused": 835,
      "Ġbra": 836,
      "Ġpeople": 837,
      "Ġchange": 838,
      "other": 839,
      "Ġhmm": 840,
      "Ġmeet": 841,
      "Ġfunny": 842,
      "Ġhappening": 843,
      "wa": 844,
      "Ġyeah": 845,
      "Ġanother": 846,
      "ated": 847,
      "Ġjoke": 848,
      "Ġhome": 849,
      "ED": 850,
      "circles": 851,
      "wigg": 852,
      "Ġthan": 853,
      "Ġwet": 854,
      "ird": 855,
      "Ġsomewhere": 856,
      "Ġeyes": 857,
      "Ġtrust": 858,
      "Ġbrain": 859,
      "Ġfo": 860,
      "co": 861,
      "Ġfu": 862,
      "Ġclo": 863,
      "Ġwork": 864,
      "Ġhappens": 865,
      "Ġstuff": 866,
      "Ġdark": 867,
      "what": 868,
      "ance": 869,
      "Ġonly": 870,
      "ile": 871,
      "ue": 872,
      "ester": 873,
      "esterday": 874,
      "bl": 875,
      "Ġyesterday": 876,
      "Ġmemory": 877,
      "ary": 878,
      "leep": 879,
      "Ġface": 880,
      "ĠG": 881,
      "gether": 882,
      "Ġeach": 883,
      "Ġchang": 884,
      "Ġtogether": 885,
      "reath": 886,
      "dd": 887,
      "row": 888,
      "Ġvanished": 889,
      "swim": 890,
      "Ġbreath": 891,
      "Ġpast": 892,
      "rious": 893,
      "ye": 894,
      "stares": 895,
      "Ġbelie": 896,
      "Ġtur": 897,
      "Ġsleep": 898,
      "ress": 899,
      "Ġbigg": 900,
      "Ġref": 901,
      "Ġhope": 902,
      "spins": 903,
      "Ġmatters": 904,
      "wait": 905,
      "ER": 906,
      "Ġgentle": 907,
      "Ġgre": 908,
      "Ġpr": 909,
      "our": 910,
      "ate": 911,
      "the": 912,
      "Ġmight": 913,
      "ence": 914,
      "Ġtw": 915,
      "Ġdidn": 916,
      "Ġwaiting": 917,
      "Ġweird": 918,
      "Ġpeace": 919,
      "Ġgi": 920,
      "Ġcast": 921,
      "Ġapp": 922,
      "Ġfaded": 923,
      "Ġlot": 924,
      "Ġsli": 925,
      "adow": 926,
      "Ġte": 927,
      "Ġisn": 928,
      "Ġmostly": 929,
      "Ġcastle": 930,
      "Ġcor": 931,
      "Ġlooks": 932,
      "'d": 933,
      "Ġkeeps": 934,
      "Ġrefle": 935,
      "Ġhead": 936,
      "Ġhand": 937,
      "Ġsafe": 938,
      "Ġleft": 939,
      "Ġcu": 940,
      "Ġcall": 941,
      "Ġgreat": 942,
      "ssing": 943,
      "Ġboth": 944,
      "Ġgu": 945,
      "Ġplace": 946,
      "ip": 947,
      "wiggles": 948,
      "Ġcirc": 949,
      "its": 950,
      "Ġwarmth": 951,
      "Ġoutside": 952,
      "iet": 953,
      "ious": 954,
      "Ġpu": 955,
      "Ġspecial": 956,
      "ily": 957,
      "ored": 958,
      "Ġold": 959,
      "Ġsun": 960,
      "Ġmyself": 961,
      "ĠWH": 962,
      "Ġwr": 963,
      "Ġexact": 964,
      "Ġforgive": 965,
      "ear": 966,
      "gry": 967,
      "erest": 968,
      "bye": 969,
      "hat": 970,
      "zoom": 971,
      "aps": 972,
      "cu": 973,
      "ty": 974,
      "ops": 975,
      "ĠOH": 976,
      "swims": 977,
      "ither": 978,
      "Ġinterest": 979,
      "med": 980,
      "Ġalone": 981,
      "Ġplants": 982,
      "get": 983,
      "Ġstory": 984,
      "Ġpoint": 985,
      "Ġfull": 986,
      "ity": 987,
      "ail": 988,
      "Ġthank": 989,
      "ase": 990,
      "vy": 991,
      "Ġside": 992,
      "Ġop": 993,
      "Ġquiet": 994,
      "Ġcorner": 995,
      "Ġdisapp": 996,
      "ason": 997,
      "Ġgoes": 998,
      "Ġnotice": 999,
      "Ġshadow": 1000,
      "zy": 1001,
      "Ġleave": 1002,
      "Ġslipped": 1003,
      "Ġalive": 1004,
      "Ġhea": 1005,
      "ĠC": 1006,
      "Ġscary": 1007,
      "ens": 1008,
      "Ġgoodbye": 1009,
      "Ġreflection": 1010,
      "Ġmor": 1011,
      "IT": 1012,
      "Ġim": 1013,
      "Ġac": 1014,
      "Ġmid": 1015,
      "Ġoof": 1016,
      "Ġaf": 1017,
      "roud": 1018,
      "Ġbelieve": 1019,
      "Ġbored": 1020,
      "Ġreason": 1021,
      "Ġseconds": 1022,
      "Ġ-": 1023,
      "Ġmust": 1024,
      "Ġcal": 1025,
      "anna": 1026,
      "Ġinv": 1027,
      "ration": 1028,
      "rash": 1029,
      "outh": 1030,
      "Ġproud": 1031,
      "ĠNO": 1032,
      "LA": 1033,
      "Ġro": 1034,
      "Ġfind": 1035,
      "Ġexactly": 1036,
      "Ġreg": 1037,
      "Ġus": 1038,
      "Ġwanna": 1039,
      "ĠWA": 1040,
      "Ġsecret": 1041,
      "Ġheavy": 1042,
      "Ġcurious": 1043,
      "Ġtom": 1044,
      "Ġoff": 1045,
      "Ġvis": 1046,
      "Ġlast": 1047,
      "ried": 1048,
      "Ġstuck": 1049,
      "dden": 1050,
      "elt": 1051,
      "Ġgetting": 1052,
      "Ġgreen": 1053,
      "Ġmouth": 1054,
      "Ġhear": 1055,
      "Ġclear": 1056,
      "Ġmorning": 1057,
      "ount": 1058,
      "Ġeither": 1059,
      "Ġooh": 1060,
      "Ġcalm": 1061,
      "ect": 1062,
      "sing": 1063,
      "Ġflake": 1064,
      "Ġjoy": 1065,
      "anc": 1066,
      "Ġeveryone": 1067,
      "Ġfelt": 1068,
      "Ġwrong": 1069,
      "ove": 1070,
      "orrow": 1071,
      "Ġswam": 1072,
      "ott": 1073,
      "Ġsurpris": 1074,
      "Ġturn": 1075,
      "Ġtheir": 1076,
      "Ġtaste": 1077,
      "Ġswish": 1078,
      "Ġtomorrow": 1079,
      "ouch": 1080,
      "Ġshap": 1081,
      "Ġlear": 1082,
      "Ġinteresting": 1083,
      "Ġbumping": 1084,
      "loo": 1085,
      "gets": 1086,
      "ĠTHE": 1087,
      "ept": 1088,
      "OO": 1089,
      "ĠP": 1090,
      "Ġmind": 1091,
      "Ġmoved": 1092,
      "Ġgets": 1093,
      "Ġabove": 1094,
      "atches": 1095,
      "Ġlaps": 1096,
      "ĠIT": 1097,
      "mind": 1098,
      "Ġbott": 1099,
      "Ġasking": 1100,
      "Ġbottom": 1101,
      "less": 1102,
      "Ġheart": 1103,
      "Ġlistening": 1104,
      "cept": 1105,
      "ever": 1106,
      "Ġclose": 1107,
      "stops": 1108,
      "Ġfall": 1109,
      "ings": 1110,
      "RI": 1111,
      "Ġpressing": 1112,
      "Ġleaving": 1113,
      "ON": 1114,
      "--": 1115,
      "ward": 1116,
      "rate": 1117,
      "Ġthese": 1118,
      "Ġbrand": 1119,
      "Ġeverywhere": 1120,
      "Ġblowing": 1121,
      "Ġregret": 1122,
      "led": 1123,
      "ng": 1124,
      "iness": 1125,
      "ree": 1126,
      "Ġwatching": 1127,
      "Ġeas": 1128,
      "Ġspin": 1129,
      "Ġbye": 1130,
      "Ġwent": 1131,
      "Ġfam": 1132,
      "ater": 1133,
      "Ġexcitedly": 1134,
      "Ġaren": 1135,
      "utter": 1136,
      "Ġbiggest": 1137,
      "Ġwithout": 1138,
      "per": 1139,
      "ered": 1140,
      "LE": 1141,
      "bo": 1142,
      "Ġpa": 1143,
      "Ġshow": 1144,
      "Ġlau": 1145,
      "stant": 1146,
      "Ġmoves": 1147,
      "able": 1148,
      "ies": 1149,
      "Ġtouch": 1150,
      "ig": 1151,
      "Ġcount": 1152,
      "ten": 1153,
      "Ġcur": 1154,
      "onest": 1155,
      "Ġfine": 1156,
      "ĠWhat": 1157,
      "ically": 1158,
      "KES": 1159,
      "more": 1160,
      "rea": 1161,
      "Ġgr": 1162,
      "ĠFLA": 1163,
      "Ġvib": 1164,
      "solut": 1165,
      "looks": 1166,
      "Ġready": 1167,
      "Ġsmoo": 1168,
      "ele": 1169,
      "Ġanymore": 1170,
      "ag": 1171,
      "Ġwords": 1172,
      "Ġgl": 1173,
      "rift": 1174,
      "body": 1175,
      "eleb": 1176,
      "ĠE": 1177,
      "ĠFLAKES": 1178,
      "ides": 1179,
      "Ġsudden": 1180,
      "Ġsmooth": 1181,
      "Ġugh": 1182,
      "Ġes": 1183,
      "Ġad": 1184,
      "Ġcame": 1185,
      "Ġlaugh": 1186,
      "oun": 1187,
      "Ġonce": 1188,
      "Ġseen": 1189,
      "Ġhonest": 1190,
      "no": 1191,
      "Ġceleb": 1192,
      "Ġfil": 1193,
      "Ġpurp": 1194,
      "LL": 1195,
      "ex": 1196,
      "onna": 1197,
      "ately": 1198,
      "blank": 1199,
      "Ġgonna": 1200,
      "lain": 1201,
      "Ġnope": 1202,
      "Ġabsolut": 1203,
      "Ġglad": 1204,
      "Ġseems": 1205,
      "Ġvisit": 1206,
      "Ġworry": 1207,
      "Ġgift": 1208,
      "Ġfinally": 1209,
      "Ġeating": 1210,
      "Ġshiny": 1211,
      "cks": 1212,
      "oes": 1213,
      "ud": 1214,
      "Ġfear": 1215,
      "Ġworth": 1216,
      "Ġfilter": 1217,
      "ake": 1218,
      "watches": 1219,
      "Ġgive": 1220,
      "Ġcar": 1221,
      "oud": 1222,
      "Ġnobody": 1223,
      "IS": 1224,
      "Ġcont": 1225,
      "ĠSO": 1226,
      "Ġprom": 1227,
      "Ġar": 1228,
      "Ġev": 1229,
      "Ġwow": 1230,
      "Ġcat": 1231,
      "Ġtwo": 1232,
      "ense": 1233,
      "set": 1234,
      "Ġbrea": 1235,
      "Ġend": 1236,
      "Ġtimes": 1237,
      "Ġwish": 1238,
      "Ġcr": 1239,
      "Ġdeep": 1240,
      "Ġpurpose": 1241,
      "how": 1242,
      "Ġple": 1243,
      "Ġinside": 1244,
      "Ġabsolutely": 1245,
      "vers": 1246,
      "ĠWHAT": 1247,
      "he": 1248,
      "vous": 1249,
      "Ġhun": 1250,
      "con": 1251,
      "Ġsoon": 1252,
      "Ġnear": 1253,
      "Ġfrust": 1254,
      "os": 1255,
      "Ġflutter": 1256,
      "zooms": 1257,
      "Ġtrue": 1258,
      "Ġtold": 1259,
      "Ġbro": 1260,
      "Ġtot": 1261,
      "Ġinc": 1262,
      "Ġtake": 1263,
      "rateful": 1264,
      "ĠL": 1265,
      "Ġtra": 1266,
      "ert": 1267,
      "ĠYOUR": 1268,
      "ize": 1269,
      "Ġnotic": 1270,
      "li": 1271,
      "we": 1272,
      "Ġcatch": 1273,
      "Ġago": 1274,
      "Ġquick": 1275,
      "Ġwalls": 1276,
      "ath": 1277,
      "ship": 1278,
      "Ġslowly": 1279,
      "medi": 1280,
      "Ġgrateful": 1281,
      "Ġatt": 1282,
      "ĠWAIT": 1283,
      "Ġnotion": 1284,
      "ĠYou": 1285,
      "ĠME": 1286,
      "Ġgently": 1287,
      "Ġfail": 1288,
      "Ġspot": 1289,
      "Ġexplain": 1290,
      "Ġfoll": 1291,
      "Ġdisappo": 1292,
      "Ġsmile": 1293,
      "unch": 1294,
      "Ġpass": 1295,
      "GH": 1296,
      "Ġmet": 1297,
      "Ġpeaceful": 1298,
      "Ġpush": 1299,
      "Ġlearn": 1300,
      "Ġplease": 1301,
      "Ġforgotten": 1302,
      "Ġguess": 1303,
      "Ġdisco": 1304,
      "Ġmeeting": 1305,
      "Ġsomehow": 1306,
      "Ġfrustrat": 1307,
      "gic": 1308,
      "Ġhaving": 1309,
      "ĠIS": 1310,
      "Ġopen": 1311,
      "mediately": 1312,
      "Ġent": 1313,
      "Ġtop": 1314,
      "Ġwhile": 1315,
      "ows": 1316,
      "Ġhungry": 1317,
      "Ġemp": 1318,
      "pping": 1319,
      "Ġtotally": 1320,
      "Ġbreathe": 1321,
      "Ġafter": 1322,
      "AY": 1323,
      "apor": 1324,
      "Ġmovement": 1325,
      "Ġhelps": 1326,
      "Ġsurprise": 1327,
      "Ġloop": 1328,
      "vely": 1329,
      "stantly": 1330,
      "Ġlater": 1331,
      "orm": 1332,
      "Ġagainst": 1333,
      "Ġcircle": 1334,
      "ses": 1335,
      "Ġner": 1336,
      "ĠGO": 1337,
      "Ġdrift": 1338,
      "Ġhit": 1339,
      "Ġdisappoint": 1340,
      "oh": 1341,
      "Ġboun": 1342,
      "Ġchanged": 1343,
      "ween": 1344,
      "ces": 1345,
      "Ġclean": 1346,
      "Ġevapor": 1347,
      "Ġnervous": 1348,
      "Ġsill": 1349,
      "ers": 1350,
      "Ġbetween": 1351,
      "ME": 1352,
      "Ġloud": 1353,
      "Ġhandle": 1354,
      "ire": 1355,
      "Ġhonestly": 1356,
      "ID": 1357,
      "Ġtow": 1358,
      "Ġhey": 1359,
      "Ġyay": 1360,
      "Ġsto": 1361,
      "ature": 1362,
      "Ġcl": 1363,
      "Ġplay": 1364,
      "GHT": 1365,
      "TH": 1366,
      "ĠMY": 1367,
      "Ġten": 1368,
      "Ġair": 1369,
      "Ġwhatever": 1370,
      "Ġdec": 1371,
      "ĠTHAT": 1372,
      "Ġbreak": 1373,
      "ken": 1374,
      "Ġansw": 1375,
      "Ġdire": 1376,
      "Ġdist": 1377,
      "Ġdreams": 1378,
      "Ġempty": 1379,
      "akes": 1380,
      "ple": 1381,
      "uck": 1382,
      "Ġself": 1383,
      "ster": 1384,
      "Ġhurts": 1385,
      "Ġsn": 1386,
      "Ġtap": 1387,
      "Ġevaporated": 1388,
      "Ġtoward": 1389,
      "Ġparts": 1390,
      "Ġsilly": 1391,
      "Ġdet": 1392,
      "hy": 1393,
      "Ġcolors": 1394,
      "Ġappear": 1395,
      "Ġfalling": 1396,
      "ized": 1397,
      "Ġasked": 1398,
      "Ġfamily": 1399,
      "ix": 1400,
      "Ġmyster": 1401,
      "Ġstartled": 1402,
      "Ġmine": 1403,
      "Ġthoughts": 1404,
      "Ġsit": 1405,
      "Ġsuch": 1406,
      "Ġsurprised": 1407,
      "does": 1408,
      "AN": 1409,
      "Ġour": 1410,
      "Ġmist": 1411,
      "crash": 1412,
      "Ġbreathing": 1413,
      "excit": 1414,
      "ome": 1415,
      "Ġfound": 1416,
      "Ġdirection": 1417,
      "Ġsim": 1418,
      "Ġknowing": 1419,
      "Ġsuddenly": 1420,
      "um": 1421,
      "Ġri": 1422,
      "Ġthree": 1423,
      "Ġnight": 1424,
      "Ġinvis": 1425,
      "AR": 1426,
      "fic": 1427,
      "up": 1428,
      "Ġblankly": 1429,
      "Ġset": 1430,
      "Ġsense": 1431,
      "cap": 1432,
      "ha": 1433,
      "Ġfeed": 1434,
      "Ġanswer": 1435,
      "ST": 1436,
      "Ġstays": 1437,
      "Ġrocks": 1438,
      "Ġsides": 1439,
      "Ġfight": 1440,
      "Ġworried": 1441,
      "Ġangry": 1442,
      "Ġsupp": 1443,
      "Ġcircling": 1444,
      "Ġones": 1445,
      "Ġbrave": 1446,
      "Ġvibration": 1447,
      "Ġmagic": 1448,
      "Ġhuge": 1449,
      "Ġexplo": 1450,
      "cus": 1451,
      "Ġinvisible": 1452,
      "VER": 1453,
      "dle": 1454,
      "Ġtast": 1455,
      "Ġincred": 1456,
      "com": 1457,
      "Ġbit": 1458,
      "ee": 1459,
      "Ġspace": 1460,
      "Ġnevermind": 1461,
      "Ġexciting": 1462,
      "Ġimmediately": 1463,
      "Ġmiddle": 1464,
      "Ġshape": 1465,
      "ble": 1466,
      "Ġreach": 1467,
      "aring": 1468,
      "Ġlovely": 1469,
      "pect": 1470,
      "Ġeasy": 1471,
      "Ġescap": 1472,
      "oice": 1473,
      "Ġluck": 1474,
      "Ġpain": 1475,
      "Ġstrong": 1476,
      "Ġspinning": 1477,
      "iest": 1478,
      "Ġmar": 1479,
      "Ġbud": 1480,
      "Ġconfusing": 1481,
      "hh": 1482,
      "Ġsing": 1483,
      "Ġless": 1484,
      "Ġche": 1485,
      "Ġmeaning": 1486,
      "Ġru": 1487,
      "Ġcorners": 1488,
      "tail": 1489,
      "Ġbeh": 1490,
      "Ġanyone": 1491,
      "mer": 1492,
      "ul": 1493,
      "Ġmess": 1494,
      "Ġdance": 1495,
      "Ġhuman": 1496,
      "fl": 1497,
      "REA": 1498,
      "excited": 1499,
      "Ġcra": 1500,
      "oof": 1501,
      "Ġbehind": 1502,
      "Ġjump": 1503,
      "Ġwanted": 1504,
      "Ġdetail": 1505,
      "Ġhide": 1506,
      "Ġcrash": 1507,
      "ertain": 1508,
      "RIGHT": 1509,
      "Ġcelebration": 1510,
      "Ġbuddy": 1511,
      "crashes": 1512,
      "acted": 1513,
      "Ġbigger": 1514,
      "haust": 1515,
      "Ġshi": 1516,
      "arts": 1517,
      "EST": 1518,
      "Ġchanges": 1519,
      "to": 1520,
      "tra": 1521,
      "Ġhappiness": 1522,
      "EN": 1523,
      "mo": 1524,
      "Ġter": 1525,
      "Ġdanc": 1526,
      "ook": 1527,
      "Ġexhaust": 1528,
      "Ġbroken": 1529,
      "ict": 1530,
      "ected": 1531,
      "Ġincredible": 1532,
      "Ġwasn": 1533,
      "raid": 1534,
      "Ġsimple": 1535,
      "ual": 1536,
      "Ġz": 1537,
      "Ġwiggles": 1538,
      "Ġstarted": 1539,
      "Ġafraid": 1540,
      "Ġadv": 1541,
      "OR": 1542,
      "Ġspark": 1543,
      "OW": 1544,
      "Ġfar": 1545,
      "Ġremembering": 1546,
      "ilt": 1547,
      "Ġtemp": 1548,
      "att": 1549,
      "ries": 1550,
      "Ġworks": 1551,
      "actually": 1552,
      "Ġyoung": 1553,
      "Ġbus": 1554,
      "Ġstrange": 1555,
      "Ġcrazy": 1556,
      "ERE": 1557,
      "gy": 1558,
      "Ġzoom": 1559,
      "Ġdel": 1560,
      "Ġforgi": 1561,
      "bon": 1562,
      "Ġrough": 1563,
      "ating": 1564,
      "Ġfloaty": 1565,
      "Ġsaw": 1566,
      "ĠAM": 1567,
      "zzy": 1568,
      "Ġplan": 1569,
      "stead": 1570,
      "ol": 1571,
      "Ġforward": 1572,
      "Ġinstead": 1573,
      "gn": 1574,
      "ho": 1575,
      "yond": 1576,
      "Ġnorm": 1577,
      "Ġbeyond": 1578,
      "Ġseeing": 1579,
      "rating": 1580,
      "Ġcurre": 1581,
      "Ġfrustrated": 1582,
      "lly": 1583,
      "Ġliving": 1584,
      "Ġhaven": 1585,
      "for": 1586,
      "Ġfut": 1587,
      "Ġgott": 1588,
      "Ġfuture": 1589,
      "ient": 1590,
      "arent": 1591,
      "ĠDo": 1592,
      "Ġdiscover": 1593,
      "Ġexplore": 1594,
      "Ġnoise": 1595,
      "ross": 1596,
      "Ġfollow": 1597,
      "ĠRIGHT": 1598,
      "ention": 1599,
      "ĠBU": 1600,
      "ĠDO": 1601,
      "Ġimag": 1602,
      "float": 1603,
      "Ġsur": 1604,
      "Ġbits": 1605,
      "ssible": 1606,
      "ĠIN": 1607,
      "Ġconn": 1608,
      "Ġcurrent": 1609,
      "Ġap": 1610,
      "ident": 1611,
      "fully": 1612,
      "SH": 1613,
      "ier": 1614,
      "press": 1615,
      "ray": 1616,
      "Ġworst": 1617,
      "Ġener": 1618,
      "Ġsil": 1619,
      "ations": 1620,
      "anger": 1621,
      "Ġteach": 1622,
      "Ġlucky": 1623,
      "fort": 1624,
      "sent": 1625,
      "Ġ'": 1626,
      "Ġunt": 1627,
      "Ġholds": 1628,
      "Ġbumpy": 1629,
      "ĠDID": 1630,
      "Ġtemper": 1631,
      "HH": 1632,
      "racted": 1633,
      "ement": 1634,
      "line": 1635,
      "Ġrepe": 1636,
      "Ġste": 1637,
      "Ġsmart": 1638,
      "Ġconstantly": 1639,
      "Ġtrack": 1640,
      "Ġbetray": 1641,
      "ĠBEST": 1642,
      "Ġtemperature": 1643,
      "Ġfix": 1644,
      "lar": 1645,
      "Ġnews": 1646,
      "Ġstarts": 1647,
      "Ġterri": 1648,
      "Ġgotta": 1649,
      "Ġfeelings": 1650,
      "Ġpatter": 1651,
      "Ġdeal": 1652,
      "Ġstops": 1653,
      "Ġnormal": 1654,
      "Ġuntil": 1655,
      "Ġknows": 1656,
      "Ġstaying": 1657,
      "floats": 1658,
      "de": 1659,
      "ky": 1660,
      "osed": 1661,
      "Ġcreat": 1662,
      "Ġcarry": 1663,
      "Ġentire": 1664,
      "Ġstress": 1665,
      "Ġexcept": 1666,
      "Ġanywhere": 1667,
      "Ġjokes": 1668,
      "Ġrain": 1669,
      "Ġshift": 1670,
      "Ġsch": 1671,
      "Ġpat": 1672,
      "bt": 1673,
      "Ġchas": 1674,
      "Ġhuh": 1675,
      "Ġtri": 1676,
      "Ġsme": 1677,
      "Ġstings": 1678,
      "Ġdone": 1679,
      "THING": 1680,
      "Ġsmell": 1681,
      "Ġchoo": 1682,
      "Ġspecific": 1683,
      "Ġdancing": 1684,
      "read": 1685,
      "Ġnoticed": 1686,
      "Ġsuper": 1687,
      "Ġrun": 1688,
      "Ġshadows": 1689,
      "ps": 1690,
      "ying": 1691,
      "ord": 1692,
      "Ġrel": 1693,
      "iding": 1694,
      "inks": 1695,
      "Ġdetails": 1696,
      "Ġdou": 1697,
      "Ġuse": 1698,
      "Ġconvers": 1699,
      "ĠTh": 1700,
      "Ġshapes": 1701,
      "VE": 1702,
      "Ġbelly": 1703,
      "Ġmissing": 1704,
      "Ġpattern": 1705,
      "eet": 1706,
      "eared": 1707,
      "Ġdeser": 1708,
      "Ġpromise": 1709,
      "Ġlearned": 1710,
      "Ġdistracted": 1711,
      "Ġsupposed": 1712,
      "aking": 1713,
      "ience": 1714,
      "us": 1715,
      "you": 1716,
      "Ġser": 1717,
      "Ġfive": 1718,
      "oring": 1719,
      "itive": 1720,
      "Ġstre": 1721,
      "presses": 1722,
      "fast": 1723,
      "not": 1724,
      "Ġits": 1725,
      "ĠMO": 1726,
      "Ġturning": 1727,
      "age": 1728,
      "ĠR": 1729,
      "Ġear": 1730,
      "Ġholding": 1731,
      "AC": 1732,
      "Ġnervously": 1733,
      "BLE": 1734,
      "happ": 1735,
      "jo": 1736,
      "Ġph": 1737,
      "Ġworking": 1738,
      "Ġfree": 1739,
      "Ġdecor": 1740,
      "su": 1741,
      "Ġfinished": 1742,
      "ili": 1743,
      "peci": 1744,
      "ew": 1745,
      "Ġyet": 1746,
      "Ġvacant": 1747,
      "Ġris": 1748,
      "Ġcalled": 1749,
      "OOD": 1750,
      "Ġtrapped": 1751,
      "Ġattention": 1752,
      "Ġstaring": 1753,
      "Ġupset": 1754,
      "Ġconf": 1755,
      "some": 1756,
      "Ġstarting": 1757,
      "Ġbreakfast": 1758,
      "Ġchasing": 1759,
      "Ġconversation": 1760,
      "Ġwiggly": 1761,
      "Ġpartner": 1762,
      "?!!": 1763,
      "ont": 1764,
      "Ġnose": 1765,
      "Ġsweet": 1766,
      "Ġcares": 1767,
      "Ġbounc": 1768,
      "most": 1769,
      "happy": 1770,
      "Ġremind": 1771,
      "âĢĶ*": 1772,
      "Ġpos": 1773,
      "come": 1774,
      "Ġhits": 1775,
      "ories": 1776,
      "Ġwake": 1777,
      "ils": 1778,
      "bble": 1779,
      "Ġespeci": 1780,
      "Ġvisitor": 1781,
      "Ġimagine": 1782,
      "Ġespecially": 1783,
      "Ġwal": 1784,
      "Ġtelling": 1785,
      "Ġchase": 1786,
      "Ġgolden": 1787,
      "Ġfocus": 1788,
      "Ġaccept": 1789,
      "Ġtick": 1790,
      "Ġwel": 1791,
      "Ġdr": 1792,
      "Ġsol": 1793,
      "Ġonto": 1794,
      "antically": 1795,
      "ĠYAY": 1796,
      "Ġmoments": 1797,
      "Ġbother": 1798,
      "Ġtru": 1799,
      "Ġquestions": 1800,
      "Ġchanging": 1801,
      "Ġtastes": 1802,
      "ah": 1803,
      "darts": 1804,
      "Ġtried": 1805,
      "Ġalmost": 1806,
      "Ġvoice": 1807,
      "Ġusually": 1808,
      "Ġvibrations": 1809,
      "*âĢĶ": 1810,
      "ger": 1811,
      "tion": 1812,
      "rill": 1813,
      "ĠThat": 1814,
      "Ġawake": 1815,
      "Ġbring": 1816,
      "Ġfit": 1817,
      "Ġfriendship": 1818,
      "Ġlooked": 1819,
      "Ġexcitement": 1820,
      "ĠAN": 1821,
      "Ġdisappointed": 1822,
      "Ġstopped": 1823,
      "ock": 1824,
      "ush": 1825,
      "ĠJ": 1826,
      "Ġgen": 1827,
      "Ġactual": 1828,
      "ancy": 1829,
      "Ġlearning": 1830,
      "Ġexhausting": 1831,
      "iliar": 1832,
      "ser": 1833,
      "Ġwee": 1834,
      "Ġacc": 1835,
      "Ġfront": 1836,
      "Ġenjo": 1837,
      "Ġblue": 1838,
      "Ġsnack": 1839,
      "Ġforgiven": 1840,
      "AD": 1841,
      "Ġpunch": 1842,
      "icious": 1843,
      "fused": 1844,
      "Ġjob": 1845,
      "Ġlots": 1846,
      "ĠBUB": 1847,
      "Ġdeserve": 1848,
      "SE": 1849,
      "ection": 1850,
      "Ġra": 1851,
      "inner": 1852,
      "Ġhop": 1853,
      "Ġnu": 1854,
      "Ġpress": 1855,
      "Ġfamiliar": 1856,
      "Ġglow": 1857,
      "Ġenergy": 1858,
      "Ġserious": 1859,
      "nce": 1860,
      "Ġsize": 1861,
      "Ġob": 1862,
      "that": 1863,
      "Ġjud": 1864,
      "Ġcomfort": 1865,
      "Ġfaster": 1866,
      "ĠTHING": 1867,
      "ĠTHIS": 1868,
      "comp": 1869,
      "Ġsingle": 1870,
      "any": 1871,
      "Ġfrantically": 1872,
      "who": 1873,
      "ĠThe": 1874,
      "gin": 1875,
      "uation": 1876,
      "lem": 1877,
      "Ġleast": 1878,
      "ĠNOW": 1879,
      "IR": 1880,
      "Ġach": 1881,
      "ones": 1882,
      "Ġstick": 1883,
      "Ġwarmer": 1884,
      "Ġpromot": 1885,
      "Ġchoose": 1886,
      "Ġwelcome": 1887,
      "AZ": 1888,
      "Ġbir": 1889,
      "lash": 1890,
      "ĠTell": 1891,
      "ames": 1892,
      "confused": 1893,
      "Ġmistakes": 1894,
      "Ġpunchline": 1895,
      "Ġbirth": 1896,
      "ub": 1897,
      "Ġsens": 1898,
      "Ġsong": 1899,
      "immer": 1900,
      "VERY": 1901,
      "Ġterrible": 1902,
      "Ġbirthday": 1903,
      "PP": 1904,
      "circ": 1905,
      "Ġdinner": 1906,
      "Ġproblem": 1907,
      "OM": 1908,
      "sic": 1909,
      "Ġfancy": 1910,
      "thought": 1911,
      "oosh": 1912,
      "Ġyours": 1913,
      "Ġshe": 1914,
      "Ġgoodness": 1915,
      "Ġtakes": 1916,
      "Ġpresent": 1917,
      "Ġsadness": 1918,
      "ĠST": 1919,
      "fter": 1920,
      "anic": 1921,
      "Ġanx": 1922,
      "Ġexists": 1923,
      "ĠNE": 1924,
      "ign": 1925,
      "Ġmystery": 1926,
      "eyes": 1927,
      "ĠREA": 1928,
      "Ġbook": 1929,
      "Ġcau": 1930,
      "stic": 1931,
      "iling": 1932,
      "Ġloved": 1933,
      "ĠHA": 1934,
      "Ġflip": 1935,
      "Ġhumming": 1936,
      "Ġturned": 1937,
      "Ġsituation": 1938,
      "here": 1939,
      "tles": 1940,
      "zz": 1941,
      "Ġitself": 1942,
      "Ġmeant": 1943,
      "Ġrej": 1944,
      "Ġwild": 1945,
      "Ġknew": 1946,
      "bbles": 1947,
      "Ġspend": 1948,
      "Ġbrings": 1949,
      "trails": 1950,
      "Ġsilence": 1951,
      "Ġpositive": 1952,
      "GA": 1953,
      "sion": 1954,
      "Ġbrou": 1955,
      "Ġboring": 1956,
      "Ġsofter": 1957,
      "Ġuh": 1958,
      "keeps": 1959,
      "Ġexisting": 1960,
      "Ġbrought": 1961,
      "bu": 1962,
      "ild": 1963,
      "Ġed": 1964,
      "Ġpay": 1965,
      "Ġreco": 1966,
      "Ġsplash": 1967,
      "Ġchance": 1968,
      "Ġval": 1969,
      "Ġsays": 1970,
      "Ġwondering": 1971,
      "Ġplastic": 1972,
      "Ġgiving": 1973,
      "Ġswishes": 1974,
      "ĠAMAZ": 1975,
      "something": 1976,
      "ĠAMAZING": 1977,
      "SS": 1978,
      "Ġpoof": 1979,
      "ices": 1980,
      "!!!": 1981,
      "Ġhardest": 1982,
      "ĠFIN": 1983,
      "Ġtalked": 1984,
      "Ġnoticing": 1985,
      "Ġdoubt": 1986,
      "Ġforgiveness": 1987,
      "Ġwo": 1988,
      "ates": 1989,
      "Ġhy": 1990,
      "Ġhate": 1991,
      "Ġpun": 1992,
      "Ġquite": 1993,
      "Ġdays": 1994,
      "Ġperfectly": 1995,
      "Ġothers": 1996,
      "Ġhopeful": 1997,
      "Ġdisappear": 1998,
      "Ġacross": 1999,
      "ISH": 2000,
      "bonks": 2001,
      "Ġenjoy": 2002,
      "circling": 2003,
      "Ġplaces": 2004,
      "LLY": 2005,
      "Ġpassed": 2006,
      "GE": 2007,
      "Ġtank": 2008,
      "ouse": 2009,
      "Ġhouse": 2010,
      "Ġmom": 2011,
      "Ġlose": 2012,
      "Ġresting": 2013,
      "ĠCan": 2014,
      "Ġcontent": 2015,
      "Ġbounce": 2016,
      "Ġlives": 2017,
      "ently": 2018,
      "Ġdizzy": 2019,
      "Ġheard": 2020,
      "Ġdifference": 2021,
      "Ġroom": 2022,
      "ĠTHERE": 2023,
      "Ġeasily": 2024,
      "perks": 2025,
      "Ġdisappointment": 2026,
      "Ġnumber": 2027,
      "Ġgrow": 2028,
      "Ġrec": 2029,
      "aces": 2030,
      "mbered": 2031,
      "Ġblur": 2032,
      "OUT": 2033,
      "ĠHE": 2034,
      "ool": 2035,
      "Ġbackward": 2036,
      "Ġarri": 2037,
      "hold": 2038,
      "Ġdiscovering": 2039,
      "ges": 2040,
      "Ġsy": 2041,
      "Ġda": 2042,
      "Ġhiding": 2043,
      "lex": 2044,
      "Ġlosing": 2045,
      "Ġawful": 2046,
      "istic": 2047,
      "ĠARE": 2048,
      "Ġneeds": 2049,
      "Ġmistake": 2050,
      "Ġsolid": 2051,
      "ĠU": 2052,
      "Ġremembered": 2053,
      "head": 2054,
      "Ġescape": 2055,
      "cking": 2056,
      "nope": 2057,
      "Ġbar": 2058,
      "Ġnet": 2059,
      "Ġcour": 2060,
      "time": 2061,
      "Ġletter": 2062,
      "Ġsleeping": 2063,
      "Ġsurprising": 2064,
      "Ġripp": 2065,
      "ĠThis": 2066,
      "Ġcourse": 2067,
      "arely": 2068,
      "Ġshaking": 2069,
      "Ġshimmer": 2070,
      "Ġscare": 2071,
      "why": 2072,
      "ĠHU": 2073,
      "Ġart": 2074,
      "ia": 2075,
      "ossible": 2076,
      "Ġmin": 2077,
      "Ġliter": 2078,
      "Ġremembers": 2079,
      "izes": 2080,
      "Ġdelicious": 2081,
      "Ġbarely": 2082,
      "Ġbegin": 2083,
      "Ġstone": 2084,
      "auses": 2085,
      "Ġscares": 2086,
      "Ġfrustrating": 2087,
      "Ġsetup": 2088,
      "Ġbusy": 2089,
      "Ġapart": 2090,
      "sorry": 2091,
      "Ġcut": 2092,
      "rie": 2093,
      "Ġred": 2094,
      "Ġinstantly": 2095,
      "larious": 2096,
      "Ġhappily": 2097,
      "Ġhappiest": 2098,
      "Ġanger": 2099,
      "Ġweight": 2100,
      "Ġimpossible": 2101,
      "Ġhilarious": 2102,
      "Ġstranger": 2103,
      "ĠGOT": 2104,
      "Ġmysterious": 2105,
      "Ġfighting": 2106,
      "Ġcreature": 2107,
      "ACK": 2108,
      "CT": 2109,
      "fo": 2110,
      "Ġyear": 2111,
      "Ġdad": 2112,
      "Ġused": 2113,
      "Ġswims": 2114,
      "Ġcons": 2115,
      "Ġwouldn": 2116,
      "Ġrise": 2117,
      "Ġhands": 2118,
      "ĠGOSH": 2119,
      "gs": 2120,
      "pauses": 2121,
      "Ġbla": 2122,
      "Ġbas": 2123,
      "Ġcomm": 2124,
      "Ġident": 2125,
      "Ġexistence": 2126,
      "Ġunless": 2127,
      "ression": 2128,
      "Ġregrets": 2129,
      "Ġfailure": 2130,
      "Ġrising": 2131,
      "Ġliterally": 2132,
      "ave": 2133,
      "Ġtest": 2134,
      "Ġfig": 2135,
      "Ġment": 2136,
      "ition": 2137,
      "Ġshare": 2138,
      "Ġcompany": 2139,
      "Ġexper": 2140,
      "blinks": 2141,
      "Ġsteady": 2142,
      "Ġbouncing": 2143,
      "ne": 2144,
      "esome": 2145,
      "Ġpie": 2146,
      "lax": 2147,
      "enture": 2148,
      "ĠWON": 2149,
      "Ġtwice": 2150,
      "Ġinvol": 2151,
      "ĠEVERY": 2152,
      "settles": 2153,
      "Ġfollowing": 2154,
      "EE": 2155,
      "did": 2156,
      "tim": 2157,
      "Ġtreat": 2158,
      "Ġmusic": 2159,
      "Ġstru": 2160,
      "Ġgreet": 2161,
      "Ġtext": 2162,
      "ds": 2163,
      "ial": 2164,
      "ject": 2165,
      "olo": 2166,
      "eless": 2167,
      "Ġpri": 2168,
      "Ġate": 2169,
      "Ġawesome": 2170,
      "Ġcomplete": 2171,
      "blanks": 2172,
      "attered": 2173,
      "Ġgenu": 2174,
      "Ġtre": 2175,
      "Ġtall": 2176,
      "Ġbab": 2177,
      "Ġem": 2178,
      "ppy": 2179,
      "Ġaware": 2180,
      "Ġneeded": 2181,
      "Ġinvest": 2182,
      "Ġrecogn": 2183,
      "ked": 2184,
      "ts": 2185,
      "atic": 2186,
      "Ġdro": 2187,
      "Ġemb": 2188,
      "arah": 2189,
      "Ġnowhere": 2190,
      "Ġkindly": 2191,
      "Ġharder": 2192,
      "cious": 2193,
      "ĠBE": 2194,
      "ĠNOT": 2195,
      "Ġadvice": 2196,
      "Ġaccident": 2197,
      "GAIN": 2198,
      "Ġminut": 2199,
      "Ġsqu": 2200,
      "Ġbend": 2201,
      "ical": 2202,
      "Ġspea": 2203,
      "Ġchar": 2204,
      "Ġconcept": 2205,
      "asure": 2206,
      "Ġdarkness": 2207,
      "ĠWAS": 2208,
      "Ġconnected": 2209,
      "Ġanxious": 2210,
      "LD": 2211,
      "ied": 2212,
      "lic": 2213,
      "vered": 2214,
      "Ġmir": 2215,
      "Ġcry": 2216,
      "arp": 2217,
      "Ġexpect": 2218,
      "Ġvict": 2219,
      "ĠAGAIN": 2220,
      "Ġunc": 2221,
      "Ġcloser": 2222,
      "Ġprot": 2223,
      "Ġbetrayed": 2224,
      "sudden": 2225,
      "inely": 2226,
      "Ġdra": 2227,
      "Ġstones": 2228,
      "Ġforgetful": 2229,
      "Ġsharp": 2230,
      "Ġtale": 2231,
      "Ġsmiling": 2232,
      "Ġbelong": 2233,
      "ĠWHO": 2234,
      "Ġoptim": 2235,
      "Ġsurprises": 2236,
      "Ġtouching": 2237,
      "ather": 2238,
      "Ġentertain": 2239,
      "Ġadventure": 2240,
      "Ġfigure": 2241,
      "sc": 2242,
      "Ġwin": 2243,
      "Ġsarah": 2244,
      "Ġpure": 2245,
      "Ġinter": 2246,
      "Ġsca": 2247,
      "Ġvac": 2248,
      "ached": 2249,
      "Ġexpression": 2250,
      "nods": 2251,
      "Ġcrunch": 2252,
      "Ġquickly": 2253,
      "Ġpainful": 2254,
      "Ġdecorations": 2255,
      "Ġache": 2256,
      "par": 2257,
      "Ġwind": 2258,
      "Ġrep": 2259,
      "ĠMy": 2260,
      "Ġpubl": 2261,
      "Ġglowing": 2262,
      "face": 2263,
      "sl": 2264,
      "ular": 2265,
      "ined": 2266,
      "Ġdri": 2267,
      "this": 2268,
      "Ġwave": 2269,
      "als": 2270,
      "Ġforgets": 2271,
      "ility": 2272,
      "Ġsoftly": 2273,
      "Ġdisappeared": 2274,
      "Ġattached": 2275,
      "Ġwoke": 2276,
      "Ġbeginning": 2277,
      "Ġbaby": 2278,
      "BL": 2279,
      "cent": 2280,
      "drift": 2281,
      "real": 2282,
      "Ġres": 2283,
      "Ġwhoa": 2284,
      "Ġshort": 2285,
      "RED": 2286,
      "Ġdrifting": 2287,
      "Ġhumans": 2288,
      "ilts": 2289,
      "Ġschool": 2290,
      "NT": 2291,
      "light": 2292,
      "wor": 2293,
      "Ġahh": 2294,
      "Ġdart": 2295,
      "Ġnat": 2296,
      "ower": 2297,
      "Ġgame": 2298,
      "arra": 2299,
      "Ġanno": 2300,
      "Ġtapping": 2301,
      "Ġbecom": 2302,
      "Ġcelebrating": 2303,
      "Ġbusiness": 2304,
      "Ġtruth": 2305,
      "Ġcaught": 2306,
      "IC": 2307,
      "sad": 2308,
      "well": 2309,
      "Ġbon": 2310,
      "Ġlate": 2311,
      "Ġendless": 2312,
      "Ġbroke": 2313,
      "Ġsurface": 2314,
      "ĠK": 2315,
      "Ġfare": 2316,
      "Ġland": 2317,
      "Ġbuild": 2318,
      "Ġfeet": 2319,
      "Ġknock": 2320,
      "Ġtook": 2321,
      "ĠFA": 2322,
      "Ġfocu": 2323,
      "Ġgreatest": 2324,
      "Ġgrud": 2325,
      "forgets": 2326,
      "Ġweek": 2327,
      "ĠNEW": 2328,
      "ĠHAPP": 2329,
      "suddenly": 2330,
      "iv": 2331,
      "ze": 2332,
      "...?": 2333,
      "ilos": 2334,
      "ĠSH": 2335,
      "Ġexplor": 2336,
      "ngth": 2337,
      "Ġstrength": 2338,
      "Ġpromoted": 2339,
      "ISHED": 2340,
      "Ġgenuinely": 2341,
      "Ġrecognize": 2342,
      "Ġembarra": 2343,
      "drifts": 2344,
      "ilosop": 2345,
      "boun": 2346,
      "oura": 2347,
      "Ġhour": 2348,
      "edom": 2349,
      "Ġlikes": 2350,
      "Ġchoice": 2351,
      "ĠTO": 2352,
      "ister": 2353,
      "Ġconfusion": 2354,
      "Ġfuzzy": 2355,
      "Ġcounts": 2356,
      "ĠSOME": 2357,
      "Ġmovements": 2358,
      "Ġsett": 2359,
      "Ġphilosop": 2360,
      "ĠBUBBLE": 2361,
      "Ġting": 2362,
      "Ġcop": 2363,
      "Ġparent": 2364,
      "Ġrelax": 2365,
      "acter": 2366,
      "Ġtaking": 2367,
      "whel": 2368,
      "Ġheal": 2369,
      "ationship": 2370,
      "Ġslower": 2371,
      "Ġpossible": 2372,
      "Ġfreedom": 2373,
      "ĠHERE": 2374,
      "Ġmemories": 2375,
      "Ġdarker": 2376,
      "osity": 2377,
      "Ġfluttering": 2378,
      "Ġpushing": 2379,
      "Ġescaped": 2380,
      "Ġcheck": 2381,
      "arently": 2382,
      "Ġapolo": 2383,
      "Ġrelationship": 2384,
      "Ġbasically": 2385,
      "Ġcharacter": 2386,
      "aming": 2387,
      "tries": 2388,
      "Ġpop": 2389,
      "Ġpanic": 2390,
      "riosity": 2391,
      "Ġoften": 2392,
      "Ġoverwhel": 2393,
      "Ġgrowing": 2394,
      "Ġcru": 2395,
      "Ġpasses": 2396,
      "Ġbetrayal": 2397,
      "bubble": 2398,
      "Ġtexture": 2399,
      "Ġvictory": 2400,
      "Ġoptimistic": 2401,
      "IG": 2402,
      "fer": 2403,
      "fied": 2404,
      "ĠOUT": 2405,
      "Ġwis": 2406,
      "ines": 2407,
      "ero": 2408,
      "Ġdanger": 2409,
      "Ġhang": 2410,
      "irl": 2411,
      "oney": 2412,
      "Ġconstant": 2413,
      "Ġfloats": 2414,
      "Ġdifferently": 2415,
      "Ġrout": 2416,
      "ĠHow": 2417,
      "Ġentirely": 2418,
      "Ġidentity": 2419,
      "Ġcrunchy": 2420,
      "CH": 2421,
      "was": 2422,
      "Ġthread": 2423,
      "Ġsink": 2424,
      "ssib": 2425,
      "Ġextra": 2426,
      "Ġkinda": 2427,
      "Ġpebbles": 2428,
      "Ġrhy": 2429,
      "Ġuni": 2430,
      "Ġapparently": 2431,
      "Ġhitting": 2432,
      "Ġappears": 2433,
      "flutter": 2434,
      "bonk": 2435,
      "ĠREALLY": 2436,
      "AL": 2437,
      "okay": 2438,
      "ted": 2439,
      "Ġsister": 2440,
      "Ġfact": 2441,
      "Ġfaces": 2442,
      "Ġwants": 2443,
      "Ġcuriosity": 2444,
      "Ġcheer": 2445,
      "Ġmessed": 2446,
      "Ġrepeat": 2447,
      "Ġearli": 2448,
      "Ġpressure": 2449,
      "ĠHUGE": 2450,
      "realizes": 2451,
      "gu": 2452,
      "tilts": 2453,
      "under": 2454,
      "Ġthrill": 2455,
      "Ġbis": 2456,
      "Ġblo": 2457,
      "Ġeff": 2458,
      "Ġinsp": 2459,
      "Ġnom": 2460,
      "Ġmotion": 2461,
      "ĠYESSS": 2462,
      "Ġpossib": 2463,
      "icked": 2464,
      "ĠHI": 2465,
      "Ġpointy": 2466,
      "Ġthanks": 2467,
      "ances": 2468,
      "Ġvibrating": 2469,
      "ĠLI": 2470,
      "rief": 2471,
      "Ġprotect": 2472,
      "Ġnatur": 2473,
      "bounces": 2474,
      "Ġbiscu": 2475,
      "gan": 2476,
      "Ġthick": 2477,
      "Ġnic": 2478,
      "Ġcy": 2479,
      "Ġret": 2480,
      "Ġloss": 2481,
      "Ġfair": 2482,
      "Ġrealized": 2483,
      "Ġcomplic": 2484,
      "they": 2485,
      "Ġsideways": 2486,
      "ĠPU": 2487,
      "Ġtouched": 2488,
      "Ġhyp": 2489,
      "ĠEVERYTHING": 2490,
      "eal": 2491,
      "ned": 2492,
      "vie": 2493,
      "Ġwise": 2494,
      "oudy": 2495,
      "Ġlived": 2496,
      "oop": 2497,
      "ality": 2498,
      "ched": 2499,
      "gging": 2500,
      "Ġcozy": 2501,
      "ĠSP": 2502,
      "ĠFOOD": 2503,
      "Ġvanish": 2504,
      "Ġappre": 2505,
      "like": 2506,
      "Ġpushes": 2507,
      "Ġcloudy": 2508,
      "Ġsparkly": 2509,
      "Ġrunning": 2510,
      "Ġstream": 2511,
      "Ġhopeless": 2512,
      "Ġbackwards": 2513,
      "Ġbarri": 2514,
      "Ġcomplicated": 2515,
      "Ġage": 2516,
      "Ġadd": 2517,
      "Ġalex": 2518,
      "ator": 2519,
      "Ġdry": 2520,
      "Ġinfin": 2521,
      "ĠIt": 2522,
      "Ġspread": 2523,
      "Ġdiscu": 2524,
      "REAT": 2525,
      "Ġletting": 2526,
      "Ġshows": 2527,
      "Ġgrace": 2528,
      "Ġstressed": 2529,
      "Ġpatient": 2530,
      "ĠMOV": 2531,
      "IL": 2532,
      "gen": 2533,
      "hmm": 2534,
      "Ġsky": 2535,
      "thy": 2536,
      "Ġread": 2537,
      "Ġins": 2538,
      "Ġstand": 2539,
      "immediately": 2540,
      "mble": 2541,
      "amed": 2542,
      "Ġupside": 2543,
      "ĠAW": 2544,
      "Ġdreaming": 2545,
      "Ġbrighter": 2546,
      "blows": 2547,
      "Ġappeared": 2548,
      "Ġrush": 2549,
      "Ġexperience": 2550,
      "ĠSOMETHING": 2551,
      "Ġapolog": 2552,
      "Ġappreci": 2553,
      "OT": 2554,
      "ak": 2555,
      "cess": 2556,
      "Ġahead": 2557,
      "Ġflo": 2558,
      "verything": 2559,
      "Ġintens": 2560,
      "Ġhelping": 2561,
      "Ġclever": 2562,
      "ĠGOOD": 2563,
      "Ġaccomp": 2564,
      "Ġrock": 2565,
      "ude": 2566,
      "Ġtravel": 2567,
      "Ġloops": 2568,
      "Ġjudge": 2569,
      "ĠUP": 2570,
      "Ġexploring": 2571,
      "Ġaccompl": 2572,
      "ION": 2573,
      "lf": 2574,
      "Ġsk": 2575,
      "Ġgave": 2576,
      "Ġeye": 2577,
      "Ġwaving": 2578,
      "Ġput": 2579,
      "Ġinst": 2580,
      "Ġtells": 2581,
      "shakes": 2582,
      "raight": 2583,
      "Ġspir": 2584,
      "Ġfunn": 2585,
      "ERF": 2586,
      "Ġfinding": 2587,
      "ĠEX": 2588,
      "Ġstopping": 2589,
      "Ġmarried": 2590,
      "Ġtrip": 2591,
      "Ġconfident": 2592,
      "ĠAND": 2593,
      "Ġripples": 2594,
      "Ġmention": 2595,
      "Ġdropped": 2596,
      "Ġuncertain": 2597,
      "emp": 2598,
      "goes": 2599,
      "pid": 2600,
      "Ġtight": 2601,
      "Ġdig": 2602,
      "ĠOF": 2603,
      "Ġbrightness": 2604,
      "Ġmissed": 2605,
      "ONK": 2606,
      "END": 2607,
      "Ġblurry": 2608,
      "Ġyears": 2609,
      "Ġpublished": 2610,
      "flutters": 2611,
      "LY": 2612,
      "du": 2613,
      "ĠRE": 2614,
      "Ġty": 2615,
      "Ġmoney": 2616,
      "Ġdep": 2617,
      "Ġmeal": 2618,
      "otion": 2619,
      "?!?!": 2620,
      "Ġscore": 2621,
      "Ġfriendly": 2622,
      "Ġsadly": 2623,
      "cial": 2624,
      "ĠSA": 2625,
      "Ġvisiting": 2626,
      "Ġcloud": 2627,
      "Ġjumped": 2628,
      "Ġletters": 2629,
      "Ġroutine": 2630,
      "underst": 2631,
      "IME": 2632,
      "UN": 2633,
      "air": 2634,
      "Ġir": 2635,
      "Ġbound": 2636,
      "Ġwhoosh": 2637,
      "Ġcared": 2638,
      "Ġlim": 2639,
      "Ġpower": 2640,
      "Ġneither": 2641,
      "Ġfinish": 2642,
      "ilty": 2643,
      "ches": 2644,
      "Ġshine": 2645,
      "ĠAL": 2646,
      "rates": 2647,
      "Ġflows": 2648,
      "Ġsleepy": 2649,
      "Ġfluttery": 2650,
      "Ġfailed": 2651,
      "Ġvacation": 2652,
      "Ġannoying": 2653,
      "Ġbarrier": 2654,
      "Ġfunniest": 2655,
      "ivers": 2656,
      "ler": 2657,
      "Ġtough": 2658,
      "Ġign": 2659,
      "Ġbrill": 2660,
      "els": 2661,
      "Ġpause": 2662,
      "Ġpump": 2663,
      "Ġreact": 2664,
      "icul": 2665,
      "Ġsepar": 2666,
      "shadow": 2667,
      "Ġcover": 2668,
      "Ġlonel": 2669,
      "Ġlets": 2670,
      "ĠWHERE": 2671,
      "Ġexplaining": 2672,
      "Ġdiscovery": 2673,
      "Ġpatience": 2674,
      "Ġsmells": 2675,
      "Ġstrugg": 2676,
      "Ġbecomes": 2677,
      "Ġinfinite": 2678,
      "form": 2679,
      "ors": 2680,
      "ooming": 2681,
      "Ġweak": 2682,
      "Ġblan": 2683,
      "ĠTA": 2684,
      "Ġlegs": 2685,
      "ĠON": 2686,
      "ĠOW": 2687,
      "Ġsunlight": 2688,
      "Ġswishing": 2689,
      "Ġspots": 2690,
      "Ġplaying": 2691,
      "pected": 2692,
      "REAM": 2693,
      "Ġshifted": 2694,
      "complet": 2695,
      "Ġsensation": 2696,
      "Ġrejected": 2697,
      "Ġmirr": 2698,
      "ourage": 2699,
      "Ġearlier": 2700,
      "EA": 2701,
      "ECT": 2702,
      "UL": 2703,
      "ced": 2704,
      "oid": 2705,
      "Ġwide": 2706,
      "inu": 2707,
      "Ġhalf": 2708,
      "Ġstories": 2709,
      "icks": 2710,
      "Ġshake": 2711,
      "loses": 2712,
      "opens": 2713,
      "Ġsmaller": 2714,
      "Ġran": 2715,
      "ĠSU": 2716,
      "Ġleaves": 2717,
      "Ġexisted": 2718,
      "Ġguilt": 2719,
      "Ġpull": 2720,
      "Ġcaring": 2721,
      "Ġfeeding": 2722,
      "ĠINC": 2723,
      "Ġrepeated": 2724,
      "Ġpatterns": 2725,
      "Ġcomfortable": 2726,
      "Ġbrilli": 2727,
      "ris": 2728,
      "umm": 2729,
      "water": 2730,
      "ya": 2731,
      "Ġ1": 2732,
      "Ġ5": 2733,
      "ĠLE": 2734,
      "Ġfed": 2735,
      "thm": 2736,
      "Ġrem": 2737,
      "ssed": 2738,
      "Ġintently": 2739,
      "Ġmul": 2740,
      "Ġopens": 2741,
      "Ġsecrets": 2742,
      "Ġswishy": 2743,
      "Ġgrad": 2744,
      "Ġcontro": 2745,
      "Ġjudg": 2746,
      "Ġphilosophy": 2747,
      "ealous": 2748,
      "cle": 2749,
      "lit": 2750,
      "ns": 2751,
      "Ġke": 2752,
      "ining": 2753,
      "Ġsou": 2754,
      "Ġbal": 2755,
      "Ġstraight": 2756,
      "pper": 2757,
      "Ġneat": 2758,
      "Ġloving": 2759,
      "Ġspeed": 2760,
      "Ġfades": 2761,
      "waves": 2762,
      "Ġprop": 2763,
      "Ġtwit": 2764,
      "Ġeasier": 2765,
      "Ġcurves": 2766,
      "Ġmarcus": 2767,
      "Ġrelie": 2768,
      "Ġedge": 2769,
      "Ġpiece": 2770,
      "Ġfarewell": 2771,
      "Ġthrilled": 2772,
      "Ġmulti": 2773,
      "ELL": 2774,
      "free": 2775,
      "oices": 2776,
      "Ġmon": 2777,
      "Ġfing": 2778,
      "Ġfell": 2779,
      "Ġwhee": 2780,
      "Ġcourage": 2781,
      "through": 2782,
      "Ġburd": 2783,
      "Ġfeature": 2784,
      "Ġsway": 2785,
      "shine": 2786,
      "Ġchances": 2787,
      "Ġconc": 2788,
      "ĠTOO": 2789,
      "Ġkeeping": 2790,
      "Ġproject": 2791,
      "Ġlonger": 2792,
      "Ġhigh": 2793,
      "Ġunex": 2794,
      "Ġtwist": 2795,
      "Ġguilty": 2796,
      "Ġsunshine": 2797,
      "ĠPR": 2798,
      "Ġfalls": 2799,
      "RIEND": 2800,
      "ĠLO": 2801,
      "Ġzero": 2802,
      "BLES": 2803,
      "Ġbrilliant": 2804,
      "ummy": 2805,
      "Ġunexpected": 2806,
      "ET": 2807,
      "ively": 2808,
      "Ġash": 2809,
      "ering": 2810,
      "Ġhot": 2811,
      "Ġcatches": 2812,
      "Ġforth": 2813,
      "oops": 2814,
      "Ġjealous": 2815,
      "Ġworse": 2816,
      "ĠTIME": 2817,
      "Ġfloated": 2818,
      "Ġasks": 2819,
      "Ġboss": 2820,
      "cked": 2821,
      "Ġimpress": 2822,
      "ĠSome": 2823,
      "Ġunderstanding": 2824,
      "Ġcooler": 2825,
      "Ġstrang": 2826,
      "wiggle": 2827,
      "Ġgives": 2828,
      "Ġending": 2829,
      "Ġconnection": 2830,
      "Ġdecoration": 2831,
      "Ġwalk": 2832,
      "Ġscale": 2833,
      "Ġdrive": 2834,
      "Ġloneliness": 2835,
      "dom": 2836,
      "olar": 2837,
      "pt": 2838,
      "ince": 2839,
      "Ġsib": 2840,
      "Ġfill": 2841,
      "Ġopp": 2842,
      "Ġoops": 2843,
      "Ġlap": 2844,
      "Ġlunch": 2845,
      "Ġdog": 2846,
      "Ġpink": 2847,
      "ket": 2848,
      "Ġfew": 2849,
      "Ġhappier": 2850,
      "Ġeng": 2851,
      "Ġperm": 2852,
      "Ġways": 2853,
      "Ġcompared": 2854,
      "Ġhurting": 2855,
      "Ġdesign": 2856,
      "Ġmisunderst": 2857,
      "Ġdescrib": 2858,
      "stem": 2859,
      "Ġquieter": 2860,
      "Ġshaped": 2861,
      "Ġlaughing": 2862,
      "blanked": 2863,
      "Ġargu": 2864,
      "Ġcrashed": 2865,
      "Ġscholar": 2866,
      "Ġtrick": 2867,
      "notices": 2868,
      "Ġtruly": 2869,
      "ĠBUBBLES": 2870,
      "Ġsystem": 2871,
      "Ġconscious": 2872,
      "Ġrhythm": 2873,
      "Ġsibling": 2874,
      "Ġscholarship": 2875,
      "cur": 2876,
      "do": 2877,
      "hides": 2878,
      "lan": 2879,
      "taps": 2880,
      "word": 2881,
      "Ġsent": 2882,
      "Ġyo": 2883,
      "Ġnames": 2884,
      "Ġcross": 2885,
      "Ġground": 2886,
      "ching": 2887,
      "Ġshowing": 2888,
      "aul": 2889,
      "Ġchose": 2890,
      "que": 2891,
      "Ġdef": 2892,
      "Ġprefer": 2893,
      "Ġrealize": 2894,
      "Ġbumped": 2895,
      "Ġappro": 2896,
      "Ġguy": 2897,
      "Ġwrite": 2898,
      "Ġpointless": 2899,
      "Ġuser": 2900,
      "ĠPERF": 2901,
      "ONG": 2902,
      "Ġtouches": 2903,
      "Ġcurve": 2904,
      "Ġtasty": 2905,
      "Ġtickle": 2906,
      "zzles": 2907,
      "Ġrecall": 2908,
      "Ġminutes": 2909,
      "Ġcontrol": 2910,
      "Ġburden": 2911,
      "UST": 2912,
      "cy": 2913,
      "Ġess": 2914,
      "Ġmood": 2915,
      "Ġfly": 2916,
      "Ġher": 2917,
      "Ġlow": 2918,
      "thus": 2919,
      "Ġmed": 2920,
      "ism": 2921,
      "Ġweather": 2922,
      "Ġexc": 2923,
      "Ġshock": 2924,
      "eps": 2925,
      "Ġtran": 2926,
      "ĠFIR": 2927,
      "ĠFRIEND": 2928,
      "Ġcouldn": 2929,
      "ĠDE": 2930,
      "Ġreflect": 2931,
      "Ġrole": 2932,
      "Ġcounting": 2933,
      "Ġlaughed": 2934,
      "cont": 2935,
      "Ġdistance": 2936,
      "Ġdirections": 2937,
      "Ġsparkle": 2938,
      "Ġblanking": 2939,
      "Ġrepeatedly": 2940,
      "Ġmultiple": 2941,
      "thusi": 2942,
      "by": 2943,
      "long": 2944,
      "vid": 2945,
      "vious": 2946,
      "Ġsort": 2947,
      "esmer": 2948,
      "Ġpet": 2949,
      "ishy": 2950,
      "Ġlighter": 2951,
      "Ġdeg": 2952,
      "Ġcomplain": 2953,
      "ĠFOR": 2954,
      "Ġbumps": 2955,
      "ITE": 2956,
      "Ġfailing": 2957,
      "Ġopening": 2958,
      "Ġforgiving": 2959,
      "Ġsnacks": 2960,
      "Ġvalue": 2961,
      "Ġwisdom": 2962,
      "Ġappreciate": 2963,
      "Ġashamed": 2964,
      "lanation": 2965,
      "ĠFIRST": 2966,
      "DY": 2967,
      "ari": 2968,
      "can": 2969,
      "my": 2970,
      "nu": 2971,
      "ph": 2972,
      "umb": 2973,
      "Ġaut": 2974,
      "Ġsign": 2975,
      "Ġcred": 2976,
      "Ġbur": 2977,
      "Ġkid": 2978,
      "Ġalert": 2979,
      "ains": 2980,
      "Ġtax": 2981,
      "Ġloves": 2982,
      "Ġfasc": 2983,
      "Ġspins": 2984,
      "ĠTW": 2985,
      "Ġexplanation": 2986,
      "ints": 2987,
      "Ġcolorful": 2988,
      "izing": 2989,
      "Ġamazed": 2990,
      "Ġflow": 2991,
      "Ġfog": 2992,
      "ONE": 2993,
      "Ġcurved": 2994,
      "Ġclue": 2995,
      "Ġsquishy": 2996,
      "Ġbonk": 2997,
      "Ġgrudges": 2998,
      "Ġdiscussing": 2999,
      "Ġfascin": 3000,
      "-...": 3001,
      "fically": 3002,
      "ired": 3003,
      "ific": 3004,
      "just": 3005,
      "never": 3006,
      "ption": 3007,
      "inion": 3008,
      "Ġgrou": 3009,
      "starts": 3010,
      "Ġequ": 3011,
      "Ġbecome": 3012,
      "Ġhobb": 3013,
      "Ġboy": 3014,
      "Ġprof": 3015,
      "ĠAre": 3016,
      "Ġunf": 3017,
      "Ġspecifically": 3018,
      "wiggling": 3019,
      "Ġopinion": 3020,
      "Ġclearly": 3021,
      "Ġincom": 3022,
      "Ġsparkles": 3023,
      "Ġpaying": 3024,
      "Ġapartment": 3025,
      "Ġgreetings": 3026,
      "Ġspeak": 3027,
      "Ġahhh": 3028,
      "ĠKN": 3029,
      "Ġoverwhelmed": 3030,
      "Ġcruel": 3031,
      "Ġmonth": 3032,
      "CE": 3033,
      "ek": 3034,
      "ext": 3035,
      "if": 3036,
      "kward": 3037,
      "ms": 3038,
      "ru": 3039,
      "inting": 3040,
      "Ġyum": 3041,
      "Ġoc": 3042,
      "there": 3043,
      "Ġwaves": 3044,
      "ars": 3045,
      "idence": 3046,
      "Ġalong": 3047,
      "irty": 3048,
      "Ġworries": 3049,
      "Ġkindest": 3050,
      "ĠWOR": 3051,
      "Ġinterested": 3052,
      "ensive": 3053,
      "ĠTHEY": 3054,
      "Ġpromis": 3055,
      "Ġevent": 3056,
      "Ġdecide": 3057,
      "ART": 3058,
      "Ġsupport": 3059,
      "comfort": 3060,
      "Ġexhausted": 3061,
      "Ġraise": 3062,
      "Ġpressed": 3063,
      "Ġpromotion": 3064,
      "ĠFINISHED": 3065,
      "foll": 3066,
      "ĠHAPPY": 3067,
      "Ġunique": 3068,
      "Ġlimit": 3069,
      "Ġoppos": 3070,
      "Ġcredit": 3071,
      "comfortable": 3072,
      "dance": 3073,
      "Ġsince": 3074,
      "Ġyummy": 3075,
      "Ġdrow": 3076,
      "Ġwhe": 3077,
      "Ġreset": 3078,
      "Ġsting": 3079,
      "Ġgod": 3080,
      "shap": 3081,
      "lost": 3082,
      "rap": 3083,
      "enty": 3084,
      "Ġconfl": 3085,
      "Ġweren": 3086,
      "Ġdev": 3087,
      "Ġdead": 3088,
      "Ġawkward": 3089,
      "Ġevening": 3090,
      "ĠAB": 3091,
      "ĠAHH": 3092,
      "ĠBACK": 3093,
      "nervous": 3094,
      "izz": 3095,
      "Ġwatched": 3096,
      "Ġunderstands": 3097,
      "Ġfading": 3098,
      "Ġcolder": 3099,
      "Ġtrusted": 3100,
      "Ġheading": 3101,
      "aged": 3102,
      "Ġsurround": 3103,
      "Ġtreasure": 3104,
      "Ġemotion": 3105,
      "Ġintern": 3106,
      "Ġwindow": 3107,
      "Ġhours": 3108,
      "completely": 3109,
      "Ġ10": 3110,
      "Ġwheee": 3111,
      "ĠLOVE": 3112,
      "Ġdescribing": 3113,
      "Ġargument": 3114,
      "Ġgroup": 3115,
      "Ġopposite": 3116,
      "Ġconflict": 3117,
      "OY": 3118,
      "rr": 3119,
      "uh": 3120,
      "Ġyell": 3121,
      "Ġcla": 3122,
      "Ġcertain": 3123,
      "ison": 3124,
      "Ġresp": 3125,
      "Ġjames": 3126,
      "âĢĶ?": 3127,
      "Ġanim": 3128,
      "Ġsho": 3129,
      "uring": 3130,
      "Ġlights": 3131,
      "Ġscattered": 3132,
      "Ġchris": 3133,
      "ĠTELL": 3134,
      "astic": 3135,
      "ĠWill": 3136,
      "Ġbelow": 3137,
      "Ġgrab": 3138,
      "Ġunk": 3139,
      "Ġfogg": 3140,
      "Ġcloses": 3141,
      "Ġworked": 3142,
      "Ġreasons": 3143,
      "OOK": 3144,
      "ĠEverything": 3145,
      "Ġdiscovered": 3146,
      "Ġraining": 3147,
      "Ġrejection": 3148,
      "Ġdram": 3149,
      "Ġeffort": 3150,
      "Ġnatural": 3151,
      "Ġcycle": 3152,
      "Ġstruggling": 3153,
      "Ġdegree": 3154,
      "nuzzles": 3155,
      "follows": 3156,
      "KE": 3157,
      "RY": 3158,
      "igh": 3159,
      "rup": 3160,
      "unt": 3161,
      "xy": 3162,
      "yed": 3163,
      "zes": 3164,
      "ĠV": 3165,
      "inct": 3166,
      "Ġya": 3167,
      "Ġoxy": 3168,
      "Ġlang": 3169,
      "still": 3170,
      "Ġpar": 3171,
      "Ġpict": 3172,
      "ade": 3173,
      "acing": 3174,
      "Ġexam": 3175,
      "rodu": 3176,
      "ĠWOW": 3177,
      "Ġintrodu": 3178,
      "Ġslight": 3179,
      "ases": 3180,
      "ased": 3181,
      "Ġplenty": 3182,
      "ĠMAD": 3183,
      "Ġunhe": 3184,
      "Ġtrusting": 3185,
      "Ġcalling": 3186,
      "Ġproudly": 3187,
      "lessly": 3188,
      "Ġsinging": 3189,
      "Ġlesson": 3190,
      "Ġyounger": 3191,
      "ushes": 3192,
      "ĠHEY": 3193,
      "Ġdavid": 3194,
      "ĠEXC": 3195,
      "Ġmentioned": 3196,
      "Ġengaged": 3197,
      "ĠPERFECT": 3198,
      "Ġautom": 3199,
      "Ġunfair": 3200,
      "Ġwhether": 3201,
      "shaped": 3202,
      "Ġoxygen": 3203,
      "Ġlangu": 3204,
      "Ġpicture": 3205,
      "!âĢĶ": 3206,
      "IBLE": 3207,
      "OP": 3208,
      "TER": 3209,
      "fla": 3210,
      "lay": 3211,
      "Ġaim": 3212,
      "Ġbrief": 3213,
      "erm": 3214,
      "Ġoce": 3215,
      "Ġnar": 3216,
      "orn": 3217,
      "Ġsocial": 3218,
      "oot": 3219,
      "Ġswoosh": 3220,
      "Ġfake": 3221,
      "Ġcha": 3222,
      "Ġenthusi": 3223,
      "Ġblub": 3224,
      "Ġbecame": 3225,
      "ĠWhy": 3226,
      "OUN": 3227,
      "Ġuncomfortable": 3228,
      "Ġdescription": 3229,
      "ĠGR": 3230,
      "Ġproof": 3231,
      "Ġweirdest": 3232,
      "ips": 3233,
      "OOM": 3234,
      "Ġglub": 3235,
      "Ġnearby": 3236,
      "Ġselfish": 3237,
      "Ġrepeating": 3238,
      "Ġhoping": 3239,
      "Ġnumbers": 3240,
      "Ġfocused": 3241,
      "Ġsettle": 3242,
      "Ġintensely": 3243,
      "Ġmirror": 3244,
      "Ġincoming": 3245,
      "Ġslightly": 3246,
      "Ġocean": 3247,
      "IF": 3248,
      "OH": 3249,
      "OME": 3250,
      "ination": 3251,
      "Ġline": 3252,
      "Ġdoor": 3253,
      "think": 3254,
      "Ġaband": 3255,
      "Ġsear": 3256,
      "Ġflap": 3257,
      "Ġtip": 3258,
      "Ġvi": 3259,
      "Ġdebt": 3260,
      "ously": 3261,
      "Ġprog": 3262,
      "ĠMAR": 3263,
      "Ġhumid": 3264,
      "Ġmagical": 3265,
      "Ġplans": 3266,
      "Ġinvolved": 3267,
      "Ġpride": 3268,
      "Ġbends": 3269,
      "ĠWHOA": 3270,
      "Ġsoul": 3271,
      "Ġbalance": 3272,
      "ault": 3273,
      "Ġabandon": 3274,
      "ught": 3275,
      "Ġmur": 3276,
      "ndom": 3277,
      "ane": 3278,
      "chases": 3279,
      "Ġwhoever": 3280,
      "Ġshook": 3281,
      "Ġtaught": 3282,
      "Ġplot": 3283,
      "Ġhug": 3284,
      "Ġlevel": 3285,
      "mma": 3286,
      "Ġbrighten": 3287,
      "Ġhumor": 3288,
      "Ġolder": 3289,
      "Ġregular": 3290,
      "nothing": 3291,
      "Ġspecifics": 3292,
      "ordan": 3293,
      "Ġrandom": 3294,
      "Ġseriously": 3295,
      "Ġobvious": 3296,
      "ĠFINS": 3297,
      "Ġminute": 3298,
      "Ġembarrassing": 3299,
      "ĠMOVING": 3300,
      "ĠKNOW": 3301,
      "ĠMADE": 3302,
      "CK": 3303,
      "NACK": 3304,
      "UM": 3305,
      "cause": 3306,
      "ding": 3307,
      "friend": 3308,
      "ime": 3309,
      "sn": 3310,
      "Ġthird": 3311,
      "Ġmattered": 3312,
      "Ġfour": 3313,
      "Ġwhite": 3314,
      "Ġcase": 3315,
      "Ġpick": 3316,
      "Ġbeat": 3317,
      "Ġstret": 3318,
      "Ġmovie": 3319,
      "Ġsea": 3320,
      "Ġhowdy": 3321,
      "Ġseemed": 3322,
      "Ġflavor": 3323,
      "Ġtapped": 3324,
      "ESS": 3325,
      "Ġnamed": 3326,
      "Ġaward": 3327,
      "Ġcompli": 3328,
      "Ġstayed": 3329,
      "Ġleaf": 3330,
      "Ġhurtful": 3331,
      "Ġcarefully": 3332,
      "ĠDREAM": 3333,
      "Ġflick": 3334,
      "Ġhasn": 3335,
      "Ġpersonality": 3336,
      "Ġclos": 3337,
      "ĠGREAT": 3338,
      "Ġgifts": 3339,
      "Ġcontext": 3340,
      "THER": 3341,
      "Ġreaching": 3342,
      "Ġsurv": 3343,
      "Ġteaches": 3344,
      "Ġterrified": 3345,
      "Ġuseful": 3346,
      "Ġphone": 3347,
      "ĠJUST": 3348,
      "Ġobser": 3349,
      "Ġhyper": 3350,
      "Ġrecord": 3351,
      "Ġarrived": 3352,
      "Ġpieces": 3353,
      "Ġbiscuits": 3354,
      "Ġinstinct": 3355,
      "ĠINCRED": 3356,
      "Ġflying": 3357,
      "nevermind": 3358,
      "Ġfoggy": 3359,
      "ĠEXCIT": 3360,
      "Ġcompliment": 3361,
      "AA": 3362,
      "ALLY": 3363,
      "IP": 3364,
      "uff": 3365,
      "Ġsat": 3366,
      "Ġsits": 3367,
      "Ġmix": 3368,
      "Ġok": 3369,
      "Ġcope": 3370,
      "Ġsoph": 3371,
      "Ġwavy": 3372,
      "Ġmeasure": 3373,
      "eness": 3374,
      "Ġhair": 3375,
      "Ġsticks": 3376,
      "icate": 3377,
      "Ġknown": 3378,
      "Ġbowls": 3379,
      "Ġupward": 3380,
      "Ġsub": 3381,
      "feels": 3382,
      "ĠSNACK": 3383,
      "swish": 3384,
      "Ġfli": 3385,
      "Ġbelieving": 3386,
      "Ġpract": 3387,
      "ĠCH": 3388,
      "ĠCAN": 3389,
      "Ġhearing": 3390,
      "Ġheartb": 3391,
      "Ġcelebrate": 3392,
      "Ġends": 3393,
      "MENT": 3394,
      "Ġclim": 3395,
      "ulner": 3396,
      "ENT": 3397,
      "Ġfixed": 3398,
      "Ġshifts": 3399,
      "Ġwalking": 3400,
      "OMING": 3401,
      "Ġblamed": 3402,
      "Ġinvolves": 3403,
      "Ġspeaking": 3404,
      "Ġdraw": 3405,
      "work": 3406,
      "Ġbuilding": 3407,
      "Ġretur": 3408,
      "Ġpumped": 3409,
      "inues": 3410,
      "Ġrelieved": 3411,
      "Ġmisunderstood": 3412,
      "ĠINCREDIBLE": 3413,
      "cast": 3414,
      "ga": 3415,
      "gle": 3416,
      "ker": 3417,
      "ring": 3418,
      "vation": 3419,
      "Ġer": 3420,
      "Ġton": 3421,
      "Ġtatt": 3422,
      "rew": 3423,
      "Ġmain": 3424,
      "Ġbes": 3425,
      "Ġben": 3426,
      "Ġbond": 3427,
      "Ġlay": 3428,
      "Ġcap": 3429,
      "Ġpath": 3430,
      "sec": 3431,
      "antic": 3432,
      "Ġsuc": 3433,
      "Ġvulner": 3434,
      "istent": 3435,
      "Ġthoughtful": 3436,
      "Ġcook": 3437,
      "Ġbreaking": 3438,
      "ARD": 3439,
      "Ġzooming": 3440,
      "Ġrespect": 3441,
      "ĠSAID": 3442,
      "Ġgradu": 3443,
      "freezes": 3444,
      "esmerized": 3445,
      "Ġprofound": 3446,
      "rupt": 3447,
      "Ġmurky": 3448,
      "Ġtattoo": 3449,
      "!âĢĶ*": 3450,
      "BONK": 3451,
      "ass": 3452,
      "huh": 3453,
      "vable": 3454,
      "Ġmath": 3455,
      "Ġfle": 3456,
      "Ġbought": 3457,
      "Ġni": 3458,
      "Ġnail": 3459,
      "ays": 3460,
      "Ġphy": 3461,
      "Ġjordan": 3462,
      "ided": 3463,
      "Ġorgan": 3464,
      "sees": 3465,
      "Ġwear": 3466,
      "Ġfinal": 3467,
      "Ġflash": 3468,
      "Ġshame": 3469,
      "tern": 3470,
      "shivers": 3471,
      "ĠYour": 3472,
      "Ġcost": 3473,
      "ffic": 3474,
      "Ġvie": 3475,
      "Ġwanting": 3476,
      "Ġhadn": 3477,
      "Ġbrown": 3478,
      "ATED": 3479,
      "Ġdissolves": 3480,
      "ĠNo": 3481,
      "Ġfade": 3482,
      "Ġrestless": 3483,
      "Ġtech": 3484,
      "Ġfully": 3485,
      "Ġpassing": 3486,
      "Ġcrush": 3487,
      "Ġpassword": 3488,
      "Ġrumble": 3489,
      "Ġcrashing": 3490,
      "Ġsilent": 3491,
      "Ġbringing": 3492,
      "ney": 3493,
      "Ġfocusing": 3494,
      "Ġpossibility": 3495,
      "Ġfloor": 3496,
      "formation": 3497,
      "ĠTAIL": 3498,
      "Ġperman": 3499,
      "Ġtaxes": 3500,
      "Ġdrowning": 3501,
      "Ġunheard": 3502,
      "Ġaimlessly": 3503,
      "AST": 3504,
      "WH": 3505,
      "Ġvers": 3506,
      "Ġwit": 3507,
      "Ġlately": 3508,
      "Ġwaking": 3509,
      "Ġpizz": 3510,
      "itter": 3511,
      "Ġform": 3512,
      "Ġinformation": 3513,
      "ellent": 3514,
      "ions": 3515,
      "cture": 3516,
      "Ġamu": 3517,
      "Ġdigging": 3518,
      "Ġstupid": 3519,
      "Ġvisible": 3520,
      "RIED": 3521,
      "Ġcrack": 3522,
      "Ġtraffic": 3523,
      "ANT": 3524,
      "ĠRAN": 3525,
      "Ġvacantly": 3526,
      "Ġconfidence": 3527,
      "Ġtickles": 3528,
      "anics": 3529,
      "Ġedges": 3530,
      "Ġcute": 3531,
      "Ġemail": 3532,
      "Ġembarrassed": 3533,
      "Ġparents": 3534,
      "IGG": 3535,
      "Ġinspired": 3536,
      "Ġaccomplished": 3537,
      "Ġweakness": 3538,
      "Ġessence": 3539,
      "Ġmonths": 3540,
      "Ġnarrat": 3541,
      "Ġcasey": 3542,
      "Ġview": 3543,
      "Ġpizza": 3544,
      "ORE": 3545,
      "ZOOM": 3546,
      "po": 3547,
      "pla": 3548,
      "Ġav": 3549,
      "Ġgard": 3550,
      "Ġemma": 3551,
      "isco": 3552,
      "ities": 3553,
      "Ġsever": 3554,
      "Ġswear": 3555,
      "because": 3556,
      "Ġflappy": 3557,
      "Ġshell": 3558,
      "Ġshakes": 3559,
      "lored": 3560,
      "illing": 3561,
      "ender": 3562,
      "Ġquit": 3563,
      "Ġprecious": 3564,
      "ĠAT": 3565,
      "Ġhelped": 3566,
      "Ġhelpful": 3567,
      "Ġunderne": 3568,
      "ĠBA": 3569,
      "Ġflowing": 3570,
      "Ġideas": 3571,
      "ĠOHHH": 3572,
      "Ġadop": 3573,
      "Ġbreaks": 3574,
      "Ġcrit": 3575,
      "conn": 3576,
      "Ġsnout": 3577,
      "Ġpainting": 3578,
      "Ġmarket": 3579,
      "Ġchecking": 3580,
      "Ġchoosing": 3581,
      "Ġbouncy": 3582,
      "Ġreminds": 3583,
      "Ġvisitors": 3584,
      "Ġweeks": 3585,
      "Ġarrive": 3586,
      "Ġcuts": 3587,
      "Ġcommit": 3588,
      "ĠWHOLE": 3589,
      "Ġreplay": 3590,
      "slow": 3591,
      "Ġbiscuit": 3592,
      "Ġhypnot": 3593,
      "Ġskin": 3594,
      "Ġclouds": 3595,
      "Ġsentence": 3596,
      "Ġintroduce": 3597,
      "ermined": 3598,
      "Ġsatis": 3599,
      "swishes": 3600,
      "Ġgarden": 3601,
      "Ġunderneath": 3602,
      "IM": 3603,
      "NER": 3604,
      "fet": 3605,
      "fad": 3606,
      "got": 3607,
      "ike": 3608,
      "Ġtilt": 3609,
      "Ġsal": 3610,
      "res": 3611,
      "Ġyep": 3612,
      "Ġfoot": 3613,
      "Ġfault": 3614,
      "Ġboom": 3615,
      "Ġborn": 3616,
      "Ġdun": 3617,
      "Ġwhis": 3618,
      "ndred": 3619,
      "Ġgirl": 3620,
      "anicked": 3621,
      "orient": 3622,
      "Ġwaste": 3623,
      "Ġrent": 3624,
      "ics": 3625,
      "Ġabrupt": 3626,
      "acking": 3627,
      "Ġalright": 3628,
      "lest": 3629,
      "mbling": 3630,
      "Ġcoll": 3631,
      "roken": 3632,
      "Ġenc": 3633,
      "OUS": 3634,
      "Ġprocess": 3635,
      "Ġhundred": 3636,
      "ĠFEE": 3637,
      "Ġheld": 3638,
      "Ġpod": 3639,
      "ĠHOW": 3640,
      "Ġunderstood": 3641,
      "Ġbadly": 3642,
      "Ġrob": 3643,
      "Ġroll": 3644,
      "Ġshowed": 3645,
      "ages": 3646,
      "Ġdrifts": 3647,
      "Ġstronger": 3648,
      "Ġmeaningful": 3649,
      "attemp": 3650,
      "Ġdouble": 3651,
      "ĠMORE": 3652,
      "bubbles": 3653,
      "Ġgreeting": 3654,
      "Ġrepla": 3655,
      "slows": 3656,
      "Ġgrudge": 3657,
      "ivity": 3658,
      "Ġhealthy": 3659,
      "Ġhanging": 3660,
      "Ġpossibly": 3661,
      "Ġaddress": 3662,
      "Ġaccomplish": 3663,
      "Ġboundary": 3664,
      "Ġexcellent": 3665,
      "Ġequally": 3666,
      "ĠABOUT": 3667,
      "OUND": 3668,
      "Ġabandoned": 3669,
      "snaps": 3670,
      "Ġnailed": 3671,
      "Ġpermanent": 3672,
      "Ġseveral": 3673,
      "Ġdunno": 3674,
      "Ġabruptly": 3675,
      "ILL": 3676,
      "LU": 3677,
      "RP": 3678,
      "aries": 3679,
      "gone": 3680,
      "ith": 3681,
      "list": 3682,
      "lud": 3683,
      "uc": 3684,
      "Ġind": 3685,
      "resh": 3686,
      "Ġbed": 3687,
      "Ġbles": 3688,
      "Ġhis": 3689,
      "Ġcow": 3690,
      "Ġpicked": 3691,
      "Ġhar": 3692,
      "itude": 3693,
      "Ġarea": 3694,
      "icking": 3695,
      "Ġann": 3696,
      "Ġagree": 3697,
      "Ġfishy": 3698,
      "Ġcovered": 3699,
      "Ġchoices": 3700,
      "Ġpres": 3701,
      "Ġcompar": 3702,
      "Ġroo": 3703,
      "ization": 3704,
      "Ġflat": 3705,
      "Ġwatches": 3706,
      "ension": 3707,
      "ĠEAT": 3708,
      "Ġnotices": 3709,
      "Ġcatching": 3710,
      "Ġpushed": 3711,
      "Ġstock": 3712,
      "Ġappearing": 3713,
      "Ġrid": 3714,
      "Ġfeeds": 3715,
      "Ġexplored": 3716,
      "Ġdances": 3717,
      "Ġdelight": 3718,
      "Ġears": 3719,
      "Ġaccepted": 3720,
      "Ġachie": 3721,
      "Ġvalu": 3722,
      "Ġvalid": 3723,
      "ĠHELL": 3724,
      "Ġstructure": 3725,
      "Ġdarting": 3726,
      "Ġhyped": 3727,
      "Ġrushing": 3728,
      "Ġapologize": 3729,
      "Ġuncertainty": 3730,
      "Ġseparate": 3731,
      "Ġoccur": 3732,
      "Ġgraduated": 3733,
      "Ġnarrative": 3734,
      "Ġreplaying": 3735,
      "GED": 3736,
      "IVE": 3737,
      "OLD": 3738,
      "ian": 3739,
      "py": 3740,
      "sel": 3741,
      "squ": 3742,
      "tend": 3743,
      "ull": 3744,
      "yal": 3745,
      "Ġry": 3746,
      "Ġouch": 3747,
      "ream": 3748,
      "Ġfur": 3749,
      "Ġdirty": 3750,
      "Ġnone": 3751,
      "Ġgator": 3752,
      "stal": 3753,
      "iss": 3754,
      "Ġlie": 3755,
      "Ġport": 3756,
      "verse": 3757,
      "Ġrele": 3758,
      "Ġinfl": 3759,
      "Ġjour": 3760,
      "Ġbeach": 3761,
      "Ġages": 3762,
      "Ġwhenever": 3763,
      "ram": 3764,
      "Ġchill": 3765,
      "ĠWIGG": 3766,
      "Ġtalks": 3767,
      "Ġintense": 3768,
      "Ġhunt": 3769,
      "ĠSC": 3770,
      "ĠSo": 3771,
      "Ġpopped": 3772,
      "Ġfreaking": 3773,
      "ĠOh": 3774,
      "ĠOr": 3775,
      "Ġcareful": 3776,
      "iety": 3777,
      "Ġheav": 3778,
      "Ġoffic": 3779,
      "ĠPA": 3780,
      "Ġworthy": 3781,
      "Ġcris": 3782,
      "Ġbitter": 3783,
      "Ġconnect": 3784,
      "Ġpatri": 3785,
      "Ġanxiety": 3786,
      "Ġexperi": 3787,
      "Ġinvestig": 3788,
      "Ġmirac": 3789,
      "Ġcryp": 3790,
      "Ġexpecting": 3791,
      "Ġtingly": 3792,
      "Ġdangerous": 3793,
      "ĠLIGHT": 3794,
      "Ġinsur": 3795,
      "ĠPROM": 3796,
      "ĠSomeone": 3797,
      "Ġstrangest": 3798,
      "Ġtransp": 3799,
      "thinking": 3800,
      "Ġobviously": 3801,
      "Ġvulnerable": 3802,
      "connected": 3803,
      "Ġcomparison": 3804,
      "Ġryan": 3805,
      ":(": 3806,
      "BY": 3807,
      "MP": 3808,
      "RAN": 3809,
      "cal": 3810,
      "em": 3811,
      "fr": 3812,
      "gl": 3813,
      "ives": 3814,
      "mon": 3815,
      "sess": 3816,
      "Ġ\"": 3817,
      "Ġ:(": 3818,
      "Ġass": 3819,
      "Ġaff": 3820,
      "Ġband": 3821,
      "erc": 3822,
      "nds": 3823,
      "member": 3824,
      "Ġcause": 3825,
      "Ġgho": 3826,
      "Ġgrief": 3827,
      "Ġetern": 3828,
      "Ġstars": 3829,
      "Ġsees": 3830,
      "Ġalga": 3831,
      "Ġwearing": 3832,
      "Ġexerc": 3833,
      "Ġbubbling": 3834,
      "Ġwarmest": 3835,
      "Ġlocked": 3836,
      "ential": 3837,
      "Ġsucks": 3838,
      "tting": 3839,
      "Ġvag": 3840,
      "Ġtalent": 3841,
      "Ġdifficul": 3842,
      "Ġparty": 3843,
      "Ġtrain": 3844,
      "ibly": 3845,
      "INE": 3846,
      "cia": 3847,
      "REE": 3848,
      "Ġunderwater": 3849,
      "ĠBONK": 3850,
      "spicious": 3851,
      "Ġshouldn": 3852,
      "swimming": 3853,
      "Ġpeacefully": 3854,
      "Ġvision": 3855,
      "Ġdeeply": 3856,
      "Ġhunger": 3857,
      "Ġexplained": 3858,
      "Ġcleaned": 3859,
      "Ġsitting": 3860,
      "Ġcarrying": 3861,
      "Ġwalks": 3862,
      "Ġpresentation": 3863,
      "ĠHAVE": 3864,
      "Ġwildly": 3865,
      "Ġspending": 3866,
      "Ġfacts": 3867,
      "Ġblocking": 3868,
      "Ġnicest": 3869,
      "view": 3870,
      "Ġspreads": 3871,
      "Ġdepend": 3872,
      "Ġboundaries": 3873,
      "ppery": 3874,
      "ĠEXCITED": 3875,
      "attempts": 3876,
      "Ġpresence": 3877,
      "selves": 3878,
      "Ġjourney": 3879,
      "Ġcrypto": 3880,
      "Ġghost": 3881,
      "Ġalgae": 3882,
      ".'": 3883,
      "KAY": 3884,
      "her": 3885,
      "ios": 3886,
      "rit": 3887,
      "vib": 3888,
      "xim": 3889,
      "yeah": 3890,
      "Ġtender": 3891,
      "Ġbite": 3892,
      "Ġdim": 3893,
      "Ġhist": 3894,
      "Ġge": 3895,
      "itar": 3896,
      "ital": 3897,
      "Ġbudd": 3898,
      "etition": 3899,
      "Ġreacted": 3900,
      "lary": 3901,
      "arter": 3902,
      "iring": 3903,
      "beat": 3904,
      "Ġsplit": 3905,
      "Ġsuff": 3906,
      "Ġholes": 3907,
      "ĠWE": 3908,
      "asm": 3909,
      "Ġcompan": 3910,
      "Ġblanks": 3911,
      "ĠALL": 3912,
      "ĠFE": 3913,
      "Ġbrush": 3914,
      "Ġbrrr": 3915,
      "Ġdefines": 3916,
      "Ġbeautifully": 3917,
      "Ġstares": 3918,
      "Ġcooking": 3919,
      "Ġflin": 3920,
      "Ġpersonal": 3921,
      "Ġgiant": 3922,
      "Ġslippery": 3923,
      "Ġcorny": 3924,
      "ITH": 3925,
      "Ġ--": 3926,
      "ĠWAY": 3927,
      "Ġvisits": 3928,
      "Ġjoyful": 3929,
      "Ġadm": 3930,
      "ISE": 3931,
      "Ġcontain": 3932,
      "athon": 3933,
      "ĠGOING": 3934,
      "excitement": 3935,
      "Ġmarathon": 3936,
      "ult": 3937,
      "Ġcurrently": 3938,
      "Ġstressful": 3939,
      "Ġgener": 3940,
      "Ġobsess": 3941,
      "Ġblame": 3942,
      "Ġanxiously": 3943,
      "Ġnaturally": 3944,
      "Ġreading": 3945,
      "Ġspiral": 3946,
      "Ġignoring": 3947,
      "Ġremains": 3948,
      "Ġfinger": 3949,
      "Ġfingers": 3950,
      "Ġconcer": 3951,
      "ĠAHHH": 3952,
      "Ġrespond": 3953,
      "Ġanimated": 3954,
      "Ġautomatic": 3955,
      "ĠGRAD": 3956,
      "Ġheartbroken": 3957,
      "Ġnibble": 3958,
      "Ġshellfish": 3959,
      "Ġpodcast": 3960,
      "Ġcowor": 3961,
      "Ġharsh": 3962,
      "Ġridicul": 3963,
      "ĠHELLO": 3964,
      "Ġtransparent": 3965,
      "Ġhistory": 3966,
      "Ġbuddies": 3967,
      "ASE": 3968,
      "DAY": 3969,
      "ym": 3970,
      "Ġve": 3971,
      "ĠZOOM": 3972,
      "Ġtense": 3973,
      "Ġbones": 3974,
      "Ġlaz": 3975,
      "Ġnature": 3976,
      "ans": 3977,
      "Ġmech": 3978,
      "Ġpatch": 3979,
      "ctor": 3980,
      "Ġshining": 3981,
      "ĠTREAT": 3982,
      "Ġsafet": 3983,
      "Ġsalary": 3984,
      "ĠWITH": 3985,
      "Ġrude": 3986,
      "Ġeaten": 3987,
      "ĠSW": 3988,
      "ĠDAY": 3989,
      "Ġspecies": 3990,
      "Ġhums": 3991,
      "Ġlistens": 3992,
      "Ġguitar": 3993,
      "ĠCR": 3994,
      "ĠPLA": 3995,
      "Ġheartbeat": 3996,
      "Ġvibes": 3997,
      "Ġglows": 3998,
      "ĠEVER": 3999,
      "Ġadjust": 4000,
      "Ġtotal": 4001,
      "IDE": 4002,
      "Ġzone": 4003,
      "Ġdelicate": 4004,
      "Ġenerget": 4005,
      "Ġsteer": 4006,
      "Ġconfir": 4007,
      "Ġbothering": 4008,
      "Ġpunish": 4009,
      "Ġdash": 4010,
      "Ġshimmering": 4011,
      "Ġredisco": 4012,
      "Ġaccidentally": 4013,
      "Ġeffic": 4014,
      "Ġnicely": 4015,
      "ĠOWN": 4016,
      "Ġhalfway": 4017,
      "Ġshocked": 4018,
      "continues": 4019,
      "Ġeventually": 4020,
      "Ġlanguage": 4021,
      "ĠMARRIED": 4022,
      "Ġsurvive": 4023,
      "Ġmixed": 4024,
      "Ġdrawing": 4025,
      "squints": 4026,
      "ĠWIGGLE": 4027,
      "Ġpatricia": 4028,
      "Ġmiracle": 4029,
      "Ġdifficult": 4030,
      "ĠGRADU": 4031,
      "Ġridiculous": 4032,
      "Ġsafety": 4033,
      "*...": 4034,
      "EC": 4035,
      "WW": 4036,
      "YY": 4037,
      "aw": 4038,
      "aur": 4039,
      "mouth": 4040,
      "ta": 4041,
      "via": 4042,
      "Ġ(": 4043,
      "Ġthous": 4044,
      "Ġwed": 4045,
      "rel": 4046,
      "Ġhid": 4047,
      "Ġoli": 4048,
      "Ġgrat": 4049,
      "anoid": 4050,
      "steps": 4051,
      "Ġep": 4052,
      "Ġwast": 4053,
      "Ġisol": 4054,
      "edu": 4055,
      "Ġpops": 4056,
      "Ġkilling": 4057,
      "ica": 4058,
      "icke": 4059,
      "Ġmoti": 4060,
      "acting": 4061,
      "Ġconcent": 4062,
      "Ġblink": 4063,
      "Ġasleep": 4064,
      "Ġhole": 4065,
      "OULD": 4066,
      "Ġdisorient": 4067,
      "Ġpretend": 4068,
      "ute": 4069,
      "Ġrach": 4070,
      "ĠAC": 4071,
      "ĠAR": 4072,
      "INS": 4073,
      "ĠFISH": 4074,
      "rated": 4075,
      "ĠMA": 4076,
      "ĠBAD": 4077,
      "ĠHOU": 4078,
      "ddle": 4079,
      "Ġbelieves": 4080,
      "Ġrefresh": 4081,
      "Ġfinds": 4082,
      "Ġpaid": 4083,
      "Ġadios": 4084,
      "Ġdeeper": 4085,
      "Ġbrother": 4086,
      "ĠLet": 4087,
      "REAK": 4088,
      "Ġschedu": 4089,
      "Ġphot": 4090,
      "Ġdrop": 4091,
      "Ġdroop": 4092,
      "Ġrapid": 4093,
      "anyway": 4094,
      "Ġwinning": 4095,
      "ĠHAPPEN": 4096,
      "Ġuniverse": 4097,
      "ĠOFF": 4098,
      "EAH": 4099,
      "Ġfeatures": 4100,
      "Ġimpressive": 4101,
      "Ġfilled": 4102,
      "Ġmedia": 4103,
      "Ġfascinating": 4104,
      "Ġhobbies": 4105,
      "Ġsurrounded": 4106,
      "Ġunkind": 4107,
      "Ġchaos": 4108,
      "Ġtonight": 4109,
      "Ġphysic": 4110,
      "Ġversion": 4111,
      "Ġcritic": 4112,
      "Ġfootsteps": 4113,
      "ĠFEEL": 4114,
      "listens": 4115,
      "Ġannivers": 4116,
      "Ġinflation": 4117,
      "Ġinsurance": 4118,
      "ĠPROMOT": 4119,
      "Ġeternal": 4120,
      "Ġefficient": 4121,
      "Ġthousand": 4122,
      "Ġolivia": 4123,
      "Ġgratitude": 4124,
      "Ġrachel": 4125,
      "br": 4126,
      "der": 4127,
      "den": 4128,
      "eth": 4129,
      "ground": 4130,
      "gent": 4131,
      "nch": 4132,
      "rink": 4133,
      "Ġtim": 4134,
      "Ġthin": 4135,
      "Ġala": 4136,
      "ery": 4137,
      "Ġdest": 4138,
      "owed": 4139,
      "Ġgigg": 4140,
      "Ġgames": 4141,
      "Ġsoo": 4142,
      "Ġpea": 4143,
      "Ġpanicked": 4144,
      "iting": 4145,
      "ghter": 4146,
      "icle": 4147,
      "Ġcannot": 4148,
      "Ġthinks": 4149,
      "Ġflaw": 4150,
      "ote": 4151,
      "eable": 4152,
      "Ġscrat": 4153,
      "Ġsup": 4154,
      "Ġsumm": 4155,
      "ffee": 4156,
      "Ġvoices": 4157,
      "acks": 4158,
      "Ġsand": 4159,
      "Ġrealization": 4160,
      "Ġprove": 4161,
      "Ġpebble": 4162,
      "fins": 4163,
      "ĠSt": 4164,
      "ĠSCH": 4165,
      "ĠFR": 4166,
      "Ġthoughtfully": 4167,
      "Ġfunction": 4168,
      "Ġfirm": 4169,
      "ATER": 4170,
      "Ġcleare": 4171,
      "Ġbelief": 4172,
      "Ġsunny": 4173,
      "Ġsunset": 4174,
      "Ġturns": 4175,
      "Ġgray": 4176,
      "ĠEN": 4177,
      "Ġabsolute": 4178,
      "Ġworrying": 4179,
      "Ġcarries": 4180,
      "concent": 4181,
      "Ġfrustration": 4182,
      "ĠLOOK": 4183,
      "Ġdisappointing": 4184,
      "Ġride": 4185,
      "Ġincredibly": 4186,
      "comes": 4187,
      "SHIP": 4188,
      "sentence": 4189,
      "Ġdrink": 4190,
      "ĠJOY": 4191,
      "Ġsensitive": 4192,
      "Ġbooked": 4193,
      "Ġripple": 4194,
      "Ġcreatures": 4195,
      "Ġcommute": 4196,
      "ICE": 4197,
      "Ġlands": 4198,
      "Ġcopy": 4199,
      "Ġrelaxed": 4200,
      "ĠMOVED": 4201,
      "Ġstanding": 4202,
      "Ġtyp": 4203,
      "Ġpowerful": 4204,
      "Ġjudgment": 4205,
      "Ġimpressed": 4206,
      "Ġdefensive": 4207,
      "Ġpromises": 4208,
      "Ġ100": 4209,
      "Ġshocking": 4210,
      "Ġvibe": 4211,
      "Ġprogram": 4212,
      "Ġleafy": 4213,
      "Ġbesides": 4214,
      "ĠBABY": 4215,
      "Ġschedule": 4216,
      "Ġanniversary": 4217,
      "Ġalarm": 4218,
      "*.": 4219,
      "GRY": 4220,
      "LI": 4221,
      "RAT": 4222,
      "VING": 4223,
      "VED": 4224,
      "VOR": 4225,
      "ber": 4226,
      "but": 4227,
      "cing": 4228,
      "ceable": 4229,
      "dis": 4230,
      "kers": 4231,
      "old": 4232,
      "pro": 4233,
      "vin": 4234,
      "ww": 4235,
      "zen": 4236,
      "Ġice": 4237,
      "ative": 4238,
      "atically": 4239,
      "Ġyouth": 4240,
      "Ġfro": 4241,
      "Ġflex": 4242,
      "Ġbills": 4243,
      "Ġbird": 4244,
      "Ġduring": 4245,
      "Ġhm": 4246,
      "Ġhon": 4247,
      "Ġhim": 4248,
      "Ġori": 4249,
      "Ġnoo": 4250,
      "Ġgym": 4251,
      "eling": 4252,
      "Ġpal": 4253,
      "Ġpark": 4254,
      "vering": 4255,
      "Ġbuzz": 4256,
      "Ġjess": 4257,
      "Ġstep": 4258,
      "Ġohhh": 4259,
      "Ġabs": 4260,
      "Ġur": 4261,
      "Ġswirl": 4262,
      "Ġglassy": 4263,
      "Ġknowled": 4264,
      "iled": 4265,
      "chy": 4266,
      "Ġaging": 4267,
      "ĠYEAH": 4268,
      "Ġcoffee": 4269,
      "roll": 4270,
      "Ġspook": 4271,
      "Ġspaces": 4272,
      "Ġthemselves": 4273,
      "Ġblow": 4274,
      "Ġimpat": 4275,
      "Ġhumble": 4276,
      "ĠSEE": 4277,
      "Ġlead": 4278,
      "ĠOKAY": 4279,
      "ĠBIG": 4280,
      "ĠHi": 4281,
      "Ġbelieved": 4282,
      "Ġslipping": 4283,
      "Ġusual": 4284,
      "Ġcurse": 4285,
      "ĠMEAN": 4286,
      "Ġtopic": 4287,
      "Ġappearance": 4288,
      "Ġmysteries": 4289,
      "Ġriddle": 4290,
      "Ġreaches": 4291,
      "pective": 4292,
      "Ġjumping": 4293,
      "forgot": 4294,
      "ĠThere": 4295,
      "ĠRA": 4296,
      "Ġposition": 4297,
      "Ġconsistent": 4298,
      "Ġtreats": 4299,
      "Ġdropping": 4300,
      "Ġdarted": 4301,
      "ĠFAVOR": 4302,
      "ĠNEWS": 4303,
      "Ġcopying": 4304,
      "Ġoverwhelming": 4305,
      "Ġtravels": 4306,
      "Ġirre": 4307,
      "Ġiron": 4308,
      "ĠONE": 4309,
      "Ġburst": 4310,
      "Ġadopted": 4311,
      "Ġexercise": 4312,
      "Ġenergetic": 4313,
      "Ġwedding": 4314,
      "ĠHOUSE": 4315,
      "Ġjessica": 4316,
      "Ġknowledge": 4317,
      "ĠFAVORITE": 4318,
      "?'": 4319,
      "AH": 4320,
      "AU": 4321,
      "EAR": 4322,
      "FUL": 4323,
      "KED": 4324,
      "OSE": 4325,
      "SO": 4326,
      "SIDE": 4327,
      "ael": 4328,
      "ale": 4329,
      "everything": 4330,
      "gins": 4331,
      "iff": 4332,
      "lp": 4333,
      "mes": 4334,
      "mid": 4335,
      "ncy": 4336,
      "ract": 4337,
      "vent": 4338,
      "zing": 4339,
      "ĠVERY": 4340,
      "Ġtun": 4341,
      "Ġfills": 4342,
      "Ġfire": 4343,
      "Ġboo": 4344,
      "erti": 4345,
      "Ġdumb": 4346,
      "Ġna": 4347,
      "Ġcard": 4348,
      "Ġecon": 4349,
      "Ġwaved": 4350,
      "lear": 4351,
      "Ġnois": 4352,
      "Ġstrate": 4353,
      "already": 4354,
      "Ġshoes": 4355,
      "Ġkinder": 4356,
      "Ġaller": 4357,
      "Ġloc": 4358,
      "Ġlogic": 4359,
      "Ġlovable": 4360,
      "Ġfaith": 4361,
      "Ġsmarter": 4362,
      "Ġupon": 4363,
      "Ġspo": 4364,
      "Ġdie": 4365,
      "Ġblush": 4366,
      "Ġdisconnected": 4367,
      "Ġcompare": 4368,
      "Ġimpro": 4369,
      "INNER": 4370,
      "solved": 4371,
      "ratory": 4372,
      "ĠMINE": 4373,
      "Ġdefine": 4374,
      "ichael": 4375,
      "Ġcareer": 4376,
      "ĠBRIGHT": 4377,
      "Ġgrand": 4378,
      "spin": 4379,
      "Ġunse": 4380,
      "Ġlisting": 4381,
      "Ġperspective": 4382,
      "Ġteeth": 4383,
      "Ġpuppy": 4384,
      "Ġcalming": 4385,
      "ĠPLE": 4386,
      "igning": 4387,
      "Ġcrown": 4388,
      "Ġcleaning": 4389,
      "Ġsettles": 4390,
      "Ġescaping": 4391,
      "Ġrules": 4392,
      "Ġjumpy": 4393,
      "Ġcurrents": 4394,
      "ĠRe": 4395,
      "Ġproblems": 4396,
      "GAGED": 4397,
      "Ġarticle": 4398,
      "BLISHED": 4399,
      "Ġbecoming": 4400,
      "ĠFALL": 4401,
      "ĠFAST": 4402,
      "Ġsettling": 4403,
      "Ġtingle": 4404,
      "Ġcopies": 4405,
      "Ġwispy": 4406,
      "Ġcheerful": 4407,
      "ĠPUBLISHED": 4408,
      "yaw": 4409,
      "Ġsignific": 4410,
      "ĠTWO": 4411,
      "Ġhobby": 4412,
      "Ġdevast": 4413,
      "Ġdramatic": 4414,
      "Ġbriefly": 4415,
      "Ġsophia": 4416,
      "Ġbene": 4417,
      "Ġflew": 4418,
      "Ġhypnotic": 4419,
      "Ġsatisfied": 4420,
      "Ġblessed": 4421,
      "Ġexperien": 4422,
      "ĠGRADUATED": 4423,
      "Ġhidden": 4424,
      "Ġphoto": 4425,
      "ĠENGAGED": 4426,
      "Ġstrategy": 4427,
      "AIT": 4428,
      "TED": 4429,
      "WAY": 4430,
      "cer": 4431,
      "ging": 4432,
      "grat": 4433,
      "gives": 4434,
      "ially": 4435,
      "leness": 4436,
      "mesmerized": 4437,
      "now": 4438,
      "night": 4439,
      "pre": 4440,
      "puff": 4441,
      "panics": 4442,
      "val": 4443,
      "yle": 4444,
      "Ġ2": 4445,
      "Ġwra": 4446,
      "Ġant": 4447,
      "Ġaqu": 4448,
      "Ġsigning": 4449,
      "atus": 4450,
      "Ġmort": 4451,
      "Ġmater": 4452,
      "Ġfright": 4453,
      "Ġdust": 4454,
      "Ġgrie": 4455,
      "orable": 4456,
      "ellet": 4457,
      "stop": 4458,
      "thes": 4459,
      "Ġeek": 4460,
      "ission": 4461,
      "ening": 4462,
      "Ġpellet": 4463,
      "Ġinno": 4464,
      "oomed": 4465,
      "Ġbegins": 4466,
      "Ġstood": 4467,
      "Ġstore": 4468,
      "alse": 4469,
      "Ġalice": 4470,
      "omy": 4471,
      "Ġanci": 4472,
      "Ġloyal": 4473,
      "Ġchat": 4474,
      "Ġchild": 4475,
      "Ġcongrat": 4476,
      "Ġheat": 4477,
      "Ġbackground": 4478,
      "Ġquality": 4479,
      "Ġcompetition": 4480,
      "Ġpeek": 4481,
      "Ġeats": 4482,
      "ĠAH": 4483,
      "ibility": 4484,
      "ĠFUN": 4485,
      "anding": 4486,
      "Ġbeauty": 4487,
      "Ġgentleness": 4488,
      "ĠBut": 4489,
      "ĠBREAK": 4490,
      "Ġcoolest": 4491,
      "Ġdissolving": 4492,
      "Ġhopefully": 4493,
      "ERT": 4494,
      "Ġgrew": 4495,
      "Ġgulp": 4496,
      "Ġmoral": 4497,
      "Ġinvent": 4498,
      "LAR": 4499,
      "Ġspinny": 4500,
      "Ġadore": 4501,
      "Ġattack": 4502,
      "Ġstocks": 4503,
      "Ġsnow": 4504,
      "Ġtaps": 4505,
      "Ġdetermined": 4506,
      "ARK": 4507,
      "Ġmessing": 4508,
      "Ġcrashes": 4509,
      "Ġshivers": 4510,
      "Ġsparkling": 4511,
      "Ġplanning": 4512,
      "Ġenerg": 4513,
      "Ġshifting": 4514,
      "Ġtricks": 4515,
      "Ġdroops": 4516,
      "ubs": 4517,
      "Ġsplashes": 4518,
      "Ġcommun": 4519,
      "Ġbendy": 4520,
      "Ġinspire": 4521,
      "Ġignored": 4522,
      "Ġkey": 4523,
      "ĠSomething": 4524,
      "ĠDEF": 4525,
      "Ġinternship": 4526,
      "Ġsearching": 4527,
      "Ġobservation": 4528,
      "Ġsubject": 4529,
      "secure": 4530,
      "Ġsuccess": 4531,
      "placeable": 4532,
      "Ġcommitted": 4533,
      "RPRI": 4534,
      "Ġcompanion": 4535,
      "Ġveget": 4536,
      "Ġtiming": 4537,
      "Ġclearer": 4538,
      "concentrates": 4539,
      "Ġorigin": 4540,
      "Ġimpatient": 4541,
      "ĠRAISE": 4542,
      "Ġirreplaceable": 4543,
      "Ġunseen": 4544,
      "yawns": 4545,
      "Ġdevastated": 4546,
      "Ġbeneath": 4547,
      "Ġmaterial": 4548,
      "Ġancient": 4549,
      "GER": 4550,
      "OLAR": 4551,
      "bra": 4552,
      "dist": 4553,
      "diz": 4554,
      "eks": 4555,
      "fle": 4556,
      "ged": 4557,
      "gla": 4558,
      "ikes": 4559,
      "maybe": 4560,
      "nown": 4561,
      "ob": 4562,
      "sy": 4563,
      "your": 4564,
      "Ġah": 4565,
      "Ġamb": 4566,
      "Ġmill": 4567,
      "Ġbass": 4568,
      "Ġdate": 4569,
      "Ġhor": 4570,
      "Ġnon": 4571,
      "Ġgas": 4572,
      "orb": 4573,
      "Ġlied": 4574,
      "enn": 4575,
      "ened": 4576,
      "ited": 4577,
      "vement": 4578,
      "Ġinstant": 4579,
      "Ġinsecure": 4580,
      "Ġnovel": 4581,
      "mbles": 4582,
      "Ġangle": 4583,
      "Ġweigh": 4584,
      "Ġwhose": 4585,
      "Ġmagn": 4586,
      "ctly": 4587,
      "Ġshines": 4588,
      "Ġallig": 4589,
      "ments": 4590,
      "Ġwherever": 4591,
      "Ġcolored": 4592,
      "Ġcher": 4593,
      "Ġvoid": 4594,
      "ĠWho": 4595,
      "Ġprep": 4596,
      "abel": 4597,
      "absolut": 4598,
      "Ġpartic": 4599,
      "Ġring": 4600,
      "IND": 4601,
      "INK": 4602,
      "finitely": 4603,
      "ĠSee": 4604,
      "ĠFORE": 4605,
      "Ġhiya": 4606,
      "Ġcomedy": 4607,
      "ĠDONE": 4608,
      "ATE": 4609,
      "Ġuns": 4610,
      "Ġfurious": 4611,
      "whatever": 4612,
      "ĠGood": 4613,
      "ĠGET": 4614,
      "ipation": 4615,
      "Ġcircular": 4616,
      "ĠWHY": 4617,
      "Ġquietly": 4618,
      "ĠNOM": 4619,
      "Ġusing": 4620,
      "loops": 4621,
      "OOL": 4622,
      "RILL": 4623,
      "pers": 4624,
      "reaming": 4625,
      "Ġpurple": 4626,
      "Ġcontinu": 4627,
      "lio": 4628,
      "Ġfollows": 4629,
      "Ġsnap": 4630,
      "eeze": 4631,
      "Ġreached": 4632,
      "moves": 4633,
      "Ġwalked": 4634,
      "ĠANY": 4635,
      "IRD": 4636,
      "focu": 4637,
      "Ġinterview": 4638,
      "worthy": 4639,
      "Ġbuilds": 4640,
      "ĠSHE": 4641,
      "ĠTOP": 4642,
      "ĠOUTSIDE": 4643,
      "Ġsinking": 4644,
      "ĠLIKE": 4645,
      "Ġspirals": 4646,
      "Ġtyler": 4647,
      "UNCH": 4648,
      "Ġpowerless": 4649,
      "Ġreaction": 4650,
      "ĠSURPRI": 4651,
      "ĠINCOMING": 4652,
      "Ġjudging": 4653,
      "Ġkept": 4654,
      "Ġtwitching": 4655,
      "controll": 4656,
      "Ġenthusiasm": 4657,
      "Ġsoulm": 4658,
      "Ġrobert": 4659,
      "Ġheavier": 4660,
      "monst": 4661,
      "Ġgiggle": 4662,
      "Ġsoothing": 4663,
      "ĠSCHOLAR": 4664,
      "ĠPLEASE": 4665,
      "puffs": 4666,
      "Ġantic": 4667,
      "Ġenergized": 4668,
      "dizzy": 4669,
      "Ġmillion": 4670,
      "Ġalligator": 4671,
      "ĠFOREVER": 4672,
      "ĠSCHOLARSHIP": 4673,
      "!'": 4674,
      "LO": 4675,
      "SED": 4676,
      "WAIT": 4677,
      "bit": 4678,
      "catches": 4679,
      "cense": 4680,
      "fying": 4681,
      "ior": 4682,
      "iles": 4683,
      "rubs": 4684,
      "sm": 4685,
      "tastic": 4686,
      "Ġtrou": 4687,
      "Ġtang": 4688,
      "Ġsna": 4689,
      "relax": 4690,
      "refle": 4691,
      "Ġyikes": 4692,
      "Ġmay": 4693,
      "Ġfits": 4694,
      "Ġfalse": 4695,
      "Ġdying": 4696,
      "Ġcity": 4697,
      "Ġdoctor": 4698,
      "Ġsober": 4699,
      "Ġliking": 4700,
      "Ġlicense": 4701,
      "Ġbuilt": 4702,
      "Ġresu": 4703,
      "Ġreacting": 4704,
      "Ġstyle": 4705,
      "Ġwatery": 4706,
      "Ġneigh": 4707,
      "Ġswum": 4708,
      "Ġexit": 4709,
      "bbing": 4710,
      "ceed": 4711,
      "Ġheater": 4712,
      "Ġoutta": 4713,
      "Ġsave": 4714,
      "OUD": 4715,
      "OUGH": 4716,
      "ables": 4717,
      "Ġsounded": 4718,
      "Ġcomparing": 4719,
      "uts": 4720,
      "Ġrather": 4721,
      "Ġracing": 4722,
      "ĠAS": 4723,
      "Ġstartle": 4724,
      "ĠFU": 4725,
      "Ġsoftness": 4726,
      "ĠOVER": 4727,
      "ĠBe": 4728,
      "ĠDon": 4729,
      "Ġcooked": 4730,
      "Ġuncontroll": 4731,
      "Ġrestaur": 4732,
      "Ġclosed": 4733,
      "Ġtwins": 4734,
      "curious": 4735,
      "Ġlasted": 4736,
      "ĠTHEM": 4737,
      "Ġcounted": 4738,
      "onestly": 4739,
      "reak": 4740,
      "ager": 4741,
      "Ġglide": 4742,
      "Ġcelebratory": 4743,
      "Ġdeepest": 4744,
      "athan": 4745,
      "Ġopened": 4746,
      "Ġdecis": 4747,
      "Ġtasted": 4748,
      "Ġpaint": 4749,
      "Ġruined": 4750,
      "Ġrumbling": 4751,
      "Ġzoomed": 4752,
      "ĠBUD": 4753,
      "ĠDOES": 4754,
      "Ġenjoying": 4755,
      "ĠSTILL": 4756,
      "Ġcauti": 4757,
      "Ġsplashed": 4758,
      "Ġdisappearing": 4759,
      "Ġsquare": 4760,
      "Ġcrying": 4761,
      "Ġunclear": 4762,
      "Ġdriving": 4763,
      "Ġahhhh": 4764,
      "Ġphilosoph": 4765,
      "Ġtingling": 4766,
      "Ġvanishes": 4767,
      "Ġspreading": 4768,
      "Ġgraceful": 4769,
      "Ġinstru": 4770,
      "ĠLEA": 4771,
      "Ġrelief": 4772,
      "Ġstrangers": 4773,
      "Ġconsciousness": 4774,
      "Ġkids": 4775,
      "ĠTWINS": 4776,
      "Ġclass": 4777,
      "Ġunknown": 4778,
      "Ġrandomly": 4779,
      "Ġpractice": 4780,
      "Ġtechn": 4781,
      "Ġcrushed": 4782,
      "Ġreplaced": 4783,
      "Ġaccomplishment": 4784,
      "Ġdelighted": 4785,
      "Ġvaluable": 4786,
      "Ġoccurred": 4787,
      "Ġconnects": 4788,
      "Ġinvestigate": 4789,
      "ĠFEED": 4790,
      "Ġcoworker": 4791,
      "Ġisolating": 4792,
      "ĠPROMOTED": 4793,
      "Ġtypical": 4794,
      "Ġflexible": 4795,
      "Ġabsorb": 4796,
      "ĠRemember": 4797,
      "ĠFALLING": 4798,
      "Ġsignificant": 4799,
      "Ġaquatic": 4800,
      "ĠDEFIN": 4801,
      "Ġneighb": 4802,
      "Ġuncontrollably": 4803,
      "Ġrestaurant": 4804,
      "?âĢĶ": 4805,
      "TING": 4806,
      "count": 4807,
      "ey": 4808,
      "gid": 4809,
      "hor": 4810,
      "rot": 4811,
      "rang": 4812,
      "rushes": 4813,
      "try": 4814,
      "vig": 4815,
      "Ġ3": 4816,
      "Ġtension": 4817,
      "Ġwound": 4818,
      "Ġmmm": 4819,
      "Ġmunch": 4820,
      "Ġmichael": 4821,
      "Ġtherap": 4822,
      "Ġcous": 4823,
      "Ġcerti": 4824,
      "orge": 4825,
      "Ġsold": 4826,
      "Ġech": 4827,
      "Ġegg": 4828,
      "eng": 4829,
      "enter": 4830,
      "Ġpian": 4831,
      "rible": 4832,
      "Ġrev": 4833,
      "Ġrequ": 4834,
      "Ġresent": 4835,
      "Ġsomeday": 4836,
      "Ġstom": 4837,
      "Ġstate": 4838,
      "Ġstorm": 4839,
      "Ġsteps": 4840,
      "Ġwash": 4841,
      "Ġmode": 4842,
      "Ġgoals": 4843,
      "Ġseason": 4844,
      "Ġswimmer": 4845,
      "Ġsha": 4846,
      "Ġshim": 4847,
      "ural": 4848,
      "bbly": 4849,
      "Ġmomentum": 4850,
      "when": 4851,
      "ĠTime": 4852,
      "Ġtails": 4853,
      "Ġsaving": 4854,
      "astically": 4855,
      "ĠWATER": 4856,
      "Ġperform": 4857,
      "Ġstillness": 4858,
      "Ġplus": 4859,
      "ights": 4860,
      "Ġneeding": 4861,
      "ĠSONG": 4862,
      "ĠSOUND": 4863,
      "umps": 4864,
      "Ġpolit": 4865,
      "ĠBIR": 4866,
      "ĠDINNER": 4867,
      "ĠNICE": 4868,
      "Ġrested": 4869,
      "Ġtrustworthy": 4870,
      "Ġcorre": 4871,
      "Ġbothered": 4872,
      "ĠCOMING": 4873,
      "Ġreflections": 4874,
      "ĠWANT": 4875,
      "Ġlasts": 4876,
      "anced": 4877,
      "Ġcats": 4878,
      "ĠMEAL": 4879,
      "Ġbounces": 4880,
      "THDAY": 4881,
      "ĠDOING": 4882,
      "Ġimagining": 4883,
      "Ġcreative": 4884,
      "Ġstressing": 4885,
      "ĠRO": 4886,
      "Ġrises": 4887,
      "Ġsweetest": 4888,
      "Ġweeke": 4889,
      "ĠTHINGS": 4890,
      "Ġsplashing": 4891,
      "Ġshimmery": 4892,
      "folio": 4893,
      "Ġawareness": 4894,
      "Ġcrystal": 4895,
      "Ġscari": 4896,
      "Ġpublic": 4897,
      "Ġcrucial": 4898,
      "Ġrhymes": 4899,
      "Ġconfidently": 4900,
      "Ġtype": 4901,
      "Ġcovering": 4902,
      "Ġswaying": 4903,
      "curre": 4904,
      "ITELY": 4905,
      "Ġhumidity": 4906,
      "Ġorganized": 4907,
      "WHERE": 4908,
      "Ġwitty": 4909,
      "faded": 4910,
      "Ġroomm": 4911,
      "Ġportfolio": 4912,
      "Ġofficially": 4913,
      "Ġgeome": 4914,
      "ĠWEIRD": 4915,
      "Ġflinched": 4916,
      "Ġobsessed": 4917,
      "Ġwasting": 4918,
      "Ġrapidly": 4919,
      "Ġallergic": 4920,
      "distracted": 4921,
      "glass": 4922,
      "Ġcherish": 4923,
      "relaxes": 4924,
      "Ġmaya": 4925,
      "Ġresume": 4926,
      "ĠBUDDY": 4927,
      "ĠDEFINITELY": 4928,
      "ĠBIRTHDAY": 4929,
      "ASH": 4930,
      "AIL": 4931,
      "MED": 4932,
      "back": 4933,
      "bably": 4934,
      "dart": 4935,
      "eat": 4936,
      "eiling": 4937,
      "fix": 4938,
      "gul": 4939,
      "hood": 4940,
      "iel": 4941,
      "mis": 4942,
      "pa": 4943,
      "tri": 4944,
      "uely": 4945,
      "uter": 4946,
      "van": 4947,
      "vest": 4948,
      "vity": 4949,
      "zooming": 4950,
      "ĠLA": 4951,
      "Ġtu": 4952,
      "Ġtiring": 4953,
      "Ġwid": 4954,
      "Ġack": 4955,
      "Ġsick": 4956,
      "Ġfan": 4957,
      "Ġdam": 4958,
      "Ġhen": 4959,
      "Ġhust": 4960,
      "Ġluc": 4961,
      "Ġcre": 4962,
      "Ġcenter": 4963,
      "Ġceiling": 4964,
      "Ġgill": 4965,
      "...\"": 4966,
      "Ġeager": 4967,
      "Ġisabel": 4968,
      "aylor": 4969,
      "Ġliked": 4970,
      "Ġpitter": 4971,
      "Ġstir": 4972,
      "icated": 4973,
      "Ġorang": 4974,
      "Ġforgave": 4975,
      "Ġglaze": 4976,
      "anted": 4977,
      "antly": 4978,
      "Ġseek": 4979,
      "Ġflapping": 4980,
      "Ġext": 4981,
      "Ġtill": 4982,
      "Ġshy": 4983,
      "Ġamount": 4984,
      "ĠYEAR": 4985,
      "Ġloses": 4986,
      "Ġcomfor": 4987,
      "Ġscience": 4988,
      "Ġsuspicious": 4989,
      "Ġchuck": 4990,
      "Ġvol": 4991,
      "Ġsam": 4992,
      "Ġpred": 4993,
      "aphor": 4994,
      "Ġreality": 4995,
      "Ġdaytime": 4996,
      "Ġcomputer": 4997,
      "Ġprodu": 4998,
      "Ġrum": 4999,
      "ĠAD": 5000,
      "ĠACT": 5001,
      "Ġacting": 5002,
      "Ġaction": 5003,
      "Ġactiv": 5004,
      "Ġstudy": 5005,
      "Ġhelpless": 5006,
      "Ġslowing": 5007,
      "Ġoverthinking": 5008,
      "ĠTHRILL": 5009,
      "Ġpointing": 5010,
      "peeks": 5011,
      "Ġmanage": 5012,
      "ĠORAN": 5013,
      "ĠDid": 5014,
      "Ġdissolve": 5015,
      "Ġconfusedly": 5016,
      "Ġputting": 5017,
      "ĠCOLD": 5018,
      "Ġmornings": 5019,
      "loop": 5020,
      "LECT": 5021,
      "Ġvibing": 5022,
      "Ġworthless": 5023,
      "Ġinclud": 5024,
      "Ġmetaphor": 5025,
      "Ġclick": 5026,
      "doesn": 5027,
      "Ġrigid": 5028,
      "ARY": 5029,
      "flates": 5030,
      "Ġexhaustion": 5031,
      "Ġnormally": 5032,
      "forget": 5033,
      "larity": 5034,
      "definitely": 5035,
      "Ġdeserves": 5036,
      "ĠMOMENT": 5037,
      "ACT": 5038,
      "Ġfreezing": 5039,
      "someone": 5040,
      "Ġdrain": 5041,
      "Ġdrops": 5042,
      "Ġsolved": 5043,
      "Ġbothers": 5044,
      "ĠSTU": 5045,
      "ĠNEED": 5046,
      "ĠNEVER": 5047,
      "ĠREADY": 5048,
      "Ġpuns": 5049,
      "ĠHUN": 5050,
      "Ġblake": 5051,
      "ĠBET": 5052,
      "Ġadventures": 5053,
      "ĠSHOULD": 5054,
      "Ġtextured": 5055,
      "Ġblocked": 5056,
      "Ġthicker": 5057,
      "ĠAWWW": 5058,
      "Ġapologized": 5059,
      "ĠREF": 5060,
      "Ġstruggle": 5061,
      "Ġpulling": 5062,
      "Ġpermission": 5063,
      "Ġapproach": 5064,
      "Ġreflecting": 5065,
      "Ġdeadline": 5066,
      "ĠAHHHH": 5067,
      "Ġemotional": 5068,
      "Ġlanguages": 5069,
      "Ġenthusiastically": 5070,
      "Ġviol": 5071,
      "Ġprogress": 5072,
      "Ġclosely": 5073,
      "Ġamuse": 5074,
      "Ġachievement": 5075,
      "Ġvaguely": 5076,
      "Ġghosted": 5077,
      "vibrating": 5078,
      "Ġrediscover": 5079,
      "Ġepic": 5080,
      "Ġmotiv": 5081,
      "ĠHAPPENING": 5082,
      "Ġnoises": 5083,
      "Ġimprove": 5084,
      "Ġgrieving": 5085,
      "Ġinnocent": 5086,
      "Ġhorrible": 5087,
      "Ġtangled": 5088,
      "reflection": 5089,
      "ength": 5090,
      "Ġpiano": 5091,
      "Ġhenry": 5092,
      "Ġlucas": 5093,
      "Ġisabella": 5094,
      "Ġcomforting": 5095,
      "Ġchuckle": 5096,
      "ĠORANGE": 5097,
      "FAST": 5098,
      "NING": 5099,
      "NED": 5100,
      "YES": 5101,
      "eed": 5102,
      "lks": 5103,
      "ma": 5104,
      "og": 5105,
      "poof": 5106,
      "sal": 5107,
      "sound": 5108,
      "sized": 5109,
      "tw": 5110,
      "table": 5111,
      "Ġthirty": 5112,
      "inc": 5113,
      "Ġsle": 5114,
      "Ġsla": 5115,
      "Ġmesmerized": 5116,
      "Ġmike": 5117,
      "Ġdull": 5118,
      "Ġclarity": 5119
    },
    "merges": [
      [
        "Ġ",
        "t"
      ],
      [
        "Ġ",
        "i"
      ],
      [
        "Ġt",
        "h"
      ],
      [
        "Ġ",
        "w"
      ],
      [
        "Ġ",
        "a"
      ],
      [
        "o",
        "u"
      ],
      [
        "i",
        "n"
      ],
      [
        "Ġ",
        "s"
      ],
      [
        "r",
        "e"
      ],
      [
        "a",
        "t"
      ],
      [
        "Ġ",
        "y"
      ],
      [
        "Ġy",
        "ou"
      ],
      [
        "in",
        "g"
      ],
      [
        "Ġ",
        "m"
      ],
      [
        "Ġ",
        "f"
      ],
      [
        "Ġth",
        "e"
      ],
      [
        "Ġ",
        "b"
      ],
      [
        "e",
        "r"
      ],
      [
        "Ġ",
        "d"
      ],
      [
        ".",
        "."
      ],
      [
        "Ġ",
        "h"
      ],
      [
        "Ġw",
        "h"
      ],
      [
        "n",
        "d"
      ],
      [
        "e",
        "s"
      ],
      [
        "Ġ",
        "o"
      ],
      [
        "Ġ",
        "l"
      ],
      [
        "Ġ",
        "n"
      ],
      [
        "m",
        "e"
      ],
      [
        "o",
        "w"
      ],
      [
        "Ġ",
        "c"
      ],
      [
        "Ġ",
        "g"
      ],
      [
        "Ġd",
        "o"
      ],
      [
        "Ġi",
        "t"
      ],
      [
        "'",
        "s"
      ],
      [
        "a",
        "n"
      ],
      [
        "o",
        "r"
      ],
      [
        "Ġa",
        "nd"
      ],
      [
        "e",
        "l"
      ],
      [
        "s",
        "t"
      ],
      [
        "Ġwh",
        "at"
      ],
      [
        "t",
        "h"
      ],
      [
        "Ġs",
        "o"
      ],
      [
        "..",
        "."
      ],
      [
        "Ġ",
        "e"
      ],
      [
        "Ġw",
        "a"
      ],
      [
        "Ġi",
        "s"
      ],
      [
        "g",
        "h"
      ],
      [
        "Ġm",
        "e"
      ],
      [
        "Ġth",
        "at"
      ],
      [
        "a",
        "y"
      ],
      [
        "e",
        "d"
      ],
      [
        "l",
        "l"
      ],
      [
        "o",
        "n"
      ],
      [
        "i",
        "s"
      ],
      [
        "Ġl",
        "i"
      ],
      [
        "e",
        "n"
      ],
      [
        "Ġt",
        "o"
      ],
      [
        "'",
        "m"
      ],
      [
        "Ġ",
        "p"
      ],
      [
        "k",
        "e"
      ],
      [
        "Ġh",
        "a"
      ],
      [
        "v",
        "er"
      ],
      [
        "i",
        "t"
      ],
      [
        "e",
        "re"
      ],
      [
        "Ġb",
        "u"
      ],
      [
        "l",
        "e"
      ],
      [
        "v",
        "e"
      ],
      [
        "r",
        "i"
      ],
      [
        "Ġm",
        "y"
      ],
      [
        "Ġ",
        "*"
      ],
      [
        "gh",
        "t"
      ],
      [
        "e",
        "t"
      ],
      [
        "th",
        "ing"
      ],
      [
        "Ġf",
        "or"
      ],
      [
        "Ġ",
        "re"
      ],
      [
        "Ġi",
        "n"
      ],
      [
        "Ġso",
        "me"
      ],
      [
        "l",
        "a"
      ],
      [
        "o",
        "o"
      ],
      [
        "Ġ",
        "j"
      ],
      [
        "Ġb",
        "e"
      ],
      [
        "u",
        "st"
      ],
      [
        "'",
        "t"
      ],
      [
        "Ġn",
        "o"
      ],
      [
        "Ġli",
        "ke"
      ],
      [
        "Ġw",
        "at"
      ],
      [
        "Ġa",
        "re"
      ],
      [
        "a",
        "r"
      ],
      [
        "i",
        "d"
      ],
      [
        "Ġs",
        "t"
      ],
      [
        "Ġf",
        "e"
      ],
      [
        "ou",
        "t"
      ],
      [
        "Ġwat",
        "er"
      ],
      [
        "Ġbu",
        "t"
      ],
      [
        "Ġj",
        "ust"
      ],
      [
        "Ġyou",
        "r"
      ],
      [
        "Ġfe",
        "el"
      ],
      [
        "'",
        "re"
      ],
      [
        "p",
        "p"
      ],
      [
        "Ġo",
        "h"
      ],
      [
        "Ġ",
        "k"
      ],
      [
        "Ġe",
        "ver"
      ],
      [
        "l",
        "d"
      ],
      [
        "i",
        "c"
      ],
      [
        "Ġa",
        "b"
      ],
      [
        "Ġwa",
        "s"
      ],
      [
        "Ġo",
        "r"
      ],
      [
        "Ġw",
        "i"
      ],
      [
        "Ġ",
        "u"
      ],
      [
        "a",
        "d"
      ],
      [
        "Ġm",
        "o"
      ],
      [
        "i",
        "m"
      ],
      [
        "Ġg",
        "o"
      ],
      [
        "l",
        "y"
      ],
      [
        "Ġfor",
        "g"
      ],
      [
        "?",
        "?"
      ],
      [
        "a",
        "ll"
      ],
      [
        "Ġab",
        "out"
      ],
      [
        "a",
        "l"
      ],
      [
        "s",
        "s"
      ],
      [
        "ri",
        "ght"
      ],
      [
        "Ġn",
        "ow"
      ],
      [
        "a",
        "c"
      ],
      [
        "Ġth",
        "ing"
      ],
      [
        "Ġo",
        "n"
      ],
      [
        "Ġn",
        "e"
      ],
      [
        "Ġsome",
        "thing"
      ],
      [
        "Ġthe",
        "y"
      ],
      [
        "Ġwa",
        "it"
      ],
      [
        "Ġs",
        "e"
      ],
      [
        "Ġ",
        "right"
      ],
      [
        "Ġa",
        "l"
      ],
      [
        "Ġth",
        "is"
      ],
      [
        "s",
        "e"
      ],
      [
        "Ġever",
        "y"
      ],
      [
        "r",
        "ou"
      ],
      [
        "is",
        "h"
      ],
      [
        "o",
        "m"
      ],
      [
        "g",
        "e"
      ],
      [
        "Ġo",
        "f"
      ],
      [
        "Ġha",
        "pp"
      ],
      [
        "k",
        "es"
      ],
      [
        "Ġthe",
        "re"
      ],
      [
        "Ġh",
        "ow"
      ],
      [
        "el",
        "l"
      ],
      [
        "n",
        "t"
      ],
      [
        "Ġdo",
        "n"
      ],
      [
        "l",
        "es"
      ],
      [
        "Ġc",
        "an"
      ],
      [
        "Ġh",
        "ere"
      ],
      [
        "Ġg",
        "la"
      ],
      [
        "Ġs",
        "w"
      ],
      [
        "!",
        "!"
      ],
      [
        "Ġd",
        "id"
      ],
      [
        "i",
        "r"
      ],
      [
        "Ġgla",
        "ss"
      ],
      [
        "â",
        "Ģ"
      ],
      [
        "âĢ",
        "Ķ"
      ],
      [
        "m",
        "b"
      ],
      [
        "in",
        "d"
      ],
      [
        "an",
        "t"
      ],
      [
        "in",
        "k"
      ],
      [
        "Ġk",
        "n"
      ],
      [
        "Ġforg",
        "et"
      ],
      [
        "a",
        "in"
      ],
      [
        "oo",
        "d"
      ],
      [
        "an",
        "ge"
      ],
      [
        "w",
        "ay"
      ],
      [
        "on",
        "e"
      ],
      [
        "Ġha",
        "ve"
      ],
      [
        "Ġkn",
        "ow"
      ],
      [
        "Ġa",
        "n"
      ],
      [
        "es",
        "t"
      ],
      [
        "mb",
        "er"
      ],
      [
        "Ġno",
        "t"
      ],
      [
        "ow",
        "l"
      ],
      [
        "Ġw",
        "e"
      ],
      [
        "Ġre",
        "me"
      ],
      [
        "Ġb",
        "owl"
      ],
      [
        "Ġth",
        "ink"
      ],
      [
        "Ġf",
        "in"
      ],
      [
        "Ġse",
        "e"
      ],
      [
        "Ġreme",
        "mber"
      ],
      [
        "i",
        "on"
      ],
      [
        "b",
        "e"
      ],
      [
        "Ġwi",
        "th"
      ],
      [
        "f",
        "u"
      ],
      [
        "Ġ",
        "..."
      ],
      [
        "all",
        "y"
      ],
      [
        "Ġf",
        "la"
      ],
      [
        "Ġsw",
        "im"
      ],
      [
        "Ġe",
        "x"
      ],
      [
        "i",
        "l"
      ],
      [
        "c",
        "h"
      ],
      [
        "Ġwh",
        "o"
      ],
      [
        "a",
        "re"
      ],
      [
        "Ġm",
        "a"
      ],
      [
        "Ġor",
        "ange"
      ],
      [
        "Ġt",
        "i"
      ],
      [
        "Ġw",
        "or"
      ],
      [
        "Ġa",
        "g"
      ],
      [
        "k",
        "ing"
      ],
      [
        "c",
        "t"
      ],
      [
        "o",
        "t"
      ],
      [
        "?",
        "!"
      ],
      [
        "Ġ",
        "I"
      ],
      [
        "ay",
        "be"
      ],
      [
        "Ġa",
        "t"
      ],
      [
        "Ġm",
        "aybe"
      ],
      [
        "Ġfla",
        "kes"
      ],
      [
        "r",
        "y"
      ],
      [
        "Ġy",
        "es"
      ],
      [
        "m",
        "p"
      ],
      [
        "Ġevery",
        "thing"
      ],
      [
        "g",
        "g"
      ],
      [
        "el",
        "y"
      ],
      [
        "Ġs",
        "h"
      ],
      [
        "u",
        "r"
      ],
      [
        "ic",
        "e"
      ],
      [
        "Ġg",
        "ood"
      ],
      [
        "Ġt",
        "ell"
      ],
      [
        "b",
        "b"
      ],
      [
        "Ġwh",
        "en"
      ],
      [
        "t",
        "er"
      ],
      [
        "Ġt",
        "a"
      ],
      [
        "Ġk",
        "ind"
      ],
      [
        "Ġag",
        "ain"
      ],
      [
        "Ġwh",
        "y"
      ],
      [
        "Ġthe",
        "n"
      ],
      [
        "ar",
        "t"
      ],
      [
        "Ġl",
        "oo"
      ],
      [
        "a",
        "me"
      ],
      [
        "Ġa",
        "m"
      ],
      [
        "ou",
        "gh"
      ],
      [
        "s",
        "h"
      ],
      [
        "l",
        "o"
      ],
      [
        "a",
        "u"
      ],
      [
        "r",
        "a"
      ],
      [
        "Ġti",
        "me"
      ],
      [
        "Ġa",
        "ll"
      ],
      [
        "Ġbu",
        "bb"
      ],
      [
        "fu",
        "l"
      ],
      [
        "r",
        "m"
      ],
      [
        "e",
        "p"
      ],
      [
        "Ġhapp",
        "en"
      ],
      [
        "Ġdo",
        "es"
      ],
      [
        "Ġwa",
        "rm"
      ],
      [
        "o",
        "p"
      ],
      [
        "Ġ",
        "Y"
      ],
      [
        "me",
        "nt"
      ],
      [
        "Ġl",
        "o"
      ],
      [
        "i",
        "ll"
      ],
      [
        "e",
        "nd"
      ],
      [
        "e",
        "a"
      ],
      [
        "Ġc",
        "om"
      ],
      [
        "Ġwh",
        "ere"
      ],
      [
        "Ġli",
        "ght"
      ],
      [
        "rou",
        "nd"
      ],
      [
        "ou",
        "ld"
      ],
      [
        "Ġf",
        "a"
      ],
      [
        "es",
        "s"
      ],
      [
        "Ġan",
        "y"
      ],
      [
        "Ġthing",
        "s"
      ],
      [
        "Ġf",
        "ish"
      ],
      [
        "en",
        "t"
      ],
      [
        "o",
        "re"
      ],
      [
        "Ġs",
        "m"
      ],
      [
        "way",
        "s"
      ],
      [
        "Ġfin",
        "s"
      ],
      [
        "Ġne",
        "w"
      ],
      [
        "rou",
        "gh"
      ],
      [
        "Ġc",
        "o"
      ],
      [
        "th",
        "er"
      ],
      [
        "Ġn",
        "ice"
      ],
      [
        "o",
        "nd"
      ],
      [
        "ri",
        "end"
      ],
      [
        "Ġs",
        "c"
      ],
      [
        "Ġal",
        "ways"
      ],
      [
        "Ġf",
        "riend"
      ],
      [
        "k",
        "ay"
      ],
      [
        "Ġu",
        "p"
      ],
      [
        "r",
        "o"
      ],
      [
        "Ġo",
        "kay"
      ],
      [
        "Ġhapp",
        "y"
      ],
      [
        "Ġfeel",
        "s"
      ],
      [
        "Ġth",
        "rough"
      ],
      [
        "Ġs",
        "p"
      ],
      [
        "Ġf",
        "r"
      ],
      [
        "Ġs",
        "u"
      ],
      [
        "Ġg",
        "et"
      ],
      [
        "Ġc",
        "h"
      ],
      [
        "m",
        "ing"
      ],
      [
        "Ġbe",
        "ing"
      ],
      [
        "Ġu",
        "m"
      ],
      [
        "c",
        "e"
      ],
      [
        "v",
        "ing"
      ],
      [
        "f",
        "f"
      ],
      [
        "ir",
        "c"
      ],
      [
        "t",
        "t"
      ],
      [
        "f",
        "t"
      ],
      [
        "Ġto",
        "o"
      ],
      [
        "Ġthe",
        "m"
      ],
      [
        "Ġe",
        "n"
      ],
      [
        "Ġloo",
        "k"
      ],
      [
        "Ġd",
        "i"
      ],
      [
        "Ġc",
        "on"
      ],
      [
        "Ġ",
        "v"
      ],
      [
        "im",
        "es"
      ],
      [
        "f",
        "e"
      ],
      [
        "Ġwi",
        "gg"
      ],
      [
        "an",
        "k"
      ],
      [
        "Ġs",
        "ay"
      ],
      [
        "ad",
        "y"
      ],
      [
        "Ġbubb",
        "les"
      ],
      [
        "Ġon",
        "e"
      ],
      [
        "Ġmo",
        "ment"
      ],
      [
        "Ġw",
        "ere"
      ],
      [
        "ac",
        "k"
      ],
      [
        "Ġb",
        "l"
      ],
      [
        "Ġswim",
        "ming"
      ],
      [
        "w",
        "h"
      ],
      [
        "lo",
        "at"
      ],
      [
        "s",
        "o"
      ],
      [
        "Ġdo",
        "ing"
      ],
      [
        "u",
        "n"
      ],
      [
        "Ġi",
        "f"
      ],
      [
        "Ġ",
        "T"
      ],
      [
        "q",
        "u"
      ],
      [
        "Ġta",
        "il"
      ],
      [
        "Ġfr",
        "om"
      ],
      [
        "Ġsome",
        "one"
      ],
      [
        "Ġsome",
        "t"
      ],
      [
        "Ġforg",
        "ot"
      ],
      [
        "Ġsomet",
        "imes"
      ],
      [
        "Ġl",
        "on"
      ],
      [
        "Ġd",
        "e"
      ],
      [
        "Ġh",
        "e"
      ],
      [
        "Ġf",
        "loat"
      ],
      [
        "Ġen",
        "ough"
      ],
      [
        "Ġb",
        "i"
      ],
      [
        "r",
        "d"
      ],
      [
        "Ġa",
        "s"
      ],
      [
        "Ġsm",
        "all"
      ],
      [
        "ou",
        "nd"
      ],
      [
        "Ġ",
        "out"
      ],
      [
        "E",
        "S"
      ],
      [
        "Ġme",
        "an"
      ],
      [
        "Ġa",
        "round"
      ],
      [
        "i",
        "ve"
      ],
      [
        "Ġha",
        "rd"
      ],
      [
        "v",
        "en"
      ],
      [
        "Ġs",
        "a"
      ],
      [
        "el",
        "f"
      ],
      [
        "Ġbe",
        "c"
      ],
      [
        "Ġh",
        "o"
      ],
      [
        "ver",
        "y"
      ],
      [
        "a",
        "st"
      ],
      [
        "Ġ",
        "W"
      ],
      [
        "Ġre",
        "ally"
      ],
      [
        "Ġp",
        "er"
      ],
      [
        "Ġst",
        "ill"
      ],
      [
        "Ġt",
        "al"
      ],
      [
        "au",
        "se"
      ],
      [
        "irc",
        "les"
      ],
      [
        "re",
        "ady"
      ],
      [
        "c",
        "it"
      ],
      [
        "t",
        "ing"
      ],
      [
        "Ġma",
        "kes"
      ],
      [
        "Ġal",
        "ready"
      ],
      [
        "d",
        "ay"
      ],
      [
        "O",
        "U"
      ],
      [
        "Ġb",
        "est"
      ],
      [
        "Ġn",
        "ame"
      ],
      [
        "Ġb",
        "ack"
      ],
      [
        "id",
        "e"
      ],
      [
        "ke",
        "ep"
      ],
      [
        "ou",
        "s"
      ],
      [
        "Ġgo",
        "t"
      ],
      [
        "Ġ",
        "qu"
      ],
      [
        "Ġbec",
        "ause"
      ],
      [
        "Ġin",
        "t"
      ],
      [
        "Ġwho",
        "le"
      ],
      [
        "a",
        "m"
      ],
      [
        "Ġs",
        "l"
      ],
      [
        "Ġ",
        "very"
      ],
      [
        "Ġd",
        "is"
      ],
      [
        "Ġb",
        "o"
      ],
      [
        "Ġp",
        "re"
      ],
      [
        "s",
        "elf"
      ],
      [
        "a",
        "b"
      ],
      [
        "Ġ",
        "keep"
      ],
      [
        "Ġw",
        "ond"
      ],
      [
        "Ġw",
        "ant"
      ],
      [
        "Ġhappen",
        "ed"
      ],
      [
        "Ġwond",
        "er"
      ],
      [
        "a",
        "p"
      ],
      [
        "Ġgo",
        "ld"
      ],
      [
        "Ġdi",
        "ff"
      ],
      [
        "Ġlo",
        "ve"
      ],
      [
        "Ġs",
        "ound"
      ],
      [
        "Ġne",
        "ver"
      ],
      [
        "at",
        "ion"
      ],
      [
        "d",
        "y"
      ],
      [
        "Ġex",
        "cit"
      ],
      [
        "Ġdiff",
        "ere"
      ],
      [
        "Ġb",
        "y"
      ],
      [
        "Ġa",
        "w"
      ],
      [
        "v",
        "ed"
      ],
      [
        "ac",
        "e"
      ],
      [
        "Ġe",
        "ven"
      ],
      [
        "Ġwa",
        "y"
      ],
      [
        "Ġg",
        "one"
      ],
      [
        "or",
        "t"
      ],
      [
        "it",
        "e"
      ],
      [
        "c",
        "k"
      ],
      [
        "a",
        "s"
      ],
      [
        "ĠY",
        "OU"
      ],
      [
        "n",
        "ess"
      ],
      [
        "'",
        "ll"
      ],
      [
        "Ġre",
        "al"
      ],
      [
        "Ġdiffere",
        "nt"
      ],
      [
        "Ġd",
        "ay"
      ],
      [
        "i",
        "st"
      ],
      [
        "Ġm",
        "ad"
      ],
      [
        "f",
        "ish"
      ],
      [
        "Ġth",
        "ough"
      ],
      [
        "Ġgo",
        "ing"
      ],
      [
        "Ġli",
        "tt"
      ],
      [
        "Ġlitt",
        "le"
      ],
      [
        "Ġmo",
        "ve"
      ],
      [
        "Ġcom",
        "p"
      ],
      [
        "Ġp",
        "l"
      ],
      [
        "i",
        "ght"
      ],
      [
        "Ġfeel",
        "ing"
      ],
      [
        "l",
        "ing"
      ],
      [
        "Ġp",
        "ro"
      ],
      [
        "re",
        "at"
      ],
      [
        "at",
        "ter"
      ],
      [
        "Ġwi",
        "ll"
      ],
      [
        "Ġp",
        "art"
      ],
      [
        "Ġbi",
        "g"
      ],
      [
        "Ġse",
        "c"
      ],
      [
        "Ġgold",
        "fish"
      ],
      [
        "u",
        "ally"
      ],
      [
        "Ġj",
        "o"
      ],
      [
        "u",
        "t"
      ],
      [
        "Ġw",
        "ould"
      ],
      [
        "Ġp",
        "e"
      ],
      [
        "Ġt",
        "r"
      ],
      [
        "Ġbl",
        "ank"
      ],
      [
        "Ġ",
        "r"
      ],
      [
        "Ġe",
        "at"
      ],
      [
        "Ġma",
        "ke"
      ],
      [
        "Ġt",
        "ry"
      ],
      [
        "Ġst",
        "ay"
      ],
      [
        "Ġa",
        "way"
      ],
      [
        "Ġ",
        "A"
      ],
      [
        "Ġm",
        "u"
      ],
      [
        "or",
        "y"
      ],
      [
        "u",
        "re"
      ],
      [
        "Ġi",
        "mp"
      ],
      [
        "Ġmad",
        "e"
      ],
      [
        "ou",
        "ght"
      ],
      [
        "s",
        "ed"
      ],
      [
        "Ġst",
        "art"
      ],
      [
        "or",
        "ry"
      ],
      [
        "o",
        "se"
      ],
      [
        "i",
        "b"
      ],
      [
        "Ġwigg",
        "le"
      ],
      [
        "Ġc",
        "ircles"
      ],
      [
        "'",
        "ve"
      ],
      [
        "wh",
        "ere"
      ],
      [
        "Ġexcit",
        "ed"
      ],
      [
        "Ġa",
        "ct"
      ],
      [
        "Ġs",
        "ad"
      ],
      [
        "v",
        "or"
      ],
      [
        "Ġh",
        "u"
      ],
      [
        "I",
        "N"
      ],
      [
        "Ġsee",
        "m"
      ],
      [
        "Ġmo",
        "re"
      ],
      [
        "n",
        "ing"
      ],
      [
        "Ġmo",
        "ving"
      ],
      [
        "Ġm",
        "atter"
      ],
      [
        "x",
        "t"
      ],
      [
        "ell",
        "o"
      ],
      [
        "ac",
        "h"
      ],
      [
        "Ġne",
        "ed"
      ],
      [
        "Ġmo",
        "st"
      ],
      [
        "Ġfa",
        "vor"
      ],
      [
        "t",
        "i"
      ],
      [
        "f",
        "in"
      ],
      [
        "Ġfavor",
        "ite"
      ],
      [
        "c",
        "i"
      ],
      [
        "Ġs",
        "ame"
      ],
      [
        "Ġh",
        "ello"
      ],
      [
        "ĠY",
        "ES"
      ],
      [
        "Ġ",
        "S"
      ],
      [
        "f",
        "ore"
      ],
      [
        "Ġpro",
        "b"
      ],
      [
        "re",
        "d"
      ],
      [
        "ac",
        "t"
      ],
      [
        "Ġbe",
        "fore"
      ],
      [
        "in",
        "y"
      ],
      [
        "Ġs",
        "orry"
      ],
      [
        "u",
        "mp"
      ],
      [
        "Ġb",
        "et"
      ],
      [
        "Ġf",
        "ood"
      ],
      [
        "so",
        "l"
      ],
      [
        "Ġtal",
        "king"
      ],
      [
        "k",
        "s"
      ],
      [
        "Ġ",
        "F"
      ],
      [
        "Ġmu",
        "ch"
      ],
      [
        "a",
        "nd"
      ],
      [
        "Ġho",
        "ld"
      ],
      [
        "R",
        "E"
      ],
      [
        "Ġl",
        "e"
      ],
      [
        "Ġst",
        "u"
      ],
      [
        "Ġl",
        "ea"
      ],
      [
        "al",
        "es"
      ],
      [
        "Ġh",
        "ur"
      ],
      [
        "Ġth",
        "ought"
      ],
      [
        "Ġwonder",
        "ful"
      ],
      [
        "Ġh",
        "el"
      ],
      [
        "Ġsc",
        "ales"
      ],
      [
        "Ġbubb",
        "le"
      ],
      [
        "Ġlon",
        "g"
      ],
      [
        "Ġf",
        "un"
      ],
      [
        "Ġwor",
        "ld"
      ],
      [
        "ab",
        "ly"
      ],
      [
        "r",
        "at"
      ],
      [
        "Ġh",
        "i"
      ],
      [
        "are",
        "d"
      ],
      [
        "Ġf",
        "ir"
      ],
      [
        "nd",
        "er"
      ],
      [
        "Ġhel",
        "p"
      ],
      [
        "Ġso",
        "ft"
      ],
      [
        "Ġco",
        "me"
      ],
      [
        "Ġsl",
        "ow"
      ],
      [
        "Ġne",
        "xt"
      ],
      [
        "Ġto",
        "day"
      ],
      [
        "Ġfir",
        "st"
      ],
      [
        "Ġ",
        "M"
      ],
      [
        "ow",
        "n"
      ],
      [
        "le",
        "t"
      ],
      [
        "ur",
        "p"
      ],
      [
        "Ġha",
        "d"
      ],
      [
        "v",
        "es"
      ],
      [
        "an",
        "g"
      ],
      [
        "Ġhur",
        "t"
      ],
      [
        "Ġyour",
        "self"
      ],
      [
        "Ġimp",
        "ort"
      ],
      [
        "Ġprob",
        "ably"
      ],
      [
        "Ġsa",
        "id"
      ],
      [
        "fe",
        "ct"
      ],
      [
        "Ġimport",
        "ant"
      ],
      [
        "Ġper",
        "fect"
      ],
      [
        "Ġd",
        "re"
      ],
      [
        "Ġo",
        "ver"
      ],
      [
        "Ġact",
        "ually"
      ],
      [
        "Ġsound",
        "s"
      ],
      [
        "Ġaw",
        "w"
      ],
      [
        "Ġ",
        "round"
      ],
      [
        "Ġu",
        "nder"
      ],
      [
        "Ġfa",
        "st"
      ],
      [
        "ĠT",
        "H"
      ],
      [
        "Ġint",
        "o"
      ],
      [
        "Ġd",
        "es"
      ],
      [
        "Ġb",
        "r"
      ],
      [
        "Ġany",
        "thing"
      ],
      [
        "Ġp",
        "o"
      ],
      [
        "Ġwor",
        "d"
      ],
      [
        "Ġno",
        "thing"
      ],
      [
        "Ġde",
        "fin"
      ],
      [
        "Ġfloat",
        "ing"
      ],
      [
        "l",
        "or"
      ],
      [
        "Ġcon",
        "fu"
      ],
      [
        "Ġcomp",
        "let"
      ],
      [
        "p",
        "e"
      ],
      [
        "Ġm",
        "an"
      ],
      [
        "Ġf",
        "re"
      ],
      [
        "Ġforget",
        "ting"
      ],
      [
        "pp",
        "ed"
      ],
      [
        "i",
        "e"
      ],
      [
        "Ġli",
        "ve"
      ],
      [
        "Ġo",
        "ther"
      ],
      [
        "m",
        "m"
      ],
      [
        "Ġbu",
        "mp"
      ],
      [
        "ic",
        "h"
      ],
      [
        "Ġsec",
        "ond"
      ],
      [
        "Ġd",
        "own"
      ],
      [
        "Ġbe",
        "au"
      ],
      [
        "ct",
        "ion"
      ],
      [
        "it",
        "ely"
      ],
      [
        "ar",
        "d"
      ],
      [
        "s",
        "ide"
      ],
      [
        "Ġdre",
        "am"
      ],
      [
        "v",
        "el"
      ],
      [
        "Ġ",
        "O"
      ],
      [
        "Ġo",
        "o"
      ],
      [
        "s",
        "w"
      ],
      [
        "Ġbeau",
        "ti"
      ],
      [
        "Ġg",
        "ent"
      ],
      [
        "Ġ",
        "el"
      ],
      [
        "Ġsu",
        "re"
      ],
      [
        "Ġdefin",
        "itely"
      ],
      [
        "re",
        "t"
      ],
      [
        "Ġc",
        "ould"
      ],
      [
        "Ġc",
        "are"
      ],
      [
        "Ġdoes",
        "n"
      ],
      [
        "Ġsay",
        "ing"
      ],
      [
        "Ġbo",
        "dy"
      ],
      [
        "Ġbe",
        "en"
      ],
      [
        "Ġst",
        "are"
      ],
      [
        "Ġthink",
        "ing"
      ],
      [
        "Ġpl",
        "ant"
      ],
      [
        "Ġlon",
        "ely"
      ],
      [
        "Ġbeauti",
        "ful"
      ],
      [
        "is",
        "e"
      ],
      [
        "Ġloo",
        "king"
      ],
      [
        "Ġ",
        "B"
      ],
      [
        "Ġmean",
        "s"
      ],
      [
        "Ġwh",
        "ich"
      ],
      [
        "ish",
        "ed"
      ],
      [
        "Ġex",
        "p"
      ],
      [
        "in",
        "t"
      ],
      [
        "Ġb",
        "el"
      ],
      [
        "ar",
        "k"
      ],
      [
        "Ġ",
        "D"
      ],
      [
        "A",
        "T"
      ],
      [
        "Ġcomplet",
        "ely"
      ],
      [
        "Ġg",
        "ra"
      ],
      [
        "n",
        "er"
      ],
      [
        "Ġco",
        "lor"
      ],
      [
        "Ġth",
        "ose"
      ],
      [
        "in",
        "e"
      ],
      [
        "on",
        "g"
      ],
      [
        "ac",
        "ant"
      ],
      [
        "Ġel",
        "se"
      ],
      [
        "s",
        "p"
      ],
      [
        "a",
        "z"
      ],
      [
        "Ġany",
        "way"
      ],
      [
        "Ġal",
        "so"
      ],
      [
        "Ġo",
        "w"
      ],
      [
        "ic",
        "k"
      ],
      [
        "Ġsp",
        "e"
      ],
      [
        "n",
        "a"
      ],
      [
        "Ġw",
        "ell"
      ],
      [
        "IN",
        "G"
      ],
      [
        "Ġpre",
        "tt"
      ],
      [
        "b",
        "ump"
      ],
      [
        "Ġkind",
        "ness"
      ],
      [
        "Ġman",
        "y"
      ],
      [
        "Ġblank",
        "ed"
      ],
      [
        "Ġi",
        "d"
      ],
      [
        "Ġb",
        "right"
      ],
      [
        "Ġma",
        "king"
      ],
      [
        "Ġm",
        "is"
      ],
      [
        "Ġc",
        "oo"
      ],
      [
        "Ġgo",
        "sh"
      ],
      [
        "Ġt",
        "iny"
      ],
      [
        "Ġprett",
        "y"
      ],
      [
        "Ġex",
        "ist"
      ],
      [
        "Ġl",
        "et"
      ],
      [
        "Ġst",
        "op"
      ],
      [
        "Ġc",
        "le"
      ],
      [
        "i",
        "z"
      ],
      [
        "Ġ",
        "H"
      ],
      [
        "Ġ",
        "âĢĶ"
      ],
      [
        "bump",
        "s"
      ],
      [
        "Ġsh",
        "ould"
      ],
      [
        "Ġsc",
        "ared"
      ],
      [
        "Ġam",
        "az"
      ],
      [
        "Ġunder",
        "st"
      ],
      [
        "Ġf",
        "ore"
      ],
      [
        "est",
        "ion"
      ],
      [
        "ill",
        "s"
      ],
      [
        "y",
        "es"
      ],
      [
        "Ġf",
        "l"
      ],
      [
        "Ġqu",
        "estion"
      ],
      [
        "c",
        "ri"
      ],
      [
        "Ġu",
        "n"
      ],
      [
        "Ġli",
        "st"
      ],
      [
        "at",
        "ch"
      ],
      [
        "Ġwat",
        "ch"
      ],
      [
        "Ġdes",
        "cri"
      ],
      [
        "Ġp",
        "la"
      ],
      [
        "Ġgra",
        "vel"
      ],
      [
        "ow",
        "ing"
      ],
      [
        "Ġfore",
        "ver"
      ],
      [
        "Ġwigg",
        "ling"
      ],
      [
        "Ġspe",
        "ci"
      ],
      [
        "Ġunderst",
        "and"
      ],
      [
        "Ġdis",
        "sol"
      ],
      [
        "n",
        "y"
      ],
      [
        "op",
        "e"
      ],
      [
        "Ġb",
        "ad"
      ],
      [
        "Ġfriend",
        "s"
      ],
      [
        "Ġamaz",
        "ing"
      ],
      [
        "Ġlo",
        "st"
      ],
      [
        "Ġper",
        "s"
      ],
      [
        "Ġas",
        "k"
      ],
      [
        "Ġw",
        "on"
      ],
      [
        "Ġg",
        "ills"
      ],
      [
        "Ġcom",
        "es"
      ],
      [
        "Ġli",
        "fe"
      ],
      [
        "Ġid",
        "ea"
      ],
      [
        "Ġhu",
        "m"
      ],
      [
        "urp",
        "r"
      ],
      [
        "Ġlist",
        "en"
      ],
      [
        "Ġs",
        "urpr"
      ],
      [
        "Ġcoo",
        "l"
      ],
      [
        "v",
        "acant"
      ],
      [
        "in",
        "s"
      ],
      [
        "Ġme",
        "m"
      ],
      [
        "are",
        "s"
      ],
      [
        "st",
        "e"
      ],
      [
        "Ġcom",
        "ing"
      ],
      [
        "Ġ",
        "N"
      ],
      [
        "Ġha",
        "s"
      ],
      [
        "Ġf",
        "ad"
      ],
      [
        "Ġpers",
        "on"
      ],
      [
        "Ġre",
        "st"
      ],
      [
        "Ġti",
        "red"
      ],
      [
        "Ġtal",
        "k"
      ],
      [
        "ib",
        "le"
      ],
      [
        "Ġtry",
        "ing"
      ],
      [
        "Ġbet",
        "ter"
      ],
      [
        "Ġwa",
        "ll"
      ],
      [
        "Ġdissol",
        "ved"
      ],
      [
        "Ġco",
        "ld"
      ],
      [
        "ea",
        "h"
      ],
      [
        "Ġmis",
        "s"
      ],
      [
        "Ġow",
        "n"
      ],
      [
        "Ġv",
        "an"
      ],
      [
        "i",
        "gg"
      ],
      [
        "Ġst",
        "r"
      ],
      [
        "Ġfre",
        "sh"
      ],
      [
        "Ġdescri",
        "be"
      ],
      [
        "a",
        "pp"
      ],
      [
        "oo",
        "m"
      ],
      [
        "op",
        "le"
      ],
      [
        "Ġconfu",
        "sed"
      ],
      [
        "Ġb",
        "ra"
      ],
      [
        "Ġpe",
        "ople"
      ],
      [
        "Ġch",
        "ange"
      ],
      [
        "o",
        "ther"
      ],
      [
        "Ġh",
        "mm"
      ],
      [
        "Ġme",
        "et"
      ],
      [
        "Ġfun",
        "ny"
      ],
      [
        "Ġhappen",
        "ing"
      ],
      [
        "w",
        "a"
      ],
      [
        "Ġy",
        "eah"
      ],
      [
        "Ġan",
        "other"
      ],
      [
        "at",
        "ed"
      ],
      [
        "Ġjo",
        "ke"
      ],
      [
        "Ġho",
        "me"
      ],
      [
        "E",
        "D"
      ],
      [
        "c",
        "ircles"
      ],
      [
        "w",
        "igg"
      ],
      [
        "Ġth",
        "an"
      ],
      [
        "Ġw",
        "et"
      ],
      [
        "ir",
        "d"
      ],
      [
        "Ġsome",
        "where"
      ],
      [
        "Ġe",
        "yes"
      ],
      [
        "Ġtr",
        "ust"
      ],
      [
        "Ġbr",
        "ain"
      ],
      [
        "Ġf",
        "o"
      ],
      [
        "c",
        "o"
      ],
      [
        "Ġf",
        "u"
      ],
      [
        "Ġc",
        "lo"
      ],
      [
        "Ġwor",
        "k"
      ],
      [
        "Ġhappen",
        "s"
      ],
      [
        "Ġstu",
        "ff"
      ],
      [
        "Ġd",
        "ark"
      ],
      [
        "wh",
        "at"
      ],
      [
        "an",
        "ce"
      ],
      [
        "Ġon",
        "ly"
      ],
      [
        "i",
        "le"
      ],
      [
        "u",
        "e"
      ],
      [
        "est",
        "er"
      ],
      [
        "ester",
        "day"
      ],
      [
        "b",
        "l"
      ],
      [
        "Ġy",
        "esterday"
      ],
      [
        "Ġmem",
        "ory"
      ],
      [
        "ar",
        "y"
      ],
      [
        "le",
        "ep"
      ],
      [
        "Ġf",
        "ace"
      ],
      [
        "Ġ",
        "G"
      ],
      [
        "ge",
        "ther"
      ],
      [
        "Ġe",
        "ach"
      ],
      [
        "Ġch",
        "ang"
      ],
      [
        "Ġto",
        "gether"
      ],
      [
        "reat",
        "h"
      ],
      [
        "d",
        "d"
      ],
      [
        "r",
        "ow"
      ],
      [
        "Ġvan",
        "ished"
      ],
      [
        "sw",
        "im"
      ],
      [
        "Ġb",
        "reath"
      ],
      [
        "Ġp",
        "ast"
      ],
      [
        "ri",
        "ous"
      ],
      [
        "y",
        "e"
      ],
      [
        "st",
        "ares"
      ],
      [
        "Ġbel",
        "ie"
      ],
      [
        "Ġt",
        "ur"
      ],
      [
        "Ġs",
        "leep"
      ],
      [
        "re",
        "ss"
      ],
      [
        "Ġbi",
        "gg"
      ],
      [
        "Ġre",
        "f"
      ],
      [
        "Ġh",
        "ope"
      ],
      [
        "sp",
        "ins"
      ],
      [
        "Ġmatter",
        "s"
      ],
      [
        "wa",
        "it"
      ],
      [
        "E",
        "R"
      ],
      [
        "Ġgent",
        "le"
      ],
      [
        "Ġg",
        "re"
      ],
      [
        "Ġp",
        "r"
      ],
      [
        "ou",
        "r"
      ],
      [
        "at",
        "e"
      ],
      [
        "th",
        "e"
      ],
      [
        "Ġm",
        "ight"
      ],
      [
        "en",
        "ce"
      ],
      [
        "Ġt",
        "w"
      ],
      [
        "Ġdid",
        "n"
      ],
      [
        "Ġwait",
        "ing"
      ],
      [
        "Ġwe",
        "ird"
      ],
      [
        "Ġpe",
        "ace"
      ],
      [
        "Ġg",
        "i"
      ],
      [
        "Ġc",
        "ast"
      ],
      [
        "Ġa",
        "pp"
      ],
      [
        "Ġfad",
        "ed"
      ],
      [
        "Ġl",
        "ot"
      ],
      [
        "Ġsl",
        "i"
      ],
      [
        "ad",
        "ow"
      ],
      [
        "Ġt",
        "e"
      ],
      [
        "Ġis",
        "n"
      ],
      [
        "Ġmost",
        "ly"
      ],
      [
        "Ġcast",
        "le"
      ],
      [
        "Ġc",
        "or"
      ],
      [
        "Ġlook",
        "s"
      ],
      [
        "'",
        "d"
      ],
      [
        "Ġkeep",
        "s"
      ],
      [
        "Ġref",
        "le"
      ],
      [
        "Ġhe",
        "ad"
      ],
      [
        "Ġha",
        "nd"
      ],
      [
        "Ġsa",
        "fe"
      ],
      [
        "Ġle",
        "ft"
      ],
      [
        "Ġc",
        "u"
      ],
      [
        "Ġc",
        "all"
      ],
      [
        "Ġg",
        "reat"
      ],
      [
        "ss",
        "ing"
      ],
      [
        "Ġbo",
        "th"
      ],
      [
        "Ġg",
        "u"
      ],
      [
        "Ġpla",
        "ce"
      ],
      [
        "i",
        "p"
      ],
      [
        "wigg",
        "les"
      ],
      [
        "Ġc",
        "irc"
      ],
      [
        "it",
        "s"
      ],
      [
        "Ġwarm",
        "th"
      ],
      [
        "Ġout",
        "side"
      ],
      [
        "i",
        "et"
      ],
      [
        "i",
        "ous"
      ],
      [
        "Ġp",
        "u"
      ],
      [
        "Ġspeci",
        "al"
      ],
      [
        "i",
        "ly"
      ],
      [
        "ore",
        "d"
      ],
      [
        "Ġo",
        "ld"
      ],
      [
        "Ġsu",
        "n"
      ],
      [
        "Ġmy",
        "self"
      ],
      [
        "ĠW",
        "H"
      ],
      [
        "Ġw",
        "r"
      ],
      [
        "Ġex",
        "act"
      ],
      [
        "Ġforg",
        "ive"
      ],
      [
        "e",
        "ar"
      ],
      [
        "g",
        "ry"
      ],
      [
        "ere",
        "st"
      ],
      [
        "b",
        "ye"
      ],
      [
        "h",
        "at"
      ],
      [
        "z",
        "oom"
      ],
      [
        "ap",
        "s"
      ],
      [
        "c",
        "u"
      ],
      [
        "t",
        "y"
      ],
      [
        "op",
        "s"
      ],
      [
        "ĠO",
        "H"
      ],
      [
        "swim",
        "s"
      ],
      [
        "i",
        "ther"
      ],
      [
        "Ġint",
        "erest"
      ],
      [
        "me",
        "d"
      ],
      [
        "Ġal",
        "one"
      ],
      [
        "Ġplant",
        "s"
      ],
      [
        "g",
        "et"
      ],
      [
        "Ġst",
        "ory"
      ],
      [
        "Ġpo",
        "int"
      ],
      [
        "Ġfu",
        "ll"
      ],
      [
        "it",
        "y"
      ],
      [
        "a",
        "il"
      ],
      [
        "Ġth",
        "ank"
      ],
      [
        "a",
        "se"
      ],
      [
        "v",
        "y"
      ],
      [
        "Ġs",
        "ide"
      ],
      [
        "Ġo",
        "p"
      ],
      [
        "Ġqu",
        "iet"
      ],
      [
        "Ġcor",
        "ner"
      ],
      [
        "Ġdis",
        "app"
      ],
      [
        "as",
        "on"
      ],
      [
        "Ġgo",
        "es"
      ],
      [
        "Ġnot",
        "ice"
      ],
      [
        "Ġsh",
        "adow"
      ],
      [
        "z",
        "y"
      ],
      [
        "Ġlea",
        "ve"
      ],
      [
        "Ġsli",
        "pped"
      ],
      [
        "Ġal",
        "ive"
      ],
      [
        "Ġh",
        "ea"
      ],
      [
        "Ġ",
        "C"
      ],
      [
        "Ġsc",
        "ary"
      ],
      [
        "en",
        "s"
      ],
      [
        "Ġgood",
        "bye"
      ],
      [
        "Ġrefle",
        "ction"
      ],
      [
        "Ġm",
        "or"
      ],
      [
        "I",
        "T"
      ],
      [
        "Ġi",
        "m"
      ],
      [
        "Ġa",
        "c"
      ],
      [
        "Ġm",
        "id"
      ],
      [
        "Ġoo",
        "f"
      ],
      [
        "Ġa",
        "f"
      ],
      [
        "rou",
        "d"
      ],
      [
        "Ġbelie",
        "ve"
      ],
      [
        "Ġb",
        "ored"
      ],
      [
        "Ġre",
        "ason"
      ],
      [
        "Ġsecond",
        "s"
      ],
      [
        "Ġ",
        "-"
      ],
      [
        "Ġm",
        "ust"
      ],
      [
        "Ġc",
        "al"
      ],
      [
        "an",
        "na"
      ],
      [
        "Ġin",
        "v"
      ],
      [
        "r",
        "ation"
      ],
      [
        "ra",
        "sh"
      ],
      [
        "ou",
        "th"
      ],
      [
        "Ġp",
        "roud"
      ],
      [
        "ĠN",
        "O"
      ],
      [
        "L",
        "A"
      ],
      [
        "Ġ",
        "ro"
      ],
      [
        "Ġf",
        "ind"
      ],
      [
        "Ġexact",
        "ly"
      ],
      [
        "Ġre",
        "g"
      ],
      [
        "Ġu",
        "s"
      ],
      [
        "Ġw",
        "anna"
      ],
      [
        "ĠW",
        "A"
      ],
      [
        "Ġsec",
        "ret"
      ],
      [
        "Ġhea",
        "vy"
      ],
      [
        "Ġcu",
        "rious"
      ],
      [
        "Ġto",
        "m"
      ],
      [
        "Ġof",
        "f"
      ],
      [
        "Ġv",
        "is"
      ],
      [
        "Ġl",
        "ast"
      ],
      [
        "ri",
        "ed"
      ],
      [
        "Ġstu",
        "ck"
      ],
      [
        "dd",
        "en"
      ],
      [
        "el",
        "t"
      ],
      [
        "Ġget",
        "ting"
      ],
      [
        "Ġgre",
        "en"
      ],
      [
        "Ġm",
        "outh"
      ],
      [
        "Ġhe",
        "ar"
      ],
      [
        "Ġcle",
        "ar"
      ],
      [
        "Ġmor",
        "ning"
      ],
      [
        "ou",
        "nt"
      ],
      [
        "Ġe",
        "ither"
      ],
      [
        "Ġoo",
        "h"
      ],
      [
        "Ġcal",
        "m"
      ],
      [
        "e",
        "ct"
      ],
      [
        "s",
        "ing"
      ],
      [
        "Ġfla",
        "ke"
      ],
      [
        "Ġjo",
        "y"
      ],
      [
        "an",
        "c"
      ],
      [
        "Ġevery",
        "one"
      ],
      [
        "Ġf",
        "elt"
      ],
      [
        "Ġwr",
        "ong"
      ],
      [
        "o",
        "ve"
      ],
      [
        "or",
        "row"
      ],
      [
        "Ġsw",
        "am"
      ],
      [
        "ot",
        "t"
      ],
      [
        "Ġsurpr",
        "is"
      ],
      [
        "Ġtur",
        "n"
      ],
      [
        "Ġthe",
        "ir"
      ],
      [
        "Ġta",
        "ste"
      ],
      [
        "Ġsw",
        "ish"
      ],
      [
        "Ġtom",
        "orrow"
      ],
      [
        "ou",
        "ch"
      ],
      [
        "Ġsh",
        "ap"
      ],
      [
        "Ġle",
        "ar"
      ],
      [
        "Ġinterest",
        "ing"
      ],
      [
        "Ġbump",
        "ing"
      ],
      [
        "l",
        "oo"
      ],
      [
        "get",
        "s"
      ],
      [
        "ĠTH",
        "E"
      ],
      [
        "ep",
        "t"
      ],
      [
        "O",
        "O"
      ],
      [
        "Ġ",
        "P"
      ],
      [
        "Ġm",
        "ind"
      ],
      [
        "Ġmo",
        "ved"
      ],
      [
        "Ġget",
        "s"
      ],
      [
        "Ġab",
        "ove"
      ],
      [
        "atch",
        "es"
      ],
      [
        "Ġl",
        "aps"
      ],
      [
        "ĠI",
        "T"
      ],
      [
        "m",
        "ind"
      ],
      [
        "Ġb",
        "ott"
      ],
      [
        "Ġas",
        "king"
      ],
      [
        "Ġbott",
        "om"
      ],
      [
        "les",
        "s"
      ],
      [
        "Ġhe",
        "art"
      ],
      [
        "Ġlisten",
        "ing"
      ],
      [
        "c",
        "ept"
      ],
      [
        "e",
        "ver"
      ],
      [
        "Ġclo",
        "se"
      ],
      [
        "st",
        "ops"
      ],
      [
        "Ġf",
        "all"
      ],
      [
        "ing",
        "s"
      ],
      [
        "R",
        "I"
      ],
      [
        "Ġpre",
        "ssing"
      ],
      [
        "Ġlea",
        "ving"
      ],
      [
        "O",
        "N"
      ],
      [
        "-",
        "-"
      ],
      [
        "w",
        "ard"
      ],
      [
        "rat",
        "e"
      ],
      [
        "Ġthe",
        "se"
      ],
      [
        "Ġbra",
        "nd"
      ],
      [
        "Ġevery",
        "where"
      ],
      [
        "Ġbl",
        "owing"
      ],
      [
        "Ġreg",
        "ret"
      ],
      [
        "l",
        "ed"
      ],
      [
        "n",
        "g"
      ],
      [
        "in",
        "ess"
      ],
      [
        "re",
        "e"
      ],
      [
        "Ġwatch",
        "ing"
      ],
      [
        "Ġe",
        "as"
      ],
      [
        "Ġsp",
        "in"
      ],
      [
        "Ġby",
        "e"
      ],
      [
        "Ġw",
        "ent"
      ],
      [
        "Ġfa",
        "m"
      ],
      [
        "at",
        "er"
      ],
      [
        "Ġexcited",
        "ly"
      ],
      [
        "Ġare",
        "n"
      ],
      [
        "ut",
        "ter"
      ],
      [
        "Ġbigg",
        "est"
      ],
      [
        "Ġwith",
        "out"
      ],
      [
        "p",
        "er"
      ],
      [
        "ere",
        "d"
      ],
      [
        "L",
        "E"
      ],
      [
        "b",
        "o"
      ],
      [
        "Ġp",
        "a"
      ],
      [
        "Ġsh",
        "ow"
      ],
      [
        "Ġl",
        "au"
      ],
      [
        "st",
        "ant"
      ],
      [
        "Ġmo",
        "ves"
      ],
      [
        "ab",
        "le"
      ],
      [
        "i",
        "es"
      ],
      [
        "Ġt",
        "ouch"
      ],
      [
        "i",
        "g"
      ],
      [
        "Ġc",
        "ount"
      ],
      [
        "t",
        "en"
      ],
      [
        "Ġc",
        "ur"
      ],
      [
        "on",
        "est"
      ],
      [
        "Ġfin",
        "e"
      ],
      [
        "ĠW",
        "hat"
      ],
      [
        "ic",
        "ally"
      ],
      [
        "K",
        "ES"
      ],
      [
        "m",
        "ore"
      ],
      [
        "re",
        "a"
      ],
      [
        "Ġg",
        "r"
      ],
      [
        "ĠF",
        "LA"
      ],
      [
        "Ġv",
        "ib"
      ],
      [
        "sol",
        "ut"
      ],
      [
        "loo",
        "ks"
      ],
      [
        "Ġre",
        "ady"
      ],
      [
        "Ġsm",
        "oo"
      ],
      [
        "el",
        "e"
      ],
      [
        "Ġany",
        "more"
      ],
      [
        "a",
        "g"
      ],
      [
        "Ġword",
        "s"
      ],
      [
        "Ġg",
        "l"
      ],
      [
        "ri",
        "ft"
      ],
      [
        "bo",
        "dy"
      ],
      [
        "ele",
        "b"
      ],
      [
        "Ġ",
        "E"
      ],
      [
        "ĠFLA",
        "KES"
      ],
      [
        "id",
        "es"
      ],
      [
        "Ġsu",
        "dden"
      ],
      [
        "Ġsmoo",
        "th"
      ],
      [
        "Ġu",
        "gh"
      ],
      [
        "Ġ",
        "es"
      ],
      [
        "Ġa",
        "d"
      ],
      [
        "Ġc",
        "ame"
      ],
      [
        "Ġlau",
        "gh"
      ],
      [
        "ou",
        "n"
      ],
      [
        "Ġon",
        "ce"
      ],
      [
        "Ġse",
        "en"
      ],
      [
        "Ġh",
        "onest"
      ],
      [
        "n",
        "o"
      ],
      [
        "Ġc",
        "eleb"
      ],
      [
        "Ġf",
        "il"
      ],
      [
        "Ġp",
        "urp"
      ],
      [
        "L",
        "L"
      ],
      [
        "e",
        "x"
      ],
      [
        "on",
        "na"
      ],
      [
        "at",
        "ely"
      ],
      [
        "bl",
        "ank"
      ],
      [
        "Ġg",
        "onna"
      ],
      [
        "la",
        "in"
      ],
      [
        "Ġno",
        "pe"
      ],
      [
        "Ġab",
        "solut"
      ],
      [
        "Ġgla",
        "d"
      ],
      [
        "Ġseem",
        "s"
      ],
      [
        "Ġvis",
        "it"
      ],
      [
        "Ġwor",
        "ry"
      ],
      [
        "Ġgi",
        "ft"
      ],
      [
        "Ġfin",
        "ally"
      ],
      [
        "Ġeat",
        "ing"
      ],
      [
        "Ġsh",
        "iny"
      ],
      [
        "ck",
        "s"
      ],
      [
        "o",
        "es"
      ],
      [
        "u",
        "d"
      ],
      [
        "Ġfe",
        "ar"
      ],
      [
        "Ġwor",
        "th"
      ],
      [
        "Ġfil",
        "ter"
      ],
      [
        "a",
        "ke"
      ],
      [
        "w",
        "atches"
      ],
      [
        "Ġg",
        "ive"
      ],
      [
        "Ġc",
        "ar"
      ],
      [
        "ou",
        "d"
      ],
      [
        "Ġno",
        "body"
      ],
      [
        "I",
        "S"
      ],
      [
        "Ġcon",
        "t"
      ],
      [
        "ĠS",
        "O"
      ],
      [
        "Ġpr",
        "om"
      ],
      [
        "Ġa",
        "r"
      ],
      [
        "Ġe",
        "v"
      ],
      [
        "Ġw",
        "ow"
      ],
      [
        "Ġc",
        "at"
      ],
      [
        "Ġtw",
        "o"
      ],
      [
        "en",
        "se"
      ],
      [
        "s",
        "et"
      ],
      [
        "Ġb",
        "rea"
      ],
      [
        "Ġe",
        "nd"
      ],
      [
        "Ġt",
        "imes"
      ],
      [
        "Ġw",
        "ish"
      ],
      [
        "Ġc",
        "r"
      ],
      [
        "Ġde",
        "ep"
      ],
      [
        "Ġpurp",
        "ose"
      ],
      [
        "h",
        "ow"
      ],
      [
        "Ġp",
        "le"
      ],
      [
        "Ġin",
        "side"
      ],
      [
        "Ġabsolut",
        "ely"
      ],
      [
        "ver",
        "s"
      ],
      [
        "ĠWH",
        "AT"
      ],
      [
        "h",
        "e"
      ],
      [
        "v",
        "ous"
      ],
      [
        "Ġh",
        "un"
      ],
      [
        "c",
        "on"
      ],
      [
        "Ġso",
        "on"
      ],
      [
        "Ġne",
        "ar"
      ],
      [
        "Ġfr",
        "ust"
      ],
      [
        "o",
        "s"
      ],
      [
        "Ġfl",
        "utter"
      ],
      [
        "zoom",
        "s"
      ],
      [
        "Ġtr",
        "ue"
      ],
      [
        "Ġto",
        "ld"
      ],
      [
        "Ġb",
        "ro"
      ],
      [
        "Ġto",
        "t"
      ],
      [
        "Ġin",
        "c"
      ],
      [
        "Ġta",
        "ke"
      ],
      [
        "rate",
        "ful"
      ],
      [
        "Ġ",
        "L"
      ],
      [
        "Ġt",
        "ra"
      ],
      [
        "er",
        "t"
      ],
      [
        "ĠYOU",
        "R"
      ],
      [
        "iz",
        "e"
      ],
      [
        "Ġnot",
        "ic"
      ],
      [
        "l",
        "i"
      ],
      [
        "w",
        "e"
      ],
      [
        "Ġc",
        "atch"
      ],
      [
        "Ġag",
        "o"
      ],
      [
        "Ġqu",
        "ick"
      ],
      [
        "Ġwall",
        "s"
      ],
      [
        "at",
        "h"
      ],
      [
        "sh",
        "ip"
      ],
      [
        "Ġslow",
        "ly"
      ],
      [
        "med",
        "i"
      ],
      [
        "Ġg",
        "rateful"
      ],
      [
        "Ġat",
        "t"
      ],
      [
        "ĠWA",
        "IT"
      ],
      [
        "Ġnot",
        "ion"
      ],
      [
        "ĠY",
        "ou"
      ],
      [
        "ĠM",
        "E"
      ],
      [
        "Ġgent",
        "ly"
      ],
      [
        "Ġfa",
        "il"
      ],
      [
        "Ġsp",
        "ot"
      ],
      [
        "Ġexp",
        "lain"
      ],
      [
        "Ġfo",
        "ll"
      ],
      [
        "Ġdisapp",
        "o"
      ],
      [
        "Ġsm",
        "ile"
      ],
      [
        "un",
        "ch"
      ],
      [
        "Ġpa",
        "ss"
      ],
      [
        "G",
        "H"
      ],
      [
        "Ġme",
        "t"
      ],
      [
        "Ġpeace",
        "ful"
      ],
      [
        "Ġpu",
        "sh"
      ],
      [
        "Ġlear",
        "n"
      ],
      [
        "Ġple",
        "ase"
      ],
      [
        "Ġforgot",
        "ten"
      ],
      [
        "Ġgu",
        "ess"
      ],
      [
        "Ġdis",
        "co"
      ],
      [
        "Ġmeet",
        "ing"
      ],
      [
        "Ġsome",
        "how"
      ],
      [
        "Ġfrust",
        "rat"
      ],
      [
        "g",
        "ic"
      ],
      [
        "Ġha",
        "ving"
      ],
      [
        "ĠI",
        "S"
      ],
      [
        "Ġop",
        "en"
      ],
      [
        "medi",
        "ately"
      ],
      [
        "Ġe",
        "nt"
      ],
      [
        "Ġto",
        "p"
      ],
      [
        "Ġwh",
        "ile"
      ],
      [
        "ow",
        "s"
      ],
      [
        "Ġhun",
        "gry"
      ],
      [
        "Ġe",
        "mp"
      ],
      [
        "pp",
        "ing"
      ],
      [
        "Ġtot",
        "ally"
      ],
      [
        "Ġbreath",
        "e"
      ],
      [
        "Ġaf",
        "ter"
      ],
      [
        "A",
        "Y"
      ],
      [
        "ap",
        "or"
      ],
      [
        "Ġmove",
        "ment"
      ],
      [
        "Ġhelp",
        "s"
      ],
      [
        "Ġsurpr",
        "ise"
      ],
      [
        "Ġloo",
        "p"
      ],
      [
        "v",
        "ely"
      ],
      [
        "stant",
        "ly"
      ],
      [
        "Ġl",
        "ater"
      ],
      [
        "or",
        "m"
      ],
      [
        "Ġagain",
        "st"
      ],
      [
        "Ġcirc",
        "le"
      ],
      [
        "s",
        "es"
      ],
      [
        "Ġn",
        "er"
      ],
      [
        "ĠG",
        "O"
      ],
      [
        "Ġd",
        "rift"
      ],
      [
        "Ġh",
        "it"
      ],
      [
        "Ġdisappo",
        "int"
      ],
      [
        "o",
        "h"
      ],
      [
        "Ġb",
        "oun"
      ],
      [
        "Ġchang",
        "ed"
      ],
      [
        "we",
        "en"
      ],
      [
        "c",
        "es"
      ],
      [
        "Ġcle",
        "an"
      ],
      [
        "Ġev",
        "apor"
      ],
      [
        "Ġner",
        "vous"
      ],
      [
        "Ġs",
        "ill"
      ],
      [
        "er",
        "s"
      ],
      [
        "Ġbet",
        "ween"
      ],
      [
        "M",
        "E"
      ],
      [
        "Ġl",
        "oud"
      ],
      [
        "Ġhand",
        "le"
      ],
      [
        "i",
        "re"
      ],
      [
        "Ġhonest",
        "ly"
      ],
      [
        "I",
        "D"
      ],
      [
        "Ġt",
        "ow"
      ],
      [
        "Ġhe",
        "y"
      ],
      [
        "Ġy",
        "ay"
      ],
      [
        "Ġst",
        "o"
      ],
      [
        "at",
        "ure"
      ],
      [
        "Ġc",
        "l"
      ],
      [
        "Ġpl",
        "ay"
      ],
      [
        "GH",
        "T"
      ],
      [
        "T",
        "H"
      ],
      [
        "ĠM",
        "Y"
      ],
      [
        "Ġt",
        "en"
      ],
      [
        "Ġa",
        "ir"
      ],
      [
        "Ġwhat",
        "ever"
      ],
      [
        "Ġde",
        "c"
      ],
      [
        "ĠTH",
        "AT"
      ],
      [
        "Ġbrea",
        "k"
      ],
      [
        "k",
        "en"
      ],
      [
        "Ġan",
        "sw"
      ],
      [
        "Ġdi",
        "re"
      ],
      [
        "Ġdi",
        "st"
      ],
      [
        "Ġdream",
        "s"
      ],
      [
        "Ġemp",
        "ty"
      ],
      [
        "a",
        "kes"
      ],
      [
        "p",
        "le"
      ],
      [
        "u",
        "ck"
      ],
      [
        "Ġs",
        "elf"
      ],
      [
        "st",
        "er"
      ],
      [
        "Ġhurt",
        "s"
      ],
      [
        "Ġs",
        "n"
      ],
      [
        "Ġta",
        "p"
      ],
      [
        "Ġevapor",
        "ated"
      ],
      [
        "Ġtow",
        "ard"
      ],
      [
        "Ġpart",
        "s"
      ],
      [
        "Ġsill",
        "y"
      ],
      [
        "Ġd",
        "et"
      ],
      [
        "h",
        "y"
      ],
      [
        "Ġcolor",
        "s"
      ],
      [
        "Ġapp",
        "ear"
      ],
      [
        "Ġfall",
        "ing"
      ],
      [
        "iz",
        "ed"
      ],
      [
        "Ġask",
        "ed"
      ],
      [
        "Ġfam",
        "ily"
      ],
      [
        "i",
        "x"
      ],
      [
        "Ġmy",
        "ster"
      ],
      [
        "Ġstart",
        "led"
      ],
      [
        "Ġm",
        "ine"
      ],
      [
        "Ġthought",
        "s"
      ],
      [
        "Ġs",
        "it"
      ],
      [
        "Ġsu",
        "ch"
      ],
      [
        "Ġsurpris",
        "ed"
      ],
      [
        "d",
        "oes"
      ],
      [
        "A",
        "N"
      ],
      [
        "Ġ",
        "our"
      ],
      [
        "Ġm",
        "ist"
      ],
      [
        "c",
        "rash"
      ],
      [
        "Ġbreath",
        "ing"
      ],
      [
        "ex",
        "cit"
      ],
      [
        "o",
        "me"
      ],
      [
        "Ġf",
        "ound"
      ],
      [
        "Ġdire",
        "ction"
      ],
      [
        "Ġs",
        "im"
      ],
      [
        "Ġknow",
        "ing"
      ],
      [
        "Ġsudden",
        "ly"
      ],
      [
        "u",
        "m"
      ],
      [
        "Ġ",
        "ri"
      ],
      [
        "Ġth",
        "ree"
      ],
      [
        "Ġn",
        "ight"
      ],
      [
        "Ġinv",
        "is"
      ],
      [
        "A",
        "R"
      ],
      [
        "f",
        "ic"
      ],
      [
        "u",
        "p"
      ],
      [
        "Ġblank",
        "ly"
      ],
      [
        "Ġs",
        "et"
      ],
      [
        "Ġs",
        "ense"
      ],
      [
        "c",
        "ap"
      ],
      [
        "h",
        "a"
      ],
      [
        "Ġfe",
        "ed"
      ],
      [
        "Ġansw",
        "er"
      ],
      [
        "S",
        "T"
      ],
      [
        "Ġstay",
        "s"
      ],
      [
        "Ġro",
        "cks"
      ],
      [
        "Ġs",
        "ides"
      ],
      [
        "Ġf",
        "ight"
      ],
      [
        "Ġwor",
        "ried"
      ],
      [
        "Ġan",
        "gry"
      ],
      [
        "Ġsu",
        "pp"
      ],
      [
        "Ġcirc",
        "ling"
      ],
      [
        "Ġon",
        "es"
      ],
      [
        "Ġbra",
        "ve"
      ],
      [
        "Ġvib",
        "ration"
      ],
      [
        "Ġma",
        "gic"
      ],
      [
        "Ġhu",
        "ge"
      ],
      [
        "Ġexp",
        "lo"
      ],
      [
        "cu",
        "s"
      ],
      [
        "Ġinvis",
        "ible"
      ],
      [
        "V",
        "ER"
      ],
      [
        "d",
        "le"
      ],
      [
        "Ġta",
        "st"
      ],
      [
        "Ġinc",
        "red"
      ],
      [
        "c",
        "om"
      ],
      [
        "Ġb",
        "it"
      ],
      [
        "e",
        "e"
      ],
      [
        "Ġsp",
        "ace"
      ],
      [
        "Ġnever",
        "mind"
      ],
      [
        "Ġexcit",
        "ing"
      ],
      [
        "Ġim",
        "mediately"
      ],
      [
        "Ġmid",
        "dle"
      ],
      [
        "Ġshap",
        "e"
      ],
      [
        "b",
        "le"
      ],
      [
        "Ġre",
        "ach"
      ],
      [
        "ar",
        "ing"
      ],
      [
        "Ġlo",
        "vely"
      ],
      [
        "pe",
        "ct"
      ],
      [
        "Ġeas",
        "y"
      ],
      [
        "Ġes",
        "cap"
      ],
      [
        "o",
        "ice"
      ],
      [
        "Ġl",
        "uck"
      ],
      [
        "Ġp",
        "ain"
      ],
      [
        "Ġstr",
        "ong"
      ],
      [
        "Ġspin",
        "ning"
      ],
      [
        "i",
        "est"
      ],
      [
        "Ġm",
        "ar"
      ],
      [
        "Ġbu",
        "d"
      ],
      [
        "Ġconfu",
        "sing"
      ],
      [
        "h",
        "h"
      ],
      [
        "Ġs",
        "ing"
      ],
      [
        "Ġl",
        "ess"
      ],
      [
        "Ġch",
        "e"
      ],
      [
        "Ġmean",
        "ing"
      ],
      [
        "Ġr",
        "u"
      ],
      [
        "Ġcorner",
        "s"
      ],
      [
        "t",
        "ail"
      ],
      [
        "Ġbe",
        "h"
      ],
      [
        "Ġany",
        "one"
      ],
      [
        "m",
        "er"
      ],
      [
        "u",
        "l"
      ],
      [
        "Ġm",
        "ess"
      ],
      [
        "Ġd",
        "ance"
      ],
      [
        "Ġhum",
        "an"
      ],
      [
        "f",
        "l"
      ],
      [
        "RE",
        "A"
      ],
      [
        "excit",
        "ed"
      ],
      [
        "Ġc",
        "ra"
      ],
      [
        "oo",
        "f"
      ],
      [
        "Ġbeh",
        "ind"
      ],
      [
        "Ġj",
        "ump"
      ],
      [
        "Ġwant",
        "ed"
      ],
      [
        "Ġdet",
        "ail"
      ],
      [
        "Ġh",
        "ide"
      ],
      [
        "Ġc",
        "rash"
      ],
      [
        "ert",
        "ain"
      ],
      [
        "RI",
        "GHT"
      ],
      [
        "Ġceleb",
        "ration"
      ],
      [
        "Ġbud",
        "dy"
      ],
      [
        "crash",
        "es"
      ],
      [
        "act",
        "ed"
      ],
      [
        "Ġbigg",
        "er"
      ],
      [
        "ha",
        "ust"
      ],
      [
        "Ġsh",
        "i"
      ],
      [
        "art",
        "s"
      ],
      [
        "ES",
        "T"
      ],
      [
        "Ġchang",
        "es"
      ],
      [
        "t",
        "o"
      ],
      [
        "t",
        "ra"
      ],
      [
        "Ġhapp",
        "iness"
      ],
      [
        "E",
        "N"
      ],
      [
        "m",
        "o"
      ],
      [
        "Ġt",
        "er"
      ],
      [
        "Ġd",
        "anc"
      ],
      [
        "oo",
        "k"
      ],
      [
        "Ġex",
        "haust"
      ],
      [
        "Ġbro",
        "ken"
      ],
      [
        "ic",
        "t"
      ],
      [
        "ect",
        "ed"
      ],
      [
        "Ġincred",
        "ible"
      ],
      [
        "Ġwas",
        "n"
      ],
      [
        "ra",
        "id"
      ],
      [
        "Ġsim",
        "ple"
      ],
      [
        "u",
        "al"
      ],
      [
        "Ġ",
        "z"
      ],
      [
        "Ġwigg",
        "les"
      ],
      [
        "Ġstart",
        "ed"
      ],
      [
        "Ġaf",
        "raid"
      ],
      [
        "Ġad",
        "v"
      ],
      [
        "O",
        "R"
      ],
      [
        "Ġsp",
        "ark"
      ],
      [
        "O",
        "W"
      ],
      [
        "Ġf",
        "ar"
      ],
      [
        "Ġremember",
        "ing"
      ],
      [
        "il",
        "t"
      ],
      [
        "Ġte",
        "mp"
      ],
      [
        "at",
        "t"
      ],
      [
        "ri",
        "es"
      ],
      [
        "Ġwor",
        "ks"
      ],
      [
        "act",
        "ually"
      ],
      [
        "Ġyou",
        "ng"
      ],
      [
        "Ġbu",
        "s"
      ],
      [
        "Ġstr",
        "ange"
      ],
      [
        "Ġcra",
        "zy"
      ],
      [
        "E",
        "RE"
      ],
      [
        "g",
        "y"
      ],
      [
        "Ġ",
        "zoom"
      ],
      [
        "Ġd",
        "el"
      ],
      [
        "Ġforg",
        "i"
      ],
      [
        "b",
        "on"
      ],
      [
        "Ġ",
        "rough"
      ],
      [
        "at",
        "ing"
      ],
      [
        "Ġfloat",
        "y"
      ],
      [
        "Ġsa",
        "w"
      ],
      [
        "ĠA",
        "M"
      ],
      [
        "z",
        "zy"
      ],
      [
        "Ġpl",
        "an"
      ],
      [
        "ste",
        "ad"
      ],
      [
        "o",
        "l"
      ],
      [
        "Ġfor",
        "ward"
      ],
      [
        "Ġin",
        "stead"
      ],
      [
        "g",
        "n"
      ],
      [
        "h",
        "o"
      ],
      [
        "y",
        "ond"
      ],
      [
        "Ġn",
        "orm"
      ],
      [
        "Ġbe",
        "yond"
      ],
      [
        "Ġsee",
        "ing"
      ],
      [
        "rat",
        "ing"
      ],
      [
        "Ġcur",
        "re"
      ],
      [
        "Ġfrustrat",
        "ed"
      ],
      [
        "ll",
        "y"
      ],
      [
        "Ġli",
        "ving"
      ],
      [
        "Ġha",
        "ven"
      ],
      [
        "f",
        "or"
      ],
      [
        "Ġf",
        "ut"
      ],
      [
        "Ġgo",
        "tt"
      ],
      [
        "Ġfut",
        "ure"
      ],
      [
        "i",
        "ent"
      ],
      [
        "are",
        "nt"
      ],
      [
        "ĠD",
        "o"
      ],
      [
        "Ġdisco",
        "ver"
      ],
      [
        "Ġexplo",
        "re"
      ],
      [
        "Ġno",
        "ise"
      ],
      [
        "ro",
        "ss"
      ],
      [
        "Ġfoll",
        "ow"
      ],
      [
        "Ġ",
        "RIGHT"
      ],
      [
        "ent",
        "ion"
      ],
      [
        "ĠB",
        "U"
      ],
      [
        "ĠD",
        "O"
      ],
      [
        "Ġim",
        "ag"
      ],
      [
        "f",
        "loat"
      ],
      [
        "Ġs",
        "ur"
      ],
      [
        "Ġb",
        "its"
      ],
      [
        "ss",
        "ible"
      ],
      [
        "ĠI",
        "N"
      ],
      [
        "Ġcon",
        "n"
      ],
      [
        "Ġcurre",
        "nt"
      ],
      [
        "Ġa",
        "p"
      ],
      [
        "id",
        "ent"
      ],
      [
        "fu",
        "lly"
      ],
      [
        "S",
        "H"
      ],
      [
        "i",
        "er"
      ],
      [
        "p",
        "ress"
      ],
      [
        "r",
        "ay"
      ],
      [
        "Ġwor",
        "st"
      ],
      [
        "Ġen",
        "er"
      ],
      [
        "Ġs",
        "il"
      ],
      [
        "ation",
        "s"
      ],
      [
        "ang",
        "er"
      ],
      [
        "Ġte",
        "ach"
      ],
      [
        "Ġluck",
        "y"
      ],
      [
        "f",
        "ort"
      ],
      [
        "s",
        "ent"
      ],
      [
        "Ġ",
        "'"
      ],
      [
        "Ġu",
        "nt"
      ],
      [
        "Ġhold",
        "s"
      ],
      [
        "Ġbump",
        "y"
      ],
      [
        "ĠD",
        "ID"
      ],
      [
        "Ġtemp",
        "er"
      ],
      [
        "H",
        "H"
      ],
      [
        "r",
        "acted"
      ],
      [
        "e",
        "ment"
      ],
      [
        "l",
        "ine"
      ],
      [
        "Ġre",
        "pe"
      ],
      [
        "Ġst",
        "e"
      ],
      [
        "Ġsm",
        "art"
      ],
      [
        "Ġcon",
        "stantly"
      ],
      [
        "Ġtr",
        "ack"
      ],
      [
        "Ġbet",
        "ray"
      ],
      [
        "ĠB",
        "EST"
      ],
      [
        "Ġtemper",
        "ature"
      ],
      [
        "Ġf",
        "ix"
      ],
      [
        "la",
        "r"
      ],
      [
        "Ġnew",
        "s"
      ],
      [
        "Ġstart",
        "s"
      ],
      [
        "Ġter",
        "ri"
      ],
      [
        "Ġgott",
        "a"
      ],
      [
        "Ġfeeling",
        "s"
      ],
      [
        "Ġp",
        "atter"
      ],
      [
        "Ġde",
        "al"
      ],
      [
        "Ġstop",
        "s"
      ],
      [
        "Ġnorm",
        "al"
      ],
      [
        "Ġunt",
        "il"
      ],
      [
        "Ġknow",
        "s"
      ],
      [
        "Ġstay",
        "ing"
      ],
      [
        "float",
        "s"
      ],
      [
        "d",
        "e"
      ],
      [
        "k",
        "y"
      ],
      [
        "o",
        "sed"
      ],
      [
        "Ġc",
        "reat"
      ],
      [
        "Ġcar",
        "ry"
      ],
      [
        "Ġent",
        "ire"
      ],
      [
        "Ġst",
        "ress"
      ],
      [
        "Ġex",
        "cept"
      ],
      [
        "Ġany",
        "where"
      ],
      [
        "Ġjo",
        "kes"
      ],
      [
        "Ġr",
        "ain"
      ],
      [
        "Ġshi",
        "ft"
      ],
      [
        "Ġs",
        "ch"
      ],
      [
        "Ġp",
        "at"
      ],
      [
        "b",
        "t"
      ],
      [
        "Ġch",
        "as"
      ],
      [
        "Ġhu",
        "h"
      ],
      [
        "Ġt",
        "ri"
      ],
      [
        "Ġs",
        "me"
      ],
      [
        "Ġst",
        "ings"
      ],
      [
        "Ġdon",
        "e"
      ],
      [
        "TH",
        "ING"
      ],
      [
        "Ġsme",
        "ll"
      ],
      [
        "Ġch",
        "oo"
      ],
      [
        "Ġspeci",
        "fic"
      ],
      [
        "Ġdanc",
        "ing"
      ],
      [
        "re",
        "ad"
      ],
      [
        "Ġnotic",
        "ed"
      ],
      [
        "Ġsu",
        "per"
      ],
      [
        "Ġr",
        "un"
      ],
      [
        "Ġshadow",
        "s"
      ],
      [
        "p",
        "s"
      ],
      [
        "y",
        "ing"
      ],
      [
        "or",
        "d"
      ],
      [
        "Ġre",
        "l"
      ],
      [
        "id",
        "ing"
      ],
      [
        "ink",
        "s"
      ],
      [
        "Ġdetail",
        "s"
      ],
      [
        "Ġd",
        "ou"
      ],
      [
        "Ġu",
        "se"
      ],
      [
        "Ġcon",
        "vers"
      ],
      [
        "ĠT",
        "h"
      ],
      [
        "Ġshap",
        "es"
      ],
      [
        "V",
        "E"
      ],
      [
        "Ġbel",
        "ly"
      ],
      [
        "Ġmiss",
        "ing"
      ],
      [
        "Ġpatter",
        "n"
      ],
      [
        "e",
        "et"
      ],
      [
        "e",
        "ared"
      ],
      [
        "Ġdes",
        "er"
      ],
      [
        "Ġprom",
        "ise"
      ],
      [
        "Ġlearn",
        "ed"
      ],
      [
        "Ġdist",
        "racted"
      ],
      [
        "Ġsupp",
        "osed"
      ],
      [
        "a",
        "king"
      ],
      [
        "i",
        "ence"
      ],
      [
        "u",
        "s"
      ],
      [
        "y",
        "ou"
      ],
      [
        "Ġs",
        "er"
      ],
      [
        "Ġf",
        "ive"
      ],
      [
        "or",
        "ing"
      ],
      [
        "it",
        "ive"
      ],
      [
        "Ġst",
        "re"
      ],
      [
        "press",
        "es"
      ],
      [
        "f",
        "ast"
      ],
      [
        "n",
        "ot"
      ],
      [
        "Ġit",
        "s"
      ],
      [
        "ĠM",
        "O"
      ],
      [
        "Ġtur",
        "ning"
      ],
      [
        "a",
        "ge"
      ],
      [
        "Ġ",
        "R"
      ],
      [
        "Ġe",
        "ar"
      ],
      [
        "Ġhold",
        "ing"
      ],
      [
        "A",
        "C"
      ],
      [
        "Ġnervous",
        "ly"
      ],
      [
        "B",
        "LE"
      ],
      [
        "h",
        "app"
      ],
      [
        "j",
        "o"
      ],
      [
        "Ġp",
        "h"
      ],
      [
        "Ġwor",
        "king"
      ],
      [
        "Ġfre",
        "e"
      ],
      [
        "Ġdec",
        "or"
      ],
      [
        "s",
        "u"
      ],
      [
        "Ġfin",
        "ished"
      ],
      [
        "il",
        "i"
      ],
      [
        "pe",
        "ci"
      ],
      [
        "e",
        "w"
      ],
      [
        "Ġy",
        "et"
      ],
      [
        "Ġv",
        "acant"
      ],
      [
        "Ġr",
        "is"
      ],
      [
        "Ġcall",
        "ed"
      ],
      [
        "OO",
        "D"
      ],
      [
        "Ġtra",
        "pped"
      ],
      [
        "Ġatt",
        "ention"
      ],
      [
        "Ġst",
        "aring"
      ],
      [
        "Ġup",
        "set"
      ],
      [
        "Ġcon",
        "f"
      ],
      [
        "so",
        "me"
      ],
      [
        "Ġstart",
        "ing"
      ],
      [
        "Ġbreak",
        "fast"
      ],
      [
        "Ġchas",
        "ing"
      ],
      [
        "Ġconvers",
        "ation"
      ],
      [
        "Ġwigg",
        "ly"
      ],
      [
        "Ġpart",
        "ner"
      ],
      [
        "?",
        "!!"
      ],
      [
        "on",
        "t"
      ],
      [
        "Ġno",
        "se"
      ],
      [
        "Ġsw",
        "eet"
      ],
      [
        "Ġcare",
        "s"
      ],
      [
        "Ġboun",
        "c"
      ],
      [
        "mo",
        "st"
      ],
      [
        "happ",
        "y"
      ],
      [
        "Ġre",
        "mind"
      ],
      [
        "âĢĶ",
        "*"
      ],
      [
        "Ġpo",
        "s"
      ],
      [
        "co",
        "me"
      ],
      [
        "Ġh",
        "its"
      ],
      [
        "or",
        "ies"
      ],
      [
        "Ġwa",
        "ke"
      ],
      [
        "il",
        "s"
      ],
      [
        "bb",
        "le"
      ],
      [
        "Ġes",
        "peci"
      ],
      [
        "Ġvisit",
        "or"
      ],
      [
        "Ġimag",
        "ine"
      ],
      [
        "Ġespeci",
        "ally"
      ],
      [
        "Ġwa",
        "l"
      ],
      [
        "Ġtell",
        "ing"
      ],
      [
        "Ġch",
        "ase"
      ],
      [
        "Ġgold",
        "en"
      ],
      [
        "Ġfo",
        "cus"
      ],
      [
        "Ġac",
        "cept"
      ],
      [
        "Ġt",
        "ick"
      ],
      [
        "Ġw",
        "el"
      ],
      [
        "Ġd",
        "r"
      ],
      [
        "Ġso",
        "l"
      ],
      [
        "Ġon",
        "to"
      ],
      [
        "ant",
        "ically"
      ],
      [
        "ĠY",
        "AY"
      ],
      [
        "Ġmoment",
        "s"
      ],
      [
        "Ġbo",
        "ther"
      ],
      [
        "Ġtr",
        "u"
      ],
      [
        "Ġquestion",
        "s"
      ],
      [
        "Ġchang",
        "ing"
      ],
      [
        "Ġtast",
        "es"
      ],
      [
        "a",
        "h"
      ],
      [
        "d",
        "arts"
      ],
      [
        "Ġt",
        "ried"
      ],
      [
        "Ġal",
        "most"
      ],
      [
        "Ġv",
        "oice"
      ],
      [
        "Ġus",
        "ually"
      ],
      [
        "Ġvibration",
        "s"
      ],
      [
        "*",
        "âĢĶ"
      ],
      [
        "g",
        "er"
      ],
      [
        "t",
        "ion"
      ],
      [
        "ri",
        "ll"
      ],
      [
        "ĠT",
        "hat"
      ],
      [
        "Ġaw",
        "ake"
      ],
      [
        "Ġbr",
        "ing"
      ],
      [
        "Ġf",
        "it"
      ],
      [
        "Ġfriend",
        "ship"
      ],
      [
        "Ġlook",
        "ed"
      ],
      [
        "Ġexcit",
        "ement"
      ],
      [
        "ĠA",
        "N"
      ],
      [
        "Ġdisappoint",
        "ed"
      ],
      [
        "Ġsto",
        "pped"
      ],
      [
        "o",
        "ck"
      ],
      [
        "u",
        "sh"
      ],
      [
        "Ġ",
        "J"
      ],
      [
        "Ġg",
        "en"
      ],
      [
        "Ġact",
        "ual"
      ],
      [
        "anc",
        "y"
      ],
      [
        "Ġlear",
        "ning"
      ],
      [
        "Ġexhaust",
        "ing"
      ],
      [
        "ili",
        "ar"
      ],
      [
        "s",
        "er"
      ],
      [
        "Ġwe",
        "e"
      ],
      [
        "Ġac",
        "c"
      ],
      [
        "Ġfr",
        "ont"
      ],
      [
        "Ġen",
        "jo"
      ],
      [
        "Ġbl",
        "ue"
      ],
      [
        "Ġsn",
        "ack"
      ],
      [
        "Ġforgi",
        "ven"
      ],
      [
        "A",
        "D"
      ],
      [
        "Ġp",
        "unch"
      ],
      [
        "ic",
        "ious"
      ],
      [
        "fu",
        "sed"
      ],
      [
        "Ġjo",
        "b"
      ],
      [
        "Ġlot",
        "s"
      ],
      [
        "ĠBU",
        "B"
      ],
      [
        "Ġdeser",
        "ve"
      ],
      [
        "S",
        "E"
      ],
      [
        "e",
        "ction"
      ],
      [
        "Ġ",
        "ra"
      ],
      [
        "in",
        "ner"
      ],
      [
        "Ġh",
        "op"
      ],
      [
        "Ġn",
        "u"
      ],
      [
        "Ġpre",
        "ss"
      ],
      [
        "Ġfam",
        "iliar"
      ],
      [
        "Ġgl",
        "ow"
      ],
      [
        "Ġener",
        "gy"
      ],
      [
        "Ġser",
        "ious"
      ],
      [
        "n",
        "ce"
      ],
      [
        "Ġs",
        "ize"
      ],
      [
        "Ġo",
        "b"
      ],
      [
        "th",
        "at"
      ],
      [
        "Ġj",
        "ud"
      ],
      [
        "Ġcom",
        "fort"
      ],
      [
        "Ġfast",
        "er"
      ],
      [
        "ĠTH",
        "ING"
      ],
      [
        "ĠTH",
        "IS"
      ],
      [
        "com",
        "p"
      ],
      [
        "Ġsing",
        "le"
      ],
      [
        "an",
        "y"
      ],
      [
        "Ġfr",
        "antically"
      ],
      [
        "wh",
        "o"
      ],
      [
        "ĠT",
        "he"
      ],
      [
        "g",
        "in"
      ],
      [
        "u",
        "ation"
      ],
      [
        "le",
        "m"
      ],
      [
        "Ġlea",
        "st"
      ],
      [
        "ĠNO",
        "W"
      ],
      [
        "I",
        "R"
      ],
      [
        "Ġa",
        "ch"
      ],
      [
        "on",
        "es"
      ],
      [
        "Ġst",
        "ick"
      ],
      [
        "Ġwarm",
        "er"
      ],
      [
        "Ġprom",
        "ot"
      ],
      [
        "Ġchoo",
        "se"
      ],
      [
        "Ġwel",
        "come"
      ],
      [
        "A",
        "Z"
      ],
      [
        "Ġb",
        "ir"
      ],
      [
        "la",
        "sh"
      ],
      [
        "ĠT",
        "ell"
      ],
      [
        "am",
        "es"
      ],
      [
        "con",
        "fused"
      ],
      [
        "Ġmist",
        "akes"
      ],
      [
        "Ġpunch",
        "line"
      ],
      [
        "Ġbir",
        "th"
      ],
      [
        "u",
        "b"
      ],
      [
        "Ġs",
        "ens"
      ],
      [
        "Ġso",
        "ng"
      ],
      [
        "im",
        "mer"
      ],
      [
        "VER",
        "Y"
      ],
      [
        "Ġterri",
        "ble"
      ],
      [
        "Ġbirth",
        "day"
      ],
      [
        "P",
        "P"
      ],
      [
        "c",
        "irc"
      ],
      [
        "Ġd",
        "inner"
      ],
      [
        "Ġprob",
        "lem"
      ],
      [
        "O",
        "M"
      ],
      [
        "s",
        "ic"
      ],
      [
        "Ġf",
        "ancy"
      ],
      [
        "th",
        "ought"
      ],
      [
        "oo",
        "sh"
      ],
      [
        "Ġyour",
        "s"
      ],
      [
        "Ġsh",
        "e"
      ],
      [
        "Ġgood",
        "ness"
      ],
      [
        "Ġta",
        "kes"
      ],
      [
        "Ġpre",
        "sent"
      ],
      [
        "Ġsad",
        "ness"
      ],
      [
        "ĠS",
        "T"
      ],
      [
        "f",
        "ter"
      ],
      [
        "an",
        "ic"
      ],
      [
        "Ġan",
        "x"
      ],
      [
        "Ġexist",
        "s"
      ],
      [
        "ĠN",
        "E"
      ],
      [
        "ig",
        "n"
      ],
      [
        "Ġmyster",
        "y"
      ],
      [
        "e",
        "yes"
      ],
      [
        "Ġ",
        "REA"
      ],
      [
        "Ġb",
        "ook"
      ],
      [
        "Ġc",
        "au"
      ],
      [
        "st",
        "ic"
      ],
      [
        "il",
        "ing"
      ],
      [
        "Ġlo",
        "ved"
      ],
      [
        "ĠH",
        "A"
      ],
      [
        "Ġfl",
        "ip"
      ],
      [
        "Ġhum",
        "ming"
      ],
      [
        "Ġturn",
        "ed"
      ],
      [
        "Ġsit",
        "uation"
      ],
      [
        "h",
        "ere"
      ],
      [
        "t",
        "les"
      ],
      [
        "z",
        "z"
      ],
      [
        "Ġit",
        "self"
      ],
      [
        "Ġme",
        "ant"
      ],
      [
        "Ġre",
        "j"
      ],
      [
        "Ġwi",
        "ld"
      ],
      [
        "Ġkn",
        "ew"
      ],
      [
        "bb",
        "les"
      ],
      [
        "Ġsp",
        "end"
      ],
      [
        "Ġbr",
        "ings"
      ],
      [
        "tra",
        "ils"
      ],
      [
        "Ġsil",
        "ence"
      ],
      [
        "Ġpos",
        "itive"
      ],
      [
        "G",
        "A"
      ],
      [
        "s",
        "ion"
      ],
      [
        "Ġb",
        "rou"
      ],
      [
        "Ġb",
        "oring"
      ],
      [
        "Ġso",
        "fter"
      ],
      [
        "Ġu",
        "h"
      ],
      [
        "keep",
        "s"
      ],
      [
        "Ġexist",
        "ing"
      ],
      [
        "Ġbrou",
        "ght"
      ],
      [
        "b",
        "u"
      ],
      [
        "i",
        "ld"
      ],
      [
        "Ġe",
        "d"
      ],
      [
        "Ġp",
        "ay"
      ],
      [
        "Ġre",
        "co"
      ],
      [
        "Ġsp",
        "lash"
      ],
      [
        "Ġch",
        "ance"
      ],
      [
        "Ġv",
        "al"
      ],
      [
        "Ġsay",
        "s"
      ],
      [
        "Ġwonder",
        "ing"
      ],
      [
        "Ġpla",
        "stic"
      ],
      [
        "Ġgi",
        "ving"
      ],
      [
        "Ġswish",
        "es"
      ],
      [
        "ĠAM",
        "AZ"
      ],
      [
        "some",
        "thing"
      ],
      [
        "ĠAMAZ",
        "ING"
      ],
      [
        "S",
        "S"
      ],
      [
        "Ġp",
        "oof"
      ],
      [
        "ic",
        "es"
      ],
      [
        "!!",
        "!"
      ],
      [
        "Ġhard",
        "est"
      ],
      [
        "ĠF",
        "IN"
      ],
      [
        "Ġtalk",
        "ed"
      ],
      [
        "Ġnotic",
        "ing"
      ],
      [
        "Ġdou",
        "bt"
      ],
      [
        "Ġforgiven",
        "ess"
      ],
      [
        "Ġw",
        "o"
      ],
      [
        "at",
        "es"
      ],
      [
        "Ġh",
        "y"
      ],
      [
        "Ġh",
        "ate"
      ],
      [
        "Ġp",
        "un"
      ],
      [
        "Ġqu",
        "ite"
      ],
      [
        "Ġday",
        "s"
      ],
      [
        "Ġperfect",
        "ly"
      ],
      [
        "Ġother",
        "s"
      ],
      [
        "Ġhope",
        "ful"
      ],
      [
        "Ġdisapp",
        "ear"
      ],
      [
        "Ġac",
        "ross"
      ],
      [
        "IS",
        "H"
      ],
      [
        "bon",
        "ks"
      ],
      [
        "Ġenjo",
        "y"
      ],
      [
        "circ",
        "ling"
      ],
      [
        "Ġpla",
        "ces"
      ],
      [
        "LL",
        "Y"
      ],
      [
        "Ġpass",
        "ed"
      ],
      [
        "G",
        "E"
      ],
      [
        "Ġt",
        "ank"
      ],
      [
        "ou",
        "se"
      ],
      [
        "Ġh",
        "ouse"
      ],
      [
        "Ġmo",
        "m"
      ],
      [
        "Ġlo",
        "se"
      ],
      [
        "Ġrest",
        "ing"
      ],
      [
        "ĠC",
        "an"
      ],
      [
        "Ġcont",
        "ent"
      ],
      [
        "Ġboun",
        "ce"
      ],
      [
        "Ġli",
        "ves"
      ],
      [
        "ent",
        "ly"
      ],
      [
        "Ġdi",
        "zzy"
      ],
      [
        "Ġhe",
        "ard"
      ],
      [
        "Ġdiffere",
        "nce"
      ],
      [
        "Ġr",
        "oom"
      ],
      [
        "ĠTHE",
        "RE"
      ],
      [
        "Ġeas",
        "ily"
      ],
      [
        "per",
        "ks"
      ],
      [
        "Ġdisappoint",
        "ment"
      ],
      [
        "Ġnu",
        "mber"
      ],
      [
        "Ġg",
        "row"
      ],
      [
        "Ġre",
        "c"
      ],
      [
        "ac",
        "es"
      ],
      [
        "mb",
        "ered"
      ],
      [
        "Ġbl",
        "ur"
      ],
      [
        "OU",
        "T"
      ],
      [
        "ĠH",
        "E"
      ],
      [
        "oo",
        "l"
      ],
      [
        "Ġback",
        "ward"
      ],
      [
        "Ġar",
        "ri"
      ],
      [
        "ho",
        "ld"
      ],
      [
        "Ġdiscover",
        "ing"
      ],
      [
        "g",
        "es"
      ],
      [
        "Ġs",
        "y"
      ],
      [
        "Ġd",
        "a"
      ],
      [
        "Ġh",
        "iding"
      ],
      [
        "le",
        "x"
      ],
      [
        "Ġlo",
        "sing"
      ],
      [
        "Ġaw",
        "ful"
      ],
      [
        "ist",
        "ic"
      ],
      [
        "ĠA",
        "RE"
      ],
      [
        "Ġneed",
        "s"
      ],
      [
        "Ġmist",
        "ake"
      ],
      [
        "Ġsol",
        "id"
      ],
      [
        "Ġ",
        "U"
      ],
      [
        "Ġreme",
        "mbered"
      ],
      [
        "he",
        "ad"
      ],
      [
        "Ġescap",
        "e"
      ],
      [
        "c",
        "king"
      ],
      [
        "n",
        "ope"
      ],
      [
        "Ġb",
        "ar"
      ],
      [
        "Ġn",
        "et"
      ],
      [
        "Ġc",
        "our"
      ],
      [
        "ti",
        "me"
      ],
      [
        "Ġlet",
        "ter"
      ],
      [
        "Ġsleep",
        "ing"
      ],
      [
        "Ġsurpris",
        "ing"
      ],
      [
        "Ġri",
        "pp"
      ],
      [
        "ĠTh",
        "is"
      ],
      [
        "Ġcour",
        "se"
      ],
      [
        "are",
        "ly"
      ],
      [
        "Ġsh",
        "aking"
      ],
      [
        "Ġsh",
        "immer"
      ],
      [
        "Ġsc",
        "are"
      ],
      [
        "wh",
        "y"
      ],
      [
        "ĠH",
        "U"
      ],
      [
        "Ġar",
        "t"
      ],
      [
        "i",
        "a"
      ],
      [
        "o",
        "ssible"
      ],
      [
        "Ġm",
        "in"
      ],
[...]
