{
  "version": "1.0",
  "truncation": null,
  "padding": null,
  "added_tokens": [
    {
      "id": 0,
      "content": "<pad>",
      "single_word": false,
      "lstrip": false,
      "rstrip": false,
      "normalized": false,
      "special": true
    },
    {
      "id": 1,
      "content": "<bos>",
      "single_word": false,
      "lstrip": false,
      "rstrip": false,
      "normalized": false,
      "special": true
    },
    {
      "id": 2,
      "content": "<eos>",
      "single_word": false,
      "lstrip": false,
      "rstrip": false,
      "normalized": false,
      "special": true
    },
    {
      "id": 3,
      "content": "<unk>",
      "single_word": false,
      "lstrip": false,
      "rstrip": false,
      "normalized": false,
      "special": true
    }
  ],
  "normalizer": null,
  "pre_tokenizer": {
    "type": "ByteLevel",
    "add_prefix_space": true,
    "trim_offsets": true,
    "use_regex": true
  },
  "post_processor": {
    "type": "TemplateProcessing",
    "single": [
      {
        "SpecialToken": {
          "id": "<bos>",
          "type_id": 0
        }
      },
      {
        "Sequence": {
          "id": "A",
          "type_id": 0
        }
      },
      {
        "SpecialToken": {
          "id": "<eos>",
          "type_id": 0
        }
      }
    ],
    "pair": [
      {
        "Sequence": {
          "id": "A",
          "type_id": 0
        }
      },
      {
        "Sequence": {
          "id": "B",
          "type_id": 1
        }
      }
    ],
    "special_tokens": {
      "<bos>": {
        "id": "<bos>",
        "ids": [
          1
        ],
        "tokens": [
          "<bos>"
        ]
      },
      "<eos>": {
        "id": "<eos>",
        "ids": [
          2
        ],
        "tokens": [
          "<eos>"
        ]
      }
    }
  },
  "decoder": {
    "type": "ByteLevel",
    "add_prefix_space": true,
    "trim_offsets": true,
    "use_regex": true
  },
  "model": {
    "type": "BPE",
    "dropout": null,
    "unk_token": "<unk>",
    "continuing_subword_prefix": null,
    "end_of_word_suffix": null,
    "fuse_unk": false,
    "byte_fallback": false,
    "ignore_merges": false,
    "vocab": {
      "<pad>": 0,
      "<bos>": 1,
      "<eos>": 2,
      "<unk>": 3,
      "!": 4,
      "'": 5,
      "*": 6,
      ",": 7,
      "-": 8,
      ".": 9,
      "0": 10,
      "1": 11,
      "2": 12,
      "5": 13,
      "6": 14,
      "7": 15,
      "8": 16,
      "9": 17,
      ":": 18,
      "?": 19,
      "A": 20,
      "B": 21,
      "C": 22,
      "D": 23,
      "E": 24,
      "F": 25,
      "G": 26,
      "H": 27,
      "I": 28,
      "L": 29,
      "N": 30,
      "O": 31,
      "P": 32,
      "R": 33,
      "S": 34,
      "T": 35,
      "U": 36,
      "W": 37,
      "Y": 38,
      "a": 39,
      "b": 40,
      "c": 41,
      "d": 42,
      "e": 43,
      "f": 44,
      "g": 45,
      "h": 46,
      "i": 47,
      "j": 48,
      "k": 49,
      "l": 50,
      "m": 51,
      "n": 52,
      "o": 53,
      "p": 54,
      "q": 55,
      "r": 56,
      "s": 57,
      "t": 58,
      "u": 59,
      "v": 60,
      "w": 61,
      "x": 62,
      "y": 63,
      "z": 64,
      "©": 65,
      "Ã": 66,
      "â": 67,
      "Ġ": 68,
      "Ģ": 69,
      "Ķ": 70,
      "Ġt": 71,
      "Ġi": 72,
      "Ġth": 73,
      "Ġw": 74,
      "Ġa": 75,
      "in": 76,
      "er": 77,
      "Ġs": 78,
      "ou": 79,
      "at": 80,
      "Ġthe": 81,
      "Ġm": 82,
      "ing": 83,
      "Ġb": 84,
      "Ġy": 85,
      "Ġf": 86,
      "Ġyou": 87,
      "es": 88,
      "Ġd": 89,
      "nd": 90,
      "re": 91,
      "Ġl": 92,
      "Ġh": 93,
      "Ġwh": 94,
      "ow": 95,
      "Ġn": 96,
      "en": 97,
      "Ġc": 98,
      "Ġand": 99,
      "Ġdo": 100,
      "Ġis": 101,
      "Ġit": 102,
      "Ġo": 103,
      "om": 104,
      "el": 105,
      "Ġg": 106,
      "'s": 107,
      "th": 108,
      "Ġli": 109,
      "ay": 110,
      "an": 111,
      "gh": 112,
      "st": 113,
      "Ġe": 114,
      "or": 115,
      "ar": 116,
      "Ġto": 117,
      "Ġwhat": 118,
      "Ġwat": 119,
      "ver": 120,
      "ke": 121,
      "Ġwater": 122,
      "Ġme": 123,
      "ll": 124,
      "Ġbe": 125,
      "ght": 126,
      "Ġthat": 127,
      "ere": 128,
      "Ġp": 129,
      "le": 130,
      "ome": 131,
      "on": 132,
      "ve": 133,
      "Ġk": 134,
      "ri": 135,
      "Ġbu": 136,
      "Ġfe": 137,
      "thing": 138,
      "'t": 139,
      "Ġever": 140,
      "Ġfeel": 141,
      "oo": 142,
      "Ġsome": 143,
      "Ġso": 144,
      "Ġin": 145,
      "is": 146,
      "Ġno": 147,
      "Ġlike": 148,
      "Ġj": 149,
      "ust": 150,
      "ent": 151,
      "et": 152,
      "ld": 153,
      "Ġst": 154,
      "Ġfor": 155,
      "im": 156,
      "Ġbut": 157,
      "Ġha": 158,
      "'m": 159,
      "ce": 160,
      "Ġevery": 161,
      "la": 162,
      "Ġjust": 163,
      "ind": 164,
      "Ġre": 165,
      "Ġne": 166,
      "Ġmy": 167,
      "Ġthey": 168,
      "right": 169,
      "'re": 170,
      "arm": 171,
      "Ġwarm": 172,
      "Ġyour": 173,
      "ed": 174,
      "Ġhow": 175,
      "kes": 176,
      "Ġdon": 177,
      "Ġnow": 178,
      "Ġse": 179,
      "Ġare": 180,
      "out": 181,
      "Ġkind": 182,
      "Ġmo": 183,
      "Ġal": 184,
      "pp": 185,
      "Ġwi": 186,
      "Ġof": 187,
      "est": 188,
      "Ġkn": 189,
      "Ġlight": 190,
      "Ġknow": 191,
      "Ġnot": 192,
      "ess": 193,
      "ch": 194,
      "Ġcan": 195,
      "Ġright": 196,
      "Ġab": 197,
      "se": 198,
      "it": 199,
      "owl": 200,
      "one": 201,
      "Ġon": 202,
      "Ġwhen": 203,
      "Ġthere": 204,
      "ad": 205,
      "all": 206,
      "Ġbowl": 207,
      "be": 208,
      "ood": 209,
      "id": 210,
      "Ġthing": 211,
      "way": 212,
      "Ġeverything": 213,
      "me": 214,
      "Ġu": 215,
      "Ġhere": 216,
      "fu": 217,
      "ft": 218,
      "ge": 219,
      "Ġabout": 220,
      "lo": 221,
      "Ġmay": 222,
      "Ġmaybe": 223,
      "Ġsh": 224,
      "ly": 225,
      "Ġma": 226,
      "Ġthis": 227,
      "Ġforg": 228,
      "Ġwa": 229,
      "Ġfeels": 230,
      "Ġsee": 231,
      "Ġhapp": 232,
      "ful": 233,
      "Ġgo": 234,
      "ough": 235,
      "Ġsomething": 236,
      "Ġwor": 237,
      "al": 238,
      "ink": 239,
      "Ġr": 240,
      "Ġfla": 241,
      "tt": 242,
      "Ġwith": 243,
      "Ġyes": 244,
      "..": 245,
      "Ġloo": 246,
      "Ġthink": 247,
      "Ġor": 248,
      "Ġgood": 249,
      "ur": 250,
      "Ġdoes": 251,
      "Ġan": 252,
      "ice": 253,
      "Ġlook": 254,
      "ound": 255,
      "Ġmom": 256,
      "Ġmoment": 257,
      "Ġoh": 258,
      "Ġif": 259,
      "Ġtr": 260,
      "Ġall": 261,
      "au": 262,
      "Ġwhy": 263,
      "ss": 264,
      "ways": 265,
      "Ġalways": 266,
      "ould": 267,
      "Ġat": 268,
      "Ġflakes": 269,
      "ange": 270,
      "Ġbeing": 271,
      "ill": 272,
      "ness": 273,
      "mb": 274,
      "op": 275,
      "ish": 276,
      "Ġsomeone": 277,
      "Ġnew": 278,
      "ck": 279,
      "Ġtim": 280,
      "Ġsm": 281,
      "Ġch": 282,
      "Ġfr": 283,
      "nder": 284,
      "Ġsoft": 285,
      "ep": 286,
      "Ġgla": 287,
      "ct": 288,
      "Ġreme": 289,
      "Ġrememb": 290,
      "Ġsw": 291,
      "ant": 292,
      "Ġthings": 293,
      "Ġtime": 294,
      "art": 295,
      "ain": 296,
      "fe": 297,
      "Ġremember": 298,
      "Ġwho": 299,
      "Ġget": 300,
      "ir": 301,
      "Ġfa": 302,
      "ea": 303,
      "Ġlo": 304,
      "Ġforget": 305,
      "Ġsa": 306,
      "ra": 307,
      "Ġswim": 308,
      "les": 309,
      "Ġglass": 310,
      "ther": 311,
      "Ġthem": 312,
      "Ġup": 313,
      "Ġany": 314,
      "Ġmakes": 315,
      "bb": 316,
      "Ġsu": 317,
      "ter": 318,
      "Ġgent": 319,
      "Ġag": 320,
      "Ġcom": 321,
      "Ġflo": 322,
      "Ġstill": 323,
      "Ġfloat": 324,
      "Ġhave": 325,
      "Ġwas": 326,
      "Ġen": 327,
      "tim": 328,
      "ving": 329,
      "ive": 330,
      "ell": 331,
      "Ġbubb": 332,
      "Ġmean": 333,
      "Ġnice": 334,
      "Ġhel": 335,
      "Ġthen": 336,
      "Ġagain": 337,
      "Ġta": 338,
      "Ġdi": 339,
      "ven": 340,
      "Ġbec": 341,
      "Ġwo": 342,
      "Ġtoo": 343,
      "Ġsometim": 344,
      "Ġsometimes": 345,
      "red": 346,
      "ff": 347,
      "Ġwonder": 348,
      "Ġenough": 349,
      "Ġkindness": 350,
      "Ġbo": 351,
      "ard": 352,
      "Ġhappy": 353,
      "ally": 354,
      "Ġhappen": 355,
      "...": 356,
      "old": 357,
      "Ġsmall": 358,
      "Ġorange": 359,
      "Ġwhere": 360,
      "Ġke": 361,
      "Ġrest": 362,
      "Ġkeep": 363,
      "qu": 364,
      "Ġwe": 365,
      "Ġfrom": 366,
      "Ġstay": 367,
      "ause": 368,
      "Ġsc": 369,
      "Ġok": 370,
      "Ġfin": 371,
      "ong": 372,
      "Ġthr": 373,
      "ffer": 374,
      "Ġthrough": 375,
      "Ġdid": 376,
      "Ġbecause": 377,
      "Ġper": 378,
      "Ġex": 379,
      "Ġmove": 380,
      "Ġdiffer": 381,
      "Ġone": 382,
      "Ġtry": 383,
      "Ġway": 384,
      "end": 385,
      "day": 386,
      "Ġqu": 387,
      "ig": 388,
      "ion": 389,
      "Ġfish": 390,
      "Ġworld": 391,
      "Ġokay": 392,
      "Ġgentle": 393,
      "Ġwarmth": 394,
      "Ġeven": 395,
      "Ġwhole": 396,
      "Ġbubbles": 397,
      "atter": 398,
      "elf": 399,
      "Ġdifferent": 400,
      "riend": 401,
      "Ġam": 402,
      "Ġfriend": 403,
      "Ġbig": 404,
      "Ġlitt": 405,
      "Ġlittle": 406,
      "ic": 407,
      "low": 408,
      "Ġba": 409,
      "Ġtell": 410,
      "very": 411,
      "Ġday": 412,
      "ting": 413,
      "ight": 414,
      "Ġar": 415,
      "Ġmatter": 416,
      "own": 417,
      "Ġwould": 418,
      "Ġneed": 419,
      "Ġbright": 420,
      "Ġthan": 421,
      "Ġnever": 422,
      "Ġvery": 423,
      "Ġbel": 424,
      "Ġas": 425,
      "Ġhe": 426,
      "mp": 427,
      "rea": 428,
      "il": 429,
      "Ġsay": 430,
      "Ġlove": 431,
      "Ġqui": 432,
      "self": 433,
      "Ġwonderful": 434,
      "Ġsp": 435,
      "Ġback": 436,
      "Ġea": 437,
      "Ġhu": 438,
      "Ġfins": 439,
      "ves": 440,
      "Ġwant": 441,
      "Ġaround": 442,
      "ry": 443,
      "ide": 444,
      "king": 445,
      "Ġbest": 446,
      "Ġv": 447,
      "Ġgold": 448,
      "ore": 449,
      "ady": 450,
      "Ġfu": 451,
      "aut": 452,
      "Ġchan": 453,
      "Ġbeaut": 454,
      "Ġhold": 455,
      "Ġmost": 456,
      "Ġmeans": 457,
      "Ġreally": 458,
      "Ġpe": 459,
      "ely": 460,
      "rat": 461,
      "Ġmoving": 462,
      "ark": 463,
      "Ġca": 464,
      "Ġtoday": 465,
      "Ġcome": 466,
      "Ġwait": 467,
      "ie": 468,
      "Ġbeauti": 469,
      "Ġwill": 470,
      "Ġhard": 471,
      "Ġmore": 472,
      "ming": 473,
      "Ġmake": 474,
      "Ġsame": 475,
      "Ġbeautiful": 476,
      "Ġquiet": 477,
      "fect": 478,
      "Ġmu": 479,
      "Ġperfect": 480,
      "Ġseem": 481,
      "Ġby": 482,
      "Ġsec": 483,
      "Ġlet": 484,
      "Ġdrea": 485,
      "Ġdoesn": 486,
      "ople": 487,
      "Ġpeople": 488,
      "Ġpr": 489,
      "Ġcomes": 490,
      "Ġjo": 491,
      "Ġreal": 492,
      "Ġpea": 493,
      "Ġbelie": 494,
      "ous": 495,
      "Ġhello": 496,
      "reat": 497,
      "Ġstr": 498,
      "Ġpeace": 499,
      "orn": 500,
      "Ġmuch": 501,
      "ite": 502,
      "Ġdark": 503,
      "Ġsound": 504,
      "Ġcle": 505,
      "ste": 506,
      "Ġpl": 507,
      "Ġshould": 508,
      "Ġdream": 509,
      "Ġfloating": 510,
      "Ġout": 511,
      "Ġdown": 512,
      "Ġhop": 513,
      "Ġchange": 514,
      "Ġpart": 515,
      "Ġstart": 516,
      "Ġanything": 517,
      "dy": 518,
      "Ġsure": 519,
      "Ġlooking": 520,
      "ib": 521,
      "esh": 522,
      "Ġnothing": 523,
      "sta": 524,
      "iny": 525,
      "Ġfood": 526,
      "Ġhelp": 527,
      "ure": 528,
      "Ġnotice": 529,
      "Ġwatch": 530,
      "urn": 531,
      "Ġgi": 532,
      "Ġother": 533,
      "Ġfresh": 534,
      "Ġhope": 535,
      "Ġbra": 536,
      "Ġswimming": 537,
      "Ġey": 538,
      "ot": 539,
      "Ġfeeling": 540,
      "'ve": 541,
      "here": 542,
      "ond": 543,
      "sh": 544,
      "sten": 545,
      "Ġtrying": 546,
      "tter": 547,
      "Ġsafe": 548,
      "Ġpo": 549,
      "Ġfind": 550,
      "ret": 551,
      "Ġti": 552,
      "Ġturn": 553,
      "gg": 554,
      "Ġbr": 555,
      "Ġsca": 556,
      "Ġchang": 557,
      "Ġunder": 558,
      "fish": 559,
      "Ġsad": 560,
      "Ġlisten": 561,
      "Ġcon": 562,
      "Ġeyes": 563,
      "Ġtiny": 564,
      "Ġslow": 565,
      "ast": 566,
      "ng": 567,
      "Ġbetter": 568,
      "Ġgoldfish": 569,
      "where": 570,
      "Ġsha": 571,
      "Ġsun": 572,
      "Ġmatters": 573,
      "Ġtrust": 574,
      "Ġfir": 575,
      "Ġeach": 576,
      "Ġonly": 577,
      "ort": 578,
      "Ġhur": 579,
      "side": 580,
      "ol": 581,
      "Ġbelieve": 582,
      "Ġfirst": 583,
      "ready": 584,
      "Ġalready": 585,
      "vor": 586,
      "Ġpla": 587,
      "Ġlooks": 588,
      "Ġhome": 589,
      "ool": 590,
      "'ll": 591,
      "Ġaway": 592,
      "Ġyourself": 593,
      "Ġgra": 594,
      "Ġtired": 595,
      "Ġscared": 596,
      "Ġcould": 597,
      "Ġlong": 598,
      "son": 599,
      "Ġgoing": 600,
      "Ġstop": 601,
      "Ġsur": 602,
      "Ġalive": 603,
      "Ġfavor": 604,
      "vel": 605,
      "Ġhurt": 606,
      "Ġhappens": 607,
      "Ġhum": 608,
      "Ġfavorite": 609,
      "Ġel": 610,
      "Ġwhi": 611,
      "Ġelse": 612,
      "Ġbreat": 613,
      "Ġbreath": 614,
      "Ġde": 615,
      "Ġcool": 616,
      "stand": 617,
      "Ġunderstand": 618,
      "ove": 619,
      "Ġlon": 620,
      "Ġkeeps": 621,
      "Ġcar": 622,
      "int": 623,
      "Ġbef": 624,
      "ose": 625,
      "Ġplant": 626,
      "Ġbefore": 627,
      "Ġshad": 628,
      "Ġtaste": 629,
      "leep": 630,
      "ear": 631,
      "Ġhand": 632,
      "Ġlife": 633,
      "Ġsecond": 634,
      "Ġshadow": 635,
      "Ġpre": 636,
      "Ġover": 637,
      "Ġwigg": 638,
      "Ġdan": 639,
      "Ġword": 640,
      "Ġgravel": 641,
      "Ġcat": 642,
      "row": 643,
      "Ġcare": 644,
      "Ġwere": 645,
      "Ġabove": 646,
      "Ġround": 647,
      "Ġisn": 648,
      "Ġsleep": 649,
      "Ġcorn": 650,
      "Ġcold": 651,
      "Ġcoming": 652,
      "Ġeat": 653,
      "Ġdis": 654,
      "Ġdoing": 655,
      "Ġfull": 656,
      "Ġbubble": 657,
      "olor": 658,
      "Ġthank": 659,
      "Ġwithout": 660,
      "Ġcolor": 661,
      "ade": 662,
      "Ġfast": 663,
      "sing": 664,
      "xt": 665,
      "Ġforgive": 666,
      "Ġmight": 667,
      "Ġcal": 668,
      "Ġcorner": 669,
      "Ġeveryone": 670,
      "Ġface": 671,
      "Ġpu": 672,
      "Ġjoy": 673,
      "Ġri": 674,
      "Ġgets": 675,
      "Ġtheir": 676,
      "pe": 677,
      "Ġimp": 678,
      "ment": 679,
      "Ġcalm": 680,
      "Ġdes": 681,
      "Ġsounds": 682,
      "Ġplace": 683,
      "Ġanyway": 684,
      "ine": 685,
      "Ġflake": 686,
      "Ġnext": 687,
      "Ġcu": 688,
      "ab": 689,
      "Ġcur": 690,
      "Ġop": 691,
      "Ġclear": 692,
      "Ġheart": 693,
      "Ġgift": 694,
      "Ġpeaceful": 695,
      "Ġcuri": 696,
      "ue": 697,
      "Ġlonely": 698,
      "Ġshow": 699,
      "Ġholds": 700,
      "Ġus": 701,
      "ions": 702,
      "ger": 703,
      "nt": 704,
      "dle": 705,
      "Ġeas": 706,
      "to": 707,
      "ci": 708,
      "ist": 709,
      "Ġtal": 710,
      "Ġalone": 711,
      "Ġmid": 712,
      "Ġmade": 713,
      "Ġthinking": 714,
      "ence": 715,
      "Ġmiddle": 716,
      "Ġboth": 717,
      "Ġgently": 718,
      "Ġgetting": 719,
      "Ġbring": 720,
      "Ġprett": 721,
      "ud": 722,
      "Ġbeen": 723,
      "Ġvib": 724,
      "Ġlea": 725,
      "Ġvibrat": 726,
      "Ġbad": 727,
      "Ġgrat": 728,
      "Ġmeet": 729,
      "Ġbody": 730,
      "ills": 731,
      "Ġpretty": 732,
      "Ġperson": 733,
      "Ġlive": 734,
      "Ġhas": 735,
      "pri": 736,
      "Ġsurpri": 737,
      "Ġcurious": 738,
      "ling": 739,
      "iness": 740,
      "Ġforgetting": 741,
      "Ġtoge": 742,
      "Ġtogether": 743,
      "ttom": 744,
      "Ġbottom": 745,
      "Ġthose": 746,
      "Ġtop": 747,
      "ces": 748,
      "Ġpoint": 749,
      "Ġfall": 750,
      "Ġsecret": 751,
      "other": 752,
      "âĢ": 753,
      "its": 754,
      "âĢĶ": 755,
      "ple": 756,
      "Ġanother": 757,
      "Ġmostly": 758,
      "Ġgive": 759,
      "ales": 760,
      "erday": 761,
      "Ġyest": 762,
      "Ġscales": 763,
      "Ġyesterday": 764,
      "Ġglow": 765,
      "ory": 766,
      "Ġmoves": 767,
      "Ġopen": 768,
      "Ġseen": 769,
      "Ġclo": 770,
      "any": 771,
      "Ġforgot": 772,
      "Ġwatching": 773,
      "eful": 774,
      "uck": 775,
      "Ġfun": 776,
      "Ġwaiting": 777,
      "Ġgrateful": 778,
      "app": 779,
      "ouch": 780,
      "Ġold": 781,
      "Ġpro": 782,
      "Ġtouch": 783,
      "irc": 784,
      "Ġcirc": 785,
      "Ġexp": 786,
      "Ġchanges": 787,
      "Ġvis": 788,
      "Ġdri": 789,
      "Ġclean": 790,
      "Ġwork": 791,
      "Ġhappening": 792,
      "Ġbrand": 793,
      "ortant": 794,
      "Ġworth": 795,
      "Ġnear": 796,
      "Ġimportant": 797,
      "Ġwell": 798,
      "Ġsaying": 799,
      "ked": 800,
      "Ġmyself": 801,
      "Ġfore": 802,
      "Ġfo": 803,
      "Ġro": 804,
      "Ġforever": 805,
      "ither": 806,
      "Ġwr": 807,
      "Ġpat": 808,
      "Ġresting": 809,
      "Ġworry": 810,
      "orrow": 811,
      "Ġwrong": 812,
      "sed": 813,
      "Ġgills": 814,
      "Ġseems": 815,
      "Ġun": 816,
      "Ġtom": 817,
      "Ġmis": 818,
      "Ġtomorrow": 819,
      "ooth": 820,
      "Ġrea": 821,
      "Ġhear": 822,
      "ought": 823,
      "Ġoutside": 824,
      "Ġmust": 825,
      "Ġdrift": 826,
      "Ġwhich": 827,
      "Ġglad": 828,
      "ually": 829,
      "Ġgre": 830,
      "Ġsmooth": 831,
      "Ġforgi": 832,
      "Ġmem": 833,
      "Ġpast": 834,
      "Ġcou": 835,
      "ary": 836,
      "Ġhappened": 837,
      "Ġmorn": 838,
      "Ġinter": 839,
      "Ġmorning": 840,
      "elt": 841,
      "Ġbrave": 842,
      "Ġplants": 843,
      "Ġbl": 844,
      "ile": 845,
      "Ġgot": 846,
      "Ġexist": 847,
      "Ġknowing": 848,
      "Ġfriends": 849,
      "'d": 850,
      "oud": 851,
      "Ġtap": 852,
      "Ġinto": 853,
      "Ġjoke": 854,
      "Ġmany": 855,
      "Ġinterest": 856,
      "Ġnight": 857,
      "Ġinside": 858,
      "Ġfelt": 859,
      "Ġcame": 860,
      "bo": 861,
      "Ġspe": 862,
      "Ġdreams": 863,
      "Ġgone": 864,
      "Ġlistening": 865,
      "Ġte": 866,
      "Ġready": 867,
      "cing": 868,
      "Ġdisapp": 869,
      "Ġprob": 870,
      "body": 871,
      "Ġtrue": 872,
      "ction": 873,
      "Ġsomewhere": 874,
      "Ġthough": 875,
      "Ġvisit": 876,
      "act": 877,
      "Ġru": 878,
      "Ġlost": 879,
      "Ġapp": 880,
      "Ġmemory": 881,
      "ward": 882,
      "Ġac": 883,
      "by": 884,
      "Ġbrings": 885,
      "Ġhelps": 886,
      "Ġhung": 887,
      "ible": 888,
      "Ġgreen": 889,
      "ty": 890,
      "Ġthought": 891,
      "Ġsim": 892,
      "Ġnobody": 893,
      "Ġmaking": 894,
      "Ġsofter": 895,
      "ning": 896,
      "Ġown": 897,
      "ity": 898,
      "Ġexact": 899,
      "Ġwish": 900,
      "Ġeverywhere": 901,
      "iz": 902,
      "cu": 903,
      "Ġnotic": 904,
      "Ġstays": 905,
      "Ġlast": 906,
      "Ġstrong": 907,
      "Ġvibrations": 908,
      "Ġgoes": 909,
      "Ġanyone": 910,
      "Ġeither": 911,
      "Ġsmile": 912,
      "Ġact": 913,
      "Ġaf": 914,
      "Ġreg": 915,
      "Ġinteresting": 916,
      "Ġstrange": 917,
      "Ġlear": 918,
      "Ġmovement": 919,
      "Ġwhile": 920,
      "ise": 921,
      "Ġfunn": 922,
      "Ġcircles": 923,
      "raid": 924,
      "Ġyoung": 925,
      "ace": 926,
      "Ġtea": 927,
      "Ġshadows": 928,
      "Ġafraid": 929,
      "Ġcorners": 930,
      "cri": 931,
      "Ġbet": 932,
      "Ġteach": 933,
      "so": 934,
      "Ġscary": 935,
      "Ġwiggle": 936,
      "Ġdescri": 937,
      "ever": 938,
      "Ġdescribe": 939,
      "ate": 940,
      "Ġonce": 941,
      "Ġtalking": 942,
      "Ġcares": 943,
      "Ġspeci": 944,
      "ably": 945,
      "Ġregret": 946,
      "Ġprobably": 947,
      "ature": 948,
      "Ġsoon": 949,
      "Ġalso": 950,
      "Ġdidn": 951,
      "vely": 952,
      "Ġinste": 953,
      "Ġtemp": 954,
      "Ġinstead": 955,
      "ious": 956,
      "Ġfar": 957,
      "Ġclose": 958,
      "Ġpa": 959,
      "Ġexactly": 960,
      "Ġspecial": 961,
      "Ġjud": 962,
      "Ġsimple": 963,
      "Ġlovely": 964,
      "Ġsl": 965,
      "Ġend": 966,
      "Ġgolden": 967,
      "Ġseconds": 968,
      "Ġmi": 969,
      "how": 970,
      "Ġdancing": 971,
      "Ġbreathing": 972,
      "Ġeasy": 973,
      "Ġsomehow": 974,
      "ier": 975,
      "Ġair": 976,
      "Ġcomp": 977,
      "Ġdance": 978,
      "oward": 979,
      "Ġones": 980,
      "Ġfunny": 981,
      "az": 982,
      "Ġten": 983,
      "Ġhappiness": 984,
      "Ġexc": 985,
      "Ġpati": 986,
      "Ġtoward": 987,
      "Ġpush": 988,
      "Ġtemper": 989,
      "Ġbit": 990,
      "Ġaren": 991,
      "Ġchance": 992,
      "Ġhuman": 993,
      "Ġless": 994,
      "Ġtemperature": 995,
      "Ġad": 996,
      "Ġmiss": 997,
      "Ġcall": 998,
      "co": 999,
      "Ġfail": 1000,
      "Ġbreathe": 1001,
      "gic": 1002,
      "Ġmou": 1003,
      "Ġwon": 1004,
      "Ġfear": 1005,
      "Ġhandle": 1006,
      "Ġforgiven": 1007,
      "ase": 1008,
      "ried": 1009,
      "Ġknows": 1010,
      "Ġmouth": 1011,
      "Ġhea": 1012,
      "Ġfeed": 1013,
      "Ġholding": 1014,
      "Ġturning": 1015,
      "Ġdeser": 1016,
      "pt": 1017,
      "Ġwarmer": 1018,
      "cks": 1019,
      "Ġgr": 1020,
      "Ġmagic": 1021,
      "Ġshap": 1022,
      "Ġheav": 1023,
      "Ġstran": 1024,
      "Ġgoodby": 1025,
      "Ġtast": 1026,
      "Ġconfu": 1027,
      "Ġexcit": 1028,
      "fter": 1029,
      "Ġafter": 1030,
      "Ġna": 1031,
      "Ġmind": 1032,
      "Ġfalling": 1033,
      "Ġmista": 1034,
      "Ġforward": 1035,
      "Ġdeep": 1036,
      "ize": 1037,
      "Ġpass": 1038,
      "we": 1039,
      "Ġstuck": 1040,
      "Ġwords": 1041,
      "Ġshapes": 1042,
      "Ġgoodbye": 1043,
      "Ġhad": 1044,
      "Ġcolors": 1045,
      "Ġfound": 1046,
      "Ġfil": 1047,
      "Ġhon": 1048,
      "Ġbecom": 1049,
      "Ġhungry": 1050,
      "oice": 1051,
      "Ġmeaning": 1052,
      "Ġsing": 1053,
      "Ġfilter": 1054,
      "Ġaw": 1055,
      "llow": 1056,
      "Ġlot": 1057,
      "Ġyet": 1058,
      "Ġcatch": 1059,
      "Ġbis": 1060,
      "Ġbiscu": 1061,
      "ro": 1062,
      "Ġwiggling": 1063,
      "Ġloud": 1064,
      "ween": 1065,
      "Ġfollow": 1066,
      "Ġspot": 1067,
      "Ġbetween": 1068,
      "Ġforgiveness": 1069,
      "ges": 1070,
      "Ġshi": 1071,
      "Ġcl": 1072,
      "Ġside": 1073,
      "Ġmoved": 1074,
      "orry": 1075,
      "Ġnoticing": 1076,
      "Ġsorry": 1077,
      "Ġle": 1078,
      "Ġshape": 1079,
      "able": 1080,
      "owly": 1081,
      "Ġchanging": 1082,
      "Ġheavy": 1083,
      "Ġhonest": 1084,
      "less": 1085,
      "ree": 1086,
      "Ġcurve": 1087,
      "Ġslowly": 1088,
      "Ġsurprise": 1089,
      "Ġcont": 1090,
      "Ġsen": 1091,
      "Ġlearn": 1092,
      "Ġlooked": 1093,
      "Ġneeds": 1094,
      "Ġpres": 1095,
      "ones": 1096,
      "Ġquick": 1097,
      "Ġothers": 1098,
      "Ġstranger": 1099,
      "Ġref": 1100,
      "Ġtake": 1101,
      "Ġmeeting": 1102,
      "Ġgu": 1103,
      "Ġmoments": 1104,
      "Ġreason": 1105,
      "Ġed": 1106,
      "ster": 1107,
      "our": 1108,
      "zy": 1109,
      "Ġits": 1110,
      "cept": 1111,
      "Ġrain": 1112,
      "pped": 1113,
      "Ġleave": 1114,
      "Ġawa": 1115,
      "mer": 1116,
      "eak": 1117,
      "Ġamaz": 1118,
      "Ġchanged": 1119,
      "Ġitself": 1120,
      "ick": 1121,
      "Ġstones": 1122,
      "Ġtail": 1123,
      "Ġseeing": 1124,
      "Ġtakes": 1125,
      "Ġbored": 1126,
      "Ġbrightness": 1127,
      "Ġemp": 1128,
      "Ġactually": 1129,
      "ost": 1130,
      "Ġmyster": 1131,
      "Ġasking": 1132,
      "Ġripp": 1133,
      "Ġfine": 1134,
      "Ġdarkness": 1135,
      "Ġcount": 1136,
      "Ġdisappo": 1137,
      "Ġflow": 1138,
      "Ġtru": 1139,
      "Ġexplo": 1140,
      "Ġappear": 1141,
      "Ġrem": 1142,
      "Ġask": 1143,
      "Ġgiving": 1144,
      "Ġmet": 1145,
      "Ġvisitor": 1146,
      "den": 1147,
      "Ġbrea": 1148,
      "lease": 1149,
      "Ġsaid": 1150,
      "yond": 1151,
      "Ġmess": 1152,
      "Ġbeyond": 1153,
      "Ġdire": 1154,
      "ne": 1155,
      "Ġpur": 1156,
      "Ġletting": 1157,
      "Ġtalk": 1158,
      "Ġposs": 1159,
      "ies": 1160,
      "Ġself": 1161,
      "Ġthese": 1162,
      "Ġsays": 1163,
      "Ġdisappoint": 1164,
      "rent": 1165,
      "Ġbigger": 1166,
      "Ġdeserve": 1167,
      "Ġawake": 1168,
      "Ġgrow": 1169,
      "Ġshift": 1170,
      "gest": 1171,
      "tely": 1172,
      "oring": 1173,
      "immer": 1174,
      "Ġach": 1175,
      "pping": 1176,
      "Ġhopeful": 1177,
      "sit": 1178,
      "Ġwhatever": 1179,
      "Ġtimes": 1180,
      "Ġgentl": 1181,
      "Ġim": 1182,
      "Ġsill": 1183,
      "oub": 1184,
      "Ġhi": 1185,
      "Ġjudge": 1186,
      "Ġatt": 1187,
      "ag": 1188,
      "Ġdisco": 1189,
      "Ġreach": 1190,
      "Ġempty": 1191,
      "Ġremind": 1192,
      "ture": 1193,
      "Ġkindly": 1194,
      "Ġfuture": 1195,
      "ip": 1196,
      "Ġliving": 1197,
      "ird": 1198,
      "Ġrocks": 1199,
      "Ġexplore": 1200,
      "Ġchoo": 1201,
      "ater": 1202,
      "ention": 1203,
      "Ġste": 1204,
      "Ġevening": 1205,
      "oy": 1206,
      "Ġcarry": 1207,
      "Ġtw": 1208,
      "Ġeating": 1209,
      "Ġluck": 1210,
      "iest": 1211,
      "Ġbreak": 1212,
      "Ġhide": 1213,
      "Ġbelong": 1214,
      "stant": 1215,
      "Ġcomf": 1216,
      "dden": 1217,
      "Ġplease": 1218,
      "Ġhaven": 1219,
      "Ġsudden": 1220,
      "Ġplay": 1221,
      "ky": 1222,
      "Ġgoodness": 1223,
      "ered": 1224,
      "Ġshar": 1225,
      "Ġsense": 1226,
      "ers": 1227,
      "Ġwake": 1228,
      "Ġrush": 1229,
      "Ġtastes": 1230,
      "sitive": 1231,
      "Ġgreat": 1232,
      "Ġonto": 1233,
      "Ġheld": 1234,
      "Ġcurrent": 1235,
      "Ġbecomes": 1236,
      "ert": 1237,
      "Ġloved": 1238,
      "Ġaccept": 1239,
      "most": 1240,
      "Ġremembering": 1241,
      "Ġadv": 1242,
      "Ġache": 1243,
      "ily": 1244,
      "Ġdoub": 1245,
      "Ġattention": 1246,
      "Ġes": 1247,
      "Ġalmost": 1248,
      "Ġpurp": 1249,
      "inning": 1250,
      "Ġnoise": 1251,
      "Ġsmell": 1252,
      "Ġleft": 1253,
      "Ġhaving": 1254,
      "Ġche": 1255,
      "Ġbelly": 1256,
      "Ġrefle": 1257,
      "os": 1258,
      "tten": 1259,
      "Ġsuch": 1260,
      "Ġspark": 1261,
      "Ġnoticed": 1262,
      "Ġusually": 1263,
      "Ġamazing": 1264,
      "Ġsilly": 1265,
      "ses": 1266,
      "ation": 1267,
      "Ġstu": 1268,
      "Ġdiscover": 1269,
      "Ġwent": 1270,
      "Ġdel": 1271,
      "Ġhands": 1272,
      "Ġpurpose": 1273,
      "Ġco": 1274,
      "Ġsadness": 1275,
      "Ġspace": 1276,
      "Ġsteady": 1277,
      "Ġang": 1278,
      "Ġmine": 1279,
      "Ġstre": 1280,
      "mm": 1281,
      "Ġwall": 1282,
      "Ġdifference": 1283,
      "Ġpresent": 1284,
      "Ġshimmer": 1285,
      "Ġslower": 1286,
      "ngth": 1287,
      "Ġroom": 1288,
      "Ġstrength": 1289,
      "Ġblue": 1290,
      "Ġset": 1291,
      "Ġfad": 1292,
      "Ġbeg": 1293,
      "Ġbump": 1294,
      "iding": 1295,
      "Ġsharp": 1296,
      "Ġbiggest": 1297,
      "Ġdirection": 1298,
      "Ġcomfort": 1299,
      "Ġdeal": 1300,
      "Ġweird": 1301,
      "Ġpatience": 1302,
      "Ġdoubt": 1303,
      "ides": 1304,
      "more": 1305,
      "ul": 1306,
      "Ġexcited": 1307,
      "Ġleaving": 1308,
      "Ġmistakes": 1309,
      "hy": 1310,
      "Ġanymore": 1311,
      "Ġcomple": 1312,
      "Ġpositive": 1313,
      "Ġripples": 1314,
      "lain": 1315,
      "Ġworried": 1316,
      "Ġrising": 1317,
      "Ġbiscuits": 1318,
      "ump": 1319,
      "Ġbro": 1320,
      "Ġshowing": 1321,
      "Ġlucky": 1322,
      "Ġworks": 1323,
      "Ġconfused": 1324,
      "Ġvoice": 1325,
      "ertain": 1326,
      "fin": 1327,
      "joy": 1328,
      "ries": 1329,
      "rage": 1330,
      "Ġenjoy": 1331,
      "Ġsleepy": 1332,
      "eness": 1333,
      "Ġglowing": 1334,
      "otten": 1335,
      "Ġforgotten": 1336,
      "Ġsleeping": 1337,
      "Ġcurves": 1338,
      "Ġchoose": 1339,
      "fer": 1340,
      "ance": 1341,
      "Ġtouches": 1342,
      "sy": 1343,
      "Ġquite": 1344,
      "Ġpatient": 1345,
      "Ġstuff": 1346,
      "Ġres": 1347,
      "Ġdarker": 1348,
      "Ġconstant": 1349,
      "Ġlonel": 1350,
      "pect": 1351,
      "Ġsto": 1352,
      "Ġstarting": 1353,
      "face": 1354,
      "led": 1355,
      "Ġunt": 1356,
      "Ġquest": 1357,
      "Ġquieter": 1358,
      "Ġsurface": 1359,
      "Ġcooler": 1360,
      "Ġsurprised": 1361,
      "ken": 1362,
      "ship": 1363,
      "Ġcourage": 1364,
      "Ġunc": 1365,
      "Ġeasier": 1366,
      "Ġloneliness": 1367,
      "am": 1368,
      "and": 1369,
      "Ġanywhere": 1370,
      "Ġgives": 1371,
      "Ġstops": 1372,
      "Ġdec": 1373,
      "Ġpun": 1374,
      "gn": 1375,
      "Ġwow": 1376,
      "Ġweak": 1377,
      "Ġfight": 1378,
      "Ġshows": 1379,
      "Ġuntil": 1380,
      "erg": 1381,
      "Ġear": 1382,
      "Ġenerg": 1383,
      "Ġcontent": 1384,
      "ath": 1385,
      "Ġbother": 1386,
      "Ġtells": 1387,
      "Ġhug": 1388,
      "Ġname": 1389,
      "Ġreflection": 1390,
      "Ġangry": 1391,
      "Ġap": 1392,
      "Ġpress": 1393,
      "Ġparts": 1394,
      "Ġlives": 1395,
      "Ġkindest": 1396,
      "Ġchances": 1397,
      "Ġedges": 1398,
      "Ġsink": 1399,
      "Ġfl": 1400,
      "Ġmovements": 1401,
      "Ġsingle": 1402,
      "Ġinv": 1403,
      "Ġsaw": 1404,
      "Ġgentleness": 1405,
      "Ġlau": 1406,
      "Ġstaying": 1407,
      "Ġwants": 1408,
      "Ġimag": 1409,
      "Ġbroken": 1410,
      "Ġboring": 1411,
      "Ġnic": 1412,
      "Ġgl": 1413,
      "Ġarri": 1414,
      "Ġdr": 1415,
      "Ġcaring": 1416,
      "Ġrise": 1417,
      "Ġfree": 1418,
      "Ġbend": 1419,
      "ility": 1420,
      "Ġhumming": 1421,
      "Ġlets": 1422,
      "ross": 1423,
      "Ġsees": 1424,
      "Ġshiny": 1425,
      "Ġlaugh": 1426,
      "Ġbeh": 1427,
      "Ġbusy": 1428,
      "Ġturned": 1429,
      "Ġ'": 1430,
      "Ġshe": 1431,
      "Ġdisappear": 1432,
      "Ġsuddenly": 1433,
      "atur": 1434,
      "Ġclos": 1435,
      "ustrat": 1436,
      "Ġfrustrat": 1437,
      "Ġtapping": 1438,
      "Ġexciting": 1439,
      "Ġimagine": 1440,
      "Ġbits": 1441,
      "Ġheal": 1442,
      "ect": 1443,
      "Ġpatter": 1444,
      "set": 1445,
      "Ġid": 1446,
      "Ġnatur": 1447,
      "oof": 1448,
      "Ġsoftly": 1449,
      "Ġdifferently": 1450,
      "Ġfeelings": 1451,
      "Ġdrifting": 1452,
      "Ġsett": 1453,
      "Ġcompletely": 1454,
      "light": 1455,
      "sw": 1456,
      "Ġtried": 1457,
      "oun": 1458,
      "Ġshine": 1459,
      "Ġwouldn": 1460,
      "Ġbrighter": 1461,
      "Ġtick": 1462,
      "Ġtruly": 1463,
      "Ġ-": 1464,
      "iling": 1465,
      "Ġfaster": 1466,
      "Ġmistake": 1467,
      "sol": 1468,
      "ten": 1469,
      "Ġtreat": 1470,
      "Ġboun": 1471,
      "Ġcircle": 1472,
      "Ġhumans": 1473,
      "Ġpain": 1474,
      "Ġyours": 1475,
      "Ġfriendship": 1476,
      "Ġcurved": 1477,
      "sp": 1478,
      "Ġga": 1479,
      "vers": 1480,
      "Ġanger": 1481,
      "Ġeasily": 1482,
      "Ġbehind": 1483,
      "Ġstory": 1484,
      "Ġansw": 1485,
      "Ġfaces": 1486,
      "Ġago": 1487,
      "Ġnotices": 1488,
      "Ġgrud": 1489,
      "Ġdelic": 1490,
      "sic": 1491,
      "Ġsit": 1492,
      "Ġsoftness": 1493,
      "time": 1494,
      "Ġagainst": 1495,
      "Ġdreaming": 1496,
      "Ġforgiving": 1497,
      "Ġconne": 1498,
      "Ġvibration": 1499,
      "Ġpossible": 1500,
      "Ġwis": 1501,
      "rely": 1502,
      "Ġhardest": 1503,
      "Ġshaking": 1504,
      "Ġplaces": 1505,
      "peci": 1506,
      "Ġcounts": 1507,
      "Ġespeci": 1508,
      "Ġenergy": 1509,
      "Ġespecially": 1510,
      "mble": 1511,
      "Ġchoice": 1512,
      "Ġcared": 1513,
      "Ġjokes": 1514,
      "Ġstopped": 1515,
      "Ġuncertain": 1516,
      "Ġidea": 1517,
      "Ġting": 1518,
      "Ġhiding": 1519,
      "Ġharder": 1520,
      "Ġhunger": 1521,
      "Ġlearning": 1522,
      "Ġjudg": 1523,
      "Ġmystery": 1524,
      "Ġdisappointment": 1525,
      "Ġnose": 1526,
      "Ġexplain": 1527,
      "Ġcozy": 1528,
      "Ġfi": 1529,
      "Ġbelieving": 1530,
      "ibility": 1531,
      "Ġshin": 1532,
      "Ġstru": 1533,
      "Ġtrusting": 1534,
      "olo": 1535,
      "Ġwondering": 1536,
      "Ġbelief": 1537,
      "Ġsinging": 1538,
      "Ġguess": 1539,
      "come": 1540,
      "Ġsil": 1541,
      "orm": 1542,
      "Ġneither": 1543,
      "Ġoptim": 1544,
      "Ġinvis": 1545,
      "olog": 1546,
      "Ġworking": 1547,
      "Ġtra": 1548,
      "Ġways": 1549,
      "Ġcast": 1550,
      "Ġmissing": 1551,
      "Ġapolog": 1552,
      "Ġinvisible": 1553,
      "Ġfre": 1554,
      "full": 1555,
      "Ġgifts": 1556,
      "Ġbiscuit": 1557,
      "Ġwalls": 1558,
      "Ġstrugg": 1559,
      "Ġtre": 1560,
      "Ġwel": 1561,
      "Ġlate": 1562,
      "Ġeff": 1563,
      "Ġsmiling": 1564,
      "Ġremembers": 1565,
      "Ġbarely": 1566,
      "Ġcompany": 1567,
      "Ġadvice": 1568,
      "Ġfading": 1569,
      "he": 1570,
      "Ġsky": 1571,
      "Ġoff": 1572,
      "Ġoften": 1573,
      "Ġdays": 1574,
      "Ġpebb": 1575,
      "Ġstarts": 1576,
      "istic": 1577,
      "fully": 1578,
      "ner": 1579,
      "Ġwet": 1580,
      "Ġsize": 1581,
      "Ġhits": 1582,
      "Ġwhis": 1583,
      "Ġsmart": 1584,
      "cted": 1585,
      "Ġstarted": 1586,
      "Ġendless": 1587,
      "Ġlots": 1588,
      "Ġedge": 1589,
      "oss": 1590,
      "Ġscare": 1591,
      "Ġcloud": 1592,
      "Ġflows": 1593,
      "Ġeffort": 1594,
      "age": 1595,
      "erv": 1596,
      "ated": 1597,
      "Ġfit": 1598,
      "Ġstar": 1599,
      "Ġlighter": 1600,
      "Ġacross": 1601,
      "Ġhonestly": 1602,
      "are": 1603,
      "dom": 1604,
      "stic": 1605,
      "Ġwast": 1606,
      "Ġswe": 1607,
      "Ġstillness": 1608,
      "Ġplastic": 1609,
      "ved": 1610,
      "Ġneeded": 1611,
      "Ġmusic": 1612,
      "Ġleaves": 1613,
      "Ġthoughts": 1614,
      "Ġgreatest": 1615,
      "Ġcomfortable": 1616,
      "Ġfrustrated": 1617,
      "Ġcastle": 1618,
      "Ġour": 1619,
      "Ġlater": 1620,
      "Ġcra": 1621,
      "Ġlim": 1622,
      "Ġpure": 1623,
      "Ġreco": 1624,
      "Ġsunlight": 1625,
      "Ġfix": 1626,
      "ower": 1627,
      "Ġbecome": 1628,
      "Ġexpect": 1629,
      "Ġrun": 1630,
      "Ġsn": 1631,
      "eared": 1632,
      "Ġsupp": 1633,
      "Ġglows": 1634,
      "Ġmysterious": 1635,
      "Ġbeginning": 1636,
      "Ġwisdom": 1637,
      "Ġoptimistic": 1638,
      "Ġwelcome": 1639,
      "Ġsweet": 1640,
      "ild": 1641,
      "Ġthick": 1642,
      "Ġcreat": 1643,
      "Ġperfectly": 1644,
      "Ġdefin": 1645,
      "Ġfills": 1646,
      "Ġjump": 1647,
      "Ġdone": 1648,
      "Ġwaking": 1649,
      "Ġplan": 1650,
      "Ġbrain": 1651,
      "Ġprefer": 1652,
      "Ġteaches": 1653,
      "Ġtwo": 1654,
      "Ġrecogn": 1655,
      "Ġz": 1656,
      "ude": 1657,
      "Ġfailure": 1658,
      "Ġcloser": 1659,
      "ps": 1660,
      "Ġter": 1661,
      "cking": 1662,
      "Ġsaf": 1663,
      "Ġdist": 1664,
      "Ġprom": 1665,
      "Ġcarries": 1666,
      "Ġfighting": 1667,
      "Ġdefinit": 1668,
      "ha": 1669,
      "oudy": 1670,
      "Ġpay": 1671,
      "ili": 1672,
      "Ġspeak": 1673,
      "Ġprot": 1674,
      "Ġcloudy": 1675,
      "sure": 1676,
      "Ġage": 1677,
      "Ġsides": 1678,
      "read": 1679,
      "Ġwanting": 1680,
      "Ġfinds": 1681,
      "Ġpull": 1682,
      "Ġimposs": 1683,
      "Ġtruth": 1684,
      "Ġnatural": 1685,
      "Ġanswer": 1686,
      "Ġmir": 1687,
      "Ġopp": 1688,
      "Ġabsol": 1689,
      "Ġfam": 1690,
      "Ġsurprises": 1691,
      "Ġfalls": 1692,
      "Ġtouching": 1693,
      "Ġpasses": 1694,
      "Ġpossibility": 1695,
      "Ġbends": 1696,
      "Ġabsolu": 1697,
      "Ġblo": 1698,
      "Ġhmm": 1699,
      "Ġkinder": 1700,
      "Ġconfusing": 1701,
      "Ġstrangers": 1702,
      "Ġimpossible": 1703,
      "ca": 1704,
      "Ġnerv": 1705,
      "arch": 1706,
      "enty": 1707,
      "Ġhead": 1708,
      "Ġplenty": 1709,
      "Ġshakes": 1710,
      "Ġnearby": 1711,
      "Ġunk": 1712,
      "head": 1713,
      "Ġpebbles": 1714,
      "Ġnervous": 1715,
      "Ġph": 1716,
      "Ġsearch": 1717,
      "Ġremembered": 1718,
      "ices": 1719,
      "Ġbelieves": 1720,
      "Ġused": 1721,
      "Ġolder": 1722,
      "Ġpushing": 1723,
      "Ġbecoming": 1724,
      "Ġcatches": 1725,
      "Ġreminds": 1726,
      "Ġsparkles": 1727,
      "Ġquestion": 1728,
      "Ġdelicious": 1729,
      "Ġterri": 1730,
      "Ġabsolutely": 1731,
      "oices": 1732,
      "thm": 1733,
      "ident": 1734,
      "Ġum": 1735,
      "Ġsmaller": 1736,
      "Ġcheer": 1737,
      "hythm": 1738,
      "Ġgave": 1739,
      "ew": 1740,
      "fast": 1741,
      "pl": 1742,
      "Ġmeant": 1743,
      "oot": 1744,
      "Ġnowhere": 1745,
      "Ġrhythm": 1746,
      "Ġloves": 1747,
      "Ġtaking": 1748,
      "Ġexha": 1749,
      "Ġspread": 1750,
      "Ġshare": 1751,
      "Ġbreakfast": 1752,
      "Ġprotect": 1753,
      "Ġexhaust": 1754,
      "brat": 1755,
      "ebrat": 1756,
      "ilo": 1757,
      "sop": 1758,
      "ut": 1759,
      "Ġcel": 1760,
      "Ġscar": 1761,
      "Ġregrets": 1762,
      "Ġlearned": 1763,
      "Ġpattern": 1764,
      "Ġwhisp": 1765,
      "Ġdefinitely": 1766,
      "Ġphilo": 1767,
      "Ġcelebrat": 1768,
      "Ġphilosop": 1769,
      "cy": 1770,
      "night": 1771,
      "ru": 1772,
      "ations": 1773,
      "lax": 1774,
      "Ġrelax": 1775,
      "Ġtrapp": 1776,
      "Ġpatch": 1777,
      "Ġquickly": 1778,
      "Ġappears": 1779,
      "cess": 1780,
      "eri": 1781,
      "Ġlikes": 1782,
      "ang": 1783,
      "Ġblur": 1784,
      "Ġgrudges": 1785,
      "Ġfreed": 1786,
      "cked": 1787,
      "Ġsong": 1788,
      "Ġtold": 1789,
      "Ġwal": 1790,
      "ures": 1791,
      "eps": 1792,
      "Ġexperi": 1793,
      "Ġfocu": 1794,
      "Ġshifts": 1795,
      "Ġdiscovering": 1796,
      "Ġtremb": 1797,
      "Ġrecognize": 1798,
      "Ġtrapped": 1799,
      "Ġfreedom": 1800,
      "zzy": 1801,
      "ont": 1802,
      "Ġupset": 1803,
      "Ġwasn": 1804,
      "Ġkeeping": 1805,
      "Ġwanted": 1806,
      "Ġproof": 1807,
      "Ġlonger": 1808,
      "Ġstronger": 1809,
      "osity": 1810,
      "Ġflu": 1811,
      "Ġmad": 1812,
      "Ġworst": 1813,
      "Ġfront": 1814,
      "Ġgrace": 1815,
      "Ġsmells": 1816,
      "iliar": 1817,
      "Ġwin": 1818,
      "reci": 1819,
      "Ġpower": 1820,
      "Ġkno": 1821,
      "Ġknew": 1822,
      "Ġswam": 1823,
      "Ġlose": 1824,
      "Ġfloats": 1825,
      "Ġhurts": 1826,
      "Ġsurprising": 1827,
      "Ġfog": 1828,
      "Ġappreci": 1829,
      "osite": 1830,
      "Ġstruggling": 1831,
      "Ġopposite": 1832,
      "Ġphilosophy": 1833,
      "Ġwise": 1834,
      "Ġlaz": 1835,
      "Ġbrought": 1836,
      "Ġcuriosity": 1837,
      "Ġpresence": 1838,
      "ories": 1839,
      "Ġfew": 1840,
      "Ġwarmest": 1841,
      "Ġshort": 1842,
      "Ġwhoever": 1843,
      "Ġtelling": 1844,
      "Ġhurting": 1845,
      "Ġtouched": 1846,
      "Ġfeeds": 1847,
      "Ġdeserves": 1848,
      "Ġpromise": 1849,
      "Ġpret": 1850,
      "Ġcha": 1851,
      "Ġlosing": 1852,
      "Ġwoke": 1853,
      "shine": 1854,
      "Ġfinding": 1855,
      "Ġsunshine": 1856,
      "Ġacc": 1857,
      "Ġsna": 1858,
      "de": 1859,
      "ress": 1860,
      "Ġtu": 1861,
      "Ġchase": 1862,
      "Ġhoping": 1863,
      "Ġwiggles": 1864,
      "Ġvisitors": 1865,
      "Ġpressure": 1866,
      "Ġuncertainty": 1867,
      "sel": 1868,
      "water": 1869,
      "Ġwind": 1870,
      "Ġdim": 1871,
      "Ġheard": 1872,
      "Ġput": 1873,
      "Ġesca": 1874,
      "sion": 1875,
      "ĠâĢĶ": 1876,
      "Ġpie": 1877,
      "Ġmot": 1878,
      "Ġexpl": 1879,
      "Ġplaying": 1880,
      "Ġpretend": 1881,
      "tra": 1882,
      "Ġahead": 1883,
      "Ġser": 1884,
      "ating": 1885,
      "Ġbuild": 1886,
      "ook": 1887,
      "Ġsol": 1888,
      "Ġexperience": 1889,
      "ek": 1890,
      "Ġwra": 1891,
      "Ġcop": 1892,
      "Ġwherever": 1893,
      "Ġfriendly": 1894,
      "Ġbegin": 1895,
      "Ġfamiliar": 1896,
      "Ġflutter": 1897,
      "selves": 1898,
      "iv": 1899,
      "ire": 1900,
      "Ġfill": 1901,
      "Ġfoot": 1902,
      "Ġpop": 1903,
      "itude": 1904,
      "Ġwaves": 1905,
      "Ġboom": 1906,
      "Ġextra": 1907,
      "Ġturns": 1908,
      "Ġleast": 1909,
      "Ġexists": 1910,
      "Ġselfish": 1911,
      "Ġyouth": 1912,
      "steps": 1913,
      "Ġuse": 1914,
      "Ġspinning": 1915,
      "cious": 1916,
      "Ġstrongest": 1917,
      "Ġsilence": 1918,
      "Ġscares": 1919,
      "Ġlazy": 1920,
      "Ġescape": 1921,
      "Ġfootsteps": 1922,
      "um": 1923,
      "Ġtight": 1924,
      "Ġfade": 1925,
      "Ġdro": 1926,
      "Ġfake": 1927,
      "Ġwatched": 1928,
      "Ġmeal": 1929,
      "aught": 1930,
      "Ġthemselves": 1931,
      "Ġsuc": 1932,
      "Ġasked": 1933,
      "gging": 1934,
      "Ġpushes": 1935,
      "Ġmagical": 1936,
      "Ġcontr": 1937,
      "Ġgrowing": 1938,
      "Ġadvent": 1939,
      "Ġquestions": 1940,
      "Ġexploring": 1941,
      "cle": 1942,
      "round": 1943,
      "Ġmur": 1944,
      "Ġbound": 1945,
      "Ġgen": 1946,
      "icul": 1947,
      "Ġvoices": 1948,
      "Ġbeauty": 1949,
      "Ġhelping": 1950,
      "Ġconf": 1951,
      "Ġpath": 1952,
      "Ġends": 1953,
      "Ġnaive": 1954,
      "Ġcontrol": 1955,
      "Ġflavor": 1956,
      "Ġblan": 1957,
      "ather": 1958,
      "Ġlimit": 1959,
      "ach": 1960,
      "te": 1961,
      "ush": 1962,
      "Ġnorm": 1963,
      "lem": 1964,
      "Ġfed": 1965,
      "essed": 1966,
      "Ġwatches": 1967,
      "Ġproblem": 1968,
      "Ġhigh": 1969,
      "Ġdrop": 1970,
      "Ġmira": 1971,
      "ble": 1972,
      "Ġdart": 1973,
      "Ġhuge": 1974,
      "Ġshake": 1975,
      "Ġfeeding": 1976,
      "Ġweakness": 1977,
      "Ġjudgment": 1978,
      "Ġapologize": 1979,
      "Ġknock": 1980,
      "Ġwindow": 1981,
      "Ġadventure": 1982,
      "thy": 1983,
      "Ġloss": 1984,
      "Ġweight": 1985,
      "Ġproud": 1986,
      "Ġgratitude": 1987,
      "Ġcompl": 1988,
      "Ġshines": 1989,
      "Ġaccident": 1990,
      "Ġnormal": 1991,
      "resh": 1992,
      "turn": 1993,
      "Ġmat": 1994,
      "Ġhit": 1995,
      "Ġhour": 1996,
      "Ġcri": 1997,
      "Ġate": 1998,
      "ctions": 1999,
      "Ġclearly": 2000,
      "Ġpassed": 2001,
      "Ġrefresh": 2002,
      "Ġfades": 2003,
      "Ġserious": 2004,
      "Ġlu": 2005,
      "Ġswims": 2006,
      "Ġcouldn": 2007,
      "Ġsurv": 2008,
      "Ġtaps": 2009,
      "Ġflowing": 2010,
      "Ġtwice": 2011,
      "Ġconstantly": 2012,
      "Ġrunning": 2013,
      "Ġzo": 2014,
      "Ġappreciate": 2015,
      "li": 2016,
      "Ġhumble": 2017,
      "Ġfully": 2018,
      "Ġgray": 2019,
      "Ġrushing": 2020,
      "Ġsuccess": 2021,
      "Ġmurky": 2022,
      "ith": 2023,
      "osed": 2024,
      "Ġstone": 2025,
      "Ġreturn": 2026,
      "Ġbackward": 2027,
      "Ġdances": 2028,
      "Ġyounger": 2029,
      ".'": 2030,
      "Ġbal": 2031,
      "Ġwhe": 2032,
      "Ġev": 2033,
      "Ġpri": 2034,
      "lash": 2035,
      "Ġred": 2036,
      "Ġsplash": 2037,
      "Ġguil": 2038,
      "Ġnicer": 2039,
      "Ġent": 2040,
      "ket": 2041,
      "Ġwhenever": 2042,
      "Ġspin": 2043,
      "Ġwiggly": 2044,
      "Ġsecrets": 2045,
      "Ġfogg": 2046,
      "Ġbitter": 2047,
      "Ġadd": 2048,
      "Ġfocus": 2049,
      "Ġzoom": 2050,
      "not": 2051,
      "Ġsch": 2052,
      "Ġhate": 2053,
      "Ġeye": 2054,
      "Ġprecious": 2055,
      "Ġshowed": 2056,
      "Ġmemories": 2057,
      "ized": 2058,
      "Ġdistra": 2059,
      "Ġchasing": 2060,
      "nown": 2061,
      "Ġpink": 2062,
      "Ġwear": 2063,
      "Ġweek": 2064,
      "Ġperm": 2065,
      "Ġunderstands": 2066,
      "Ġlived": 2067,
      "Ġcomplain": 2068,
      "Ġcalling": 2069,
      "Ġdeeper": 2070,
      "Ġspots": 2071,
      "Ġamazed": 2072,
      "Ġtravel": 2073,
      "Ġterrible": 2074,
      "Ġblurry": 2075,
      "Ġbalance": 2076,
      "igh": 2077,
      "rse": 2078,
      "well": 2079,
      "ĠI": 2080,
      "Ġwarms": 2081,
      "Ġwaste": 2082,
      "Ġfaith": 2083,
      "icated": 2084,
      "Ġcourse": 2085,
      "Ġinterested": 2086,
      "Ġfollowing": 2087,
      "Ġearl": 2088,
      "Ġunknown": 2089,
      "Ġsurvive": 2090,
      "med": 2091,
      "Ġthree": 2092,
      "Ġbri": 2093,
      "Ġhot": 2094,
      "Ġstret": 2095,
      "Ġhappiest": 2096,
      "Ġasleep": 2097,
      "Ġvibrating": 2098,
      "Ġspeed": 2099,
      "Ġfailing": 2100,
      "Ġshifted": 2101,
      "Ġconnected": 2102,
      "Ġwasted": 2103,
      "Ġblanket": 2104,
      "Ġstretch": 2105,
      "us": 2106,
      "Ġdep": 2107,
      "Ġinc": 2108,
      "Ġsettle": 2109,
      "Ġtingly": 2110,
      "Ġsupposed": 2111,
      "Ġcheerful": 2112,
      "Ġpieces": 2113,
      "oh": 2114,
      "Ġtrea": 2115,
      "Ġmood": 2116,
      "ings": 2117,
      "ety": 2118,
      "Ġalong": 2119,
      "Ġwave": 2120,
      "Ġworries": 2121,
      "Ġvul": 2122,
      "Ġdef": 2123,
      "Ġthankful": 2124,
      "Ġdisappeared": 2125,
      "Ġvisiting": 2126,
      "Ġstaring": 2127,
      "Ġmiracle": 2128,
      "Ġevent": 2129,
      "Ġschool": 2130,
      "Ġvulner": 2131,
      "ient": 2132,
      "tered": 2133,
      "inner": 2134,
      "Ġcry": 2135,
      "Ġcru": 2136,
      "eless": 2137,
      "Ġstra": 2138,
      "Ġswir": 2139,
      "Ġbrightest": 2140,
      "Ġslows": 2141,
      "Ġsurround": 2142,
      "Ġunderstanding": 2143,
      "Ġthanks": 2144,
      "Ġripple": 2145,
      "Ġreaches": 2146,
      "Ġwasting": 2147,
      "Ġmotion": 2148,
      "Ġsolid": 2149,
      "Ġwhether": 2150,
      "Ġstraight": 2151,
      "du": 2152,
      "ied": 2153,
      "isten": 2154,
      "ks": 2155,
      "umb": 2156,
      "Ġfing": 2157,
      "Ġfly": 2158,
      "Ġhar": 2159,
      "Ġfact": 2160,
      "Ġvisible": 2161,
      "Ġgreet": 2162,
      "Ġappeared": 2163,
      "Ġmessed": 2164,
      "Ġarrive": 2165,
      "Ġclouds": 2166,
      "Ġharsh": 2167,
      "no": 2168,
      "that": 2169,
      "Ġinfin": 2170,
      "Ġhappier": 2171,
      "Ġexcept": 2172,
      "Ġdaytime": 2173,
      "Ġpointless": 2174,
      "Ġexisting": 2175,
      "Ġmix": 2176,
      "Ġcompare": 2177,
      "Ġgentler": 2178,
      "Ġshining": 2179,
      "Ġsafest": 2180,
      "Ġsearching": 2181,
      "Ġcomplicated": 2182,
      "Ġfoggy": 2183,
      "Ġeventually": 2184,
      "ef": 2185,
      "ual": 2186,
      "vest": 2187,
      "Ġwhite": 2188,
      "ens": 2189,
      "Ġdoor": 2190,
      "Ġoce": 2191,
      "Ġsea": 2192,
      "Ġrestless": 2193,
      "Ġspend": 2194,
      "Ġdreamy": 2195,
      "Ġbravest": 2196,
      "Ġlistens": 2197,
      "Ġconvers": 2198,
      "Ġchoosing": 2199,
      "Ġresp": 2200,
      "Ġocean": 2201,
      "asure": 2202,
      "fied": 2203,
      "nch": 2204,
      "ray": 2205,
      "Ġda": 2206,
      "Ġdinner": 2207,
      "Ġknown": 2208,
      "Ġrout": 2209,
      "Ġanx": 2210,
      "Ġcomm": 2211,
      "Ġdig": 2212,
      "ign": 2213,
      "Ġbelow": 2214,
      "Ġrock": 2215,
      "mmy": 2216,
      "Ġnicest": 2217,
      "Ġspreads": 2218,
      "Ġcope": 2219,
      "Ġdropped": 2220,
      "Ġhours": 2221,
      "you": 2222,
      "owed": 2223,
      "Ġemb": 2224,
      "Ġstick": 2225,
      "Ġlights": 2226,
      "Ġshook": 2227,
      "Ġloop": 2228,
      "Ġgoodnight": 2229,
      "Ġsafer": 2230,
      "ract": 2231,
      "Ġfloated": 2232,
      "Ġkindnesses": 2233,
      "Ġfinally": 2234,
      "Ġhey": 2235,
      "Ġworrying": 2236,
      "Ġbetray": 2237,
      "Ġdecide": 2238,
      "Ġstars": 2239,
      "Ġexhausted": 2240,
      "Ġtri": 2241,
      "Ġthump": 2242,
      "Ġyear": 2243,
      "Ġshy": 2244,
      "uring": 2245,
      "Ġann": 2246,
      "ream": 2247,
      "Ġval": 2248,
      "Ġbrush": 2249,
      "Ġtasty": 2250,
      "Ġdirections": 2251,
      "Ġdisappointed": 2252,
      "Ġbounce": 2253,
      "Ġpatterns": 2254,
      "Ġdistracted": 2255,
      "gen": 2256,
      "Ġfig": 2257,
      "Ġher": 2258,
      "Ġooh": 2259,
      "the": 2260,
      "Ġpract": 2261,
      "ons": 2262,
      "Ġinsp": 2263,
      "Ġrel": 2264,
      "Ġswish": 2265,
      "Ġsuffer": 2266,
      "Ġfuzzy": 2267,
      "Ġsunset": 2268,
      "Ġopening": 2269,
      "Ġground": 2270,
      "Ġreasons": 2271,
      "Ġdelight": 2272,
      "Ġarrived": 2273,
      "Ġblocking": 2274,
      "Ġpretending": 2275,
      "Ġmattered": 2276,
      "Ġearlier": 2277,
      "Ġinfinite": 2278,
      "Ġannoy": 2279,
      "iles": 2280,
      "wh": 2281,
      "Ġign": 2282,
      "atic": 2283,
      "ately": 2284,
      "Ġmin": 2285,
      "Ġland": 2286,
      "Ġmeasure": 2287,
      "Ġstand": 2288,
      "Ġcannot": 2289,
      "beat": 2290,
      "Ġthinks": 2291,
      "Ġwash": 2292,
      "igg": 2293,
      "Ġvie": 2294,
      "Ġrumble": 2295,
      "Ġpassing": 2296,
      "Ġcarrying": 2297,
      "Ġglide": 2298,
      "Ġconnection": 2299,
      "Ġcreature": 2300,
      "Ġsafety": 2301,
      "Ġwhispers": 2302,
      "Ġwalking": 2303,
      "Ġview": 2304,
      "ze": 2305,
      "ouse": 2306,
      "Ġfive": 2307,
      "Ġhouse": 2308,
      "Ġjour": 2309,
      "Ġrather": 2310,
      "Ġsmiles": 2311,
      "Ġaging": 2312,
      "Ġquietly": 2313,
      "Ġcons": 2314,
      "Ġcolder": 2315,
      "Ġhasn": 2316,
      "Ġappro": 2317,
      "ney": 2318,
      "Ġreaching": 2319,
      "Ġsparkle": 2320,
      "Ġwhisper": 2321,
      "Ġflying": 2322,
      "Ġminut": 2323,
      "Ġjourney": 2324,
      "xy": 2325,
      "Ġsin": 2326,
      "Ġoxy": 2327,
      "Ġworse": 2328,
      "Ġrough": 2329,
      "Ġallowed": 2330,
      "Ġloving": 2331,
      "Ġdizzy": 2332,
      "Ġrested": 2333,
      "Ġrid": 2334,
      "Ġris": 2335,
      "Ġheartbeat": 2336,
      "Ġuni": 2337,
      "Ġhearing": 2338,
      "Ġadm": 2339,
      "Ġcheck": 2340,
      "Ġstopping": 2341,
      "Ġearn": 2342,
      "Ġswirl": 2343,
      "Ġconversation": 2344,
      "Ġoxygen": 2345,
      "Ġ*": 2346,
      "Ġbla": 2347,
      "Ġfan": 2348,
      "Ġfell": 2349,
      "Ġduring": 2350,
      "Ġob": 2351,
      "Ġgoof": 2352,
      "Ġrepe": 2353,
      "Ġscore": 2354,
      "Ġclearer": 2355,
      "Ġhearts": 2356,
      "Ġfunniest": 2357,
      "Ġstrangest": 2358,
      "Ġtasted": 2359,
      "Ġshivers": 2360,
      "Ġtickles": 2361,
      "Ġgrudge": 2362,
      "Ġtingle": 2363,
      "Ġcrazy": 2364,
      "Ġroutine": 2365,
      "Ġyears": 2366,
      "icks": 2367,
      "just": 2368,
      "Ġdir": 2369,
      "aries": 2370,
      "Ġstep": 2371,
      "Ġrej": 2372,
      "Ġtapped": 2373,
      "Ġsmallest": 2374,
      "Ġbraver": 2375,
      "Ġcareful": 2376,
      "Ġjoyful": 2377,
      "Ġbringing": 2378,
      "Ġcleaned": 2379,
      "Ġraining": 2380,
      "ledge": 2381,
      "Ġcreatures": 2382,
      "Ġpaying": 2383,
      "Ġcelebrating": 2384,
      "Ġsnack": 2385,
      "Ġbegins": 2386,
      "Ġproblems": 2387,
      "Ġvulnerable": 2388,
      "Ġdaily": 2389,
      "Ġanxious": 2390,
      "Ġass": 2391,
      "Ġyea": 2392,
      "Ġbed": 2393,
      "Ġpause": 2394,
      "Ġinstant": 2395,
      "Ġwide": 2396,
      "itter": 2397,
      "bble": 2398,
      "Ġvisits": 2399,
      "Ġnighttime": 2400,
      "Ġending": 2401,
      "Ġappearing": 2402,
      "Ġapart": 2403,
      "Ġnaturally": 2404,
      "Ġbounces": 2405,
      "Ġunkind": 2406,
      "play": 2407,
      "Ġexhausting": 2408,
      "Ġboundaries": 2409,
      "Ġcrisp": 2410,
      "Ġsince": 2411,
      "Ġyeah": 2412,
      "ga": 2413,
      "pting": 2414,
      "inting": 2415,
      "Ġsk": 2416,
      "Ġfur": 2417,
      "Ġcr": 2418,
      "ank": 2419,
      "Ġwarming": 2420,
      "ids": 2421,
      "Ġfare": 2422,
      "tern": 2423,
      "Ġtook": 2424,
      "ical": 2425,
      "Ġrealize": 2426,
      "ousand": 2427,
      "Ġclever": 2428,
      "Ġbravery": 2429,
      "Ġunderne": 2430,
      "Ġworthy": 2431,
      "Ġmissed": 2432,
      "Ġforgives": 2433,
      "Ġblink": 2434,
      "iled": 2435,
      "Ġsimpl": 2436,
      "Ġchecking": 2437,
      "Ġhealthy": 2438,
      "Ġsettles": 2439,
      "Ġtickle": 2440,
      "Ġtreats": 2441,
      "Ġlimits": 2442,
      "Ġtrembles": 2443,
      "Ġmixed": 2444,
      "Ġpractice": 2445,
      "Ġunderneath": 2446,
      "par": 2447,
      "ume": 2448,
      "ying": 2449,
      "Ġwer": 2450,
      "Ġsqu": 2451,
      "Ġni": 2452,
      "Ġnumb": 2453,
      "Ġcost": 2454,
      "Ġcaught": 2455,
      "arity": 2456,
      "Ġreplay": 2457,
      "Ġneat": 2458,
      "Ġsepar": 2459,
      "Ġwaving": 2460,
      "ality": 2461,
      "Ġforgets": 2462,
      "ilar": 2463,
      "Ġcurse": 2464,
      "Ġunf": 2465,
      "Ġclarity": 2466,
      "Ġshifting": 2467,
      "Ġcomplete": 2468,
      "Ġdecor": 2469,
      "Ġsinking": 2470,
      "Ġnicely": 2471,
      "Ġjumped": 2472,
      "Ġwraps": 2473,
      "Ġannoying": 2474,
      "Ġdirty": 2475,
      "Ġweren": 2476,
      "gress": 2477,
      "Ġthin": 2478,
      "Ġbes": 2479,
      "Ġyell": 2480,
      "Ġcross": 2481,
      "oosh": 2482,
      "Ġstream": 2483,
      "Ġknowledge": 2484,
      "ition": 2485,
      "ctive": 2486,
      "Ġforgetful": 2487,
      "Ġupside": 2488,
      "Ġdanger": 2489,
      "Ġdisag": 2490,
      "Ġprodu": 2491,
      "Ġrumb": 2492,
      "Ġbreaks": 2493,
      "Ġdelicate": 2494,
      "Ġfilled": 2495,
      "Ġguilty": 2496,
      "Ġdepend": 2497,
      "Ġtreasure": 2498,
      "Ġinspire": 2499,
      "Ġsuffering": 2500,
      "Ġapproach": 2501,
      "ap": 2502,
      "Ġtaught": 2503,
      "Ġthousand": 2504,
      "Ġsoo": 2505,
      "Ġsway": 2506,
      "Ġsign": 2507,
      "Ġborn": 2508,
      "stood": 2509,
      "ors": 2510,
      "orting": 2511,
      "Ġtonight": 2512,
      "verse": 2513,
      "Ġpi": 2514,
      "cepting": 2515,
      "Ġtran": 2516,
      "Ġfailed": 2517,
      "Ġdiff": 2518,
      "Ġneeding": 2519,
      "Ġheat": 2520,
      "Ġhumor": 2521,
      "Ġdissol": 2522,
      "Ġactive": 2523,
      "Ġdeepest": 2524,
      "Ġcatching": 2525,
      "Ġsparkly": 2526,
      "Ġgenu": 2527,
      "icult": 2528,
      "Ġbackwards": 2529,
      "Ġfancy": 2530,
      "Ġsoothing": 2531,
      "Ġdifficult": 2532,
      "?!": 2533,
      "line": 2534,
      "Ġsits": 2535,
      "Ġyu": 2536,
      "Ġdet": 2537,
      "Ġlang": 2538,
      "Ġho": 2539,
      "lea": 2540,
      "Ġbud": 2541,
      "Ġrep": 2542,
      "Ġbowls": 2543,
      "Ġchose": 2544,
      "Ġfair": 2545,
      "Ġbeautifully": 2546,
      "Ġstress": 2547,
      "Ġstressed": 2548,
      "Ġcorny": 2549,
      "Ġcolorful": 2550,
      "Ġtext": 2551,
      "Ġaccepting": 2552,
      "Ġconfusion": 2553,
      "Ġdeeply": 2554,
      "Ġhadn": 2555,
      "Ġsideways": 2556,
      "Ġcontentment": 2557,
      "Ġarrives": 2558,
      "Ġgame": 2559,
      "Ġtrack": 2560,
      "Ġdefine": 2561,
      "Ġsurrounded": 2562,
      "istence": 2563,
      "Ġdisagree": 2564,
      "Ġlangu": 2565,
      "ame": 2566,
      "ial": 2567,
      "ĠW": 2568,
      "Ġfits": 2569,
      "Ġdry": 2570,
      "Ġcy": 2571,
      "Ġcertain": 2572,
      "Ġequ": 2573,
      "Ġtot": 2574,
      "Ġhal": 2575,
      "Ġneigh": 2576,
      "Ġalga": 2577,
      "als": 2578,
      "Ġsoftest": 2579,
      "Ġfloaty": 2580,
      "Ġstayed": 2581,
      "Ġgiven": 2582,
      "Ġbelieved": 2583,
      "Ġoverwh": 2584,
      "Ġheavier": 2585,
      "Ġfollows": 2586,
      "Ġgrows": 2587,
      "Ġenjoying": 2588,
      "Ġjudging": 2589,
      "Ġblocked": 2590,
      "Ġtrick": 2591,
      "Ġfigure": 2592,
      "Ġfarewell": 2593,
      "Ġnibble": 2594,
      "Ġyummy": 2595,
      "Ġlanguage": 2596,
      "Ġneighb": 2597,
      "Ġalgae": 2598,
      "Ġoverwhel": 2599,
      "vo": 2600,
      "zing": 2601,
      "Ġhilar": 2602,
      "Ġbeat": 2603,
      "Ġpick": 2604,
      "ission": 2605,
      "Ġrec": 2606,
      "Ġfloor": 2607,
      "Ġbecame": 2608,
      "Ġrests": 2609,
      "Ġscale": 2610,
      "Ġunderwater": 2611,
      "Ġrises": 2612,
      "Ġimpat": 2613,
      "Ġpointy": 2614,
      "Ġprogress": 2615,
      "Ġlasts": 2616,
      "Ġsmiled": 2617,
      "Ġnap": 2618,
      "Ġlouder": 2619,
      "Ġsitting": 2620,
      "Ġtrembling": 2621,
      "Ġwrapped": 2622,
      "Ġboundary": 2623,
      "iculous": 2624,
      "Ġbrief": 2625,
      "Ġembra": 2626,
      "Ġridiculous": 2627,
      "Ġuniverse": 2628,
      "Ġgoofy": 2629,
      "Ġhalf": 2630,
      "Ġhilarious": 2631,
      "mes": 2632,
      "vy": 2633,
      "wor": 2634,
      "Ġtank": 2635,
      "Ġsal": 2636,
      "Ġfool": 2637,
      "Ġline": 2638,
      "Ġhm": 2639,
      "Ġpan": 2640,
      "Ġpitter": 2641,
      "ism": 2642,
      "Ġsend": 2643,
      "eaking": 2644,
      "Ġspeaking": 2645,
      "Ġhugging": 2646,
      "Ġprove": 2647,
      "Ġeasiest": 2648,
      "Ġsensitive": 2649,
      "Ġasks": 2650,
      "Ġcover": 2651,
      "Ġpunish": 2652,
      "Ġpressed": 2653,
      "Ġheals": 2654,
      "Ġstruggle": 2655,
      "Ġthicker": 2656,
      "Ġpowerful": 2657,
      "Ġlull": 2658,
      "Ġpermission": 2659,
      "Ġadmit": 2660,
      "Ġassume": 2661,
      "Ġyellow": 2662,
      "Ġproductive": 2663,
      "per": 2664,
      "rove": 2665,
      "Ġtall": 2666,
      "Ġben": 2667,
      "Ġwhoosh": 2668,
      "Ġetern": 2669,
      "Ġbur": 2670,
      "Ġrelease": 2671,
      "Ġwavy": 2672,
      "Ġheater": 2673,
      "Ġshouldn": 2674,
      "Ġcoolness": 2675,
      "Ġeaten": 2676,
      "Ġclosing": 2677,
      "Ġcalls": 2678,
      "Ġcalled": 2679,
      "Ġafterno": 2680,
      "Ġempt": 2681,
      "Ġgentlest": 2682,
      "Ġdiscovery": 2683,
      "Ġbumpy": 2684,
      "Ġrespect": 2685,
      "Ġsettling": 2686,
      "Ġspreading": 2687,
      "Ġlimitations": 2688,
      "Ġrefreshed": 2689,
      "Ġreplaying": 2690,
      "ail": 2691,
      "ny": 2692,
      "nting": 2693,
      "ring": 2694,
      "tic": 2695,
      "Ġaut": 2696,
      "Ġavo": 2697,
      "Ġmmm": 2698,
      "Ġfle": 2699,
      "Ġhone": 2700,
      "Ġcent": 2701,
      "omatic": 2702,
      "anent": 2703,
      "stal": 2704,
      "Ġsticks": 2705,
      "Ġread": 2706,
      "Ġreward": 2707,
      "Ġwakes": 2708,
      "Ġwaved": 2709,
      "cts": 2710,
      "Ġjob": 2711,
      "Ġhelped": 2712,
      "Ġunderstood": 2713,
      "Ġopens": 2714,
      "Ġcircling": 2715,
      "Ġtender": 2716,
      "Ġexcite": 2717,
      "Ġnames": 2718,
      "Ġmessing": 2719,
      "Ġcurrents": 2720,
      "Ġbroke": 2721,
      "Ġears": 2722,
      "Ġbouncing": 2723,
      "Ġanswers": 2724,
      "Ġpulling": 2725,
      "Ġmirr": 2726,
      "Ġgener": 2727,
      "like": 2728,
      "Ġpermanent": 2729,
      "Ġbuddy": 2730,
      "Ġlullab": 2731,
      "Ġeternal": 2732,
      "Ġautomatic": 2733,
      "Ġhoney": 2734,
      "ared": 2735,
      "cles": 2736,
      "ection": 2737,
      "hat": 2738,
      "ted": 2739,
      "yal": 2740,
      "Ġtough": 2741,
      "Ġwri": 2742,
      "Ġamb": 2743,
      "inary": 2744,
      "Ġsou": 2745,
      "Ġsat": 2746,
      "Ġdra": 2747,
      "Ġdimmer": 2748,
      "Ġpau": 2749,
      "Ġint": 2750,
      "Ġforth": 2751,
      "pper": 2752,
      "Ġpers": 2753,
      "Ġspir": 2754,
      "Ġbrown": 2755,
      "astic": 2756,
      "Ġimprove": 2757,
      "Ġtalked": 2758,
      "Ġlesson": 2759,
      "Ġmysteries": 2760,
      "Ġpurple": 2761,
      "Ġcomforting": 2762,
      "ationship": 2763,
      "Ġshimmering": 2764,
      "Ġflick": 2765,
      "Ġconfident": 2766,
      "Ġfinger": 2767,
      "Ġrelationship": 2768,
      "Ġminutes": 2769,
      "Ġobs": 2770,
      "Ġdetail": 2771,
      "ĠWhat": 2772,
      "Ġtotally": 2773,
      "Ġembrace": 2774,
      "Ġpanic": 2775,
      "Ġafternoon": 2776,
      "Ġexcitement": 2777,
      "Ġlullaby": 2778,
      "eal": 2779,
      "tastic": 2780,
      "ative": 2781,
      "ided": 2782,
      "Ġrude": 2783,
      "tta": 2784,
      "Ġnews": 2785,
      "redible": 2786,
      "Ġslowing": 2787,
      "Ġroundness": 2788,
      "Ġusual": 2789,
      "Ġtalent": 2790,
      "Ġdrifts": 2791,
      "Ġthoughtful": 2792,
      "Ġpale": 2793,
      "Ġlead": 2794,
      "Ġtalks": 2795,
      "Ġpunch": 2796,
      "Ġpressing": 2797,
      "Ġhealing": 2798,
      "Ġsmarter": 2799,
      "Ġspeaks": 2800,
      "Ġterrified": 2801,
      "Ġrelaxed": 2802,
      "Ġguilt": 2803,
      "Ġtravels": 2804,
      "Ġdelighted": 2805,
      "Ġbesides": 2806,
      "Ġimpatient": 2807,
      "Ġfoolish": 2808,
      "Ġemptiness": 2809,
      "fort": 2810,
      "hh": 2811,
      "Ġnature": 2812,
      "omfort": 2813,
      "Ġgest": 2814,
      "orary": 2815,
      "Ġtong": 2816,
      "rise": 2817,
      "etic": 2818,
      "Ġalert": 2819,
      "ities": 2820,
      "Ġsand": 2821,
      "Ġdigging": 2822,
      "Ġrestful": 2823,
      "Ġpeacefully": 2824,
      "Ġhopeless": 2825,
      "Ġstartled": 2826,
      "Ġwatcher": 2827,
      "Ġsunrise": 2828,
      "Ġtemporary": 2829,
      "Ġtasting": 2830,
      "Ġlean": 2831,
      "Ġbreaking": 2832,
      "Ġangle": 2833,
      "Ġbumping": 2834,
      "ular": 2835,
      "Ġuncomfort": 2836,
      "Ġenergetic": 2837,
      "Ġdrown": 2838,
      "Ġsupport": 2839,
      "Ġcelebrate": 2840,
      "Ġwearing": 2841,
      "Ġbalanced": 2842,
      "Ġfingers": 2843,
      "Ġrespond": 2844,
      "they": 2845,
      "Ġwashes": 2846,
      "Ġrisk": 2847,
      "Ġblame": 2848,
      "Ġinstantly": 2849,
      "Ġnumbers": 2850,
      "Ġrumbling": 2851,
      "Ġtongue": 2852,
      "ale": 2853,
      "air": 2854,
      "arent": 2855,
      "dd": 2856,
      "dinary": 2857,
      "fic": 2858,
      "loo": 2859,
      "tion": 2860,
      "Ġ...": 2861,
      "Ġty": 2862,
      "Ġtuck": 2863,
      "Ġthri": 2864,
      "Ġwinning": 2865,
      "ines": 2866,
      "ates": 2867,
      "Ġdad": 2868,
      "Ġlow": 2869,
      "Ġnone": 2870,
      "Ġcrow": 2871,
      "Ġlie": 2872,
      "ays": 2873,
      "Ġpour": 2874,
      "Ġforce": 2875,
      "Ġshell": 2876,
      "Ġsoften": 2877,
      "Ġsoftens": 2878,
      "Ġages": 2879,
      "Ġweather": 2880,
      "Ġbass": 2881,
      "Ġfirm": 2882,
      "Ġvibrates": 2883,
      "Ġmeets": 2884,
      "Ġclosed": 2885,
      "Ġcleaning": 2886,
      "Ġblessed": 2887,
      "Ġexisted": 2888,
      "Ġacceptance": 2889,
      "Ġreset": 2890,
      "amed": 2891,
      "Ġgliding": 2892,
      "Ġglance": 2893,
      "Ġsilent": 2894,
      "Ġdistance": 2895,
      "Ġpiece": 2896,
      "Ġdropping": 2897,
      "Ġconfli": 2898,
      "Ġhitting": 2899,
      "Ġequally": 2900,
      "Ġmirror": 2901,
      "Ġuncomfortable": 2902,
      "Ġcrowd": 2903,
      "Ġconflict": 2904,
      "ee": 2905,
      "hamed": 2906,
      "na": 2907,
      "ored": 2908,
      "Ġsort": 2909,
      "Ġdust": 2910,
      "Ġdwell": 2911,
      "Ġnet": 2912,
      "Ġgri": 2913,
      "think": 2914,
      "arr": 2915,
      "Ġmed": 2916,
      "lling": 2917,
      "rit": 2918,
      "Ġalright": 2919,
      "itch": 2920,
      "Ġgotta": 2921,
      "Ġchild": 2922,
      "Ġchoices": 2923,
      "iring": 2924,
      "Ġkept": 2925,
      "Ġfinal": 2926,
      "Ġashamed": 2927,
      "Ġspa": 2928,
      "Ġpointing": 2929,
      "Ġshame": 2930,
      "Ġhums": 2931,
      "Ġoverthink": 2932,
      "Ġacting": 2933,
      "Ġslip": 2934,
      "Ġgrump": 2935,
      "Ġmeaningful": 2936,
      "Ġguide": 2937,
      "Ġaware": 2938,
      "Ġexplored": 2939,
      "Ġplayful": 2940,
      "Ġsparkling": 2941,
      "Ġshimmery": 2942,
      "Ġdeciding": 2943,
      "Ġdecided": 2944,
      "Ġclosely": 2945,
      "sparent": 2946,
      "Ġtingling": 2947,
      "Ġfocused": 2948,
      "Ġbuilding": 2949,
      "Ġhigher": 2950,
      "Ġrefreshing": 2951,
      "Ġreturns": 2952,
      "Ġincredible": 2953,
      "Ġcrystal": 2954,
      "Ġvalue": 2955,
      "Ġseparate": 2956,
      "Ġdecorations": 2957,
      "Ġtransparent": 2958,
      "Ġgenerous": 2959,
      "bow": 2960,
      "cent": 2961,
      "der": 2962,
      "kers": 2963,
      "ping": 2964,
      "rink": 2965,
      "un": 2966,
      "Ġow": 2967,
      "Ġsick": 2968,
      "Ġbird": 2969,
      "Ġdrow": 2970,
      "Ġlately": 2971,
      "Ġhis": 2972,
      "Ġhim": 2973,
      "Ġwhats": 2974,
      "Ġjeal": 2975,
      "Ġstories": 2976,
      "lace": 2977,
      "Ġneg": 2978,
      "Ġwild": 2979,
      "Ġoffer": 2980,
      "Ġsub": 2981,
      "Ġfinish": 2982,
      "Ġexistence": 2983,
      "Ġbrighten": 2984,
      "ilities": 2985,
      "Ġspi": 2986,
      "Ġsunny": 2987,
      "Ġimpress": 2988,
      "Ġcalmer": 2989,
      "Ġmornings": 2990,
      "Ġacts": 2991,
      "Ġjudges": 2992,
      "Ġlevel": 2993,
      "Ġrainbow": 2994,
      "Ġpuns": 2995,
      "Ġdrum": 2996,
      "Ġlaughing": 2997,
      "Ġbouncy": 2998,
      "Ġheading": 2999,
      "Ġprotecting": 3000,
      "Ġcelebration": 3001,
      "Ġcommon": 3002,
      "Ġvalu": 3003,
      "Ġskin": 3004,
      "Ġcrown": 3005,
      "Ġcosts": 3006,
      "Ġcyn": 3007,
      "Ġoverwhelmed": 3008,
      "Ġavoid": 3009,
      "Ġcenter": 3010,
      "Ġdrowning": 3011,
      "Ġspaces": 3012,
      "Ġgrumpy": 3013,
      "Ġdrowsy": 3014,
      "Ġjealous": 3015,
      "py": 3016,
      "ts": 3017,
      "ined": 3018,
      "Ġmelt": 3019,
      "Ġmath": 3020,
      "Ġfol": 3021,
      "Ġcla": 3022,
      "Ġbear": 3023,
      "ises": 3024,
      "Ġnope": 3025,
      "ential": 3026,
      "Ġrearr": 3027,
      "Ġtroub": 3028,
      "Ġswum": 3029,
      "Ġquality": 3030,
      "Ġseemed": 3031,
      "Ġsuns": 3032,
      "Ġshade": 3033,
      "Ġbless": 3034,
      "Ġcompar": 3035,
      "Ġguy": 3036,
      "Ġmessage": 3037,
      "Ġsilliness": 3038,
      "Ġshimmers": 3039,
      "Ġsetting": 3040,
      "Ġdisappears": 3041,
      "Ġwhiskers": 3042,
      "Ġsweetest": 3043,
      "Ġwalked": 3044,
      "Ġcritic": 3045,
      "Ġentertain": 3046,
      "Ġrespons": 3047,
      "Ġrepeating": 3048,
      "Ġreject": 3049,
      "Ġtexture": 3050,
      "Ġsends": 3051,
      "Ġpunchline": 3052,
      "Ġfolks": 3053,
      "ave": 3054,
      "cin": 3055,
      "iately": 3056,
      "ured": 3057,
      "Ġbite": 3058,
      "Ġdam": 3059,
      "rees": 3060,
      "Ġhides": 3061,
      "Ġodd": 3062,
      "elids": 3063,
      "orient": 3064,
      "Ġstare": 3065,
      "Ġgotten": 3066,
      "Ġra": 3067,
      "ains": 3068,
      "Ġwhoa": 3069,
      "Ġsusp": 3070,
      "Ġsuper": 3071,
      "Ġagree": 3072,
      "Ġweigh": 3073,
      "igate": 3074,
      "Ġbasic": 3075,
      "Ġeyelids": 3076,
      "Ġpul": 3077,
      "Ġrich": 3078,
      "Ġcleaner": 3079,
      "Ġblush": 3080,
      "Ġadjust": 3081,
      "Ġhonesty": 3082,
      "Ġsens": 3083,
      "Ġimmed": 3084,
      "Ġtwist": 3085,
      "Ġarriving": 3086,
      "Ġdisappearing": 3087,
      "Ġcrack": 3088,
      "Ġexpectations": 3089,
      "Ġtrembled": 3090,
      "Ġgraceful": 3091,
      "Ġgracefully": 3092,
      "Ġmotiv": 3093,
      "ivity": 3094,
      "Ġentire": 3095,
      "Ġlands": 3096,
      "iggle": 3097,
      "Ġswirls": 3098,
      "worthy": 3099,
      "Ġsoul": 3100,
      "Ġsatis": 3101,
      "Ġbasically": 3102,
      "Ġimmediately": 3103,
      "em": 3104,
      "ex": 3105,
      "eiling": 3106,
      "happ": 3107,
      "ict": 3108,
      "lt": 3109,
      "up": 3110,
      "Ġthird": 3111,
      "Ġblow": 3112,
      "ndred": 3113,
      "Ġceiling": 3114,
      "arge": 3115,
      "Ġpace": 3116,
      "Ġkids": 3117,
      "Ġbuz": 3118,
      "Ġsomeday": 3119,
      "Ġinten": 3120,
      "Ġstorm": 3121,
      "Ġform": 3122,
      "Ġrequ": 3123,
      "itation": 3124,
      "allow": 3125,
      "idence": 3126,
      "Ġur": 3127,
      "Ġordinary": 3128,
      "Ġchill": 3129,
      "antage": 3130,
      "Ġwobb": 3131,
      "Ġworlds": 3132,
      "Ġhundred": 3133,
      "Ġpeek": 3134,
      "Ġperfection": 3135,
      "Ġrealized": 3136,
      "ibilities": 3137,
      "Ġlistened": 3138,
      "Ġbothered": 3139,
      "Ġleaf": 3140,
      "Ġcompared": 3141,
      "Ġbelonging": 3142,
      "Ġsharing": 3143,
      "Ġrushed": 3144,
      "Ġresul": 3145,
      "Ġjudged": 3146,
      "Ġpebble": 3147,
      "Ġprotects": 3148,
      "Ġwins": 3149,
      "Ġdarting": 3150,
      "Ġtreas": 3151,
      "Ġstanding": 3152,
      "Ġneighbors": 3153,
      "Ġwrite": 3154,
      "Ġdetails": 3155,
      "Ġcynical": 3156,
      "How": 3157,
      "ground": 3158,
      "ker": 3159,
      "scin": 3160,
      "under": 3161,
      "ĠT": 3162,
      "Ġvers": 3163,
      "ĠHow": 3164,
      "Ġtries": 3165,
      "inely": 3166,
      "Ġsla": 3167,
      "Ġman": 3168,
      "Ġbang": 3169,
      "Ġdying": 3170,
      "Ġlarge": 3171,
      "Ġplea": 3172,
      "Ġstale": 3173,
      "iment": 3174,
      "Ġkinds": 3175,
      "ches": 3176,
      "Ġflaw": 3177,
      "tting": 3178,
      "Ġfascin": 3179,
      "Ġscrat": 3180,
      "Ġarg": 3181,
      "Ġhuh": 3182,
      "Ġbye": 3183,
      "Ġcools": 3184,
      "Ġdisorient": 3185,
      "Ġpump": 3186,
      "ability": 3187,
      "Ġvibrate": 3188,
      "Ġopened": 3189,
      "Ġgrey": 3190,
      "Ġinterru": 3191,
      "Ġpushed": 3192,
      "Ġhonor": 3193,
      "Ġgrowth": 3194,
      "Ġreminding": 3195,
      "Ġtwitch": 3196,
      "Ġaccepts": 3197,
      "Ġadvantage": 3198,
      "Ġdroo": 3199,
      "Ġfrustrating": 3200,
      "Ġconnects": 3201,
      "Ġapology": 3202,
      "Ġcrash": 3203,
      "Ġsuppose": 3204,
      "Ġpulls": 3205,
      "Ġpowerless": 3206,
      "Ġcopy": 3207,
      "Ġlunch": 3208,
      "Ġprison": 3209,
      "Ġbitterness": 3210,
      "Ġcruel": 3211,
      "Ġbetrayed": 3212,
      "Ġrejection": 3213,
      "Ġgenuine": 3214,
      "Ġgenuinely": 3215,
      "Ġbeats": 3216,
      "looking": 3217,
      "Ġcrowded": 3218,
      "Ġspirit": 3219,
      "Ġtreasures": 3220,
      "cond": 3221,
      "form": 3222,
      "ject": 3223,
      "ler": 3224,
      "lud": 3225,
      "ub": 3226,
      "Ġer": 3227,
      "Ġdus": 3228,
      "ndered": 3229,
      "Ġlines": 3230,
      "Ġnest": 3231,
      "Ġlift": 3232,
      "arra": 3233,
      "Ġpot": 3234,
      "Ġinno": 3235,
      "Ġrede": 3236,
      "Ġrelea": 3237,
      "second": 3238,
      "lored": 3239,
      "Ġforgave": 3240,
      "Ġhappily": 3241,
      "Ġrand": 3242,
      "irs": 3243,
      "Ġamu": 3244,
      "icity": 3245,
      "Ġsprink": 3246,
      "Ġfresher": 3247,
      "Ġtire": 3248,
      "gged": 3249,
      "Ġshared": 3250,
      "Ġtrustworthy": 3251,
      "istent": 3252,
      "Ġunex": 3253,
      "Ġunhapp": 3254,
      "Ġcounting": 3255,
      "Ġrules": 3256,
      "Ġregular": 3257,
      "Ġfears": 3258,
      "Ġshaped": 3259,
      "Ġawful": 3260,
      "rodu": 3261,
      "Ġcontin": 3262,
      "Ġbumped": 3263,
      "pected": 3264,
      "Ġhugs": 3265,
      "Ġsettled": 3266,
      "Ġfreely": 3267,
      "Ġcrave": 3268,
      "Ġexpecting": 3269,
      "Ġchaos": 3270,
      "Ġputs": 3271,
      "Ġuseful": 3272,
      "Ġdrops": 3273,
      "Ġcompliment": 3274,
      "Ġcrunch": 3275,
      "Ġsurrounds": 3276,
      "istency": 3277,
      "Ġembarra": 3278,
      "Ġconsistency": 3279,
      "Ġminute": 3280,
      "Ġdangerous": 3281,
      "Ġpian": 3282,
      "Ġrecall": 3283,
      "Ġsalt": 3284,
      "Ġcovered": 3285,
      "Ġdraw": 3286,
      "Ġshellfish": 3287,
      "Ġowe": 3288,
      "Ġsubject": 3289,
      "Ġsensation": 3290,
      "Ġsatisfied": 3291,
      "Ġdisoriented": 3292,
      "Ġrandom": 3293,
      "Ġunexpected": 3294,
      "Ġembarrass": 3295,
      "??": 3296,
      "gent": 3297,
      "pid": 3298,
      "power": 3299,
      "Ġtin": 3300,
      "Ġtiring": 3301,
      "Ġmel": 3302,
      "Ġmist": 3303,
      "Ġfright": 3304,
      "Ġla": 3305,
      "Ġlap": 3306,
      "Ġhid": 3307,
      "ompl": 3308,
      "Ġgiggle": 3309,
      "Ġliter": 3310,
      "Ġliqu": 3311,
      "Ġking": 3312,
      "Ġkis": 3313,
      "Ġinst": 3314,
      "Ġliked": 3315,
      "Ġhazy": 3316,
      "Ġmap": 3317,
      "Ġflash": 3318,
      "Ġloops": 3319,
      "Ġfro": 3320,
      "Ġloyal": 3321,
      "Ġupward": 3322,
      "Ġwondered": 3323,
      "Ġdaylight": 3324,
      "mption": 3325,
      "Ġcomedy": 3326,
      "ieve": 3327,
      "Ġlistener": 3328,
      "Ġhurry": 3329,
      "Ġcalming": 3330,
      "Ġcurving": 3331,
      "Ġprettier": 3332,
      "Ġrocked": 3333,
      "Ġunless": 3334,
      "Ġunsure": 3335,
      "Ġslight": 3336,
      "Ġgoodbyes": 3337,
      "Ġnav": 3338,
      "Ġclick": 3339,
      "Ġdisappointing": 3340,
      "Ġachieve": 3341,
      "Ġluckiest": 3342,
      "Ġstupid": 3343,
      "Ġresist": 3344,
      "Ġbothers": 3345,
      "Ġglimmer": 3346,
      "Ġapologies": 3347,
      "Ġplans": 3348,
      "Ġaccompl": 3349,
      "Ġsnap": 3350,
      "Ġtummy": 3351,
      "ivid": 3352,
      "Ġfilling": 3353,
      "Ġinclud": 3354,
      "Ġcrying": 3355,
      "Ġgreetings": 3356,
      "Ġrelie": 3357,
      "Ġwhispering": 3358,
      "Ġrisky": 3359,
      "Ġrepeat": 3360,
      "Ġsquare": 3361,
      "Ġpict": 3362,
      "Ġdissolves": 3363,
      "Ġhover": 3364,
      "Ġgesture": 3365,
      "Ġsupports": 3366,
      "Ġtype": 3367,
      "Ġtrouble": 3368,
      "Ġsuperpower": 3369,
      "Ġintense": 3370,
      "Ġpotential": 3371,
      "Ġredemption": 3372,
      "Ġunhappy": 3373,
      "Ġpiano": 3374,
      "Ġliquid": 3375,
      "Ġaccomplish": 3376,
      "cou": 3377,
      "dest": 3378,
      "eath": 3379,
      "ific": 3380,
      "oes": 3381,
      "Ġau": 3382,
      "ero": 3383,
      "ount": 3384,
      "Ġfsh": 3385,
      "Ġhor": 3386,
      "Ġnom": 3387,
      "Ġnud": 3388,
      "omes": 3389,
      "Ġpar": 3390,
      "Ġfeast": 3391,
      "Ġins": 3392,
      "Ġsty": 3393,
      "Ġstom": 3394,
      "Ġstate": 3395,
      "Ġwit": 3396,
      "Ġring": 3397,
      "Ġrare": 3398,
      "Ġtiming": 3399,
      "ctor": 3400,
      "Ġsuits": 3401,
      "Ġquit": 3402,
      "ilt": 3403,
      "Ġbackground": 3404,
      "Ġhugged": 3405,
      "Ġwilling": 3406,
      "Ġparty": 3407,
      "stairs": 3408,
      "shing": 3409,
      "Ġdead": 3410,
      "Ġoverhead": 3411,
      "Ġcats": 3412,
      "Ġcarefully": 3413,
      "Ġclears": 3414,
      "Ġproves": 3415,
      "Ġreact": 3416,
      "izon": 3417,
      "Ġteaching": 3418,
      "Ġshiver": 3419,
      "Ġguard": 3420,
      "Ġrains": 3421,
      "Ġtruest": 3422,
      "Ġreflections": 3423,
      "Ġdiscovered": 3424,
      "Ġresili": 3425,
      "pective": 3426,
      "Ġearly": 3427,
      "Ġexpected": 3428,
      "Ġfamily": 3429,
      "Ġrhythmic": 3430,
      "Ġtucked": 3431,
      "Ġconfidence": 3432,
      "Ġsplashing": 3433,
      "Ġsplashes": 3434,
      "Ġvulnerability": 3435,
      "efit": 3436,
      "Ġgrounded": 3437,
      "Ġignored": 3438,
      "Ġconsistent": 3439,
      "Ġsimplicity": 3440,
      "Ġdepends": 3441,
      "Ġrepet": 3442,
      "Ġneighbor": 3443,
      "Ġbeneath": 3444,
      "Ġbenefit": 3445,
      "Ġburden": 3446,
      "Ġpausing": 3447,
      "Ġintrodu": 3448,
      "Ġperspective": 3449,
      "Ġspirals": 3450,
      "Ġtucking": 3451,
      "Ġblessing": 3452,
      "Ġmotivated": 3453,
      "Ġscratch": 3454,
      "Ġinterrupt": 3455,
      "Ġdusk": 3456,
      "Ġtiniest": 3457,
      "Ġmelting": 3458,
      "Ġslightly": 3459,
      "Ġnavigate": 3460,
      "Ġhorizon": 3461,
      "as": 3462,
      "every": 3463,
      "ian": 3464,
      "ues": 3465,
      "vity": 3466,
      "vable": 3467,
      "Ġther": 3468,
      "Ġaqu": 3469,
      "Ġsooth": 3470,
      "Ġmill": 3471,
      "Ġbar": 3472,
      "Ġbones": 3473,
      "Ġfour": 3474,
      "oming": 3475,
      "org": 3476,
      "Ġpet": 3477,
      "lend": 3478,
      "Ġnecess": 3479,
      "Ġabs": 3480,
      "iting": 3481,
      "ites": 3482,
      "Ġsho": 3483,
      "Ġseek": 3484,
      "Ġrace": 3485,
      "Ġroot": 3486,
      "Ġflaps": 3487,
      "Ġoran": 3488,
      "Ġchuck": 3489,
      "Ġfrag": 3490,
      "Ġenorm": 3491,
      "Ġenem": 3492,
      "Ġamount": 3493,
      "Ġart": 3494,
      "Ġvivid": 3495,
      "Ġgiant": 3496,
      "Ġgrab": 3497,
      "Ġtiredness": 3498,
      "Ġputting": 3499,
      "Ġcut": 3500,
      "Ġpoints": 3501,
      "Ġvisibility": 3502,
      "Ġroll": 3503,
      "izing": 3504,
      "Ġactivity": 3505,
      "Ġendings": 3506,
      "Ġreached": 3507,
      "Ġreflect": 3508,
      "Ġdelays": 3509,
      "Ġbumps": 3510,
      "Ġsinks": 3511,
      "Ġfrustration": 3512,
      "Ġtreating": 3513,
      "Ġsilver": 3514,
      "Ġexpects": 3515,
      "Ġrelaxing": 3516,
      "Ġwalk": 3517,
      "Ġsnail": 3518,
      "Ġsnacks": 3519,
      "Ġsolve": 3520,
      "Ġweeks": 3521,
      "Ġstretched": 3522,
      "Ġschools": 3523,
      "Ġcommun": 3524,
      "Ġbetrayal": 3525,
      "Ġearned": 3526,
      "Ġunfair": 3527,
      "Ġdecoration": 3528,
      "Ġcrossed": 3529,
      "Ġflew": 3530,
      "Ġspiral": 3531,
      "Ġthrilling": 3532,
      "Ġresets": 3533,
      "Ġrainbows": 3534,
      "Ġvaluable": 3535,
      "Ġcriticism": 3536,
      "Ġbuzzing": 3537,
      "Ġurgent": 3538,
      "Ġresults": 3539,
      "Ġversion": 3540,
      "Ġmanage": 3541,
      "Ġnestle": 3542,
      "Ġliterally": 3543,
      "Ġpicture": 3544,
      "Ġstyle": 3545,
      "Ġwitness": 3546,
      "Ġchuckle": 3547,
      "Ġfragile": 3548,
      "Ġenormous": 3549,
      "av": 3550,
      "ds": 3551,
      "eome": 3552,
      "iant": 3553,
      "mot": 3554,
      "now": 3555,
      "oke": 3556,
      "try": 3557,
      "warm": 3558,
      "Ġ1": 3559,
      "Ġthra": 3560,
      "ins": 3561,
      "inked": 3562,
      "Ġbook": 3563,
      "Ġdu": 3564,
      "Ġdest": 3565,
      "Ġdumb": 3566,
      "Ġdoctor": 3567,
      "Ġgeome": 3568,
      "thent": 3569,
      "Ġbeating": 3570,
      "Ġbuilt": 3571,
      "Ġinch": 3572,
      "ison": 3573,
      "Ġstir": 3574,
      "Ġsteps": 3575,
      "Ġable": 3576,
      "Ġwander": 3577,
      "Ġworn": 3578,
      "Ġanci": 3579,
      "ault": 3580,
      "anted": 3581,
      "feel": 3582,
      "Ġswimmer": 3583,
      "Ġanytime": 3584,
      "Ġencou": 3585,
      "Ġwonders": 3586,
      "Ġkey": 3587,
      "que": 3588,
      "Ġeager": 3589,
      "Ġpepper": 3590,
      "Ġquietest": 3591,
      "Ġreality": 3592,
      "Ġsounded": 3593,
      "Ġsaddest": 3594,
      "Ġgrand": 3595,
      "Ġgravity": 3596,
      "Ġlongest": 3597,
      "Ġsurre": 3598,
      "Ġdeg": 3599,
      "Ġdear": 3600,
      "Ġrounded": 3601,
      "Ġjoys": 3602,
      "Ġtheirs": 3603,
      "Ġimper": 3604,
      "Ġuseless": 3605,
      "apping": 3606,
      "Ġprof": 3607,
      "Ġdrip": 3608,
      "Ġblinked": 3609,
      "Ġspecks": 3610,
      "Ġwishing": 3611,
      "izes": 3612,
      "Ġgross": 3613,
      "Ġheaviness": 3614,
      "Ġcontain": 3615,
      "Ġcounted": 3616,
      "Ġcolored": 3617,
      "Ġsetup": 3618,
      "Ġdoubts": 3619,
      "Ġresent": 3620,
      "Ġearth": 3621,
      "Ġfreezing": 3622,
      "Ġapologized": 3623,
      "Ġsnow": 3624,
      "Ġscariest": 3625,
      "Ġpatches": 3626,
      "Ġblurs": 3627,
      "Ġwinter": 3628,
      "Ġtug": 3629,
      "Ġtuna": 3630,
      "Ġfluttering": 3631,
      "Ġmeals": 3632,
      "Ġblank": 3633,
      "Ġmiracles": 3634,
      "Ġreturning": 3635,
      "Ġspins": 3636,
      "Ġadded": 3637,
      "Ġcomplaining": 3638,
      "Ġearliest": 3639,
      "Ġbrid": 3640,
      "Ġbrill": 3641,
      "Ġgreeting": 3642,
      "Ġdelightful": 3643,
      "iggles": 3644,
      "Ġblack": 3645,
      "Ġbedtime": 3646,
      "Ġcrad": 3647,
      "Ġsimpler": 3648,
      "Ġsimplest": 3649,
      "Ġsquee": 3650,
      "Ġnumber": 3651,
      "Ġdepending": 3652,
      "Ġdissolve": 3653,
      "Ġreading": 3654,
      "Ġpersistence": 3655,
      "Ġobserv": 3656,
      "Ġmeditation": 3657,
      "Ġmelts": 3658,
      "Ġcomparing": 3659,
      "Ġchilly": 3660,
      "Ġinnocent": 3661,
      "Ġcrunchy": 3662,
      "Ġfrighten": 3663,
      "Ġhidden": 3664,
      "Ġachievement": 3665,
      "Ġauthent": 3666,
      "Ġsoothes": 3667,
      "Ġmillion": 3668,
      "Ġancient": 3669,
      "ience": 3670,
      "kward": 3671,
      "ma": 3672,
      "mand": 3673,
      "oi": 3674,
      "tual": 3675,
      "vious": 3676,
      "wa": 3677,
      "zen": 3678,
      "Ġaim": 3679,
      "erc": 3680,
      "Ġsy": 3681,
      "Ġsways": 3682,
      "encing": 3683,
      "Ġlies": 3684,
      "Ġlist": 3685,
      "Ġliking": 3686,
      "Ġech": 3687,
      "Ġemot": 3688,
      "lear": 3689,
      "Ġkoi": 3690,
      "Ġbus": 3691,
      "Ġnoises": 3692,
      "Ġreb": 3693,
      "Ġreven": 3694,
      "being": 3695,
      "Ġshallow": 3696,
      "Ġanim": 3697,
      "Ġwholes": 3698,
      "ires": 3699,
      "Ġfacing": 3700,
      "Ġanybody": 3701,
      "Ġbubbler": 3702,
      "Ġdie": 3703,
      "redict": 3704,
      "Ġexerc": 3705,
      "ended": 3706,
      "Ġmattering": 3707,
      "Ġhunting": 3708,
      "Ġwaits": 3709,
      "Ġdreamed": 3710,
      "Ġparting": 3711,
      "Ġstartling": 3712,
      "Ġhelpful": 3713,
      "Ġshaky": 3714,
      "Ġelsewhere": 3715,
      "Ġbreaths": 3716,
      "Ġdemand": 3717,
      "Ġsleepier": 3718,
      "Ġdisg": 3719,
      "Ġbadly": 3720,
      "Ġglowy": 3721,
      "Ġexpress": 3722,
      "Ġdrives": 3723,
      "Ġroyal": 3724,
      "Ġvisited": 3725,
      "Ġruined": 3726,
      "Ġaffect": 3727,
      "Ġfarther": 3728,
      "Ġsli": 3729,
      "Ġgranted": 3730,
      "Ġsings": 3731,
      "Ġawkward": 3732,
      "Ġguides": 3733,
      "Ġrippling": 3734,
      "Ġrippled": 3735,
      "Ġremove": 3736,
      "nee": 3737,
      "Ġpossibilities": 3738,
      "Ġdisappoints": 3739,
      "sition": 3740,
      "Ġattach": 3741,
      "Ġreminder": 3742,
      "Ġbelongs": 3743,
      "Ġdecis": 3744,
      "Ġglub": 3745,
      "Ġfriendships": 3746,
      "Ġtrap": 3747,
      "Ġplanning": 3748,
      "Ġzero": 3749,
      "anged": 3750,
      "Ġwalks": 3751,
      "Ġexperiencing": 3752,
      "Ġappreciating": 3753,
      "Ġmatches": 3754,
      "Ġseason": 3755,
      "Ġignoring": 3756,
      "Ġconscious": 3757,
      "Ġfurry": 3758,
      "Ġswaying": 3759,
      "Ġoverwhelming": 3760,
      "Ġambit": 3761,
      "Ġleads": 3762,
      "Ġpours": 3763,
      "Ġpouring": 3764,
      "Ġdwelling": 3765,
      "Ġoverthinking": 3766,
      "Ġnegative": 3767,
      "Ġsuspic": 3768,
      "Ġwobbly": 3769,
      "Ġargu": 3770,
      "Ġdroopy": 3771,
      "Ġerase": 3772,
      "Ġamusing": 3773,
      "Ġfrozen": 3774,
      "Ġincluding": 3775,
      "Ġaquatic": 3776,
      "Ġencourage": 3777,
      "Ġsurrender": 3778,
      "Ġbridge": 3779,
      "Ġrevenge": 3780,
      "Ġwholesome": 3781,
      "but": 3782,
      "free": 3783,
      "host": 3784,
      "ior": 3785,
      "iving": 3786,
      "ls": 3787,
      "my": 3788,
      "place": 3789,
      "rop": 3790,
      "some": 3791,
      "sant": 3792,
      "Ġill": 3793,
      "Ġaction": 3794,
      "ining": 3795,
      "inch": 3796,
      "ination": 3797,
      "Ġsnee": 3798,
      "Ġmention": 3799,
      "Ġbon": 3800,
      "Ġblend": 3801,
      "Ġyum": 3802,
      "Ġden": 3803,
      "Ġhook": 3804,
      "Ġnapping": 3805,
      "ense": 3806,
      "Ġcre": 3807,
      "Ġcau": 3808,
      "Ġoc": 3809,
      "elter": 3810,
      "Ġghost": 3811,
      "Ġlit": 3812,
      "ances": 3813,
      "stine": 3814,
      "aract": 3815,
      "lect": 3816,
      "Ġkid": 3817,
      "rier": 3818,
      "Ġjigg": 3819,
      "Ġforcing": 3820,
      "Ġhab": 3821,
      "ceed": 3822,
      "Ġmoon": 3823,
      "Ġlightness": 3824,
      "Ġshelter": 3825,
      "Ġgosh": 3826,
      "Ġworked": 3827,
      "Ġrays": 3828,
      "urb": 3829,
      "ished": 3830,
      "Ġnewness": 3831,
      "Ġchat": 3832,
      "Ġcharact": 3833,
      "irl": 3834,
      "Ġupstairs": 3835,
      "Ġagrees": 3836,
      "Ġmeanness": 3837,
      "Ġwonderfully": 3838,
      "Ġsmallness": 3839,
      "Ġexcu": 3840,
      "rated": 3841,
      "Ġhellos": 3842,
      "Ġplus": 3843,
      "Ġstartle": 3844,
      "Ġpoor": 3845,
      "Ġpopped": 3846,
      "Ġsadder": 3847,
      "ngs": 3848,
      "Ġcarried": 3849,
      "Ġshades": 3850,
      "Ġopin": 3851,
      "Ġpersonality": 3852,
      "Ġopenness": 3853,
      "Ġprocess": 3854,
      "Ġunl": 3855,
      "Ġwhichever": 3856,
      "Ġnightm": 3857,
      "Ġwishes": 3858,
      "Ġlasted": 3859,
      "Ġspecific": 3860,
      "Ġsliding": 3861,
      "Ġslides": 3862,
      "Ġcompet": 3863,
      "Ġstrang": 3864,
      "Ġconfuses": 3865,
      "Ġmeaningless": 3866,
      "Ġloudly": 3867,
      "Ġsilliest": 3868,
      "Ġstead": 3869,
      "Ġdouble": 3870,
      "Ġchecks": 3871,
      "Ġangles": 3872,
      "Ġunclear": 3873,
      "amiliar": 3874,
      "Ġbothering": 3875,
      "Ġflip": 3876,
      "Ġtreated": 3877,
      "Ġpainful": 3878,
      "Ġpainted": 3879,
      "Ġsitu": 3880,
      "Ġideas": 3881,
      "Ġfire": 3882,
      "Ġoptimism": 3883,
      "Ġtremble": 3884,
      "Ġwelc": 3885,
      "Ġclouded": 3886,
      "Ġjumping": 3887,
      "Ġdisturb": 3888,
      "Ġpromis": 3889,
      "Ġprotected": 3890,
      "rument": 3891,
      "Ġfewer": 3892,
      "Ġpops": 3893,
      "Ġlimited": 3894,
      "Ġseriously": 3895,
      "Ġlungs": 3896,
      "Ġpriv": 3897,
      "Ġprime": 3898,
      "Ġpristine": 3899,
      "Ġstretches": 3900,
      "Ġdepth": 3901,
      "Ġdefault": 3902,
      "Ġcrumb": 3903,
      "Ġbetraying": 3904,
      "Ġignor": 3905,
      "Ġignore": 3906,
      "Ġadmire": 3907,
      "Ġseparates": 3908,
      "Ġunfamiliar": 3909,
      "Ġbeside": 3910,
      "Ġstreams": 3911,
      "Ġtrans": 3912,
      "Ġreplace": 3913,
      "Ġcertainty": 3914,
      "Ġadmitting": 3915,
      "Ġtalented": 3916,
      "Ġgestures": 3917,
      "Ġneglect": 3918,
      "Ġresponsibility": 3919,
      "Ġpleasant": 3920,
      "Ġcontinu": 3921,
      "Ġembarrassed": 3922,
      "Ġinstrument": 3923,
      "Ġloyalty": 3924,
      "Ġringing": 3925,
      "Ġnecessary": 3926,
      "Ġgeometry": 3927,
      "feeling": 3928,
      "Ġdegrees": 3929,
      "Ġprofound": 3930,
      "Ġresentment": 3931,
      "Ġobservation": 3932,
      "Ġauthentic": 3933,
      "Ġsneeze": 3934,
      "?'": 3935,
      "aly": 3936,
      "bra": 3937,
      "if": 3938,
      "irely": 3939,
      "ius": 3940,
      "iety": 3941,
      "ms": 3942,
      "ply": 3943,
      "rr": 3944,
      "tie": 3945,
      "wiggles": 3946,
      "yes": 3947,
      "yster": 3948,
      "ĠD": 3949,
      "Ġve": 3950,
      "Ġtest": 3951,
      "Ġtree": 3952,
      "Ġtang": 3953,
      "Ġthunder": 3954,
      "Ġsle": 3955,
      "att": 3956,
      "ator": 3957,
      "Ġmes": 3958,
      "Ġbow": 3959,
      "Ġbir": 3960,
      "Ġbell": 3961,
      "Ġlay": 3962,
      "Ġlying": 3963,
      "Ġhomes": 3964,
      "Ġcrea": 3965,
      "Ġcaut": 3966,
      "Ġcond": 3967,
      "Ġoyster": 3968,
      "Ġgill": 3969,
      "Ġgard": 3970,
      "Ġgaz": 3971,
      "thday": 3972,
      "Ġlids": 3973,
      "Ġeight": 3974,
      "ares": 3975,
      "arls": 3976,
      "Ġwatery": 3977,
      "Ġbeach": 3978,
      "Ġreel": 3979,
      "kest": 3980,
      "Ġmode": 3981,
      "ppy": 3982,
      "Ġwitt": 3983,
      "itive": 3984,
      "Ġusing": 3985,
      "Ġshim": 3986,
      "Ġtimeless": 3987,
      "Ġspring": 3988,
      "Ġvast": 3989,
      "Ġpearls": 3990,
      "rate": 3991,
      "Ġhardness": 3992,
      "Ġhopes": 3993,
      "ibly": 3994,
      "Ġpol": 3995,
      "Ġposition": 3996,
      "Ġtrusted": 3997,
      "Ġdeath": 3998,
      "ints": 3999,
      "Ġritual": 4000,
      "Ġoption": 4001,
      "Ġcleans": 4002,
      "Ġunp": 4003,
      "Ġunhe": 4004,
      "Ġmisunder": 4005,
      "Ġsmoothly": 4006,
      "Ġblues": 4007,
      "Ġsimply": 4008,
      "curi": 4009,
      "Ġteacher": 4010,
      "Ġwiggled": 4011,
      "Ġpaw": 4012,
      "Ġcompan": 4013,
      "Ġfails": 4014,
      "Ġmount": 4015,
      "Ġgrain": 4016,
      "Ġmessy": 4017,
      "aged": 4018,
      "Ġdoubting": 4019,
      "Ġchecked": 4020,
      "Ġreflects": 4021,
      "mmed": 4022,
      "Ġfaded": 4023,
      "Ġweirdest": 4024,
      "Ġflicks": 4025,
      "Ġinviting": 4026,
      "Ġbehav": 4027,
      "Ġpainting": 4028,
      "Ġconnect": 4029,
      "Ġwiser": 4030,
      "Ġwispy": 4031,
      "Ġtrem": 4032,
      "Ġfitting": 4033,
      "Ġcracks": 4034,
      "Ġfixing": 4035,
      "Ġfixes": 4036,
      "Ġpromises": 4037,
      "Ġdefinition": 4038,
      "Ġoppo": 4039,
      "Ġblock": 4040,
      "Ġknocked": 4041,
      "Ġlaziness": 4042,
      "ivable": 4043,
      "Ġsucceed": 4044,
      "Ġgenius": 4045,
      "Ġlimitation": 4046,
      "Ġentirely": 4047,
      "Ġwears": 4048,
      "Ġfacts": 4049,
      "ensive": 4050,
      "Ġdoors": 4051,
      "Ġanxiety": 4052,
      "Ġtricks": 4053,
      "what": 4054,
      "Ġunique": 4055,
      "Ġrumbles": 4056,
      "Ġdisagreement": 4057,
      "Ġequal": 4058,
      "Ġsalty": 4059,
      "Ġambition": 4060,
      "Ġobsessed": 4061,
      "Ġdrumming": 4062,
      "Ġsuspended": 4063,
      "Ġrequire": 4064,
      "Ġslam": 4065,
      "Ġslammed": 4066,
      "Ġsprinkle": 4067,
      "Ġdrawn": 4068,
      "Ġmisty": 4069,
      "Ġlack": 4070,
      "Ġkisses": 4071,
      "Ġparaly": 4072,
      "Ġresilience": 4073,
      "Ġrepetitive": 4074,
      "Ġbarrier": 4075,
      "Ġenemy": 4076,
      "Ġcommunic": 4077,
      "Ġ10": 4078,
      "Ġdestination": 4079,
      "Ġcontainer": 4080,
      "Ġsqueeze": 4081,
      "Ġemotions": 4082,
      "Ġremoved": 4083,
      "Ġbonus": 4084,
      "Ġdenial": 4085,
      "Ġsituation": 4086,
      "Ġtangled": 4087,
      "Ġslept": 4088,
      "Ġmesmer": 4089,
      "Ġbowtie": 4090,
      "Ġbirthday": 4091,
      "Ġgarden": 4092,
      "Ġgaze": 4093,
      "Ġwitty": 4094,
      "Ġbehavior": 4095,
      "dies": 4096,
      "eth": 4097,
      "fla": 4098,
      "gs": 4099,
      "iff": 4100,
      "ron": 4101,
      "rant": 4102,
      "val": 4103,
      "wise": 4104,
      "xur": 4105,
      "zier": 4106,
      "Ġ7": 4107,
      "Ġtil": 4108,
      "Ġice": 4109,
      "Ġthud": 4110,
      "Ġwar": 4111,
      "Ġwea": 4112,
      "Ġsent": 4113,
      "ouri": 4114,
      "Ġdar": 4115,
      "Ġharm": 4116,
      "Ġhang": 4117,
      "Ġnor": 4118,
      "Ġnouri": 4119,
      "Ġcoo": 4120,
      "Ġgirl": 4121,
      "there": 4122,
      "this": 4123,
      "thest": 4124,
      "Ġlied": 4125,
      "veral": 4126,
      "Ġwaters": 4127,
      "Ġpile": 4128,
      "oops": 4129,
      "Ġnois": 4130,
      "usting": 4131,
      "entity": 4132,
      "eting": 4133,
      "Ġstri": 4134,
      "Ġhall": 4135,
      "Ġhair": 4136,
      "Ġeverybody": 4137,
      "Ġjustice": 4138,
      "Ġwarmed": 4139,
      "Ġseed": 4140,
      "Ġseveral": 4141,
      "Ġmov": 4142,
      "Ġaltern": 4143,
      "ited": 4144,
      "Ġshout": 4145,
      "Ġshall": 4146,
      "Ġmagn": 4147,
      "althy": 4148,
      "Ġratt": 4149,
      "Ġloose": 4150,
      "Ġtrade": 4151,
      "Ġswallow": 4152,
      "arted": 4153,
      "bby": 4154,
      "Ġbubbly": 4155,
      "Ġtaken": 4156,
      "Ġdistant": 4157,
      "qua": 4158,
      "Ġfishy": 4159,
      "Ġamong": 4160,
      "Ġdayd": 4161,
      "Ġspit": 4162,
      "Ġcap": 4163,
      "Ġrealest": 4164,
      "Ġoutcome": 4165,
      "Ġpartic": 4166,
      "Ġfoods": 4167,
      "shap": 4168,
      "Ġpoker": 4169,
      "Ġtip": 4170,
      "Ġslowest": 4171,
      "Ġslowness": 4172,
      "asty": 4173,
      "Ġfavorites": 4174,
      "Ġcooling": 4175,
      "Ġfuller": 4176,
      "Ġmighty": 4177,
      "Ġdesp": 4178,
      "Ġprettiest": 4179,
      "Ġvibrant": 4180,
      "Ġproven": 4181,
      "Ġexposed": 4182,
      "Ġroad": 4183,
      "Ġdrifted": 4184,
      "Ġteeth": 4185,
      "Ġrule": 4186,
      "Ġgreener": 4187,
      "Ġslide": 4188,
      "Ġslate": 4189,
      "Ġtense": 4190,
      "Ġgrin": 4191,
      "Ġgrad": 4192,
      "weed": 4193,
      "Ġsensing": 4194,
      "Ġsenses": 4195,
      "Ġdirect": 4196,
      "Ġaches": 4197,
      "sites": 4198,
      "Ġplays": 4199,
      "Ġrushes": 4200,
      "Ġpurposeful": 4201,
      "Ġcovers": 4202,
      "Ġenergized": 4203,
      "Ġdrink": 4204,
      "Ġfreeing": 4205,
      "Ġclosest": 4206,
      "Ġidentity": 4207,
      "Ġtickled": 4208,
      "Ġpaint": 4209,
      "Ġtrees": 4210,
      "Ġsupporting": 4211,
      "Ġbeginnings": 4212,
      "Ġprotection": 4213,
      "Ġtruths": 4214,
      "Ġsongs": 4215,
      "Ġknocking": 4216,
      "Ġtumble": 4217,
      "Ġbuilds": 4218,
      "Ġcopies": 4219,
      "Ġmurk": 4220,
      "Ġluxur": 4221,
      "liable": 4222,
      "Ġpride": 4223,
      "notice": 4224,
      "Ġstretching": 4225,
      "Ġseaweed": 4226,
      "Ġconversations": 4227,
      "Ġwashing": 4228,
      "Ġapproval": 4229,
      "Ġobvious": 4230,
      "Ġblinks": 4231,
      "Ġunforg": 4232,
      "Ġhollow": 4233,
      "Ġcycle": 4234,
      "Ġsending": 4235,
      "Ġcovering": 4236,
      "Ġpunishing": 4237,
      "Ġpunishment": 4238,
      "Ġfleeting": 4239,
      "Ġreadiness": 4240,
      "Ġamber": 4241,
      "Ġsoup": 4242,
      "ppery": 4243,
      "Ġdusty": 4244,
      "Ġgrie": 4245,
      "Ġimpressive": 4246,
      "Ġrearranged": 4247,
      "Ġresponsibilities": 4248,
      "Ġpleased": 4249,
      "Ġfascinating": 4250,
      "Ġreleasing": 4251,
      "Ġresistance": 4252,
      "Ġrelief": 4253,
      "Ġrelieved": 4254,
      "Ġnudge": 4255,
      "Ġtherm": 4256,
      "Ġroots": 4257,
      "Ġoranges": 4258,
      "Ġdull": 4259,
      "Ġstirring": 4260,
      "Ġwandering": 4261,
      "Ġimperfect": 4262,
      "Ġearthqua": 4263,
      "Ġbrilliant": 4264,
      "Ġbusiness": 4265,
      "redictable": 4266,
      "Ġexercise": 4267,
      "Ġdisgusting": 4268,
      "Ġslippery": 4269,
      "Ġattached": 4270,
      "Ġseasons": 4271,
      "Ġambitious": 4272,
      "Ġsuspicious": 4273,
      "Ġargument": 4274,
      "Ġjiggling": 4275,
      "Ġcharacter": 4276,
      "Ġopinion": 4277,
      "Ġnightmares": 4278,
      "Ġstrangely": 4279,
      "Ġpromised": 4280,
      "Ġtransform": 4281,
      "Ġopposites": 4282,
      "Ġalternative": 4283,
      "Ġluxury": 4284,
      "!'": 4285,
      "ah": 4286,
      "aw": 4287,
      "apt": 4288,
      "ball": 4289,
      "do": 4290,
      "emp": 4291,
      "ia": 4292,
      "ios": 4293,
      "ified": 4294,
      "mmer": 4295,
      "pr": 4296,
      "pared": 4297,
      "ticated": 4298,
      "und": 4299,
      "usion": 4300,
      "xic": 4301,
      "Ġtend": 4302,
      "Ġtown": 4303,
      "Ġtide": 4304,
      "Ġthir": 4305,
      "Ġwan": 4306,
      "inct": 4307,
      "Ġsan": 4308,
      "Ġmar": 4309,
      "Ġmark": 4310,
      "Ġbor": 4311,
      "Ġbic": 4312,
      "Ġbree": 4313,
      "Ġfond": 4314,
      "Ġlower": 4315,
      "Ġhy": 4316,
      "Ġhist": 4317,
      "Ġwhale": 4318,
      "omple": 4319,
      "thump": 4320,
      "Ġlips": 4321,
      "Ġtoxic": 4322,
      "ghter": 4323,
      "Ġpiv": 4324,
      "Ġbull": 4325,
      "Ġburied": 4326,
      "Ġsomebody": 4327,
      "Ġinse": 4328,
      "iss": 4329,
      "isco": 4330,
      "ently": 4331,
      "etry": 4332,
      "Ġsting": 4333,
      "Ġstore": 4334,
      "Ġstable": 4335,
      "imb": 4336,
      "ime": 4337,
      "imp": 4338,
      "indrop": 4339,
      "Ġrene": 4340,
      "Ġreliable": 4341,
      "Ġdont": 4342,
      "Ġkinda": 4343,
      "Ġmold": 4344,
      "Ġabund": 4345,
      "mend": 4346,
      "Ġshown": 4347,
      "Ġshot": 4348,
      "Ġmach": 4349,
      "Ġantic": 4350,
      "Ġohhh": 4351,
      "illed": 4352,
      "Ġchir": 4353,
      "Ġswear": 4354,
      "ants": 4355,
      "Ġsam": 4356,
      "bbing": 4357,
      "Ġsometime": 4358,
      "Ġboy": 4359,
      "ards": 4360,
      "quen": 4361,
      "Ġscatter": 4362,
      "Ġperk": 4363,
      "Ġfriendl": 4364,
      "icing": 4365,
      "Ġbaby": 4366,
      "Ġthanked": 4367,
      "Ġease": 4368,
      "Ġvit": 4369,
      "Ġvict": 4370,
      "Ġcomed": 4371,
      "Ġmus": 4372,
      "Ġmunch": 4373,
      "Ġstroke": 4374,
      "Ġshoulder": 4375,
      "Ġotherwise": 4376,
      "Ġfreshness": 4377,
      "Ġhopefully": 4378,
      "Ġpoison": 4379,
      "Ġpoetry": 4380,
      "Ġunderrated": 4381,
      "Ġconcent": 4382,
      "ortality": 4383,
      "Ġplaice": 4384,
      "Ġbreathes": 4385,
      "Ġovernight": 4386,
      "Ġoverloo": 4387,
      "Ġcarefree": 4388,
      "Ġcalms": 4389,
      "Ġclearest": 4390,
      "Ġpersonal": 4391,
      "Ġcloses": 4392,
      "Ġfunction": 4393,
      "Ġprov": 4394,
      "Ġblind": 4395,
      "Ġspeck": 4396,
      "cul": 4397,
      "Ġended": 4398,
      "Ġcompla": 4399,
      "Ġdanced": 4400,
      "Ġadapt": 4401,
      "Ġadios": 4402,
      "Ġfailures": 4403,
      "Ġgro": 4404,
      "Ġgrou": 4405,
      "Ġconfuse": 4406,
      "Ġminds": 4407,
      "Ġfollowed": 4408,
      "Ġclimb": 4409,
      "Ġcontag": 4410,
      "Ġgul": 4411,
      "Ġpurring": 4412,
      "Ġpurples": 4413,
      "Ġcomplex": 4414,
      "Ġdecides": 4415,
      "Ġweaker": 4416,
      "Ġflat": 4417,
      "Ġflinch": 4418,
      "Ġinvest": 4419,
      "Ġinvitation": 4420,
      "Ġlaughter": 4421,
      "Ġbendy": 4422,
      "Ġhealth": 4423,
      "Ġtickly": 4424,
      "Ġexplains": 4425,
      "Ġsilk": 4426,
      "Ġtragic": 4427,
      "hearted": 4428,
      "Ġwetness": 4429,
      "Ġwetter": 4430,
      "Ġeffortless": 4431,
      "Ġstares": 4432,
      "Ġmusical": 4433,
      "Ġsweetness": 4434,
      "Ġcreating": 4435,
      "Ġbrains": 4436,
      "Ġrecognition": 4437,
      "Ġrecognizes": 4438,
      "Ġzi": 4439,
      "Ġsafely": 4440,
      "Ġfamous": 4441,
      "casion": 4442,
      "Ġsearched": 4443,
      "Ġterrif": 4444,
      "Ġcheering": 4445,
      "Ġphilosoph": 4446,
      "Ġappreciated": 4447,
      "Ġexperienced": 4448,
      "Ġflavors": 4449,
      "Ġlimiting": 4450,
      "ache": 4451,
      "Ġwheee": 4452,
      "Ġreds": 4453,
      "Ġenters": 4454,
      "Ġzooming": 4455,
      "Ġsurvived": 4456,
      "Ġdepress": 4457,
      "Ġincomple": 4458,
      "Ġdefensive": 4459,
      "Ġcommit": 4460,
      "Ġthumps": 4461,
      "Ġfigured": 4462,
      "Ġinspiring": 4463,
      "Ġriddle": 4464,
      "Ġgoofball": 4465,
      "Ġfurther": 4466,
      "Ġthousands": 4467,
      "Ġdissolving": 4468,
      "Ġhobby": 4469,
      "Ġpicky": 4470,
      "Ġburst": 4471,
      "Ġavoiding": 4472,
      "Ġflex": 4473,
      "Ġautomatically": 4474,
      "Ġpaused": 4475,
      "Ġpauses": 4476,
      "Ġrelationships": 4477,
      "Ġobser": 4478,
      "Ġleans": 4479,
      "Ġimpression": 4480,
      "Ġvalued": 4481,
      "Ġjealousy": 4482,
      "Ġclass": 4483,
      "Ġrejected": 4484,
      "Ġraindrop": 4485,
      "Ġpulse": 4486,
      "Ġpulses": 4487,
      "ĠTell": 4488,
      "Ġflaws": 4489,
      "Ġargue": 4490,
      "Ġlifts": 4491,
      "Ġreleased": 4492,
      "Ġkiss": 4493,
      "Ġflashes": 4494,
      "Ġaccomplishing": 4495,
      "ificant": 4496,
      "Ġinsides": 4497,
      "Ġstomach": 4498,
      "Ġshock": 4499,
      "Ġthrashing": 4500,
      "Ġfrightening": 4501,
      "wait": 4502,
      "Ġechoes": 4503,
      "Ġreborn": 4504,
      "Ġdecisions": 4505,
      "Ġconsciousness": 4506,
      "Ġoccasion": 4507,
      "Ġhabit": 4508,
      "Ġexcuse": 4509,
      "Ġcompetition": 4510,
      "Ġoysters": 4511,
      "Ġshimmy": 4512,
      "Ġmisunderstood": 4513,
      "Ġmesmerized": 4514,
      "flakes": 4515,
      "Ġsentence": 4516,
      "Ġdarkest": 4517,
      "Ġnourish": 4518,
      "Ġnoisy": 4519,
      "Ġparticles": 4520,
      "shaped": 4521,
      "noticed": 4522,
      "Ġunforgivable": 4523,
      "Ġwanna": 4524,
      "Ġborder": 4525,
      "Ġbicy": 4526,
      "Ġbreeze": 4527,
      "Ġhistory": 4528,
      "Ġrenew": 4529,
      "Ġabundance": 4530,
      "Ġanticip": 4531,
      "Ġconcentrate": 4532,
      "Ġoverlooked": 4533,
      "Ġcontagious": 4534,
      "Ġincomplete": 4535,
      "ages": 4536,
      "bul": 4537,
      "cred": 4538,
      "crow": 4539,
      "go": 4540,
      "get": 4541,
      "hood": 4542,
      "ired": 4543,
      "ium": 4544,
      "lu": 4545,
      "lish": 4546,
      "live": 4547,
      "lining": 4548,
      "mark": 4549,
      "nk": 4550,
      "od": 4551,
      "oving": 4552,
      "pes": 4553,
      "ped": 4554,
      "rough": 4555,
      "ser": 4556,
      "sking": 4557,
      "sca": 4558,
      "ule": 4559,
      "uming": 4560,
      "vant": 4561,
      "with": 4562,
      "zz": 4563,
      "zer": 4564,
      "ĠC": 4565,
      "Ġidle": 4566,
      "Ġwings": 4567,
      "Ġack": 4568,
      "Ġsight": 4569,
      "Ġsorrow": 4570,
      "Ġsour": 4571,
      "Ġsank": 4572,
      "attered": 4573,
      "Ġmm": 4574,
      "Ġmortality": 4575,
      "Ġfain": 4576,
      "reed": 4577,
      "ows": 4578,
      "Ġnons": 4579,
      "Ġcling": 4580,
      "Ġcook": 4581,
      "Ġisol": 4582,
      "ommend": 4583,
      "those": 4584,
      "through": 4585,
      "Ġlively": 4586,
      "orter": 4587,
      "ordinary": 4588,
      "Ġtoasty": 4589,
      "Ġpal": 4590,
      "Ġpound": 4591,
      "Ġpoof": 4592,
      "levant": 4593,
      "Ġkill": 4594,
      "ric": 4595,
      "rient": 4596,
      "Ġfeet": 4597,
      "Ġintim": 4598,
      "Ġnostal": 4599,
      "Ġstink": 4600,
      "Ġstur": 4601,
      "Ġhau": 4602,
      "Ġhaze": 4603,
      "Ġrece": 4604,
      "Ġrefu": 4605,
      "edule": 4606,
      "Ġali": 4607,
      "Ġnote": 4608,
      "seen": 4609,
      "Ġshrink": 4610,
      "Ġshorter": 4611,
      "Ġmain": 4612,
      "Ġmass": 4613,
      "Ġrow": 4614,
      "Ġray": 4615,
      "Ġanch": 4616,
      "eph": 4617,
      "Ġlovable": 4618,
      "Ġsaved": 4619,
      "Ġsacred": 4620,
      "Ġglasses": 4621,
      "Ġbubbling": 4622,
      "Ġdign": 4623,
      "Ġbodies": 4624,
      "Ġscattered": 4625,
      "Ġperha": 4626,
      "Ġperform": 4627,
      "Ġbasking": 4628,
      "Ġarr": 4629,
      "Ġspent": 4630,
      "Ġsphere": 4631,
      "Ġspoke": 4632,
      "Ġhunt": 4633,
      "Ġva": 4634,
      "Ġpeer": 4635,
      "Ġwaited": 4636,
      "Ġmult": 4637,
      "Ġprop": 4638,
      "Ġjoin": 4639,
      "Ġpeak": 4640,
      "Ġparticul": 4641,
      "stacles": 4642,
      "otion": 4643,
      "Ġpokes": 4644,
      "Ġpopping": 4645,
      "Ġbrrr": 4646,
      "Ġconst": 4647,
      "Ġtrusts": 4648,
      "Ġhurtful": 4649,
      "Ġhumility": 4650,
      "Ġeleph": 4651,
      "Ġdeb": 4652,
      "Ġshadowy": 4653,
      "Ġprepared": 4654,
      "Ġsleeps": 4655,
      "Ġcoldest": 4656,
      "Ġfastest": 4657,
      "Ġriver": 4658,
      "Ġride": 4659,
      "peck": 4660,
      "Ġcalmness": 4661,
      "Ġdesign": 4662,
      "Ġuses": 4663,
      "Ġvibrated": 4664,
      "Ġfallen": 4665,
      "Ġdrive": 4666,
      "Ġfogging": 4667,
      "Ġrole": 4668,
      "Ġunw": 4669,
      "Ġunre": 4670,
      "Ġunnoticed": 4671,
      "Ġunseen": 4672,
      "Ġhears": 4673,
      "Ġsmoothness": 4674,
      "Ġruin": 4675,
      "Ġsimilar": 4676,
      "Ġactions": 4677,
      "Ġpair": 4678,
      "Ġbites": 4679,
      "Ġdesert": 4680,
      "Ġnaps": 4681,
      "Ġnamed": 4682,
      "Ġpassive": 4683,
      "Ġhonored": 4684,
      "Ġfilters": 4685,
      "Ġcontains": 4686,
      "Ġgunk": 4687,
      "Ġboredom": 4688,
      "Ġimage": 4689,
      "Ġattemp": 4690,
      "Ġsteer": 4691,
      "Ġevenings": 4692,
      "Ġshares": 4693,
      "Ġreflected": 4694,
      "Ġstudy": 4695,
      "Ġdelay": 4696,
      "Ġsets": 4697,
      "Ġbegan": 4698,
      "Ġcomforts": 4699,
      "Ġdealing": 4700,
      "Ġdecline": 4701,
      "Ġdeclining": 4702,
      "Ġglitter": 4703,
      "Ġclosure": 4704,
      "Ġtingles": 4705,
      "Ġjudgy": 4706,
      "Ġfrees": 4707,
      "Ġscarecrow": 4708,
      "Ġcloudiness": 4709,
      "Ġfixed": 4710,
      "Ġruns": 4711,
      "Ġsweetly": 4712,
      "Ġcreate": 4713,
      "Ġjumps": 4714,
      "Ġzone": 4715,
      "Ġzip": 4716,
      "Ġdistort": 4717,
      "Ġbloom": 4718,
      "Ġblocks": 4719,
      "Ġexhaustion": 4720,
      "Ġfocusing": 4721,
      "Ġfluid": 4722,
      "Ġtune": 4723,
      "Ġdimness": 4724,
      "Ġsolitude": 4725,
      "Ġfluttery": 4726,
      "Ġextraordinary": 4727,
      "Ġpaths": 4728,
      "Ġmates": 4729,
      "Ġrefreshes": 4730,
      "Ġsurviving": 4731,
      "Ġevil": 4732,
      "Ġredisco": 4733,
      "Ġsplashed": 4734,
      "Ġfoggier": 4735,
      "Ġadding": 4736,
      "Ġschedule": 4737,
      "Ġdistract": 4738,
      "ĠIS": 4739,
      "ĠIs": 4740,
      "Ġfaithful": 4741,
      "Ġincoming": 4742,
      "Ġswirly": 4743,
      "Ġdinnertime": 4744,
      "Ġcommotion": 4745,
      "Ġfiguring": 4746,
      "Ġpracticing": 4747,
      "Ġswishing": 4748,
      "Ġannoyed": 4749,
      "Ġlanding": 4750,
      "Ġstands": 4751,
      "Ġobstacles": 4752,
      "Ġrepeated": 4753,
      "Ġcrispy": 4754,
      "Ġfurthest": 4755,
      "Ġblinking": 4756,
      "Ġsquint": 4757,
      "Ġunfold": 4758,
      "Ġapproaches": 4759,
      "Ġsignal": 4760,
      "Ġrepair": 4761,
      "Ġtextures": 4762,
      "Ġtextured": 4763,
      "Ġtotal": 4764,
      "Ġtricky": 4765,
      "Ġrecommend": 4766,
      "Ġimpatience": 4767,
      "Ġhalfway": 4768,
      "Ġcentered": 4769,
      "Ġtenderness": 4770,
      "Ġtougher": 4771,
      "Ġwritten": 4772,
      "Ġdragging": 4773,
      "Ġintention": 4774,
      "hhh": 4775,
      "Ġthriving": 4776,
      "Ġbirds": 4777,
      "Ġrearrange": 4778,
      "Ġtroubles": 4779,
      "Ġcomparison": 4780,
      "Ġpulsing": 4781,
      "Ġbuzz": 4782,
      "Ġwobbles": 4783,
      "Ġhundredth": 4784,
      "Ġleafy": 4785,
      "Ġresult": 4786,
      "ĠTh": 4787,
      "Ġfascinated": 4788,
      "Ġdrooping": 4789,
      "Ġera": 4790,
      "Ġamuse": 4791,
      "Ġinstinct": 4792,
      "Ġclicking": 4793,
      "Ġglimmers": 4794,
      "Ġaccomplishment": 4795,
      "Ġnudges": 4796,
      "Ġinsign": 4797,
      "Ġresilient": 4798,
      "Ġrepetition": 4799,
      "Ġintroducing": 4800,
      "Ġscratching": 4801,
      "Ġfourth": 4802,
      "Ġabsence": 4803,
      "Ġorangest": 4804,
      "Ġmanageable": 4805,
      "Ġthrash": 4806,
      "Ġroyalty": 4807,
      "Ġillusion": 4808,
      "Ġcreep": 4809,
      "Ġwelcoming": 4810,
      "Ġignorance": 4811,
      "Ġreplaced": 4812,
      "ĠDo": 4813,
      "Ġcautious": 4814,
      "Ġunpredictable": 4815,
      "Ġunhealthy": 4816,
      "curity": 4817,
      "Ġcompanion": 4818,
      "Ġmountains": 4819,
      "Ġslamming": 4820,
      "Ġcommunicate": 4821,
      "Ġmovie": 4822,
      "Ġshouting": 4823,
      "Ġdaydream": 4824,
      "Ġcapable": 4825,
      "Ġdirectly": 4826,
      "Ġgrieving": 4827,
      "Ġearthquakes": 4828,
      "Ġarguments": 4829,
      "Ġmarvel": 4830,
      "Ġhyp": 4831,
      "Ġpivot": 4832,
      "Ġinsecurity": 4833,
      "Ġcomedian": 4834,
      "Ġmuscles": 4835,
      "Ġgroan": 4836,
      "Ġgroup": 4837,
      "Ġinvestigate": 4838,
      "Ġobserved": 4839,
      "Ġraindrops": 4840,
      "Ġbicycle": 4841,
      "Ġanticipation": 4842,
      "lived": 4843,
      "scale": 4844,
      "Ġacknow": 4845,
      "Ġsource": 4846,
      "Ġfaint": 4847,
      "Ġnonsense": 4848,
      "Ġpounding": 4849,
      "Ġperhaps": 4850,
      "Ġparticular": 4851,
      "ass": 4852,
      "aker": 4853,
      "bl": 4854,
      "brea": 4855,
      "bined": 4856,
      "con": 4857,
      "color": 4858,
      "cence": 4859,
      "cket": 4860,
      "even": 4861,
      "ement": 4862,
      "fall": 4863,
      "friend": 4864,
      "forg": 4865,
      "ged": 4866,
      "hear": 4867,
      "hile": 4868,
      "know": 4869,
      "lting": 4870,
      "may": 4871,
      "man": 4872,
      "mon": 4873,
      "mates": 4874,
      "ned": 4875,
      "nant": 4876,
      "oken": 4877,
      "pop": 4878,
      "patter": 4879,
      "pical": 4880,
      "sa": 4881,
      "tu": 4882,
      "too": 4883,
      "tory": 4884,
      "uit": 4885,
      "wn": 4886,
      "ye": 4887,
      "your": 4888,
      "zed": 4889,
      "ĠA": 4890,
      "Ġess": 4891,
      "Ġtill": 4892,
      "Ġind": 4893,
      "Ġthinner": 4894,
      "Ġaud": 4895,
      "ern": 4896,
      "Ġsar": 4897,
      "Ġske": 4898,
      "Ġsigh": 4899,
      "Ġsizes": 4900,
      "atch": 4901,
      "Ġmil": 4902,
      "Ġbent": 4903,
      "Ġbath": 4904,
      "Ġfal": 4905,
      "esday": 4906,
      "Ġding": 4907,
      "Ġdive": 4908,
      "nds": 4909,
      "ren": 4910,
      "retting": 4911,
      "enough": 4912,
      "enity": 4913,
      "Ġcor": 4914,
      "Ġcell": 4915,
      "Ġcous": 4916,
      "Ġorient": 4917,
      "omp": 4918,
      "Ġgle": 4919,
      "Ġgon": 4920,
      "thered": 4921,
      "Ġlif": 4922,
      "anges": 4923,
      "sty": 4924,
      "stream": 4925,
      "Ġegg": 4926,
      "orb": 4927,
      "ord": 4928,
      "orable": 4929,
      "verage": 4930,
      "Ġbeep": 4931,
      "Ġbeam": 4932,
      "Ġple": 4933,
      "Ġpond": 4934,
      "Ġpants": 4935,
      "omed": 4936,
      "ometer": 4937,
      "onse": 4938,
      "Ġbunch": 4939,
      "Ġsoa": 4940,
      "Ġsore": 4941,
      "Ġinade": 4942,
      "Ġinner": 4943,
      "Ġnoon": 4944,
      "Ġjew": 4945,
      "Ġstag": 4946,
      "Ġstiff": 4947,
      "Ġforest": 4948,
      "imited": 4949,
      "Ġbutter": 4950,
      "Ġhazier": 4951,
      "lass": 4952,
      "Ġjustif": 4953,
      "Ġreve": 4954,
      "Ġwarmly": 4955,
      "Ġhowever": 4956,
      "Ġseven": 4957,
      "Ġwilting": 4958,
      "Ġlightly": 4959,
      "Ġlightbul": 4960,
      "Ġnotes": 4961,
      "chn": 4962,
      "itions": 4963,
      "adise": 4964,
      "lock": 4965,
      "Ġmaint": 4966,
      "Ġgoals": 4967,
      "Ġflap": 4968,
      "Ġtrance": 4969,
      "Ġchomp": 4970,
      "Ġfruit": 4971,
      "Ġlovel": 4972,
      "Ġlogic": 4973,
      "Ġsaving": 4974,
      "bborn": 4975,
      "bbons": 4976,
      "Ġsuit": 4977,
      "Ġsuff": 4978,
      "Ġsugg": 4979,
      "Ġaggress": 4980,
      "Ġcombined": 4981,
      "Ġtag": 4982,
      "Ġdiet": 4983,
      "veness": 4984,
      "Ġbob": 4985,
      "quate": 4986,
      "Ġquir": 4987,
      "igning": 4988,
      "ional": 4989,
      "icked": 4990,
      "icism": 4991,
      "Ġarm": 4992,
      "Ġheating": 4993,
      "reaming": 4994,
      "Ġquiver": 4995,
      "Ġvan": 4996,
      "Ġpee": 4997,
      "Ġpeers": 4998,
      "rateful": 4999,
      "Ġcaret": 5000,
      "Ġlettu": 5001,
      "Ġrealness": 5002,
      "Ġrealizing": 5003,
      "Ġstrain": 5004,
      "stem": 5005,
      "Ġdownstairs": 5006,
      "Ġhoped": 5007,
      "Ġpartly": 5008,
      "Ġhelpers": 5009,
      "otic": 5010,
      "Ġpoke": 5011,
      "Ġconcept": 5012,
      "ortun": 5013,
      "Ġplain": 5014,
      "ears": 5015,
      "Ġdanc": 5016,
      "Ġcoldness": 5017,
      "Ġrivers": 5018,
      "Ġribbons": 5019,
      "Ġimpact": 5020,
      "Ġimpro": 5021,
      "Ġdesk": 5022,
      "ists": 5023,
      "Ġclock": 5024,
      "Ġoldest": 5025,
      "Ġproving": 5026,
      "Ġdriving": 5027,
      "Ġworthless": 5028,
      "Ġrocking": 5029,
      "Ġrolling": 5030,
      "Ġwronged": 5031,
      "Ġunst": 5032,
      "Ġunlo": 5033,
      "Ġunbo": 5034,
      "Ġgrew": 5035,
      "elty": 5036,
      "Ġbliss": 5037,
      "ilege": 5038,
      "Ġtechn": 5039,
      "Ġregretting": 5040,
      "soft": 5041,
      "Ġpacing": 5042,
      "Ġparent": 5043,
      "Ġcompass": 5044,
      "Ġtenth": 5045,
      "Ġlessons": 5046,
      "Ġadorable": 5047,
      "colored": 5048,
      "Ġdeserving": 5049,
      "Ġforwards": 5050,
      "Ġpassage": 5051,
      "Ġawhile": 5052,
      "Ġlega": 5053,
      "Ġlearns": 5054,
      "Ġquicker": 5055,
      "Ġmeetings": 5056,
      "Ġgut": 5057,
      "Ġremains": 5058,
      "Ġpossibly": 5059,
      "Ġreminded": 5060,
      "Ġtwir": 5061,
      "ational": 5062,
      "Ġstubborn": 5063,
      "Ġdiscoveries": 5064,
      "Ġcoll": 5065,
      "Ġsharply": 5066,
      "Ġcourageous": 5067,
      "amin": 5068,
      "Ġglides": 5069,
      "Ġglimp": 5070,
      "Ġbending": 5071,
      "Ġlaughed": 5072,
      "Ġcloseness": 5073,
      "Ġpattering": 5074,
      "Ġideal": 5075,
      "Ġtickling": 5076,
      "Ġwisest": 5077,
      "Ġapologizing": 5078,
      "Ġfrequen": 5079,
      "Ġefforts": 5080,
      "Ġsweater": 5081,
      "Ġourselves": 5082,
      "Ġrecover": 5083,
      "Ġcreates": 5084,
      "Ġzing": 5085,
      "Ġterms": 5086,
      "Ġopportun": 5087,
      "cape": 5088,
      "Ġterritory": 5089,
      "Ġrhythms": 5090,
      "Ġprotective": 5091,
      "Ġwhispered": 5092,
      "ruction": 5093,
      "Ġrelaxes": 5094,
      "anging": 5095,
      "Ġupsets": 5096,
      "Ġfluff": 5097,
      "Ġchaotic": 5098,
      "Ġtube": 5099,
      "Ġtuesday": 5100,
      "Ġdimming": 5101,
      "Ġdimmed": 5102,
      "Ġescaping": 5103,
      "Ġmotor": 5104,
      "Ġserved": 5105,
      "Ġserenity": 5106,
      "Ġwrap": 5107,
      "Ġwrapping": 5108,
      "Ġtighter": 5109,
      "Ġweightless": 5110,
      "Ġzoomed": 5111,
      "Ġenter": 5112,
      "Ġfogged": 5113,
      "Ġtravelers": 5114,
      "Ġblankets": 5115,
      "Ġcrushing": 5116,
      "Ġcruelty": 5117,
      "Ġswirling": 5118,
      "Ġinfinity": 5119
    },
    "merges": [
      [
        "Ġ",
        "t"
      ],
      [
        "Ġ",
        "i"
      ],
      [
        "Ġt",
        "h"
      ],
      [
        "Ġ",
        "w"
      ],
      [
        "Ġ",
        "a"
      ],
      [
        "i",
        "n"
      ],
      [
        "e",
        "r"
      ],
      [
        "Ġ",
        "s"
      ],
      [
        "o",
        "u"
      ],
      [
        "a",
        "t"
      ],
      [
        "Ġth",
        "e"
      ],
      [
        "Ġ",
        "m"
      ],
      [
        "in",
        "g"
      ],
      [
        "Ġ",
        "b"
      ],
      [
        "Ġ",
        "y"
      ],
      [
        "Ġ",
        "f"
      ],
      [
        "Ġy",
        "ou"
      ],
      [
        "e",
        "s"
      ],
      [
        "Ġ",
        "d"
      ],
      [
        "n",
        "d"
      ],
      [
        "r",
        "e"
      ],
      [
        "Ġ",
        "l"
      ],
      [
        "Ġ",
        "h"
      ],
      [
        "Ġw",
        "h"
      ],
      [
        "o",
        "w"
      ],
      [
        "Ġ",
        "n"
      ],
      [
        "e",
        "n"
      ],
      [
        "Ġ",
        "c"
      ],
      [
        "Ġa",
        "nd"
      ],
      [
        "Ġd",
        "o"
      ],
      [
        "Ġi",
        "s"
      ],
      [
        "Ġi",
        "t"
      ],
      [
        "Ġ",
        "o"
      ],
      [
        "o",
        "m"
      ],
      [
        "e",
        "l"
      ],
      [
        "Ġ",
        "g"
      ],
      [
        "'",
        "s"
      ],
      [
        "t",
        "h"
      ],
      [
        "Ġl",
        "i"
      ],
      [
        "a",
        "y"
      ],
      [
        "a",
        "n"
      ],
      [
        "g",
        "h"
      ],
      [
        "s",
        "t"
      ],
      [
        "Ġ",
        "e"
      ],
      [
        "o",
        "r"
      ],
      [
        "a",
        "r"
      ],
      [
        "Ġt",
        "o"
      ],
      [
        "Ġwh",
        "at"
      ],
      [
        "Ġw",
        "at"
      ],
      [
        "v",
        "er"
      ],
      [
        "k",
        "e"
      ],
      [
        "Ġwat",
        "er"
      ],
      [
        "Ġm",
        "e"
      ],
      [
        "l",
        "l"
      ],
      [
        "Ġb",
        "e"
      ],
      [
        "gh",
        "t"
      ],
      [
        "Ġth",
        "at"
      ],
      [
        "er",
        "e"
      ],
      [
        "Ġ",
        "p"
      ],
      [
        "l",
        "e"
      ],
      [
        "om",
        "e"
      ],
      [
        "o",
        "n"
      ],
      [
        "v",
        "e"
      ],
      [
        "Ġ",
        "k"
      ],
      [
        "r",
        "i"
      ],
      [
        "Ġb",
        "u"
      ],
      [
        "Ġf",
        "e"
      ],
      [
        "th",
        "ing"
      ],
      [
        "'",
        "t"
      ],
      [
        "Ġe",
        "ver"
      ],
      [
        "Ġfe",
        "el"
      ],
      [
        "o",
        "o"
      ],
      [
        "Ġs",
        "ome"
      ],
      [
        "Ġs",
        "o"
      ],
      [
        "Ġi",
        "n"
      ],
      [
        "i",
        "s"
      ],
      [
        "Ġn",
        "o"
      ],
      [
        "Ġli",
        "ke"
      ],
      [
        "Ġ",
        "j"
      ],
      [
        "u",
        "st"
      ],
      [
        "en",
        "t"
      ],
      [
        "e",
        "t"
      ],
      [
        "l",
        "d"
      ],
      [
        "Ġs",
        "t"
      ],
      [
        "Ġf",
        "or"
      ],
      [
        "i",
        "m"
      ],
      [
        "Ġbu",
        "t"
      ],
      [
        "Ġh",
        "a"
      ],
      [
        "'",
        "m"
      ],
      [
        "c",
        "e"
      ],
      [
        "Ġever",
        "y"
      ],
      [
        "l",
        "a"
      ],
      [
        "Ġj",
        "ust"
      ],
      [
        "in",
        "d"
      ],
      [
        "Ġ",
        "re"
      ],
      [
        "Ġn",
        "e"
      ],
      [
        "Ġm",
        "y"
      ],
      [
        "Ġthe",
        "y"
      ],
      [
        "ri",
        "ght"
      ],
      [
        "'",
        "re"
      ],
      [
        "ar",
        "m"
      ],
      [
        "Ġw",
        "arm"
      ],
      [
        "Ġyou",
        "r"
      ],
      [
        "e",
        "d"
      ],
      [
        "Ġh",
        "ow"
      ],
      [
        "k",
        "es"
      ],
      [
        "Ġdo",
        "n"
      ],
      [
        "Ġn",
        "ow"
      ],
      [
        "Ġs",
        "e"
      ],
      [
        "Ġa",
        "re"
      ],
      [
        "ou",
        "t"
      ],
      [
        "Ġk",
        "ind"
      ],
      [
        "Ġm",
        "o"
      ],
      [
        "Ġa",
        "l"
      ],
      [
        "p",
        "p"
      ],
      [
        "Ġw",
        "i"
      ],
      [
        "Ġo",
        "f"
      ],
      [
        "es",
        "t"
      ],
      [
        "Ġk",
        "n"
      ],
      [
        "Ġli",
        "ght"
      ],
      [
        "Ġkn",
        "ow"
      ],
      [
        "Ġno",
        "t"
      ],
      [
        "es",
        "s"
      ],
      [
        "c",
        "h"
      ],
      [
        "Ġc",
        "an"
      ],
      [
        "Ġ",
        "right"
      ],
      [
        "Ġa",
        "b"
      ],
      [
        "s",
        "e"
      ],
      [
        "i",
        "t"
      ],
      [
        "ow",
        "l"
      ],
      [
        "on",
        "e"
      ],
      [
        "Ġo",
        "n"
      ],
      [
        "Ġwh",
        "en"
      ],
      [
        "Ġth",
        "ere"
      ],
      [
        "a",
        "d"
      ],
      [
        "a",
        "ll"
      ],
      [
        "Ġb",
        "owl"
      ],
      [
        "b",
        "e"
      ],
      [
        "oo",
        "d"
      ],
      [
        "i",
        "d"
      ],
      [
        "Ġth",
        "ing"
      ],
      [
        "w",
        "ay"
      ],
      [
        "Ġevery",
        "thing"
      ],
      [
        "m",
        "e"
      ],
      [
        "Ġ",
        "u"
      ],
      [
        "Ġh",
        "ere"
      ],
      [
        "f",
        "u"
      ],
      [
        "f",
        "t"
      ],
      [
        "g",
        "e"
      ],
      [
        "Ġab",
        "out"
      ],
      [
        "l",
        "o"
      ],
      [
        "Ġm",
        "ay"
      ],
      [
        "Ġmay",
        "be"
      ],
      [
        "Ġs",
        "h"
      ],
      [
        "l",
        "y"
      ],
      [
        "Ġm",
        "a"
      ],
      [
        "Ġth",
        "is"
      ],
      [
        "Ġfor",
        "g"
      ],
      [
        "Ġw",
        "a"
      ],
      [
        "Ġfeel",
        "s"
      ],
      [
        "Ġse",
        "e"
      ],
      [
        "Ġha",
        "pp"
      ],
      [
        "fu",
        "l"
      ],
      [
        "Ġg",
        "o"
      ],
      [
        "ou",
        "gh"
      ],
      [
        "Ġsome",
        "thing"
      ],
      [
        "Ġw",
        "or"
      ],
      [
        "a",
        "l"
      ],
      [
        "in",
        "k"
      ],
      [
        "Ġ",
        "r"
      ],
      [
        "Ġf",
        "la"
      ],
      [
        "t",
        "t"
      ],
      [
        "Ġwi",
        "th"
      ],
      [
        "Ġy",
        "es"
      ],
      [
        ".",
        "."
      ],
      [
        "Ġl",
        "oo"
      ],
      [
        "Ġth",
        "ink"
      ],
      [
        "Ġo",
        "r"
      ],
      [
        "Ġg",
        "ood"
      ],
      [
        "u",
        "r"
      ],
      [
        "Ġdo",
        "es"
      ],
      [
        "Ġa",
        "n"
      ],
      [
        "i",
        "ce"
      ],
      [
        "Ġloo",
        "k"
      ],
      [
        "ou",
        "nd"
      ],
      [
        "Ġm",
        "om"
      ],
      [
        "Ġmom",
        "ent"
      ],
      [
        "Ġo",
        "h"
      ],
      [
        "Ġi",
        "f"
      ],
      [
        "Ġt",
        "r"
      ],
      [
        "Ġa",
        "ll"
      ],
      [
        "a",
        "u"
      ],
      [
        "Ġwh",
        "y"
      ],
      [
        "s",
        "s"
      ],
      [
        "way",
        "s"
      ],
      [
        "Ġal",
        "ways"
      ],
      [
        "ou",
        "ld"
      ],
      [
        "Ġa",
        "t"
      ],
      [
        "Ġfla",
        "kes"
      ],
      [
        "an",
        "ge"
      ],
      [
        "Ġbe",
        "ing"
      ],
      [
        "i",
        "ll"
      ],
      [
        "n",
        "ess"
      ],
      [
        "m",
        "b"
      ],
      [
        "o",
        "p"
      ],
      [
        "is",
        "h"
      ],
      [
        "Ġsome",
        "one"
      ],
      [
        "Ġne",
        "w"
      ],
      [
        "c",
        "k"
      ],
      [
        "Ġt",
        "im"
      ],
      [
        "Ġs",
        "m"
      ],
      [
        "Ġc",
        "h"
      ],
      [
        "Ġf",
        "r"
      ],
      [
        "nd",
        "er"
      ],
      [
        "Ġso",
        "ft"
      ],
      [
        "e",
        "p"
      ],
      [
        "Ġg",
        "la"
      ],
      [
        "c",
        "t"
      ],
      [
        "Ġre",
        "me"
      ],
      [
        "Ġreme",
        "mb"
      ],
      [
        "Ġs",
        "w"
      ],
      [
        "an",
        "t"
      ],
      [
        "Ġthing",
        "s"
      ],
      [
        "Ġtim",
        "e"
      ],
      [
        "ar",
        "t"
      ],
      [
        "a",
        "in"
      ],
      [
        "f",
        "e"
      ],
      [
        "Ġrememb",
        "er"
      ],
      [
        "Ġwh",
        "o"
      ],
      [
        "Ġg",
        "et"
      ],
      [
        "i",
        "r"
      ],
      [
        "Ġf",
        "a"
      ],
      [
        "e",
        "a"
      ],
      [
        "Ġl",
        "o"
      ],
      [
        "Ġforg",
        "et"
      ],
      [
        "Ġs",
        "a"
      ],
      [
        "r",
        "a"
      ],
      [
        "Ġsw",
        "im"
      ],
      [
        "l",
        "es"
      ],
      [
        "Ġgla",
        "ss"
      ],
      [
        "th",
        "er"
      ],
      [
        "Ġthe",
        "m"
      ],
      [
        "Ġu",
        "p"
      ],
      [
        "Ġan",
        "y"
      ],
      [
        "Ġma",
        "kes"
      ],
      [
        "b",
        "b"
      ],
      [
        "Ġs",
        "u"
      ],
      [
        "t",
        "er"
      ],
      [
        "Ġg",
        "ent"
      ],
      [
        "Ġa",
        "g"
      ],
      [
        "Ġc",
        "om"
      ],
      [
        "Ġf",
        "lo"
      ],
      [
        "Ġst",
        "ill"
      ],
      [
        "Ġflo",
        "at"
      ],
      [
        "Ġha",
        "ve"
      ],
      [
        "Ġwa",
        "s"
      ],
      [
        "Ġ",
        "en"
      ],
      [
        "t",
        "im"
      ],
      [
        "v",
        "ing"
      ],
      [
        "i",
        "ve"
      ],
      [
        "el",
        "l"
      ],
      [
        "Ġbu",
        "bb"
      ],
      [
        "Ġme",
        "an"
      ],
      [
        "Ġn",
        "ice"
      ],
      [
        "Ġh",
        "el"
      ],
      [
        "Ġthe",
        "n"
      ],
      [
        "Ġag",
        "ain"
      ],
      [
        "Ġt",
        "a"
      ],
      [
        "Ġd",
        "i"
      ],
      [
        "v",
        "en"
      ],
      [
        "Ġbe",
        "c"
      ],
      [
        "Ġw",
        "o"
      ],
      [
        "Ġto",
        "o"
      ],
      [
        "Ġsome",
        "tim"
      ],
      [
        "Ġsometim",
        "es"
      ],
      [
        "re",
        "d"
      ],
      [
        "f",
        "f"
      ],
      [
        "Ġwo",
        "nder"
      ],
      [
        "Ġen",
        "ough"
      ],
      [
        "Ġkind",
        "ness"
      ],
      [
        "Ġb",
        "o"
      ],
      [
        "ar",
        "d"
      ],
      [
        "Ġhapp",
        "y"
      ],
      [
        "all",
        "y"
      ],
      [
        "Ġhapp",
        "en"
      ],
      [
        "..",
        "."
      ],
      [
        "o",
        "ld"
      ],
      [
        "Ġsm",
        "all"
      ],
      [
        "Ġor",
        "ange"
      ],
      [
        "Ġwh",
        "ere"
      ],
      [
        "Ġ",
        "ke"
      ],
      [
        "Ġr",
        "est"
      ],
      [
        "Ġke",
        "ep"
      ],
      [
        "q",
        "u"
      ],
      [
        "Ġw",
        "e"
      ],
      [
        "Ġfr",
        "om"
      ],
      [
        "Ġst",
        "ay"
      ],
      [
        "au",
        "se"
      ],
      [
        "Ġs",
        "c"
      ],
      [
        "Ġo",
        "k"
      ],
      [
        "Ġf",
        "in"
      ],
      [
        "on",
        "g"
      ],
      [
        "Ġth",
        "r"
      ],
      [
        "ff",
        "er"
      ],
      [
        "Ġthr",
        "ough"
      ],
      [
        "Ġd",
        "id"
      ],
      [
        "Ġbec",
        "ause"
      ],
      [
        "Ġp",
        "er"
      ],
      [
        "Ġe",
        "x"
      ],
      [
        "Ġmo",
        "ve"
      ],
      [
        "Ġdi",
        "ffer"
      ],
      [
        "Ġon",
        "e"
      ],
      [
        "Ġtr",
        "y"
      ],
      [
        "Ġw",
        "ay"
      ],
      [
        "e",
        "nd"
      ],
      [
        "d",
        "ay"
      ],
      [
        "Ġ",
        "qu"
      ],
      [
        "i",
        "g"
      ],
      [
        "i",
        "on"
      ],
      [
        "Ġf",
        "ish"
      ],
      [
        "Ġwor",
        "ld"
      ],
      [
        "Ġok",
        "ay"
      ],
      [
        "Ġgent",
        "le"
      ],
      [
        "Ġwarm",
        "th"
      ],
      [
        "Ġe",
        "ven"
      ],
      [
        "Ġwho",
        "le"
      ],
      [
        "Ġbubb",
        "les"
      ],
      [
        "at",
        "ter"
      ],
      [
        "el",
        "f"
      ],
      [
        "Ġdiffer",
        "ent"
      ],
      [
        "ri",
        "end"
      ],
      [
        "Ġa",
        "m"
      ],
      [
        "Ġf",
        "riend"
      ],
      [
        "Ġb",
        "ig"
      ],
      [
        "Ġli",
        "tt"
      ],
      [
        "Ġlitt",
        "le"
      ],
      [
        "i",
        "c"
      ],
      [
        "l",
        "ow"
      ],
      [
        "Ġb",
        "a"
      ],
      [
        "Ġt",
        "ell"
      ],
      [
        "ver",
        "y"
      ],
      [
        "Ġd",
        "ay"
      ],
      [
        "t",
        "ing"
      ],
      [
        "i",
        "ght"
      ],
      [
        "Ġa",
        "r"
      ],
      [
        "Ġm",
        "atter"
      ],
      [
        "ow",
        "n"
      ],
      [
        "Ġw",
        "ould"
      ],
      [
        "Ġne",
        "ed"
      ],
      [
        "Ġb",
        "right"
      ],
      [
        "Ġth",
        "an"
      ],
      [
        "Ġne",
        "ver"
      ],
      [
        "Ġ",
        "very"
      ],
      [
        "Ġb",
        "el"
      ],
      [
        "Ġa",
        "s"
      ],
      [
        "Ġh",
        "e"
      ],
      [
        "m",
        "p"
      ],
      [
        "re",
        "a"
      ],
      [
        "i",
        "l"
      ],
      [
        "Ġs",
        "ay"
      ],
      [
        "Ġlo",
        "ve"
      ],
      [
        "Ġqu",
        "i"
      ],
      [
        "s",
        "elf"
      ],
      [
        "Ġwonder",
        "ful"
      ],
      [
        "Ġs",
        "p"
      ],
      [
        "Ġba",
        "ck"
      ],
      [
        "Ġe",
        "a"
      ],
      [
        "Ġh",
        "u"
      ],
      [
        "Ġfin",
        "s"
      ],
      [
        "v",
        "es"
      ],
      [
        "Ġw",
        "ant"
      ],
      [
        "Ġar",
        "ound"
      ],
      [
        "r",
        "y"
      ],
      [
        "id",
        "e"
      ],
      [
        "k",
        "ing"
      ],
      [
        "Ġb",
        "est"
      ],
      [
        "Ġ",
        "v"
      ],
      [
        "Ġgo",
        "ld"
      ],
      [
        "o",
        "re"
      ],
      [
        "ad",
        "y"
      ],
      [
        "Ġf",
        "u"
      ],
      [
        "au",
        "t"
      ],
      [
        "Ġch",
        "an"
      ],
      [
        "Ġbe",
        "aut"
      ],
      [
        "Ġh",
        "old"
      ],
      [
        "Ġmo",
        "st"
      ],
      [
        "Ġmean",
        "s"
      ],
      [
        "Ġre",
        "ally"
      ],
      [
        "Ġp",
        "e"
      ],
      [
        "el",
        "y"
      ],
      [
        "r",
        "at"
      ],
      [
        "Ġmo",
        "ving"
      ],
      [
        "ar",
        "k"
      ],
      [
        "Ġc",
        "a"
      ],
      [
        "Ġto",
        "day"
      ],
      [
        "Ġc",
        "ome"
      ],
      [
        "Ġwa",
        "it"
      ],
      [
        "i",
        "e"
      ],
      [
        "Ġbeaut",
        "i"
      ],
      [
        "Ġwi",
        "ll"
      ],
      [
        "Ġh",
        "ard"
      ],
      [
        "Ġmo",
        "re"
      ],
      [
        "m",
        "ing"
      ],
      [
        "Ġma",
        "ke"
      ],
      [
        "Ġsa",
        "me"
      ],
      [
        "Ġbeauti",
        "ful"
      ],
      [
        "Ġqui",
        "et"
      ],
      [
        "fe",
        "ct"
      ],
      [
        "Ġm",
        "u"
      ],
      [
        "Ġper",
        "fect"
      ],
      [
        "Ġsee",
        "m"
      ],
      [
        "Ġb",
        "y"
      ],
      [
        "Ġse",
        "c"
      ],
      [
        "Ġl",
        "et"
      ],
      [
        "Ġd",
        "rea"
      ],
      [
        "Ġdoes",
        "n"
      ],
      [
        "op",
        "le"
      ],
      [
        "Ġpe",
        "ople"
      ],
      [
        "Ġp",
        "r"
      ],
      [
        "Ġcom",
        "es"
      ],
      [
        "Ġj",
        "o"
      ],
      [
        "Ġre",
        "al"
      ],
      [
        "Ġp",
        "ea"
      ],
      [
        "Ġbel",
        "ie"
      ],
      [
        "ou",
        "s"
      ],
      [
        "Ġhel",
        "lo"
      ],
      [
        "re",
        "at"
      ],
      [
        "Ġst",
        "r"
      ],
      [
        "Ġpea",
        "ce"
      ],
      [
        "or",
        "n"
      ],
      [
        "Ġmu",
        "ch"
      ],
      [
        "it",
        "e"
      ],
      [
        "Ġd",
        "ark"
      ],
      [
        "Ġs",
        "ound"
      ],
      [
        "Ġc",
        "le"
      ],
      [
        "st",
        "e"
      ],
      [
        "Ġp",
        "l"
      ],
      [
        "Ġsh",
        "ould"
      ],
      [
        "Ġdrea",
        "m"
      ],
      [
        "Ġfloat",
        "ing"
      ],
      [
        "Ġ",
        "out"
      ],
      [
        "Ġd",
        "own"
      ],
      [
        "Ġh",
        "op"
      ],
      [
        "Ġch",
        "ange"
      ],
      [
        "Ġp",
        "art"
      ],
      [
        "Ġst",
        "art"
      ],
      [
        "Ġany",
        "thing"
      ],
      [
        "d",
        "y"
      ],
      [
        "Ġsu",
        "re"
      ],
      [
        "Ġlook",
        "ing"
      ],
      [
        "i",
        "b"
      ],
      [
        "es",
        "h"
      ],
      [
        "Ġno",
        "thing"
      ],
      [
        "st",
        "a"
      ],
      [
        "in",
        "y"
      ],
      [
        "Ġf",
        "ood"
      ],
      [
        "Ġhel",
        "p"
      ],
      [
        "u",
        "re"
      ],
      [
        "Ġnot",
        "ice"
      ],
      [
        "Ġwat",
        "ch"
      ],
      [
        "ur",
        "n"
      ],
      [
        "Ġg",
        "i"
      ],
      [
        "Ġo",
        "ther"
      ],
      [
        "Ġfr",
        "esh"
      ],
      [
        "Ġhop",
        "e"
      ],
      [
        "Ġb",
        "ra"
      ],
      [
        "Ġswim",
        "ming"
      ],
      [
        "Ġe",
        "y"
      ],
      [
        "o",
        "t"
      ],
      [
        "Ġfeel",
        "ing"
      ],
      [
        "'",
        "ve"
      ],
      [
        "h",
        "ere"
      ],
      [
        "o",
        "nd"
      ],
      [
        "s",
        "h"
      ],
      [
        "st",
        "en"
      ],
      [
        "Ġtry",
        "ing"
      ],
      [
        "tt",
        "er"
      ],
      [
        "Ġsa",
        "fe"
      ],
      [
        "Ġp",
        "o"
      ],
      [
        "Ġf",
        "ind"
      ],
      [
        "re",
        "t"
      ],
      [
        "Ġt",
        "i"
      ],
      [
        "Ġt",
        "urn"
      ],
      [
        "g",
        "g"
      ],
      [
        "Ġb",
        "r"
      ],
      [
        "Ġsc",
        "a"
      ],
      [
        "Ġchan",
        "g"
      ],
      [
        "Ġu",
        "nder"
      ],
      [
        "f",
        "ish"
      ],
      [
        "Ġs",
        "ad"
      ],
      [
        "Ġli",
        "sten"
      ],
      [
        "Ġc",
        "on"
      ],
      [
        "Ġey",
        "es"
      ],
      [
        "Ġt",
        "iny"
      ],
      [
        "Ġs",
        "low"
      ],
      [
        "a",
        "st"
      ],
      [
        "n",
        "g"
      ],
      [
        "Ġbe",
        "tter"
      ],
      [
        "Ġgold",
        "fish"
      ],
      [
        "w",
        "here"
      ],
      [
        "Ġsh",
        "a"
      ],
      [
        "Ġsu",
        "n"
      ],
      [
        "Ġmatter",
        "s"
      ],
      [
        "Ġtr",
        "ust"
      ],
      [
        "Ġf",
        "ir"
      ],
      [
        "Ġea",
        "ch"
      ],
      [
        "Ġon",
        "ly"
      ],
      [
        "or",
        "t"
      ],
      [
        "Ġh",
        "ur"
      ],
      [
        "s",
        "ide"
      ],
      [
        "o",
        "l"
      ],
      [
        "Ġbelie",
        "ve"
      ],
      [
        "Ġfir",
        "st"
      ],
      [
        "re",
        "ady"
      ],
      [
        "Ġal",
        "ready"
      ],
      [
        "v",
        "or"
      ],
      [
        "Ġp",
        "la"
      ],
      [
        "Ġlook",
        "s"
      ],
      [
        "Ġh",
        "ome"
      ],
      [
        "oo",
        "l"
      ],
      [
        "'",
        "ll"
      ],
      [
        "Ġa",
        "way"
      ],
      [
        "Ġyour",
        "self"
      ],
      [
        "Ġg",
        "ra"
      ],
      [
        "Ġti",
        "red"
      ],
      [
        "Ġsca",
        "red"
      ],
      [
        "Ġc",
        "ould"
      ],
      [
        "Ġl",
        "ong"
      ],
      [
        "s",
        "on"
      ],
      [
        "Ġgo",
        "ing"
      ],
      [
        "Ġst",
        "op"
      ],
      [
        "Ġs",
        "ur"
      ],
      [
        "Ġal",
        "ive"
      ],
      [
        "Ġfa",
        "vor"
      ],
      [
        "v",
        "el"
      ],
      [
        "Ġhur",
        "t"
      ],
      [
        "Ġhappen",
        "s"
      ],
      [
        "Ġhu",
        "m"
      ],
      [
        "Ġfavor",
        "ite"
      ],
      [
        "Ġ",
        "el"
      ],
      [
        "Ġwh",
        "i"
      ],
      [
        "Ġel",
        "se"
      ],
      [
        "Ġb",
        "reat"
      ],
      [
        "Ġbreat",
        "h"
      ],
      [
        "Ġd",
        "e"
      ],
      [
        "Ġc",
        "ool"
      ],
      [
        "sta",
        "nd"
      ],
      [
        "Ġunder",
        "stand"
      ],
      [
        "o",
        "ve"
      ],
      [
        "Ġl",
        "on"
      ],
      [
        "Ġkeep",
        "s"
      ],
      [
        "Ġc",
        "ar"
      ],
      [
        "in",
        "t"
      ],
      [
        "Ġbe",
        "f"
      ],
      [
        "o",
        "se"
      ],
      [
        "Ġpl",
        "ant"
      ],
      [
        "Ġbef",
        "ore"
      ],
      [
        "Ġsh",
        "ad"
      ],
      [
        "Ġta",
        "ste"
      ],
      [
        "le",
        "ep"
      ],
      [
        "e",
        "ar"
      ],
      [
        "Ġha",
        "nd"
      ],
      [
        "Ġli",
        "fe"
      ],
      [
        "Ġsec",
        "ond"
      ],
      [
        "Ġshad",
        "ow"
      ],
      [
        "Ġp",
        "re"
      ],
      [
        "Ġo",
        "ver"
      ],
      [
        "Ġwi",
        "gg"
      ],
      [
        "Ġd",
        "an"
      ],
      [
        "Ġwor",
        "d"
      ],
      [
        "Ġgra",
        "vel"
      ],
      [
        "Ġc",
        "at"
      ],
      [
        "r",
        "ow"
      ],
      [
        "Ġca",
        "re"
      ],
      [
        "Ġw",
        "ere"
      ],
      [
        "Ġab",
        "ove"
      ],
      [
        "Ġr",
        "ound"
      ],
      [
        "Ġis",
        "n"
      ],
      [
        "Ġs",
        "leep"
      ],
      [
        "Ġc",
        "orn"
      ],
      [
        "Ġc",
        "old"
      ],
      [
        "Ġcom",
        "ing"
      ],
      [
        "Ġe",
        "at"
      ],
      [
        "Ġd",
        "is"
      ],
      [
        "Ġdo",
        "ing"
      ],
      [
        "Ġfu",
        "ll"
      ],
      [
        "Ġbubb",
        "le"
      ],
      [
        "ol",
        "or"
      ],
      [
        "Ġthan",
        "k"
      ],
      [
        "Ġwith",
        "out"
      ],
      [
        "Ġc",
        "olor"
      ],
      [
        "ad",
        "e"
      ],
      [
        "Ġfa",
        "st"
      ],
      [
        "s",
        "ing"
      ],
      [
        "x",
        "t"
      ],
      [
        "Ġforg",
        "ive"
      ],
      [
        "Ġm",
        "ight"
      ],
      [
        "Ġc",
        "al"
      ],
      [
        "Ġcorn",
        "er"
      ],
      [
        "Ġevery",
        "one"
      ],
      [
        "Ġfa",
        "ce"
      ],
      [
        "Ġp",
        "u"
      ],
      [
        "Ġjo",
        "y"
      ],
      [
        "Ġ",
        "ri"
      ],
      [
        "Ġget",
        "s"
      ],
      [
        "Ġthe",
        "ir"
      ],
      [
        "p",
        "e"
      ],
      [
        "Ġi",
        "mp"
      ],
      [
        "m",
        "ent"
      ],
      [
        "Ġcal",
        "m"
      ],
      [
        "Ġd",
        "es"
      ],
      [
        "Ġsound",
        "s"
      ],
      [
        "Ġpla",
        "ce"
      ],
      [
        "Ġany",
        "way"
      ],
      [
        "in",
        "e"
      ],
      [
        "Ġfla",
        "ke"
      ],
      [
        "Ġne",
        "xt"
      ],
      [
        "Ġc",
        "u"
      ],
      [
        "a",
        "b"
      ],
      [
        "Ġc",
        "ur"
      ],
      [
        "Ġo",
        "p"
      ],
      [
        "Ġcle",
        "ar"
      ],
      [
        "Ġhe",
        "art"
      ],
      [
        "Ġgi",
        "ft"
      ],
      [
        "Ġpeace",
        "ful"
      ],
      [
        "Ġcu",
        "ri"
      ],
      [
        "u",
        "e"
      ],
      [
        "Ġlon",
        "ely"
      ],
      [
        "Ġsh",
        "ow"
      ],
      [
        "Ġhold",
        "s"
      ],
      [
        "Ġu",
        "s"
      ],
      [
        "ion",
        "s"
      ],
      [
        "g",
        "er"
      ],
      [
        "n",
        "t"
      ],
      [
        "d",
        "le"
      ],
      [
        "Ġea",
        "s"
      ],
      [
        "t",
        "o"
      ],
      [
        "c",
        "i"
      ],
      [
        "i",
        "st"
      ],
      [
        "Ġt",
        "al"
      ],
      [
        "Ġal",
        "one"
      ],
      [
        "Ġm",
        "id"
      ],
      [
        "Ġm",
        "ade"
      ],
      [
        "Ġthink",
        "ing"
      ],
      [
        "en",
        "ce"
      ],
      [
        "Ġmid",
        "dle"
      ],
      [
        "Ġbo",
        "th"
      ],
      [
        "Ġgent",
        "ly"
      ],
      [
        "Ġget",
        "ting"
      ],
      [
        "Ġbr",
        "ing"
      ],
      [
        "Ġpre",
        "tt"
      ],
      [
        "u",
        "d"
      ],
      [
        "Ġbe",
        "en"
      ],
      [
        "Ġv",
        "ib"
      ],
      [
        "Ġl",
        "ea"
      ],
      [
        "Ġvib",
        "rat"
      ],
      [
        "Ġb",
        "ad"
      ],
      [
        "Ġg",
        "rat"
      ],
      [
        "Ġme",
        "et"
      ],
      [
        "Ġbo",
        "dy"
      ],
      [
        "ill",
        "s"
      ],
      [
        "Ġprett",
        "y"
      ],
      [
        "Ġper",
        "son"
      ],
      [
        "Ġli",
        "ve"
      ],
      [
        "Ġha",
        "s"
      ],
      [
        "p",
        "ri"
      ],
      [
        "Ġsur",
        "pri"
      ],
      [
        "Ġcuri",
        "ous"
      ],
      [
        "l",
        "ing"
      ],
      [
        "in",
        "ess"
      ],
      [
        "Ġforget",
        "ting"
      ],
      [
        "Ġto",
        "ge"
      ],
      [
        "Ġtoge",
        "ther"
      ],
      [
        "tt",
        "om"
      ],
      [
        "Ġbo",
        "ttom"
      ],
      [
        "Ġth",
        "ose"
      ],
      [
        "Ġto",
        "p"
      ],
      [
        "c",
        "es"
      ],
      [
        "Ġpo",
        "int"
      ],
      [
        "Ġf",
        "all"
      ],
      [
        "Ġsec",
        "ret"
      ],
      [
        "o",
        "ther"
      ],
      [
        "â",
        "Ģ"
      ],
      [
        "it",
        "s"
      ],
      [
        "âĢ",
        "Ķ"
      ],
      [
        "p",
        "le"
      ],
      [
        "Ġan",
        "other"
      ],
      [
        "Ġmost",
        "ly"
      ],
      [
        "Ġg",
        "ive"
      ],
      [
        "al",
        "es"
      ],
      [
        "er",
        "day"
      ],
      [
        "Ġy",
        "est"
      ],
      [
        "Ġsc",
        "ales"
      ],
      [
        "Ġyest",
        "erday"
      ],
      [
        "Ġg",
        "low"
      ],
      [
        "or",
        "y"
      ],
      [
        "Ġmo",
        "ves"
      ],
      [
        "Ġop",
        "en"
      ],
      [
        "Ġse",
        "en"
      ],
      [
        "Ġc",
        "lo"
      ],
      [
        "an",
        "y"
      ],
      [
        "Ġforg",
        "ot"
      ],
      [
        "Ġwatch",
        "ing"
      ],
      [
        "e",
        "ful"
      ],
      [
        "u",
        "ck"
      ],
      [
        "Ġfu",
        "n"
      ],
      [
        "Ġwait",
        "ing"
      ],
      [
        "Ġgrat",
        "eful"
      ],
      [
        "a",
        "pp"
      ],
      [
        "ou",
        "ch"
      ],
      [
        "Ġo",
        "ld"
      ],
      [
        "Ġpr",
        "o"
      ],
      [
        "Ġt",
        "ouch"
      ],
      [
        "ir",
        "c"
      ],
      [
        "Ġc",
        "irc"
      ],
      [
        "Ġex",
        "p"
      ],
      [
        "Ġchang",
        "es"
      ],
      [
        "Ġv",
        "is"
      ],
      [
        "Ġd",
        "ri"
      ],
      [
        "Ġcle",
        "an"
      ],
      [
        "Ġwor",
        "k"
      ],
      [
        "Ġhappen",
        "ing"
      ],
      [
        "Ġbra",
        "nd"
      ],
      [
        "ort",
        "ant"
      ],
      [
        "Ġwor",
        "th"
      ],
      [
        "Ġne",
        "ar"
      ],
      [
        "Ġimp",
        "ortant"
      ],
      [
        "Ġw",
        "ell"
      ],
      [
        "Ġsay",
        "ing"
      ],
      [
        "ke",
        "d"
      ],
      [
        "Ġmy",
        "self"
      ],
      [
        "Ġf",
        "ore"
      ],
      [
        "Ġf",
        "o"
      ],
      [
        "Ġr",
        "o"
      ],
      [
        "Ġfore",
        "ver"
      ],
      [
        "i",
        "ther"
      ],
      [
        "Ġw",
        "r"
      ],
      [
        "Ġp",
        "at"
      ],
      [
        "Ġrest",
        "ing"
      ],
      [
        "Ġwor",
        "ry"
      ],
      [
        "or",
        "row"
      ],
      [
        "Ġwr",
        "ong"
      ],
      [
        "s",
        "ed"
      ],
      [
        "Ġg",
        "ills"
      ],
      [
        "Ġseem",
        "s"
      ],
      [
        "Ġu",
        "n"
      ],
      [
        "Ġt",
        "om"
      ],
      [
        "Ġm",
        "is"
      ],
      [
        "Ġtom",
        "orrow"
      ],
      [
        "oo",
        "th"
      ],
      [
        "Ġre",
        "a"
      ],
      [
        "Ġhe",
        "ar"
      ],
      [
        "ou",
        "ght"
      ],
      [
        "Ġout",
        "side"
      ],
      [
        "Ġm",
        "ust"
      ],
      [
        "Ġdri",
        "ft"
      ],
      [
        "Ġwhi",
        "ch"
      ],
      [
        "Ġgla",
        "d"
      ],
      [
        "u",
        "ally"
      ],
      [
        "Ġg",
        "re"
      ],
      [
        "Ġsm",
        "ooth"
      ],
      [
        "Ġforg",
        "i"
      ],
      [
        "Ġme",
        "m"
      ],
      [
        "Ġp",
        "ast"
      ],
      [
        "Ġc",
        "ou"
      ],
      [
        "ar",
        "y"
      ],
      [
        "Ġhappen",
        "ed"
      ],
      [
        "Ġm",
        "orn"
      ],
      [
        "Ġin",
        "ter"
      ],
      [
        "Ġmorn",
        "ing"
      ],
      [
        "el",
        "t"
      ],
      [
        "Ġbra",
        "ve"
      ],
      [
        "Ġplant",
        "s"
      ],
      [
        "Ġb",
        "l"
      ],
      [
        "i",
        "le"
      ],
      [
        "Ġgo",
        "t"
      ],
      [
        "Ġex",
        "ist"
      ],
      [
        "Ġknow",
        "ing"
      ],
      [
        "Ġfriend",
        "s"
      ],
      [
        "'",
        "d"
      ],
      [
        "ou",
        "d"
      ],
      [
        "Ġta",
        "p"
      ],
      [
        "Ġin",
        "to"
      ],
      [
        "Ġjo",
        "ke"
      ],
      [
        "Ġm",
        "any"
      ],
      [
        "Ġinter",
        "est"
      ],
      [
        "Ġn",
        "ight"
      ],
      [
        "Ġin",
        "side"
      ],
      [
        "Ġf",
        "elt"
      ],
      [
        "Ġca",
        "me"
      ],
      [
        "b",
        "o"
      ],
      [
        "Ġsp",
        "e"
      ],
      [
        "Ġdream",
        "s"
      ],
      [
        "Ġg",
        "one"
      ],
      [
        "Ġlisten",
        "ing"
      ],
      [
        "Ġt",
        "e"
      ],
      [
        "Ġre",
        "ady"
      ],
      [
        "c",
        "ing"
      ],
      [
        "Ġdis",
        "app"
      ],
      [
        "Ġpro",
        "b"
      ],
      [
        "bo",
        "dy"
      ],
      [
        "Ġtr",
        "ue"
      ],
      [
        "ct",
        "ion"
      ],
      [
        "Ġsome",
        "where"
      ],
      [
        "Ġth",
        "ough"
      ],
      [
        "Ġvis",
        "it"
      ],
      [
        "a",
        "ct"
      ],
      [
        "Ġr",
        "u"
      ],
      [
        "Ġlo",
        "st"
      ],
      [
        "Ġa",
        "pp"
      ],
      [
        "Ġmem",
        "ory"
      ],
      [
        "w",
        "ard"
      ],
      [
        "Ġa",
        "c"
      ],
      [
        "b",
        "y"
      ],
      [
        "Ġbring",
        "s"
      ],
      [
        "Ġhelp",
        "s"
      ],
      [
        "Ġhu",
        "ng"
      ],
      [
        "ib",
        "le"
      ],
      [
        "Ġgre",
        "en"
      ],
      [
        "t",
        "y"
      ],
      [
        "Ġth",
        "ought"
      ],
      [
        "Ġs",
        "im"
      ],
      [
        "Ġno",
        "body"
      ],
      [
        "Ġma",
        "king"
      ],
      [
        "Ġsoft",
        "er"
      ],
      [
        "n",
        "ing"
      ],
      [
        "Ġ",
        "own"
      ],
      [
        "it",
        "y"
      ],
      [
        "Ġex",
        "act"
      ],
      [
        "Ġw",
        "ish"
      ],
      [
        "Ġevery",
        "where"
      ],
      [
        "i",
        "z"
      ],
      [
        "c",
        "u"
      ],
      [
        "Ġnot",
        "ic"
      ],
      [
        "Ġstay",
        "s"
      ],
      [
        "Ġl",
        "ast"
      ],
      [
        "Ġstr",
        "ong"
      ],
      [
        "Ġvibrat",
        "ions"
      ],
      [
        "Ġgo",
        "es"
      ],
      [
        "Ġany",
        "one"
      ],
      [
        "Ġe",
        "ither"
      ],
      [
        "Ġsm",
        "ile"
      ],
      [
        "Ġa",
        "ct"
      ],
      [
        "Ġa",
        "f"
      ],
      [
        "Ġre",
        "g"
      ],
      [
        "Ġinterest",
        "ing"
      ],
      [
        "Ġstr",
        "ange"
      ],
      [
        "Ġl",
        "ear"
      ],
      [
        "Ġmove",
        "ment"
      ],
      [
        "Ġwhi",
        "le"
      ],
      [
        "is",
        "e"
      ],
      [
        "Ġfun",
        "n"
      ],
      [
        "Ġcirc",
        "les"
      ],
      [
        "ra",
        "id"
      ],
      [
        "Ġyou",
        "ng"
      ],
      [
        "a",
        "ce"
      ],
      [
        "Ġt",
        "ea"
      ],
      [
        "Ġshadow",
        "s"
      ],
      [
        "Ġaf",
        "raid"
      ],
      [
        "Ġcorner",
        "s"
      ],
      [
        "c",
        "ri"
      ],
      [
        "Ġbe",
        "t"
      ],
      [
        "Ġtea",
        "ch"
      ],
      [
        "s",
        "o"
      ],
      [
        "Ġsc",
        "ary"
      ],
      [
        "Ġwigg",
        "le"
      ],
      [
        "Ġdes",
        "cri"
      ],
      [
        "e",
        "ver"
      ],
      [
        "Ġdescri",
        "be"
      ],
      [
        "at",
        "e"
      ],
      [
        "Ġon",
        "ce"
      ],
      [
        "Ġtal",
        "king"
      ],
      [
        "Ġcar",
        "es"
      ],
      [
        "Ġspe",
        "ci"
      ],
      [
        "ab",
        "ly"
      ],
      [
        "Ġreg",
        "ret"
      ],
      [
        "Ġprob",
        "ably"
      ],
      [
        "at",
        "ure"
      ],
      [
        "Ġso",
        "on"
      ],
      [
        "Ġal",
        "so"
      ],
      [
        "Ġdid",
        "n"
      ],
      [
        "v",
        "ely"
      ],
      [
        "Ġin",
        "ste"
      ],
      [
        "Ġte",
        "mp"
      ],
      [
        "Ġinste",
        "ad"
      ],
      [
        "i",
        "ous"
      ],
      [
        "Ġf",
        "ar"
      ],
      [
        "Ġclo",
        "se"
      ],
      [
        "Ġp",
        "a"
      ],
      [
        "Ġexact",
        "ly"
      ],
      [
        "Ġspeci",
        "al"
      ],
      [
        "Ġj",
        "ud"
      ],
      [
        "Ġsim",
        "ple"
      ],
      [
        "Ġlo",
        "vely"
      ],
      [
        "Ġs",
        "l"
      ],
      [
        "Ġe",
        "nd"
      ],
      [
        "Ġgold",
        "en"
      ],
      [
        "Ġsecond",
        "s"
      ],
      [
        "Ġm",
        "i"
      ],
      [
        "h",
        "ow"
      ],
      [
        "Ġdan",
        "cing"
      ],
      [
        "Ġbreath",
        "ing"
      ],
      [
        "Ġeas",
        "y"
      ],
      [
        "Ġsome",
        "how"
      ],
      [
        "i",
        "er"
      ],
      [
        "Ġa",
        "ir"
      ],
      [
        "Ġcom",
        "p"
      ],
      [
        "Ġdan",
        "ce"
      ],
      [
        "ow",
        "ard"
      ],
      [
        "Ġon",
        "es"
      ],
      [
        "Ġfunn",
        "y"
      ],
      [
        "a",
        "z"
      ],
      [
        "Ġt",
        "en"
      ],
      [
        "Ġhapp",
        "iness"
      ],
      [
        "Ġex",
        "c"
      ],
      [
        "Ġpat",
        "i"
      ],
      [
        "Ġt",
        "oward"
      ],
      [
        "Ġpu",
        "sh"
      ],
      [
        "Ġtemp",
        "er"
      ],
      [
        "Ġb",
        "it"
      ],
      [
        "Ġare",
        "n"
      ],
      [
        "Ġchan",
        "ce"
      ],
      [
        "Ġhum",
        "an"
      ],
      [
        "Ġl",
        "ess"
      ],
      [
        "Ġtemper",
        "ature"
      ],
      [
        "Ġa",
        "d"
      ],
      [
        "Ġmis",
        "s"
      ],
      [
        "Ġc",
        "all"
      ],
      [
        "c",
        "o"
      ],
      [
        "Ġfa",
        "il"
      ],
      [
        "Ġbreath",
        "e"
      ],
      [
        "g",
        "ic"
      ],
      [
        "Ġm",
        "ou"
      ],
      [
        "Ġw",
        "on"
      ],
      [
        "Ġfe",
        "ar"
      ],
      [
        "Ġhand",
        "le"
      ],
      [
        "Ġforgi",
        "ven"
      ],
      [
        "a",
        "se"
      ],
      [
        "ri",
        "ed"
      ],
      [
        "Ġknow",
        "s"
      ],
      [
        "Ġmou",
        "th"
      ],
      [
        "Ġh",
        "ea"
      ],
      [
        "Ġfe",
        "ed"
      ],
      [
        "Ġhold",
        "ing"
      ],
      [
        "Ġturn",
        "ing"
      ],
      [
        "Ġdes",
        "er"
      ],
      [
        "p",
        "t"
      ],
      [
        "Ġwarm",
        "er"
      ],
      [
        "ck",
        "s"
      ],
      [
        "Ġg",
        "r"
      ],
      [
        "Ġma",
        "gic"
      ],
      [
        "Ġsha",
        "p"
      ],
      [
        "Ġhea",
        "v"
      ],
      [
        "Ġstr",
        "an"
      ],
      [
        "Ġgood",
        "by"
      ],
      [
        "Ġta",
        "st"
      ],
      [
        "Ġcon",
        "fu"
      ],
      [
        "Ġexc",
        "it"
      ],
      [
        "ft",
        "er"
      ],
      [
        "Ġa",
        "fter"
      ],
      [
        "Ġn",
        "a"
      ],
      [
        "Ġm",
        "ind"
      ],
      [
        "Ġfall",
        "ing"
      ],
      [
        "Ġmi",
        "sta"
      ],
      [
        "Ġfor",
        "ward"
      ],
      [
        "Ġde",
        "ep"
      ],
      [
        "iz",
        "e"
      ],
      [
        "Ġpa",
        "ss"
      ],
      [
        "w",
        "e"
      ],
      [
        "Ġst",
        "uck"
      ],
      [
        "Ġword",
        "s"
      ],
      [
        "Ġshap",
        "es"
      ],
      [
        "Ġgoodby",
        "e"
      ],
      [
        "Ġha",
        "d"
      ],
      [
        "Ġcolor",
        "s"
      ],
      [
        "Ġf",
        "ound"
      ],
      [
        "Ġf",
        "il"
      ],
      [
        "Ġh",
        "on"
      ],
      [
        "Ġbec",
        "om"
      ],
      [
        "Ġhung",
        "ry"
      ],
      [
        "o",
        "ice"
      ],
      [
        "Ġmean",
        "ing"
      ],
      [
        "Ġs",
        "ing"
      ],
      [
        "Ġfil",
        "ter"
      ],
      [
        "Ġa",
        "w"
      ],
      [
        "ll",
        "ow"
      ],
      [
        "Ġlo",
        "t"
      ],
      [
        "Ġy",
        "et"
      ],
      [
        "Ġcat",
        "ch"
      ],
      [
        "Ġb",
        "is"
      ],
      [
        "Ġbis",
        "cu"
      ],
      [
        "r",
        "o"
      ],
      [
        "Ġwigg",
        "ling"
      ],
      [
        "Ġl",
        "oud"
      ],
      [
        "we",
        "en"
      ],
      [
        "Ġfo",
        "llow"
      ],
      [
        "Ġsp",
        "ot"
      ],
      [
        "Ġbet",
        "ween"
      ],
      [
        "Ġforgiven",
        "ess"
      ],
      [
        "g",
        "es"
      ],
      [
        "Ġsh",
        "i"
      ],
      [
        "Ġc",
        "l"
      ],
      [
        "Ġs",
        "ide"
      ],
      [
        "Ġmove",
        "d"
      ],
      [
        "or",
        "ry"
      ],
      [
        "Ġnotic",
        "ing"
      ],
      [
        "Ġs",
        "orry"
      ],
      [
        "Ġl",
        "e"
      ],
      [
        "Ġsha",
        "pe"
      ],
      [
        "ab",
        "le"
      ],
      [
        "owl",
        "y"
      ],
      [
        "Ġchang",
        "ing"
      ],
      [
        "Ġheav",
        "y"
      ],
      [
        "Ġhon",
        "est"
      ],
      [
        "l",
        "ess"
      ],
      [
        "re",
        "e"
      ],
      [
        "Ġcur",
        "ve"
      ],
      [
        "Ġsl",
        "owly"
      ],
      [
        "Ġsurpri",
        "se"
      ],
      [
        "Ġcon",
        "t"
      ],
      [
        "Ġs",
        "en"
      ],
      [
        "Ġlear",
        "n"
      ],
      [
        "Ġloo",
        "ked"
      ],
      [
        "Ġneed",
        "s"
      ],
      [
        "Ġpr",
        "es"
      ],
      [
        "on",
        "es"
      ],
      [
        "Ġqui",
        "ck"
      ],
      [
        "Ġother",
        "s"
      ],
      [
        "Ġstran",
        "ger"
      ],
      [
        "Ġre",
        "f"
      ],
      [
        "Ġta",
        "ke"
      ],
      [
        "Ġmeet",
        "ing"
      ],
      [
        "Ġg",
        "u"
      ],
      [
        "Ġmoment",
        "s"
      ],
      [
        "Ġrea",
        "son"
      ],
      [
        "Ġe",
        "d"
      ],
      [
        "st",
        "er"
      ],
      [
        "ou",
        "r"
      ],
      [
        "z",
        "y"
      ],
      [
        "Ġit",
        "s"
      ],
      [
        "ce",
        "pt"
      ],
      [
        "Ġr",
        "ain"
      ],
      [
        "pp",
        "ed"
      ],
      [
        "Ġlea",
        "ve"
      ],
      [
        "Ġaw",
        "a"
      ],
      [
        "m",
        "er"
      ],
      [
        "ea",
        "k"
      ],
      [
        "Ġam",
        "az"
      ],
      [
        "Ġchang",
        "ed"
      ],
      [
        "Ġit",
        "self"
      ],
      [
        "i",
        "ck"
      ],
      [
        "Ġst",
        "ones"
      ],
      [
        "Ġta",
        "il"
      ],
      [
        "Ġsee",
        "ing"
      ],
      [
        "Ġta",
        "kes"
      ],
      [
        "Ġbo",
        "red"
      ],
      [
        "Ġbright",
        "ness"
      ],
      [
        "Ġe",
        "mp"
      ],
      [
        "Ġact",
        "ually"
      ],
      [
        "o",
        "st"
      ],
      [
        "Ġmy",
        "ster"
      ],
      [
        "Ġas",
        "king"
      ],
      [
        "Ġri",
        "pp"
      ],
      [
        "Ġfin",
        "e"
      ],
      [
        "Ġdark",
        "ness"
      ],
      [
        "Ġcou",
        "nt"
      ],
      [
        "Ġdisapp",
        "o"
      ],
      [
        "Ġf",
        "low"
      ],
      [
        "Ġtr",
        "u"
      ],
      [
        "Ġexp",
        "lo"
      ],
      [
        "Ġapp",
        "ear"
      ],
      [
        "Ġre",
        "m"
      ],
      [
        "Ġas",
        "k"
      ],
      [
        "Ġgi",
        "ving"
      ],
      [
        "Ġme",
        "t"
      ],
      [
        "Ġvisit",
        "or"
      ],
      [
        "d",
        "en"
      ],
      [
        "Ġb",
        "rea"
      ],
      [
        "le",
        "ase"
      ],
      [
        "Ġsa",
        "id"
      ],
      [
        "y",
        "ond"
      ],
      [
        "Ġm",
        "ess"
      ],
      [
        "Ġbe",
        "yond"
      ],
      [
        "Ġdi",
        "re"
      ],
      [
        "n",
        "e"
      ],
      [
        "Ġp",
        "ur"
      ],
      [
        "Ġlet",
        "ting"
      ],
      [
        "Ġtal",
        "k"
      ],
      [
        "Ġpo",
        "ss"
      ],
      [
        "i",
        "es"
      ],
      [
        "Ġs",
        "elf"
      ],
      [
        "Ġthe",
        "se"
      ],
      [
        "Ġsay",
        "s"
      ],
      [
        "Ġdisappo",
        "int"
      ],
      [
        "re",
        "nt"
      ],
      [
        "Ġbig",
        "ger"
      ],
      [
        "Ġdeser",
        "ve"
      ],
      [
        "Ġawa",
        "ke"
      ],
      [
        "Ġg",
        "row"
      ],
      [
        "Ġshi",
        "ft"
      ],
      [
        "g",
        "est"
      ],
      [
        "t",
        "ely"
      ],
      [
        "or",
        "ing"
      ],
      [
        "im",
        "mer"
      ],
      [
        "Ġa",
        "ch"
      ],
      [
        "pp",
        "ing"
      ],
      [
        "Ġhope",
        "ful"
      ],
      [
        "s",
        "it"
      ],
      [
        "Ġwhat",
        "ever"
      ],
      [
        "Ġtim",
        "es"
      ],
      [
        "Ġgent",
        "l"
      ],
      [
        "Ġi",
        "m"
      ],
      [
        "Ġs",
        "ill"
      ],
      [
        "ou",
        "b"
      ],
      [
        "Ġh",
        "i"
      ],
      [
        "Ġjud",
        "ge"
      ],
      [
        "Ġa",
        "tt"
      ],
      [
        "a",
        "g"
      ],
      [
        "Ġdis",
        "co"
      ],
      [
        "Ġrea",
        "ch"
      ],
      [
        "Ġemp",
        "ty"
      ],
      [
        "Ġrem",
        "ind"
      ],
      [
        "t",
        "ure"
      ],
      [
        "Ġkind",
        "ly"
      ],
      [
        "Ġfu",
        "ture"
      ],
      [
        "i",
        "p"
      ],
      [
        "Ġli",
        "ving"
      ],
      [
        "ir",
        "d"
      ],
      [
        "Ġro",
        "cks"
      ],
      [
        "Ġexplo",
        "re"
      ],
      [
        "Ġch",
        "oo"
      ],
      [
        "at",
        "er"
      ],
      [
        "ent",
        "ion"
      ],
      [
        "Ġst",
        "e"
      ],
      [
        "Ġeven",
        "ing"
      ],
      [
        "o",
        "y"
      ],
      [
        "Ġcar",
        "ry"
      ],
      [
        "Ġt",
        "w"
      ],
      [
        "Ġeat",
        "ing"
      ],
      [
        "Ġl",
        "uck"
      ],
      [
        "i",
        "est"
      ],
      [
        "Ġbrea",
        "k"
      ],
      [
        "Ġh",
        "ide"
      ],
      [
        "Ġbel",
        "ong"
      ],
      [
        "st",
        "ant"
      ],
      [
        "Ġcom",
        "f"
      ],
      [
        "d",
        "den"
      ],
      [
        "Ġp",
        "lease"
      ],
      [
        "Ġha",
        "ven"
      ],
      [
        "Ġsu",
        "dden"
      ],
      [
        "Ġpl",
        "ay"
      ],
      [
        "k",
        "y"
      ],
      [
        "Ġgood",
        "ness"
      ],
      [
        "ere",
        "d"
      ],
      [
        "Ġsh",
        "ar"
      ],
      [
        "Ġsen",
        "se"
      ],
      [
        "er",
        "s"
      ],
      [
        "Ġwa",
        "ke"
      ],
      [
        "Ġru",
        "sh"
      ],
      [
        "Ġtast",
        "es"
      ],
      [
        "sit",
        "ive"
      ],
      [
        "Ġg",
        "reat"
      ],
      [
        "Ġon",
        "to"
      ],
      [
        "Ġhel",
        "d"
      ],
      [
        "Ġcur",
        "rent"
      ],
      [
        "Ġbecom",
        "es"
      ],
      [
        "er",
        "t"
      ],
      [
        "Ġlove",
        "d"
      ],
      [
        "Ġac",
        "cept"
      ],
      [
        "m",
        "ost"
      ],
      [
        "Ġremember",
        "ing"
      ],
      [
        "Ġad",
        "v"
      ],
      [
        "Ġach",
        "e"
      ],
      [
        "i",
        "ly"
      ],
      [
        "Ġd",
        "oub"
      ],
      [
        "Ġatt",
        "ention"
      ],
      [
        "Ġ",
        "es"
      ],
      [
        "Ġal",
        "most"
      ],
      [
        "Ġpur",
        "p"
      ],
      [
        "in",
        "ning"
      ],
      [
        "Ġno",
        "ise"
      ],
      [
        "Ġsm",
        "ell"
      ],
      [
        "Ġle",
        "ft"
      ],
      [
        "Ġha",
        "ving"
      ],
      [
        "Ġch",
        "e"
      ],
      [
        "Ġbel",
        "ly"
      ],
      [
        "Ġref",
        "le"
      ],
      [
        "o",
        "s"
      ],
      [
        "tt",
        "en"
      ],
      [
        "Ġsu",
        "ch"
      ],
      [
        "Ġsp",
        "ark"
      ],
      [
        "Ġnotice",
        "d"
      ],
      [
        "Ġus",
        "ually"
      ],
      [
        "Ġamaz",
        "ing"
      ],
      [
        "Ġsill",
        "y"
      ],
      [
        "s",
        "es"
      ],
      [
        "at",
        "ion"
      ],
      [
        "Ġst",
        "u"
      ],
      [
        "Ġdisco",
        "ver"
      ],
      [
        "Ġw",
        "ent"
      ],
      [
        "Ġd",
        "el"
      ],
      [
        "Ġhand",
        "s"
      ],
      [
        "Ġpurp",
        "ose"
      ],
      [
        "Ġc",
        "o"
      ],
      [
        "Ġsad",
        "ness"
      ],
      [
        "Ġsp",
        "ace"
      ],
      [
        "Ġste",
        "ady"
      ],
      [
        "Ġan",
        "g"
      ],
      [
        "Ġm",
        "ine"
      ],
      [
        "Ġst",
        "re"
      ],
      [
        "m",
        "m"
      ],
      [
        "Ġw",
        "all"
      ],
      [
        "Ġdiffer",
        "ence"
      ],
      [
        "Ġpres",
        "ent"
      ],
      [
        "Ġsh",
        "immer"
      ],
      [
        "Ġslow",
        "er"
      ],
      [
        "ng",
        "th"
      ],
      [
        "Ġro",
        "om"
      ],
      [
        "Ġstre",
        "ngth"
      ],
      [
        "Ġbl",
        "ue"
      ],
      [
        "Ġs",
        "et"
      ],
      [
        "Ġf",
        "ad"
      ],
      [
        "Ġbe",
        "g"
      ],
      [
        "Ġbu",
        "mp"
      ],
      [
        "id",
        "ing"
      ],
      [
        "Ġshar",
        "p"
      ],
      [
        "Ġbig",
        "gest"
      ],
      [
        "Ġdire",
        "ction"
      ],
      [
        "Ġcomf",
        "ort"
      ],
      [
        "Ġde",
        "al"
      ],
      [
        "Ġwe",
        "ird"
      ],
      [
        "Ġpati",
        "ence"
      ],
      [
        "Ġdoub",
        "t"
      ],
      [
        "id",
        "es"
      ],
      [
        "m",
        "ore"
      ],
      [
        "u",
        "l"
      ],
      [
        "Ġexcit",
        "ed"
      ],
      [
        "Ġlea",
        "ving"
      ],
      [
        "Ġmista",
        "kes"
      ],
      [
        "h",
        "y"
      ],
      [
        "Ġany",
        "more"
      ],
      [
        "Ġcom",
        "ple"
      ],
      [
        "Ġpo",
        "sitive"
      ],
      [
        "Ġripp",
        "les"
      ],
      [
        "la",
        "in"
      ],
      [
        "Ġwor",
        "ried"
      ],
      [
        "Ġri",
        "sing"
      ],
      [
        "Ġbiscu",
        "its"
      ],
      [
        "u",
        "mp"
      ],
      [
        "Ġbr",
        "o"
      ],
      [
        "Ġshow",
        "ing"
      ],
      [
        "Ġluck",
        "y"
      ],
      [
        "Ġwork",
        "s"
      ],
      [
        "Ġconfu",
        "sed"
      ],
      [
        "Ġv",
        "oice"
      ],
      [
        "ert",
        "ain"
      ],
      [
        "f",
        "in"
      ],
      [
        "j",
        "oy"
      ],
      [
        "ri",
        "es"
      ],
      [
        "ra",
        "ge"
      ],
      [
        "Ġen",
        "joy"
      ],
      [
        "Ġsleep",
        "y"
      ],
      [
        "en",
        "ess"
      ],
      [
        "Ġglow",
        "ing"
      ],
      [
        "o",
        "tten"
      ],
      [
        "Ġforg",
        "otten"
      ],
      [
        "Ġsleep",
        "ing"
      ],
      [
        "Ġcur",
        "ves"
      ],
      [
        "Ġchoo",
        "se"
      ],
      [
        "f",
        "er"
      ],
      [
        "an",
        "ce"
      ],
      [
        "Ġtouch",
        "es"
      ],
      [
        "s",
        "y"
      ],
      [
        "Ġqu",
        "ite"
      ],
      [
        "Ġpati",
        "ent"
      ],
      [
        "Ġstu",
        "ff"
      ],
      [
        "Ġr",
        "es"
      ],
      [
        "Ġdark",
        "er"
      ],
      [
        "Ġcon",
        "stant"
      ],
      [
        "Ġlon",
        "el"
      ],
      [
        "pe",
        "ct"
      ],
      [
        "Ġst",
        "o"
      ],
      [
        "Ġstart",
        "ing"
      ],
      [
        "f",
        "ace"
      ],
      [
        "le",
        "d"
      ],
      [
        "Ġu",
        "nt"
      ],
      [
        "Ġqu",
        "est"
      ],
      [
        "Ġquiet",
        "er"
      ],
      [
        "Ġsur",
        "face"
      ],
      [
        "Ġcool",
        "er"
      ],
      [
        "Ġsurpri",
        "sed"
      ],
      [
        "k",
        "en"
      ],
      [
        "sh",
        "ip"
      ],
      [
        "Ġcou",
        "rage"
      ],
      [
        "Ġun",
        "c"
      ],
      [
        "Ġeas",
        "ier"
      ],
      [
        "Ġlonel",
        "iness"
      ],
      [
        "a",
        "m"
      ],
      [
        "a",
        "nd"
      ],
      [
        "Ġany",
        "where"
      ],
      [
        "Ġgi",
        "ves"
      ],
      [
        "Ġstop",
        "s"
      ],
      [
        "Ġde",
        "c"
      ],
      [
        "Ġpu",
        "n"
      ],
      [
        "g",
        "n"
      ],
      [
        "Ġw",
        "ow"
      ],
      [
        "Ġw",
        "eak"
      ],
      [
        "Ġf",
        "ight"
      ],
      [
        "Ġshow",
        "s"
      ],
      [
        "Ġunt",
        "il"
      ],
      [
        "er",
        "g"
      ],
      [
        "Ġe",
        "ar"
      ],
      [
        "Ġen",
        "erg"
      ],
      [
        "Ġcont",
        "ent"
      ],
      [
        "at",
        "h"
      ],
      [
        "Ġbo",
        "ther"
      ],
      [
        "Ġtell",
        "s"
      ],
      [
        "Ġhu",
        "g"
      ],
      [
        "Ġna",
        "me"
      ],
      [
        "Ġrefle",
        "ction"
      ],
      [
        "Ġang",
        "ry"
      ],
      [
        "Ġa",
        "p"
      ],
      [
        "Ġpr",
        "ess"
      ],
      [
        "Ġpart",
        "s"
      ],
      [
        "Ġli",
        "ves"
      ],
      [
        "Ġkind",
        "est"
      ],
      [
        "Ġchan",
        "ces"
      ],
      [
        "Ġed",
        "ges"
      ],
      [
        "Ġs",
        "ink"
      ],
      [
        "Ġf",
        "l"
      ],
      [
        "Ġmovement",
        "s"
      ],
      [
        "Ġsing",
        "le"
      ],
      [
        "Ġin",
        "v"
      ],
      [
        "Ġsa",
        "w"
      ],
      [
        "Ġgentl",
        "eness"
      ],
      [
        "Ġl",
        "au"
      ],
      [
        "Ġstay",
        "ing"
      ],
      [
        "Ġwant",
        "s"
      ],
      [
        "Ġim",
        "ag"
      ],
      [
        "Ġbro",
        "ken"
      ],
      [
        "Ġb",
        "oring"
      ],
      [
        "Ġn",
        "ic"
      ],
      [
        "Ġg",
        "l"
      ],
      [
        "Ġar",
        "ri"
      ],
      [
        "Ġd",
        "r"
      ],
      [
        "Ġcar",
        "ing"
      ],
      [
        "Ġri",
        "se"
      ],
      [
        "Ġf",
        "ree"
      ],
      [
        "Ġbe",
        "nd"
      ],
      [
        "il",
        "ity"
      ],
      [
        "Ġhum",
        "ming"
      ],
      [
        "Ġlet",
        "s"
      ],
      [
        "ro",
        "ss"
      ],
      [
        "Ġse",
        "es"
      ],
      [
        "Ġsh",
        "iny"
      ],
      [
        "Ġlau",
        "gh"
      ],
      [
        "Ġbe",
        "h"
      ],
      [
        "Ġbu",
        "sy"
      ],
      [
        "Ġturn",
        "ed"
      ],
      [
        "Ġ",
        "'"
      ],
      [
        "Ġsh",
        "e"
      ],
      [
        "Ġdisapp",
        "ear"
      ],
      [
        "Ġsudden",
        "ly"
      ],
      [
        "at",
        "ur"
      ],
      [
        "Ġclo",
        "s"
      ],
      [
        "ust",
        "rat"
      ],
      [
        "Ġfr",
        "ustrat"
      ],
      [
        "Ġta",
        "pping"
      ],
      [
        "Ġexcit",
        "ing"
      ],
      [
        "Ġimag",
        "ine"
      ],
      [
        "Ġb",
        "its"
      ],
      [
        "Ġhe",
        "al"
      ],
      [
        "e",
        "ct"
      ],
      [
        "Ġp",
        "atter"
      ],
      [
        "s",
        "et"
      ],
      [
        "Ġi",
        "d"
      ],
      [
        "Ġn",
        "atur"
      ],
      [
        "oo",
        "f"
      ],
      [
        "Ġsoft",
        "ly"
      ],
      [
        "Ġdifferent",
        "ly"
      ],
      [
        "Ġfeeling",
        "s"
      ],
      [
        "Ġdrift",
        "ing"
      ],
      [
        "Ġset",
        "t"
      ],
      [
        "Ġcomple",
        "tely"
      ],
      [
        "l",
        "ight"
      ],
      [
        "s",
        "w"
      ],
      [
        "Ġt",
        "ried"
      ],
      [
        "ou",
        "n"
      ],
      [
        "Ġsh",
        "ine"
      ],
      [
        "Ġwould",
        "n"
      ],
      [
        "Ġbright",
        "er"
      ],
      [
        "Ġti",
        "ck"
      ],
      [
        "Ġtru",
        "ly"
      ],
      [
        "Ġ",
        "-"
      ],
      [
        "il",
        "ing"
      ],
      [
        "Ġfast",
        "er"
      ],
      [
        "Ġmista",
        "ke"
      ],
      [
        "s",
        "ol"
      ],
      [
        "t",
        "en"
      ],
      [
        "Ġt",
        "reat"
      ],
      [
        "Ġb",
        "oun"
      ],
      [
        "Ġcirc",
        "le"
      ],
      [
        "Ġhuman",
        "s"
      ],
      [
        "Ġp",
        "ain"
      ],
      [
        "Ġyour",
        "s"
      ],
      [
        "Ġfriend",
        "ship"
      ],
      [
        "Ġcurve",
        "d"
      ],
      [
        "s",
        "p"
      ],
      [
        "Ġg",
        "a"
      ],
      [
        "ver",
        "s"
      ],
      [
        "Ġan",
        "ger"
      ],
      [
        "Ġeas",
        "ily"
      ],
      [
        "Ġbeh",
        "ind"
      ],
      [
        "Ġst",
        "ory"
      ],
      [
        "Ġan",
        "sw"
      ],
      [
        "Ġfa",
        "ces"
      ],
      [
        "Ġag",
        "o"
      ],
      [
        "Ġnotic",
        "es"
      ],
      [
        "Ġgr",
        "ud"
      ],
      [
        "Ġdel",
        "ic"
      ],
      [
        "s",
        "ic"
      ],
      [
        "Ġs",
        "it"
      ],
      [
        "Ġsoft",
        "ness"
      ],
      [
        "tim",
        "e"
      ],
      [
        "Ġagain",
        "st"
      ],
      [
        "Ġdrea",
        "ming"
      ],
      [
        "Ġforgi",
        "ving"
      ],
      [
        "Ġcon",
        "ne"
      ],
      [
        "Ġvibrat",
        "ion"
      ],
      [
        "Ġposs",
        "ible"
      ],
      [
        "Ġw",
        "is"
      ],
      [
        "re",
        "ly"
      ],
      [
        "Ġhard",
        "est"
      ],
      [
        "Ġsha",
        "king"
      ],
      [
        "Ġpla",
        "ces"
      ],
      [
        "pe",
        "ci"
      ],
      [
        "Ġcount",
        "s"
      ],
      [
        "Ġes",
        "peci"
      ],
      [
        "Ġenerg",
        "y"
      ],
      [
        "Ġespeci",
        "ally"
      ],
      [
        "mb",
        "le"
      ],
      [
        "Ġch",
        "oice"
      ],
      [
        "Ġca",
        "red"
      ],
      [
        "Ġjo",
        "kes"
      ],
      [
        "Ġsto",
        "pped"
      ],
      [
        "Ġunc",
        "ertain"
      ],
      [
        "Ġid",
        "ea"
      ],
      [
        "Ġt",
        "ing"
      ],
      [
        "Ġh",
        "iding"
      ],
      [
        "Ġhard",
        "er"
      ],
      [
        "Ġhung",
        "er"
      ],
      [
        "Ġlear",
        "ning"
      ],
      [
        "Ġjud",
        "g"
      ],
      [
        "Ġmyster",
        "y"
      ],
      [
        "Ġdisappoint",
        "ment"
      ],
      [
        "Ġno",
        "se"
      ],
      [
        "Ġexp",
        "lain"
      ],
      [
        "Ġco",
        "zy"
      ],
      [
        "Ġf",
        "i"
      ],
      [
        "Ġbelie",
        "ving"
      ],
      [
        "ib",
        "ility"
      ],
      [
        "Ġsh",
        "in"
      ],
      [
        "Ġstr",
        "u"
      ],
      [
        "Ġtrust",
        "ing"
      ],
      [
        "o",
        "lo"
      ],
      [
        "Ġwonder",
        "ing"
      ],
      [
        "Ġbelie",
        "f"
      ],
      [
        "Ġsing",
        "ing"
      ],
      [
        "Ġgu",
        "ess"
      ],
      [
        "c",
        "ome"
      ],
      [
        "Ġs",
        "il"
      ],
      [
        "or",
        "m"
      ],
      [
        "Ġne",
        "ither"
      ],
      [
        "Ġop",
        "tim"
      ],
      [
        "Ġinv",
        "is"
      ],
      [
        "olo",
        "g"
      ],
      [
        "Ġwor",
        "king"
      ],
      [
        "Ġtr",
        "a"
      ],
      [
        "Ġway",
        "s"
      ],
      [
        "Ġca",
        "st"
      ],
      [
        "Ġmis",
        "sing"
      ],
      [
        "Ġap",
        "olog"
      ],
      [
        "Ġinvis",
        "ible"
      ],
      [
        "Ġf",
        "re"
      ],
      [
        "fu",
        "ll"
      ],
      [
        "Ġgift",
        "s"
      ],
      [
        "Ġbiscu",
        "it"
      ],
      [
        "Ġwall",
        "s"
      ],
      [
        "Ġstru",
        "gg"
      ],
      [
        "Ġt",
        "re"
      ],
      [
        "Ġw",
        "el"
      ],
      [
        "Ġl",
        "ate"
      ],
      [
        "Ġe",
        "ff"
      ],
      [
        "Ġsm",
        "iling"
      ],
      [
        "Ġremember",
        "s"
      ],
      [
        "Ġba",
        "rely"
      ],
      [
        "Ġcomp",
        "any"
      ],
      [
        "Ġadv",
        "ice"
      ],
      [
        "Ġfad",
        "ing"
      ],
      [
        "h",
        "e"
      ],
      [
        "Ġs",
        "ky"
      ],
      [
        "Ġof",
        "f"
      ],
      [
        "Ġof",
        "ten"
      ],
      [
        "Ġday",
        "s"
      ],
      [
        "Ġpe",
        "bb"
      ],
      [
        "Ġstart",
        "s"
      ],
      [
        "ist",
        "ic"
      ],
      [
        "full",
        "y"
      ],
      [
        "n",
        "er"
      ],
      [
        "Ġw",
        "et"
      ],
      [
        "Ġs",
        "ize"
      ],
      [
        "Ġh",
        "its"
      ],
      [
        "Ġwh",
        "is"
      ],
      [
        "Ġsm",
        "art"
      ],
      [
        "ct",
        "ed"
      ],
      [
        "Ġstart",
        "ed"
      ],
      [
        "Ġend",
        "less"
      ],
      [
        "Ġlot",
        "s"
      ],
      [
        "Ġed",
        "ge"
      ],
      [
        "o",
        "ss"
      ],
      [
        "Ġsca",
        "re"
      ],
      [
        "Ġcl",
        "oud"
      ],
      [
        "Ġflow",
        "s"
      ],
      [
        "Ġeff",
        "ort"
      ],
      [
        "a",
        "ge"
      ],
      [
        "er",
        "v"
      ],
      [
        "at",
        "ed"
      ],
      [
        "Ġf",
        "it"
      ],
      [
        "Ġst",
        "ar"
      ],
      [
        "Ġlight",
        "er"
      ],
      [
        "Ġac",
        "ross"
      ],
      [
        "Ġhonest",
        "ly"
      ],
      [
        "a",
        "re"
      ],
      [
        "d",
        "om"
      ],
      [
        "st",
        "ic"
      ],
      [
        "Ġwa",
        "st"
      ],
      [
        "Ġsw",
        "e"
      ],
      [
        "Ġstill",
        "ness"
      ],
      [
        "Ġpla",
        "stic"
      ],
      [
        "ve",
        "d"
      ],
      [
        "Ġneed",
        "ed"
      ],
      [
        "Ġmu",
        "sic"
      ],
      [
        "Ġlea",
        "ves"
      ],
      [
        "Ġthought",
        "s"
      ],
      [
        "Ġgreat",
        "est"
      ],
      [
        "Ġcomfort",
        "able"
      ],
      [
        "Ġfrustrat",
        "ed"
      ],
      [
        "Ġcast",
        "le"
      ],
      [
        "Ġ",
        "our"
      ],
      [
        "Ġl",
        "ater"
      ],
      [
        "Ġc",
        "ra"
      ],
      [
        "Ġli",
        "m"
      ],
      [
        "Ġp",
        "ure"
      ],
      [
        "Ġre",
        "co"
      ],
      [
        "Ġsun",
        "light"
      ],
      [
        "Ġfi",
        "x"
      ],
      [
        "ow",
        "er"
      ],
      [
        "Ġbec",
        "ome"
      ],
      [
        "Ġex",
        "pect"
      ],
      [
        "Ġru",
        "n"
      ],
      [
        "Ġs",
        "n"
      ],
      [
        "ea",
        "red"
      ],
      [
        "Ġsu",
        "pp"
      ],
      [
        "Ġglow",
        "s"
      ],
      [
        "Ġmyster",
        "ious"
      ],
      [
        "Ġbeg",
        "inning"
      ],
      [
        "Ġwis",
        "dom"
      ],
      [
        "Ġoptim",
        "istic"
      ],
      [
        "Ġwel",
        "come"
      ],
      [
        "Ġswe",
        "et"
      ],
      [
        "i",
        "ld"
      ],
      [
        "Ġth",
        "ick"
      ],
      [
        "Ġc",
        "reat"
      ],
      [
        "Ġperfect",
        "ly"
      ],
      [
        "Ġde",
        "fin"
      ],
      [
        "Ġf",
        "ills"
      ],
      [
        "Ġj",
        "ump"
      ],
      [
        "Ġdon",
        "e"
      ],
      [
        "Ġwa",
        "king"
      ],
      [
        "Ġpl",
        "an"
      ],
      [
        "Ġbr",
        "ain"
      ],
      [
        "Ġpre",
        "fer"
      ],
      [
        "Ġteach",
        "es"
      ],
      [
        "Ġtw",
        "o"
      ],
      [
        "Ġreco",
        "gn"
      ],
      [
        "Ġ",
        "z"
      ],
      [
        "ud",
        "e"
      ],
      [
        "Ġfail",
        "ure"
      ],
      [
        "Ġclos",
        "er"
      ],
      [
        "p",
        "s"
      ],
      [
        "Ġt",
        "er"
      ],
      [
        "ck",
        "ing"
      ],
      [
        "Ġsa",
        "f"
      ],
      [
        "Ġdi",
        "st"
      ],
      [
        "Ġpr",
        "om"
      ],
      [
        "Ġcar",
        "ries"
      ],
      [
        "Ġfight",
        "ing"
      ],
      [
        "Ġdefin",
        "it"
      ],
      [
        "h",
        "a"
      ],
      [
        "ou",
        "dy"
      ],
      [
        "Ġp",
        "ay"
      ],
      [
        "il",
        "i"
      ],
      [
        "Ġsp",
        "eak"
      ],
      [
        "Ġpr",
        "ot"
      ],
      [
        "Ġcl",
        "oudy"
      ],
      [
        "s",
        "ure"
      ],
      [
        "Ġa",
        "ge"
      ],
      [
        "Ġs",
        "ides"
      ],
      [
        "re",
        "ad"
      ],
      [
        "Ġwant",
        "ing"
      ],
      [
        "Ġfind",
        "s"
      ],
      [
        "Ġpu",
        "ll"
      ],
      [
        "Ġimp",
        "oss"
      ],
      [
        "Ġtru",
        "th"
      ],
      [
        "Ġnatur",
        "al"
      ],
      [
        "Ġansw",
        "er"
      ],
      [
        "Ġm",
        "ir"
      ],
      [
        "Ġo",
        "pp"
      ],
      [
        "Ġab",
        "sol"
      ],
      [
        "Ġfa",
        "m"
      ],
      [
        "Ġsurpri",
        "ses"
      ],
      [
        "Ġfall",
        "s"
      ],
      [
        "Ġtouch",
        "ing"
      ],
      [
        "Ġpass",
        "es"
      ],
      [
        "Ġposs",
        "ibility"
      ],
      [
        "Ġbend",
        "s"
      ],
      [
        "Ġabsol",
        "u"
      ],
      [
        "Ġb",
        "lo"
      ],
      [
        "Ġh",
        "mm"
      ],
      [
        "Ġkind",
        "er"
      ],
      [
        "Ġconfu",
        "sing"
      ],
      [
        "Ġstranger",
        "s"
      ],
      [
        "Ġimposs",
        "ible"
      ],
      [
        "c",
        "a"
      ],
      [
        "Ġn",
        "erv"
      ],
      [
        "ar",
        "ch"
      ],
      [
        "ent",
        "y"
      ],
      [
        "Ġhe",
        "ad"
      ],
      [
        "Ġpl",
        "enty"
      ],
      [
        "Ġsha",
        "kes"
      ],
      [
        "Ġnear",
        "by"
      ],
      [
        "Ġun",
        "k"
      ],
      [
        "he",
        "ad"
      ],
      [
        "Ġpebb",
        "les"
      ],
      [
        "Ġnerv",
        "ous"
      ],
      [
        "Ġp",
        "h"
      ],
      [
        "Ġse",
        "arch"
      ],
      [
        "Ġrememb",
        "ered"
      ],
      [
        "ic",
        "es"
      ],
      [
        "Ġbelie",
        "ves"
      ],
      [
        "Ġus",
        "ed"
      ],
      [
        "Ġold",
        "er"
      ],
      [
        "Ġpush",
        "ing"
      ],
      [
        "Ġbecom",
        "ing"
      ],
      [
        "Ġcatch",
        "es"
      ],
      [
        "Ġremind",
        "s"
      ],
      [
        "Ġspark",
        "les"
      ],
      [
        "Ġquest",
        "ion"
      ],
      [
        "Ġdelic",
        "ious"
      ],
      [
        "Ġter",
        "ri"
      ],
      [
        "Ġabsolu",
        "tely"
      ],
      [
        "o",
        "ices"
      ],
      [
        "th",
        "m"
      ],
      [
        "id",
        "ent"
      ],
      [
        "Ġu",
        "m"
      ],
      [
        "Ġsmall",
        "er"
      ],
      [
        "Ġche",
        "er"
      ],
      [
        "hy",
        "thm"
      ],
      [
        "Ġga",
        "ve"
      ],
      [
        "e",
        "w"
      ],
      [
        "f",
        "ast"
      ],
      [
        "p",
        "l"
      ],
      [
        "Ġme",
        "ant"
      ],
      [
        "oo",
        "t"
      ],
      [
        "Ġnow",
        "here"
      ],
      [
        "Ġr",
        "hythm"
      ],
      [
        "Ġlo",
        "ves"
      ],
      [
        "Ġta",
        "king"
      ],
      [
        "Ġex",
        "ha"
      ],
      [
        "Ġsp",
        "read"
      ],
      [
        "Ġsha",
        "re"
      ],
      [
        "Ġbreak",
        "fast"
      ],
      [
        "Ġprot",
        "ect"
      ],
      [
        "Ġexha",
        "ust"
      ],
      [
        "b",
        "rat"
      ],
      [
        "e",
        "brat"
      ],
      [
        "i",
        "lo"
      ],
      [
        "s",
        "op"
      ],
      [
        "u",
        "t"
      ],
      [
        "Ġc",
        "el"
      ],
      [
        "Ġsc",
        "ar"
      ],
      [
        "Ġregret",
        "s"
      ],
      [
        "Ġlearn",
        "ed"
      ],
      [
        "Ġpatter",
        "n"
      ],
      [
        "Ġwhis",
        "p"
      ],
      [
        "Ġdefinit",
        "ely"
      ],
      [
        "Ġph",
        "ilo"
      ],
      [
        "Ġcel",
        "ebrat"
      ],
      [
        "Ġphilo",
        "sop"
      ],
      [
        "c",
        "y"
      ],
      [
        "n",
        "ight"
      ],
      [
        "r",
        "u"
      ],
      [
        "at",
        "ions"
      ],
      [
        "la",
        "x"
      ],
      [
        "Ġre",
        "lax"
      ],
      [
        "Ġtr",
        "app"
      ],
      [
        "Ġpat",
        "ch"
      ],
      [
        "Ġquick",
        "ly"
      ],
      [
        "Ġappear",
        "s"
      ],
      [
        "c",
        "ess"
      ],
      [
        "er",
        "i"
      ],
      [
        "Ġli",
        "kes"
      ],
      [
        "an",
        "g"
      ],
      [
        "Ġbl",
        "ur"
      ],
      [
        "Ġgrud",
        "ges"
      ],
      [
        "Ġfre",
        "ed"
      ],
      [
        "c",
        "ked"
      ],
      [
        "Ġs",
        "ong"
      ],
      [
        "Ġto",
        "ld"
      ],
      [
        "Ġwa",
        "l"
      ],
      [
        "ur",
        "es"
      ],
      [
        "ep",
        "s"
      ],
      [
        "Ġexp",
        "eri"
      ],
      [
        "Ġfo",
        "cu"
      ],
      [
        "Ġshift",
        "s"
      ],
      [
        "Ġdiscover",
        "ing"
      ],
      [
        "Ġtre",
        "mb"
      ],
      [
        "Ġrecogn",
        "ize"
      ],
      [
        "Ġtrapp",
        "ed"
      ],
      [
        "Ġfreed",
        "om"
      ],
      [
        "z",
        "zy"
      ],
      [
        "on",
        "t"
      ],
      [
        "Ġup",
        "set"
      ],
      [
        "Ġwas",
        "n"
      ],
      [
        "Ġkeep",
        "ing"
      ],
      [
        "Ġwant",
        "ed"
      ],
      [
        "Ġpr",
        "oof"
      ],
      [
        "Ġlong",
        "er"
      ],
      [
        "Ġstrong",
        "er"
      ],
      [
        "os",
        "ity"
      ],
      [
        "Ġfl",
        "u"
      ],
      [
        "Ġm",
        "ad"
      ],
      [
        "Ġwor",
        "st"
      ],
      [
        "Ġfr",
        "ont"
      ],
      [
        "Ġgra",
        "ce"
      ],
      [
        "Ġsmell",
        "s"
      ],
      [
        "ili",
        "ar"
      ],
      [
        "Ġw",
        "in"
      ],
      [
        "re",
        "ci"
      ],
      [
        "Ġp",
        "ower"
      ],
      [
        "Ġkn",
        "o"
      ],
      [
        "Ġkn",
        "ew"
      ],
      [
        "Ġsw",
        "am"
      ],
      [
        "Ġlo",
        "se"
      ],
      [
        "Ġfloat",
        "s"
      ],
      [
        "Ġhurt",
        "s"
      ],
      [
        "Ġsurpri",
        "sing"
      ],
      [
        "Ġfo",
        "g"
      ],
      [
        "Ġapp",
        "reci"
      ],
      [
        "os",
        "ite"
      ],
      [
        "Ġstrugg",
        "ling"
      ],
      [
        "Ġopp",
        "osite"
      ],
      [
        "Ġphilosop",
        "hy"
      ],
      [
        "Ġw",
        "ise"
      ],
      [
        "Ġl",
        "az"
      ],
      [
        "Ġbr",
        "ought"
      ],
      [
        "Ġcuri",
        "osity"
      ],
      [
        "Ġpres",
        "ence"
      ],
      [
        "or",
        "ies"
      ],
      [
        "Ġfe",
        "w"
      ],
      [
        "Ġwarm",
        "est"
      ],
      [
        "Ġsh",
        "ort"
      ],
      [
        "Ġwho",
        "ever"
      ],
      [
        "Ġtell",
        "ing"
      ],
      [
        "Ġhur",
        "ting"
      ],
      [
        "Ġtouch",
        "ed"
      ],
      [
        "Ġfeed",
        "s"
      ],
      [
        "Ġdeser",
        "ves"
      ],
      [
        "Ġprom",
        "ise"
      ],
      [
        "Ġp",
        "ret"
      ],
      [
        "Ġch",
        "a"
      ],
      [
        "Ġlo",
        "sing"
      ],
      [
        "Ġwo",
        "ke"
      ],
      [
        "sh",
        "ine"
      ],
      [
        "Ġfind",
        "ing"
      ],
      [
        "Ġsun",
        "shine"
      ],
      [
        "Ġac",
        "c"
      ],
      [
        "Ġsn",
        "a"
      ],
      [
        "d",
        "e"
      ],
      [
        "r",
        "ess"
      ],
      [
        "Ġt",
        "u"
      ],
      [
        "Ġch",
        "ase"
      ],
      [
        "Ġhop",
        "ing"
      ],
      [
        "Ġwigg",
        "les"
      ],
      [
        "Ġvisitor",
        "s"
      ],
      [
        "Ġpress",
        "ure"
      ],
      [
        "Ġuncertain",
        "ty"
      ],
      [
        "s",
        "el"
      ],
      [
        "w",
        "ater"
      ],
      [
        "Ġw",
        "ind"
      ],
      [
        "Ġd",
        "im"
      ],
      [
        "Ġhe",
        "ard"
      ],
      [
        "Ġpu",
        "t"
      ],
      [
        "Ġes",
        "ca"
      ],
      [
        "s",
        "ion"
      ],
      [
        "Ġ",
        "âĢĶ"
      ],
      [
        "Ġp",
        "ie"
      ],
      [
        "Ġmo",
        "t"
      ],
      [
        "Ġexp",
        "l"
      ],
      [
        "Ġplay",
        "ing"
      ],
      [
        "Ġpret",
        "end"
      ],
      [
        "t",
        "ra"
      ],
      [
        "Ġa",
        "head"
      ],
      [
        "Ġs",
        "er"
      ],
      [
        "at",
        "ing"
      ],
      [
        "Ġbu",
        "ild"
      ],
      [
        "oo",
        "k"
      ],
      [
        "Ġso",
        "l"
      ],
      [
        "Ġexperi",
        "ence"
      ],
      [
        "e",
        "k"
      ],
      [
        "Ġw",
        "ra"
      ],
      [
        "Ġc",
        "op"
      ],
      [
        "Ġwhere",
        "ver"
      ],
      [
        "Ġfriend",
        "ly"
      ],
      [
        "Ġbeg",
        "in"
      ],
      [
        "Ġfam",
        "iliar"
      ],
      [
        "Ġflu",
        "tter"
      ],
      [
        "sel",
        "ves"
      ],
      [
        "i",
        "v"
      ],
      [
        "i",
        "re"
      ],
      [
        "Ġf",
        "ill"
      ],
      [
        "Ġf",
        "oot"
      ],
      [
        "Ġp",
        "op"
      ],
      [
        "it",
        "ude"
      ],
      [
        "Ġwa",
        "ves"
      ],
      [
        "Ġbo",
        "om"
      ],
      [
        "Ġex",
        "tra"
      ],
      [
        "Ġturn",
        "s"
      ],
      [
        "Ġlea",
        "st"
      ],
      [
        "Ġexist",
        "s"
      ],
      [
        "Ġself",
        "ish"
      ],
      [
        "Ġyou",
        "th"
      ],
      [
        "st",
        "eps"
      ],
      [
        "Ġu",
        "se"
      ],
      [
        "Ġsp",
        "inning"
      ],
      [
        "ci",
        "ous"
      ],
      [
        "Ġstrong",
        "est"
      ],
      [
        "Ġsil",
        "ence"
      ],
      [
        "Ġscar",
        "es"
      ],
      [
        "Ġlaz",
        "y"
      ],
      [
        "Ġesca",
        "pe"
      ],
      [
        "Ġfoot",
        "steps"
      ],
      [
        "u",
        "m"
      ],
      [
        "Ġt",
        "ight"
      ],
      [
        "Ġf",
        "ade"
      ],
      [
        "Ġd",
        "ro"
      ],
      [
        "Ġfa",
        "ke"
      ],
      [
        "Ġwatch",
        "ed"
      ],
      [
        "Ġme",
        "al"
      ],
      [
        "au",
        "ght"
      ],
      [
        "Ġthem",
        "selves"
      ],
      [
        "Ġsu",
        "c"
      ],
      [
        "Ġas",
        "ked"
      ],
      [
        "gg",
        "ing"
      ],
      [
        "Ġpush",
        "es"
      ],
      [
        "Ġmagic",
        "al"
      ],
      [
        "Ġcont",
        "r"
      ],
      [
        "Ġgrow",
        "ing"
      ],
      [
        "Ġadv",
        "ent"
      ],
      [
        "Ġquest",
        "ions"
      ],
      [
        "Ġexpl",
        "oring"
      ],
      [
        "c",
        "le"
      ],
      [
        "r",
        "ound"
      ],
      [
        "Ġm",
        "ur"
      ],
      [
        "Ġb",
        "ound"
      ],
      [
        "Ġg",
        "en"
      ],
      [
        "ic",
        "ul"
      ],
      [
        "Ġv",
        "oices"
      ],
      [
        "Ġbeaut",
        "y"
      ],
      [
        "Ġhelp",
        "ing"
      ],
      [
        "Ġcon",
        "f"
      ],
      [
        "Ġpat",
        "h"
      ],
      [
        "Ġend",
        "s"
      ],
      [
        "Ġna",
        "ive"
      ],
      [
        "Ġcontr",
        "ol"
      ],
      [
        "Ġfla",
        "vor"
      ],
      [
        "Ġbl",
        "an"
      ],
      [
        "ath",
        "er"
      ],
      [
        "Ġlim",
        "it"
      ],
      [
        "a",
        "ch"
      ],
      [
        "t",
        "e"
      ],
      [
        "u",
        "sh"
      ],
      [
        "Ġn",
        "orm"
      ],
      [
        "le",
        "m"
      ],
      [
        "Ġfe",
        "d"
      ],
      [
        "ess",
        "ed"
      ],
      [
        "Ġwatch",
        "es"
      ],
      [
        "Ġprob",
        "lem"
      ],
      [
        "Ġhi",
        "gh"
      ],
      [
        "Ġdr",
        "op"
      ],
      [
        "Ġmir",
        "a"
      ],
      [
        "b",
        "le"
      ],
      [
        "Ġd",
        "art"
      ],
      [
        "Ġhu",
        "ge"
      ],
      [
        "Ġsha",
        "ke"
      ],
      [
        "Ġfeed",
        "ing"
      ],
      [
        "Ġweak",
        "ness"
      ],
      [
        "Ġjudg",
        "ment"
      ],
      [
[...]
