{
  "version": "1.0",
  "truncation": null,
  "padding": null,
  "added_tokens": [
    {
      "id": 0,
      "content": "<pad>",
      "single_word": false,
      "lstrip": false,
      "rstrip": false,
      "normalized": false,
      "special": true
    },
    {
      "id": 1,
      "content": "<bos>",
      "single_word": false,
      "lstrip": false,
      "rstrip": false,
      "normalized": false,
      "special": true
    },
    {
      "id": 2,
      "content": "<eos>",
      "single_word": false,
      "lstrip": false,
      "rstrip": false,
      "normalized": false,
      "special": true
    },
    {
      "id": 3,
      "content": "<unk>",
      "single_word": false,
      "lstrip": false,
      "rstrip": false,
      "normalized": false,
      "special": true
    }
  ],
  "normalizer": null,
  "pre_tokenizer": {
    "type": "ByteLevel",
    "add_prefix_space": true,
    "trim_offsets": true,
    "use_regex": true
  },
  "post_processor": {
    "type": "TemplateProcessing",
    "single": [
      {
        "SpecialToken": {
          "id": "<bos>",
          "type_id": 0
        }
      },
      {
        "Sequence": {
          "id": "A",
          "type_id": 0
        }
      },
      {
        "SpecialToken": {
          "id": "<eos>",
          "type_id": 0
        }
      }
    ],
    "pair": [
      {
        "Sequence": {
          "id": "A",
          "type_id": 0
        }
      },
      {
        "Sequence": {
          "id": "B",
          "type_id": 1
        }
      }
    ],
    "special_tokens": {
      "<bos>": {
        "id": "<bos>",
        "ids": [
          1
        ],
        "tokens": [
          "<bos>"
        ]
      },
      "<eos>": {
        "id": "<eos>",
        "ids": [
          2
        ],
        "tokens": [
          "<eos>"
        ]
      }
    }
  },
  "decoder": {
    "type": "ByteLevel",
    "add_prefix_space": true,
    "trim_offsets": true,
    "use_regex": true
  },
  "model": {
    "type": "BPE",
    "dropout": null,
    "unk_token": "<unk>",
    "continuing_subword_prefix": null,
    "end_of_word_suffix": null,
    "fuse_unk": false,
    "byte_fallback": false,
    "ignore_merges": false,
    "vocab": {
      "<pad>": 0,
      "<bos>": 1,
      "<eos>": 2,
      "<unk>": 3,
      "!": 4,
      "\"": 5,
      "%": 6,
      "'": 7,
      "(": 8,
      ")": 9,
      "*": 10,
      "+": 11,
      ",": 12,
      "-": 13,
      ".": 14,
      "0": 15,
      "1": 16,
      "2": 17,
      "3": 18,
      "4": 19,
      "5": 20,
      "6": 21,
      "7": 22,
      "8": 23,
      "9": 24,
      ":": 25,
      ";": 26,
      "=": 27,
      "?": 28,
      "A": 29,
      "B": 30,
      "C": 31,
      "D": 32,
      "E": 33,
      "F": 34,
      "G": 35,
      "H": 36,
      "I": 37,
      "J": 38,
      "K": 39,
      "L": 40,
      "M": 41,
      "N": 42,
      "O": 43,
      "P": 44,
      "Q": 45,
      "R": 46,
      "S": 47,
      "T": 48,
      "U": 49,
      "V": 50,
      "W": 51,
      "X": 52,
      "Y": 53,
      "Z": 54,
      "[": 55,
      "]": 56,
      "_": 57,
      "a": 58,
      "b": 59,
      "c": 60,
      "d": 61,
      "e": 62,
      "f": 63,
      "g": 64,
      "h": 65,
      "i": 66,
      "j": 67,
      "k": 68,
      "l": 69,
      "m": 70,
      "n": 71,
      "o": 72,
      "p": 73,
      "q": 74,
      "r": 75,
      "s": 76,
      "t": 77,
      "u": 78,
      "v": 79,
      "w": 80,
      "x": 81,
      "y": 82,
      "z": 83,
      "¦": 84,
      "©": 85,
      "Ã": 86,
      "â": 87,
      "Ġ": 88,
      "Ģ": 89,
      "Ĩ": 90,
      "Ĵ": 91,
      "Ķ": 92,
      "Ġt": 93,
      "Ġi": 94,
      "Ġth": 95,
      "Ġw": 96,
      "Ġa": 97,
      "ou": 98,
      "in": 99,
      "re": 100,
      "Ġs": 101,
      "at": 102,
      "Ġy": 103,
      "Ġyou": 104,
      "ing": 105,
      "Ġm": 106,
      "Ġthe": 107,
      "Ġf": 108,
      "Ġb": 109,
      "er": 110,
      "..": 111,
      "Ġd": 112,
      "nd": 113,
      "Ġwh": 114,
      "es": 115,
      "Ġh": 116,
      "Ġo": 117,
      "Ġl": 118,
      "Ġn": 119,
      "me": 120,
      "Ġc": 121,
      "ow": 122,
      "Ġit": 123,
      "'s": 124,
      "Ġdo": 125,
      "Ġand": 126,
      "or": 127,
      "an": 128,
      "Ġg": 129,
      "st": 130,
      "ll": 131,
      "Ġwhat": 132,
      "...": 133,
      "th": 134,
      "Ġe": 135,
      "Ġso": 136,
      "Ġwa": 137,
      "Ġis": 138,
      "Ġme": 139,
      "ay": 140,
      "gh": 141,
      "ve": 142,
      "ee": 143,
      "Ġthat": 144,
      "is": 145,
      "Ġli": 146,
      "on": 147,
      "Ġto": 148,
      "ke": 149,
      "ver": 150,
      "Ġha": 151,
      "it": 152,
      "Ġp": 153,
      "le": 154,
      "Ġbu": 155,
      "ere": 156,
      "Ġ*": 157,
      "'m": 158,
      "en": 159,
      "thing": 160,
      "et": 161,
      "ed": 162,
      "Ġfor": 163,
      "ri": 164,
      "Ġre": 165,
      "ght": 166,
      "Ġj": 167,
      "Ġsome": 168,
      "oo": 169,
      "Ġin": 170,
      "ust": 171,
      "Ġbe": 172,
      "ly": 173,
      "Ġwat": 174,
      "'t": 175,
      "la": 176,
      "Ġmy": 177,
      "Ġlike": 178,
      "Ġno": 179,
      "Ġk": 180,
      "Ġwater": 181,
      "Ġare": 182,
      "Ġbut": 183,
      "Ġjust": 184,
      "Ġst": 185,
      "ar": 186,
      "out": 187,
      "Ġyour": 188,
      "id": 189,
      "'re": 190,
      "ld": 191,
      "Ġever": 192,
      "pp": 193,
      "Ġor": 194,
      "Ġwas": 195,
      "ic": 196,
      "Ġab": 197,
      "Ġfee": 198,
      "Ġmo": 199,
      "Ġforg": 200,
      "Ġfeel": 201,
      "ad": 202,
      "se": 203,
      "Ġu": 204,
      "im": 205,
      "Ġabout": 206,
      "Ġoh": 207,
      "Ġthing": 208,
      "ac": 209,
      "Ġwi": 210,
      "Ġnow": 211,
      "all": 212,
      "??": 213,
      "al": 214,
      "Ġsomething": 215,
      "Ġwait": 216,
      "Ġgo": 217,
      "Ġal": 218,
      "Ġthis": 219,
      "ish": 220,
      "right": 221,
      "Ġthere": 222,
      "Ġevery": 223,
      "ough": 224,
      "Ġon": 225,
      "ge": 226,
      "kes": 227,
      "nt": 228,
      "Ġof": 229,
      "Ġthey": 230,
      "om": 231,
      "ell": 232,
      "Ġdon": 233,
      "ss": 234,
      "Ġhapp": 235,
      "Ġcan": 236,
      "Ġright": 237,
      "âĢ": 238,
      "âĢĶ": 239,
      "mb": 240,
      "Ġne": 241,
      "Ġforget": 242,
      "ind": 243,
      "Ġhow": 244,
      "one": 245,
      "Ġsw": 246,
      "ange": 247,
      "ant": 248,
      "way": 249,
      "Ġhere": 250,
      "Ġsee": 251,
      "Ġhave": 252,
      "ink": 253,
      "Ġkn": 254,
      "les": 255,
      "mber": 256,
      "Ġdid": 257,
      "ood": 258,
      "Ġreme": 259,
      "ain": 260,
      "ound": 261,
      "Ġremember": 262,
      "Ġknow": 263,
      "be": 264,
      "owl": 265,
      "ir": 266,
      "Ġbowl": 267,
      "Ġ...": 268,
      "Ġthink": 269,
      "Ġan": 270,
      "fu": 271,
      "est": 272,
      "Ġfla": 273,
      "Ġgla": 274,
      "Ġnot": 275,
      "Ġwe": 276,
      "ec": 277,
      "ion": 278,
      "Ġorange": 279,
      "Ġglass": 280,
      "Ġwho": 281,
      "Ġti": 282,
      "ally": 283,
      "Ġex": 284,
      "aybe": 285,
      "Ġmaybe": 286,
      "ch": 287,
      "il": 288,
      "Ġag": 289,
      "are": 290,
      "Ġswim": 291,
      "Ġwor": 292,
      "Ġflakes": 293,
      "Ġma": 294,
      "ot": 295,
      "ice": 296,
      "ĠI": 297,
      "ry": 298,
      "Ġyes": 299,
      "Ġeverything": 300,
      "Ġthen": 301,
      "mp": 302,
      "ook": 303,
      "Ġwhy": 304,
      "Ġkind": 305,
      "Ġta": 306,
      "Ġat": 307,
      "Ġgood": 308,
      "Ġwith": 309,
      "Ġfin": 310,
      "Ġagain": 311,
      "!!": 312,
      "Ġsh": 313,
      "ter": 314,
      "Ġam": 315,
      "ame": 316,
      "Ġsu": 317,
      "art": 318,
      "au": 319,
      "Ġall": 320,
      "rm": 321,
      "Ġtell": 322,
      "Ġtime": 323,
      "ful": 324,
      "Ġwarm": 325,
      "gg": 326,
      "Ġlook": 327,
      "Ġwhen": 328,
      "ill": 329,
      "Ġhe": 330,
      "ment": 331,
      "op": 332,
      "ra": 333,
      "Ġfish": 334,
      "ould": 335,
      "Ġlight": 336,
      "Ġlo": 337,
      "ore": 338,
      "Ġhappen": 339,
      "round": 340,
      "Ġthings": 341,
      "Ġdoes": 342,
      "bb": 343,
      "Ġnice": 344,
      "ast": 345,
      "Ġwhere": 346,
      "ways": 347,
      "ond": 348,
      "Ġcom": 349,
      "rough": 350,
      "Ġnew": 351,
      "Ġsm": 352,
      "Ġco": 353,
      "Ġany": 354,
      "Ġalways": 355,
      "ess": 356,
      "ther": 357,
      "king": 358,
      "ce": 359,
      "Ġsc": 360,
      "Ġthrough": 361,
      "ely": 362,
      "Ġfeels": 363,
      "end": 364,
      "Ġbubb": 365,
      "kay": 366,
      "Ġum": 367,
      "sh": 368,
      "Ġfins": 369,
      "Ġokay": 370,
      "Ġup": 371,
      "ent": 372,
      "eep": 373,
      "lo": 374,
      "ĠY": 375,
      "ea": 376,
      "Ġch": 377,
      "ro": 378,
      "ving": 379,
      "Ġget": 380,
      "ft": 381,
      "Ġen": 382,
      "Ġsp": 383,
      "riend": 384,
      "ur": 385,
      "Ġhappy": 386,
      "Ġfriend": 387,
      "Ġtoo": 388,
      "Ġfr": 389,
      "ff": 390,
      "Ġmoment": 391,
      "Ġbeing": 392,
      "ady": 393,
      "Ġdi": 394,
      "tt": 395,
      "Ġcon": 396,
      "Ġwere": 397,
      "imes": 398,
      "ct": 399,
      "so": 400,
      "Ġv": 401,
      "un": 402,
      "Ġsay": 403,
      "Ġone": 404,
      "irc": 405,
      "Ġif": 406,
      "ming": 407,
      "ack": 408,
      "ive": 409,
      "Ġtail": 410,
      "wh": 411,
      "Ġthem": 412,
      "Ġforgot": 413,
      "qu": 414,
      "lan": 415,
      "Ġwigg": 416,
      "Ġenough": 417,
      "Ġsl": 418,
      "Ġbec": 419,
      "Ġsomet": 420,
      "Ġsometimes": 421,
      "ĠT": 422,
      "very": 423,
      "lf": 424,
      "Ġsmall": 425,
      "Ġlove": 426,
      "am": 427,
      "ready": 428,
      "ause": 429,
      "Ġmean": 430,
      "Ġas": 431,
      "Ġaround": 432,
      "Ġalready": 433,
      "Ġfrom": 434,
      "Ġho": 435,
      "Ġmove": 436,
      "Ġper": 437,
      "Ġstill": 438,
      "ting": 439,
      "Ġbubbles": 440,
      "Ġname": 441,
      "Ġmakes": 442,
      "ES": 443,
      "ous": 444,
      "Ġbecause": 445,
      "Ġout": 446,
      "Ġvery": 447,
      "loat": 448,
      "Ġswimming": 449,
      "Ġqu": 450,
      "Ġbi": 451,
      "Ġsomeone": 452,
      "Ġwond": 453,
      "Ġback": 454,
      "cit": 455,
      "Ġreally": 456,
      "Ġwonder": 457,
      "Ġgold": 458,
      "day": 459,
      "Ġde": 460,
      "Ġint": 461,
      "Ġfloat": 462,
      "ide": 463,
      "self": 464,
      "ong": 465,
      "ect": 466,
      "Ġnever": 467,
      "ĠW": 468,
      "Ġbest": 469,
      "Ġfa": 470,
      "Ġsound": 471,
      "Ġkeep": 472,
      "Ġdis": 473,
      "Ġgone": 474,
      "Ġtal": 475,
      "ked": 476,
      "ab": 477,
      "Ġbo": 478,
      "ness": 479,
      "Ġdoing": 480,
      "Ġeve": 481,
      "Ġwant": 482,
      "Ġeven": 483,
      "ite": 484,
      "ort": 485,
      "as": 486,
      "'ll": 487,
      "Ġwhole": 488,
      "Ġdiff": 489,
      "ace": 490,
      "Ġway": 491,
      "fish": 492,
      "Ġdiffere": 493,
      "Ġthough": 494,
      "Ġhar": 495,
      "Ġby": 496,
      "ircles": 497,
      "Ġhard": 498,
      "Ġday": 499,
      "dy": 500,
      "Ġexcit": 501,
      "Ġblan": 502,
      "Ġgoldfish": 503,
      "Ġwould": 504,
      "Ġsa": 505,
      "Ġwill": 506,
      "Ġsec": 507,
      "Ġhappened": 508,
      "reat": 509,
      "ist": 510,
      "Ġdifferent": 511,
      "Ġcomp": 512,
      "Ġeat": 513,
      "ought": 514,
      "Ġaway": 515,
      "Ġpro": 516,
      "ually": 517,
      "Ġreal": 518,
      "Ġjo": 519,
      "rat": 520,
      "ut": 521,
      "Ġgoing": 522,
      "Ġimp": 523,
      "Ġwiggle": 524,
      "Ġpart": 525,
      "atter": 526,
      "Ġmake": 527,
      "Ġseem": 528,
      "Ġtry": 529,
      "Ġbig": 530,
      "ks": 531,
      "orry": 532,
      "Ġpre": 533,
      "ello": 534,
      "Ġstay": 535,
      "sed": 536,
      "fe": 537,
      "ory": 538,
      "'ve": 539,
      "ap": 540,
      "OU": 541,
      "Ġhello": 542,
      "vor": 543,
      "Ġsad": 544,
      "ump": 545,
      "Ġpe": 546,
      "Ġlitt": 547,
      "Ġlittle": 548,
      "ure": 549,
      "Ġmoving": 550,
      "Ġr": 551,
      "Ġmore": 552,
      "ning": 553,
      "Ġact": 554,
      "Ġstart": 555,
      "fin": 556,
      "Ġtr": 557,
      "Ġmu": 558,
      "fore": 559,
      "eed": 560,
      "Ġsame": 561,
      "Ġfavor": 562,
      "ti": 563,
      "Ġbefore": 564,
      "sol": 565,
      "Ġfavorite": 566,
      "ach": 567,
      "act": 568,
      "Ġsorry": 569,
      "Ġprob": 570,
      "Ġfood": 571,
      "iny": 572,
      "ose": 573,
      "Ġmatter": 574,
      "Ġmost": 575,
      "Ġwonderful": 576,
      "Ġgot": 577,
      "Ġfun": 578,
      "lp": 579,
      "Ġthan": 580,
      "Ġmad": 581,
      "Ġthought": 582,
      "Ġexcited": 583,
      "Ġle": 584,
      "ales": 585,
      "Ġworld": 586,
      "where": 587,
      "Ġhu": 588,
      "ably": 589,
      "ĠA": 590,
      "Ġpl": 591,
      "Ġscales": 592,
      "Ġhold": 593,
      "Ġhi": 594,
      "Ġtalking": 595,
      "Ġimport": 596,
      "li": 597,
      "ib": 598,
      "Ġimportant": 599,
      "red": 600,
      "Ġsoft": 601,
      "Ġbr": 602,
      "Ġhelp": 603,
      "Ġneed": 604,
      "Ġprobably": 605,
      "ves": 606,
      "Ġcome": 607,
      "let": 608,
      "Ġlive": 609,
      "fect": 610,
      "Ġperfect": 611,
      "Ġsounds": 612,
      "Ġround": 613,
      "Ġyourself": 614,
      "ĠS": 615,
      "Ġtoday": 616,
      "ang": 617,
      "and": 618,
      "IN": 619,
      "Ġdefin": 620,
      "esc": 621,
      "Ġfeeling": 622,
      "Ġmuch": 623,
      "Ġstu": 624,
      "Ġforgetting": 625,
      "ĠF": 626,
      "ĠYES": 627,
      "ĠYOU": 628,
      "own": 629,
      "Ġmade": 630,
      "lor": 631,
      "nder": 632,
      "Ġanything": 633,
      "Ġlea": 634,
      "Ġactually": 635,
      "Ġbet": 636,
      "Ġhad": 637,
      "Ġnothing": 638,
      "ream": 639,
      "Ġpo": 640,
      "ling": 641,
      "Ġcomplet": 642,
      "ation": 643,
      "pped": 644,
      "Ġconfu": 645,
      "Ġfir": 646,
      "Ġfast": 647,
      "ared": 648,
      "RE": 649,
      "itely": 650,
      "rave": 651,
      "sp": 652,
      "een": 653,
      "Ġunder": 654,
      "ight": 655,
      "Ġfirst": 656,
      "Ġsecond": 657,
      "Ġfre": 658,
      "Ġsure": 659,
      "Ġdefinitely": 660,
      "Ġexp": 661,
      "ck": 662,
      "ved": 663,
      "Ġbeau": 664,
      "mm": 665,
      "Ġinto": 666,
      "Ġother": 667,
      "Ġcould": 668,
      "Ġsaying": 669,
      "Ġbeauti": 670,
      "Ġstare": 671,
      "ĠM": 672,
      "ret": 673,
      "ĠTH": 674,
      "ich": 675,
      "Ġword": 676,
      "Ġmeans": 677,
      "Ġlong": 678,
      "Ġlooking": 679,
      "Ġover": 680,
      "Ġbeautiful": 681,
      "bump": 682,
      "Ġcolor": 683,
      "Ġdream": 684,
      "Ġsur": 685,
      "Ġcompletely": 686,
      "Ġthinking": 687,
      "Ġbright": 688,
      "Ġdown": 689,
      "ark": 690,
      "acant": 691,
      "side": 692,
      "Ġprett": 693,
      "ope": 694,
      "Ġthose": 695,
      "Ġanyway": 696,
      "Ġalso": 697,
      "Ġid": 698,
      "Ġblanked": 699,
      "?!": 700,
      "sw": 701,
      "ares": 702,
      "Ġgent": 703,
      "Ġwhich": 704,
      "Ġbody": 705,
      "Ġkindness": 706,
      "Ġwell": 707,
      "Ġpretty": 708,
      "bumps": 709,
      "ise": 710,
      "Ġcircles": 711,
      "ĠâĢĶ": 712,
      "Ġdoesn": 713,
      "Ġbubble": 714,
      "ard": 715,
      "Ġplant": 716,
      "int": 717,
      "ĠO": 718,
      "ills": 719,
      "Ġcle": 720,
      "estion": 721,
      "ine": 722,
      "lse": 723,
      "Ġquestion": 724,
      "eci": 725,
      "any": 726,
      "AT": 727,
      "Ġtiny": 728,
      "Ġlet": 729,
      "Ġexist": 730,
      "ool": 731,
      "escri": 732,
      "Ġelse": 733,
      "Ġshould": 734,
      "yes": 735,
      "Ġfe": 736,
      "atch": 737,
      "Ġdescri": 738,
      "ction": 739,
      "Ġaw": 740,
      "ny": 741,
      "Ġow": 742,
      "Ġdissol": 743,
      "ĠB": 744,
      "az": 745,
      "Ġmis": 746,
      "Ġwatch": 747,
      "Ġfore": 748,
      "ile": 749,
      "Ġgills": 750,
      "Ġmem": 751,
      "Ġstop": 752,
      "Ġidea": 753,
      "Ġunderst": 754,
      "ished": 755,
      "pr": 756,
      "ING": 757,
      "ravel": 758,
      "Ġforever": 759,
      "ins": 760,
      "ste": 761,
      "iz": 762,
      "ĠH": 763,
      "Ġfriends": 764,
      "vacant": 765,
      "Ġbad": 766,
      "ner": 767,
      "Ġfad": 768,
      "Ġlife": 769,
      "Ġpla": 770,
      "Ġspeci": 771,
      "Ġunderstand": 772,
      "oh": 773,
      "Ġsurpr": 774,
      "Ġfresh": 775,
      "Ġbeen": 776,
      "Ġslow": 777,
      "Ġamaz": 778,
      "Ġlost": 779,
      "Ġscared": 780,
      "son": 781,
      "Ġbump": 782,
      "Ġcomes": 783,
      "Ġdissolved": 784,
      "Ġlone": 785,
      "Ġhum": 786,
      "ick": 787,
      "ĠD": 788,
      "Ġvan": 789,
      "Ġcool": 790,
      "pt": 791,
      "Ġlist": 792,
      "Ġmany": 793,
      "Ġhope": 794,
      "Ġgravel": 795,
      "Ġwall": 796,
      "Ġfo": 797,
      "Ġrest": 798,
      "Ġcare": 799,
      "Ġdescribe": 800,
      "Ġfunny": 801,
      "Ġmiss": 802,
      "Ġwet": 803,
      "Ġhur": 804,
      "Ġhmm": 805,
      "Ġconfused": 806,
      "Ġchange": 807,
      "Ġbetter": 808,
      "oom": 809,
      "Ġbrain": 810,
      "Ġstr": 811,
      "Ġperson": 812,
      "other": 813,
      "Ġhappening": 814,
      "Ġmemory": 815,
      "Ġlonely": 816,
      "circles": 817,
      "igg": 818,
      "row": 819,
      "Ġfloating": 820,
      "Ġamazing": 821,
      "Ġmeet": 822,
      "Ġanother": 823,
      "Ġcold": 824,
      "Ġun": 825,
      "ird": 826,
      "Ġhappens": 827,
      "Ġfl": 828,
      "Ġeyes": 829,
      "what": 830,
      "Ġtrying": 831,
      "ĠN": 832,
      "Ġjoke": 833,
      "Ġpr": 834,
      "Ġlisten": 835,
      "ated": 836,
      "Ġsomewhere": 837,
      "Ġcoming": 838,
      "ious": 839,
      "Ġfu": 840,
      "wa": 841,
      "Ġtired": 842,
      "Ġvanished": 843,
      "xt": 844,
      "eah": 845,
      "spins": 846,
      "Ġhurt": 847,
      "co": 848,
      "Ġonly": 849,
      "Ġdark": 850,
      "ye": 851,
      "Ġforgive": 852,
      "Ġface": 853,
      "Ġhas": 854,
      "Ġhome": 855,
      "reath": 856,
      "wigg": 857,
      "stares": 858,
      "the": 859,
      "ester": 860,
      "esterday": 861,
      "Ġyesterday": 862,
      "Ġbreath": 863,
      "Ġeach": 864,
      "Ġstuff": 865,
      "Ġtur": 866,
      "Ġown": 867,
      "Ġsleep": 868,
      "Ġchang": 869,
      "dd": 870,
      "ue": 871,
      "rious": 872,
      "Ġpast": 873,
      "Ġfaded": 874,
      "Ġyeah": 875,
      "lt": 876,
      "Ġweird": 877,
      "ored": 878,
      "ible": 879,
      "Ġref": 880,
      "Ġsaid": 881,
      "Ġgi": 882,
      "Ġsli": 883,
      "app": 884,
      "Ġgre": 885,
      "Ġgentle": 886,
      "Ġwon": 887,
      "Ġcast": 888,
      "Ġisn": 889,
      "Ġlooks": 890,
      "wait": 891,
      "Ġcastle": 892,
      "Ġpeace": 893,
      "Ġwaiting": 894,
      "ople": 895,
      "swim": 896,
      "Ġpeople": 897,
      "pe": 898,
      "Ġmatters": 899,
      "Ġgreat": 900,
      "Ġcor": 901,
      "hat": 902,
      "cu": 903,
      "Ġhead": 904,
      "'d": 905,
      "Ġsun": 906,
      "Ġexact": 907,
      "Ġwarmth": 908,
      "adow": 909,
      "Ġrefle": 910,
      "Ġcirc": 911,
      "ops": 912,
      "Ġmostly": 913,
      "gether": 914,
      "Ġapp": 915,
      "Ġcu": 916,
      "ance": 917,
      "Ġtogether": 918,
      "lie": 919,
      "ither": 920,
      "bye": 921,
      "Ġcou": 922,
      "Ġhand": 923,
      "Ġboth": 924,
      "get": 925,
      "Ġwork": 926,
      "Ġblank": 927,
      "Ġpoint": 928,
      "oud": 929,
      "Ġdidn": 930,
      "Ġoutside": 931,
      "zoom": 932,
      "Ġfull": 933,
      "wiggles": 934,
      "erest": 935,
      "ase": 936,
      "Ġsafe": 937,
      "Ġspecial": 938,
      "Ġinterest": 939,
      "Ġslipped": 940,
      "Ġold": 941,
      "ate": 942,
      "Ġmyself": 943,
      "ity": 944,
      "ear": 945,
      "Ġleft": 946,
      "Ġcorner": 947,
      "Ġcall": 948,
      "Ġstory": 949,
      "Ġim": 950,
      "Ġbelie": 951,
      "less": 952,
      "Ġ-": 953,
      "ason": 954,
      "Ġlot": 955,
      "Ġgoodbye": 956,
      "Ġreason": 957,
      "ary": 958,
      "med": 959,
      "ER": 960,
      "ress": 961,
      "Ġgoes": 962,
      "Ġnext": 963,
      "Ġmid": 964,
      "rash": 965,
      "Ġkeeps": 966,
      "Ġnotice": 967,
      "ĠWH": 968,
      "Ġtrust": 969,
      "Ġseconds": 970,
      "Ġbored": 971,
      "Ġshadow": 972,
      "Ġalive": 973,
      "Ġmight": 974,
      "outh": 975,
      "Ġsecret": 976,
      "Ġplace": 977,
      "iet": 978,
      "Ġtw": 979,
      "rand": 980,
      "Ġleave": 981,
      "Ġmaking": 982,
      "Ġask": 983,
      "Ġreflection": 984,
      "ty": 985,
      "Ġexactly": 986,
      "gry": 987,
      "Ġplants": 988,
      "ush": 989,
      "Ġmor": 990,
      "Ġmust": 991,
      "Ġcal": 992,
      "Ġte": 993,
      "ail": 994,
      "swims": 995,
      "ever": 996,
      "Ġeither": 997,
      "Ġclear": 998,
      "its": 999,
      "Ġwr": 1000,
      "Ġquiet": 1001,
      "ove": 1002,
      "Ġlast": 1003,
      "Ġside": 1004,
      "Ġtom": 1005,
      "Ġswam": 1006,
      "Ġthank": 1007,
      "mind": 1008,
      "Ġac": 1009,
      "Ġmouth": 1010,
      "Ġfind": 1011,
      "Ġreg": 1012,
      "Ġturn": 1013,
      "Ġgreen": 1014,
      "Ġcurious": 1015,
      "AK": 1016,
      "Ġclo": 1017,
      "Ġbl": 1018,
      "ĠOH": 1019,
      "Ġswish": 1020,
      "Ġgu": 1021,
      "Ġmind": 1022,
      "ence": 1023,
      "ĠC": 1024,
      "Ġaf": 1025,
      "gets": 1026,
      "Ġabove": 1027,
      "ĠNO": 1028,
      "dden": 1029,
      "Ġcalm": 1030,
      "orrow": 1031,
      "ott": 1032,
      "atches": 1033,
      "Ġooh": 1034,
      "Ġsurpris": 1035,
      "Ġinteresting": 1036,
      "Ġmorning": 1037,
      "Ġus": 1038,
      "Ġtomorrow": 1039,
      "stops": 1040,
      "Ġflake": 1041,
      "led": 1042,
      "rea": 1043,
      "Ġshap": 1044,
      "na": 1045,
      "Ġleaving": 1046,
      "anc": 1047,
      "Ġtaste": 1048,
      "Ġasking": 1049,
      "ĠFL": 1050,
      "ouch": 1051,
      "Ġbelieve": 1052,
      "Ġbrand": 1053,
      "Ġbigg": 1054,
      "Ġop": 1055,
      "Ġalone": 1056,
      "Ġbott": 1057,
      "Ġvis": 1058,
      "Ġbottom": 1059,
      "ens": 1060,
      "Ġexcitedly": 1061,
      "Ġthese": 1062,
      "Ġeas": 1063,
      "ĠWhat": 1064,
      "Ġfelt": 1065,
      "Ġdisapp": 1066,
      "our": 1067,
      "Ġscary": 1068,
      "Ġjoy": 1069,
      "--": 1070,
      "Ġro": 1071,
      "Ġoff": 1072,
      "Ġhear": 1073,
      "Ġmoved": 1074,
      "cept": 1075,
      "rate": 1076,
      "utter": 1077,
      "OO": 1078,
      "zy": 1079,
      "Ġgetting": 1080,
      "AKES": 1081,
      "per": 1082,
      "Ġbye": 1083,
      "look": 1084,
      "Ġfall": 1085,
      "ater": 1086,
      "Ġheart": 1087,
      "sing": 1088,
      "ward": 1089,
      "Ġwithout": 1090,
      "Ġcur": 1091,
      "Ġspin": 1092,
      "solut": 1093,
      "ried": 1094,
      "Ġwrong": 1095,
      "ĠFLAKES": 1096,
      "llow": 1097,
      "Ġregret": 1098,
      "Ġaren": 1099,
      "Ġwatching": 1100,
      "Ġmoves": 1101,
      "RI": 1102,
      "Ġtouch": 1103,
      "ree": 1104,
      "stant": 1105,
      "Ġgl": 1106,
      "able": 1107,
      "Ġstuck": 1108,
      "Ġcount": 1109,
      "ides": 1110,
      "Ġshow": 1111,
      "looks": 1112,
      "Ġple": 1113,
      "Ġfine": 1114,
      "Ġtalk": 1115,
      "ĠG": 1116,
      "Ġsmoo": 1117,
      "blan": 1118,
      "Ġready": 1119,
      "ically": 1120,
      "ily": 1121,
      "ng": 1122,
      "ten": 1123,
      "Ġvib": 1124,
      "ies": 1125,
      "Ġlistening": 1126,
      "Ġworry": 1127,
      "Ġsmooth": 1128,
      "ately": 1129,
      "Ġlear": 1130,
      "Ġabsolut": 1131,
      "Ġgift": 1132,
      "ense": 1133,
      "ex": 1134,
      "no": 1135,
      "Ġinv": 1136,
      "Ġwiggling": 1137,
      "LE": 1138,
      "Ġcame": 1139,
      "onest": 1140,
      "Ġwent": 1141,
      "Ġshiny": 1142,
      "ass": 1143,
      "Ġgets": 1144,
      "Ġtheir": 1145,
      "Ġsudden": 1146,
      "Ġseems": 1147,
      "Ġonce": 1148,
      "watches": 1149,
      "lain": 1150,
      "Ġseen": 1151,
      "oun": 1152,
      "Ġcat": 1153,
      "ĠE": 1154,
      "Ġgive": 1155,
      "Ġeverywhere": 1156,
      "Ġabsolutely": 1157,
      "Ġse": 1158,
      "Ġglad": 1159,
      "Ġcont": 1160,
      "how": 1161,
      "rift": 1162,
      "Ġhonest": 1163,
      "Ġlau": 1164,
      "Ġnope": 1165,
      "ake": 1166,
      "Ġeating": 1167,
      "Ġhun": 1168,
      "Ġfollow": 1169,
      "oop": 1170,
      "ig": 1171,
      "Ġfil": 1172,
      "medi": 1173,
      "ag": 1174,
      "Ġworth": 1175,
      "iness": 1176,
      "ĠYou": 1177,
      "zooms": 1178,
      "ĠTHE": 1179,
      "Ġflutter": 1180,
      "Ġtimes": 1181,
      "Ġfilter": 1182,
      "Ġnotion": 1183,
      "ĠSO": 1184,
      "cks": 1185,
      "Ġpass": 1186,
      "Ġinside": 1187,
      "Ġvibrat": 1188,
      "Ġsoon": 1189,
      "Ġlaugh": 1190,
      "vous": 1191,
      "Ġeveryone": 1192,
      "Ġatt": 1193,
      "Ġwalls": 1194,
      "ED": 1195,
      "ĠL": 1196,
      "Ġcatch": 1197,
      "lly": 1198,
      "Ġwish": 1199,
      "Ġbrea": 1200,
      "Ġend": 1201,
      "mediately": 1202,
      "Ġmet": 1203,
      "Ġtot": 1204,
      "gic": 1205,
      "Ġvisit": 1206,
      "Ġago": 1207,
      "Ġnotic": 1208,
      "Ġslowly": 1209,
      "Ġsomehow": 1210,
      "Ġmeeting": 1211,
      "Ġev": 1212,
      "ĠTh": 1213,
      "Ġopen": 1214,
      "Ġplease": 1215,
      "os": 1216,
      "Ġsmile": 1217,
      "apor": 1218,
      "Ġad": 1219,
      "rateful": 1220,
      "Ġhungry": 1221,
      "GH": 1222,
      "Ġexplain": 1223,
      "ĠME": 1224,
      "Ġpeaceful": 1225,
      "Ġguess": 1226,
      "Ġbreathe": 1227,
      "unch": 1228,
      "Ġdisco": 1229,
      "ĠWHAT": 1230,
      "con": 1231,
      "Ġpush": 1232,
      "ert": 1233,
      "Ġgrateful": 1234,
      "ered": 1235,
      "Ġmovement": 1236,
      "Ġhelps": 1237,
      "stantly": 1238,
      "Ġemp": 1239,
      "Ġsurprise": 1240,
      "Ġevapor": 1241,
      "bo": 1242,
      "oes": 1243,
      "ple": 1244,
      "ĠWA": 1245,
      "Ġwords": 1246,
      "Ġspot": 1247,
      "Ġforgotten": 1248,
      "Ġtrue": 1249,
      "ize": 1250,
      "Ġnear": 1251,
      "Ġquick": 1252,
      "ses": 1253,
      "Ġlater": 1254,
      "ĠIS": 1255,
      "Ġcircle": 1256,
      "Ġfrust": 1257,
      "Ġtotally": 1258,
      "ud": 1259,
      "Ġsill": 1260,
      "onna": 1261,
      "aring": 1262,
      "Ġent": 1263,
      "Ġfrustrat": 1264,
      "av": 1265,
      "Ġgonna": 1266,
      "pping": 1267,
      "Ġtwo": 1268,
      "Ġgently": 1269,
      "Ġaww": 1270,
      "Ġevaporated": 1271,
      "Ġner": 1272,
      "orm": 1273,
      "Ġsto": 1274,
      "Ġhey": 1275,
      "body": 1276,
      "Ġtop": 1277,
      "IT": 1278,
      "more": 1279,
      "Ġair": 1280,
      "Ġwhatever": 1281,
      "Ġtold": 1282,
      "Ġpur": 1283,
      "Ġclean": 1284,
      "Ġinc": 1285,
      "Ġchanged": 1286,
      "Ġnervous": 1287,
      "Ġcr": 1288,
      "Ġparts": 1289,
      "Ġsn": 1290,
      "Ġgr": 1291,
      "Ġclose": 1292,
      "Ġbreak": 1293,
      "Ġsilly": 1294,
      "Ġtow": 1295,
      "Ġanymore": 1296,
      "GHT": 1297,
      "AY": 1298,
      "ature": 1299,
      "Ġwhile": 1300,
      "Ġempty": 1301,
      "Ġboun": 1302,
      "Ġdec": 1303,
      "LL": 1304,
      "ON": 1305,
      "ster": 1306,
      "Ġtap": 1307,
      "ĠTHAT": 1308,
      "uck": 1309,
      "ĠP": 1310,
      "Ġsim": 1311,
      "Ġcl": 1312,
      "Ġtake": 1313,
      "Ġglow": 1314,
      "ME": 1315,
      "Ġten": 1316,
      "akes": 1317,
      "Ġdire": 1318,
      "ces": 1319,
      "set": 1320,
      "Ġcolors": 1321,
      "excit": 1322,
      "hy": 1323,
      "ire": 1324,
      "Ġfear": 1325,
      "Ġfocu": 1326,
      "Ġtoward": 1327,
      "ath": 1328,
      "Ġmist": 1329,
      "Ġstartled": 1330,
      "Ġones": 1331,
      "Ġdist": 1332,
      "ip": 1333,
      "ome": 1334,
      "vers": 1335,
      "Ġhandle": 1336,
      "Ġsurprised": 1337,
      "ers": 1338,
      "Ġappear": 1339,
      "Ġafter": 1340,
      "Ġfalling": 1341,
      "Ġhonestly": 1342,
      "lic": 1343,
      "Ġansw": 1344,
      "Ġmagic": 1345,
      "Ġnevermind": 1346,
      "Ġthoughts": 1347,
      "Ġdreams": 1348,
      "Ġpurp": 1349,
      "crash": 1350,
      "hh": 1351,
      "Ġsense": 1352,
      "Ġsuddenly": 1353,
      "IS": 1354,
      "Ġdet": 1355,
      "Ġdrift": 1356,
      "Ġnobody": 1357,
      "Ġdirection": 1358,
      "Ġri": 1359,
      "Ġsides": 1360,
      "Ġmyster": 1361,
      "Ġlovely": 1362,
      "Ġblankly": 1363,
      "Ġimmediately": 1364,
      "ween": 1365,
      "Ġpurpose": 1366,
      "Ġbiggest": 1367,
      "Ġthree": 1368,
      "ings": 1369,
      "Ġjump": 1370,
      "ected": 1371,
      "Ġbetween": 1372,
      "Ġlearn": 1373,
      "Ġloud": 1374,
      "ions": 1375,
      "Ġbreathing": 1376,
      "Ġrocks": 1377,
      "TH": 1378,
      "Ġmine": 1379,
      "Ġcorners": 1380,
      "oint": 1381,
      "um": 1382,
      "Ġplay": 1383,
      "Ġworried": 1384,
      "Ġtra": 1385,
      "Ġhaving": 1386,
      "Ġbeh": 1387,
      "Ġar": 1388,
      "Ġfeed": 1389,
      "Ġdeep": 1390,
      "Ġtast": 1391,
      "Ġexciting": 1392,
      "Ġeasy": 1393,
      "Ġsing": 1394,
      "escap": 1395,
      "Ġanswer": 1396,
      "tail": 1397,
      "Ġwow": 1398,
      "Ġcircling": 1399,
      "Ġself": 1400,
      "excited": 1401,
      "mer": 1402,
      "Ġfam": 1403,
      "Ġhit": 1404,
      "Ġluck": 1405,
      "Ġcrash": 1406,
      "Ġfail": 1407,
      "Ġfound": 1408,
      "arts": 1409,
      "acted": 1410,
      "Ġconfusing": 1411,
      "com": 1412,
      "dle": 1413,
      "Ġdance": 1414,
      "Ġmeaning": 1415,
      "Ġescap": 1416,
      "Ġcar": 1417,
      "blank": 1418,
      "Ġprom": 1419,
      "ertain": 1420,
      "Ġless": 1421,
      "Ġstays": 1422,
      "Ġmiddle": 1423,
      "Ġshape": 1424,
      "RIGHT": 1425,
      "Ġwiggles": 1426,
      "Ġexpl": 1427,
      "Ġstrong": 1428,
      "VER": 1429,
      "Ġset": 1430,
      "Ġbit": 1431,
      "Ġsupp": 1432,
      "ized": 1433,
      "Ġsimple": 1434,
      "Ġdisappoint": 1435,
      "ient": 1436,
      "Ġproud": 1437,
      "Ġspinning": 1438,
      "oof": 1439,
      "stead": 1440,
      "Ġbehind": 1441,
      "Ġyoung": 1442,
      "Ġinstead": 1443,
      "bon": 1444,
      "roke": 1445,
      "crashes": 1446,
      "Ġbrave": 1447,
      "Ġdanc": 1448,
      "Ġsaw": 1449,
      "Ġsit": 1450,
      "Ġfar": 1451,
      "Ġanyone": 1452,
      "nce": 1453,
      "Ġspark": 1454,
      "Ġdes": 1455,
      "Ġnight": 1456,
      "Ġworks": 1457,
      "Ġstrange": 1458,
      "Ġincred": 1459,
      "Ġz": 1460,
      "fic": 1461,
      "Ġbud": 1462,
      "does": 1463,
      "Ġheav": 1464,
      "raid": 1465,
      "actually": 1466,
      "Ġcurre": 1467,
      "Ġfrustrated": 1468,
      "Ġremembering": 1469,
      "Ġfloaty": 1470,
      "Ġafraid": 1471,
      "racted": 1472,
      "Ġnorm": 1473,
      "Ġnoise": 1474,
      "Ġvo": 1475,
      "tra": 1476,
      "ross": 1477,
      "Ġasked": 1478,
      "Ġdetail": 1479,
      "OW": 1480,
      "ew": 1481,
      "mo": 1482,
      "ntil": 1483,
      "Ġshi": 1484,
      "HH": 1485,
      "ST": 1486,
      "Ġknowing": 1487,
      "Ġbuddy": 1488,
      "Ġbits": 1489,
      "ĠDo": 1490,
      "Ġtemp": 1491,
      "Ġcurrent": 1492,
      "ĠRIGHT": 1493,
      "Ġter": 1494,
      "Ġhide": 1495,
      "Ġgott": 1496,
      "fully": 1497,
      "ĠIT": 1498,
      "ĠMY": 1499,
      "ERE": 1500,
      "EST": 1501,
      "Ġbumpy": 1502,
      "gy": 1503,
      "Ġzoom": 1504,
      "Ġreach": 1505,
      "Ġbroke": 1506,
      "Ġliving": 1507,
      "ĠAM": 1508,
      "Ġhuman": 1509,
      "Ġchanges": 1510,
      "Ġdiscover": 1511,
      "up": 1512,
      "yond": 1513,
      "Ġforward": 1514,
      "Ġbeyond": 1515,
      "Ġuntil": 1516,
      "Ġbigger": 1517,
      "ual": 1518,
      "zzy": 1519,
      "Ġste": 1520,
      "ident": 1521,
      "Ġlucky": 1522,
      "Ġexplore": 1523,
      "AN": 1524,
      "Ġwasn": 1525,
      "Ġknows": 1526,
      "ention": 1527,
      "Ġconstantly": 1528,
      "ĠBU": 1529,
      "Ġbumping": 1530,
      "Ġimag": 1531,
      "for": 1532,
      "Ġmess": 1533,
      "Ġplan": 1534,
      "anger": 1535,
      "Ġteach": 1536,
      "Ġnormal": 1537,
      "el": 1538,
      "ier": 1539,
      "Ġwanted": 1540,
      "Ġrain": 1541,
      "ble": 1542,
      "Ġfut": 1543,
      "Ġloop": 1544,
      "ries": 1545,
      "Ġuse": 1546,
      "Ġhappiness": 1547,
      "Ġincredible": 1548,
      "Ġfuture": 1549,
      "Ġ'": 1550,
      "Ġtemper": 1551,
      "you": 1552,
      "Ġpat": 1553,
      "ssible": 1554,
      "Ġangry": 1555,
      "Ġholds": 1556,
      "Ġdistracted": 1557,
      "Ġgotta": 1558,
      "to": 1559,
      "Ġsme": 1560,
      "Ġfive": 1561,
      "Ġseeing": 1562,
      "Ġconn": 1563,
      "Ġjokes": 1564,
      "Ġtemperature": 1565,
      "Ġsmell": 1566,
      "Ġrepe": 1567,
      "ĠYOUR": 1568,
      "Ġagainst": 1569,
      "Ġchas": 1570,
      "Ġener": 1571,
      "Ġnews": 1572,
      "Ġstarts": 1573,
      "Ġstops": 1574,
      "jo": 1575,
      "Ġbor": 1576,
      "Ġsmart": 1577,
      "ĠDO": 1578,
      "Ġheavy": 1579,
      "fast": 1580,
      "Ġgrow": 1581,
      "ky": 1582,
      "Ġhaven": 1583,
      "iest": 1584,
      "Ġour": 1585,
      "Ġstress": 1586,
      "Ġexcept": 1587,
      "Ġinvis": 1588,
      "Ġdancing": 1589,
      "line": 1590,
      "ub": 1591,
      "Ġtrack": 1592,
      "Ġhuh": 1593,
      "ations": 1594,
      "THING": 1595,
      "Ġterri": 1596,
      "Ġinvisible": 1597,
      "Ġsuper": 1598,
      "OR": 1599,
      "ho": 1600,
      "Ġsuch": 1601,
      "Ġspace": 1602,
      "Ġwiggly": 1603,
      "VE": 1604,
      "osed": 1605,
      "some": 1606,
      "Ġstarted": 1607,
      "Ġbreakfast": 1608,
      "Ġdecor": 1609,
      "Ġshift": 1610,
      "ience": 1611,
      "Ġrough": 1612,
      "anic": 1613,
      "Ġear": 1614,
      "ĠBEST": 1615,
      "Ġnoticed": 1616,
      "su": 1617,
      "Ġcreat": 1618,
      "Ġentire": 1619,
      "Ġnervously": 1620,
      "Ġfocus": 1621,
      "ating": 1622,
      "Ġpatter": 1623,
      "Ġbus": 1624,
      "inks": 1625,
      "Ġflow": 1626,
      "sent": 1627,
      "ship": 1628,
      "Ġdeal": 1629,
      "Ġshapes": 1630,
      "Ġsupposed": 1631,
      "joy": 1632,
      "ci": 1633,
      "sc": 1634,
      "Ġrun": 1635,
      "Ġshadows": 1636,
      "BB": 1637,
      "fl": 1638,
      "Ġser": 1639,
      "att": 1640,
      "Ġremind": 1641,
      "ooked": 1642,
      "Ġstaring": 1643,
      "Ġdetails": 1644,
      "darts": 1645,
      "us": 1646,
      "EN": 1647,
      "ah": 1648,
      "not": 1649,
      "ories": 1650,
      "ils": 1651,
      "Ġchoo": 1652,
      "Ġvacant": 1653,
      "Ġris": 1654,
      "OOD": 1655,
      "Ġchasing": 1656,
      "antically": 1657,
      "Ġturning": 1658,
      "Ġattention": 1659,
      "eared": 1660,
      "ts": 1661,
      "read": 1662,
      "Ġyay": 1663,
      "Ġfree": 1664,
      "ĠMO": 1665,
      "Ġquestions": 1666,
      "Ġmissing": 1667,
      "Ġchanging": 1668,
      "Ġstopped": 1669,
      "*âĢĶ": 1670,
      "ĠRE": 1671,
      "Ġits": 1672,
      "Ġph": 1673,
      "Ġgosh": 1674,
      "Ġonto": 1675,
      "Ġswee": 1676,
      "come": 1677,
      "Ġpattern": 1678,
      "gn": 1679,
      "happ": 1680,
      "confu": 1681,
      "Ġsol": 1682,
      "ĠTHIS": 1683,
      "ĠWAIT": 1684,
      "ĠBUBB": 1685,
      "sit": 1686,
      "ank": 1687,
      "Ġwel": 1688,
      "Ġchase": 1689,
      "Ġenjoy": 1690,
      "ĠThat": 1691,
      "iding": 1692,
      "âĢĶ*": 1693,
      "Ġmoments": 1694,
      "Ġgolden": 1695,
      "Ġlots": 1696,
      "CK": 1697,
      "age": 1698,
      "wor": 1699,
      "that": 1700,
      "Ġwake": 1701,
      "ili": 1702,
      "Ġdelic": 1703,
      "Ġvisitor": 1704,
      "Ġbroken": 1705,
      "lar": 1706,
      "Ġnose": 1707,
      "Ġworking": 1708,
      "ĠIN": 1709,
      "Ġtelling": 1710,
      "Ġconf": 1711,
      "Ġspecific": 1712,
      "Ġsnack": 1713,
      "Ġimagine": 1714,
      "happy": 1715,
      "Ġob": 1716,
      "Ġcares": 1717,
      "Ġgen": 1718,
      "Ġwarmer": 1719,
      "Ġfrantically": 1720,
      "Ġposit": 1721,
      "confused": 1722,
      "ix": 1723,
      "Ġbother": 1724,
      "ancy": 1725,
      "Ġpromise": 1726,
      "Ġvoice": 1727,
      "most": 1728,
      "iliar": 1729,
      "he": 1730,
      "Ġdr": 1731,
      "Ġbeg": 1732,
      "immer": 1733,
      "ĠTell": 1734,
      "Ġstarting": 1735,
      "Ġblue": 1736,
      "Ġvibrations": 1737,
      "Ġdeser": 1738,
      "Ġtick": 1739,
      "Ġmar": 1740,
      "Ġce": 1741,
      "thought": 1742,
      "ones": 1743,
      "Ġugh": 1744,
      "Ġdone": 1745,
      "bble": 1746,
      "Ġupset": 1747,
      "ĠThe": 1748,
      "Ġtastes": 1749,
      "comp": 1750,
      "ie": 1751,
      "ser": 1752,
      "umb": 1753,
      "inning": 1754,
      "Ġlooked": 1755,
      "Ġsingle": 1756,
      "Ġboring": 1757,
      "rill": 1758,
      "Ġleast": 1759,
      "Ġlearning": 1760,
      "Ġtrapped": 1761,
      "Ġfamiliar": 1762,
      "de": 1763,
      "ĠJ": 1764,
      "vent": 1765,
      "ĠYAY": 1766,
      "who": 1767,
      "Ġtru": 1768,
      "Ġfaster": 1769,
      "Ġhopeful": 1770,
      "Ġserious": 1771,
      "Ġwelcome": 1772,
      "ID": 1773,
      "ement": 1774,
      "Ġsize": 1775,
      "Ġdou": 1776,
      "Ġwal": 1777,
      "Ġalmost": 1778,
      "ĠHA": 1779,
      "Ġmistakes": 1780,
      "fort": 1781,
      "Ġawake": 1782,
      "Ġacc": 1783,
      "Ġusually": 1784,
      "Ġbounc": 1785,
      "something": 1786,
      "circ": 1787,
      "ps": 1788,
      "Ġyet": 1789,
      "leb": 1790,
      "Ġtale": 1791,
      "Ġturned": 1792,
      "Ġsweet": 1793,
      "ying": 1794,
      "Ġtried": 1795,
      "long": 1796,
      "uation": 1797,
      "Ġfit": 1798,
      "stic": 1799,
      "Ġworst": 1800,
      "Ġexists": 1801,
      "VERY": 1802,
      "bu": 1803,
      "eyes": 1804,
      "sic": 1805,
      "Ġaccept": 1806,
      "Ġmystery": 1807,
      "trails": 1808,
      "Ġenergy": 1809,
      "ol": 1810,
      "Ġfancy": 1811,
      "Ġsof": 1812,
      "Ġbelly": 1813,
      "Ġuh": 1814,
      "Ġdifference": 1815,
      "light": 1816,
      "Ġhumming": 1817,
      "Ġgiving": 1818,
      "ression": 1819,
      "bl": 1820,
      "Ġed": 1821,
      "lex": 1822,
      "Ġwild": 1823,
      "Ġconvers": 1824,
      "Ġswishes": 1825,
      "ĠNOW": 1826,
      "Ġchoose": 1827,
      "bt": 1828,
      "iling": 1829,
      "arent": 1830,
      "Ġchance": 1831,
      "Ġplaces": 1832,
      "Ġresting": 1833,
      "Ġplastic": 1834,
      "Ġnoticing": 1835,
      "bonks": 1836,
      "Ġsituation": 1837,
      "Ġsolid": 1838,
      "Ġsofter": 1839,
      "Ġitself": 1840,
      "oosh": 1841,
      "Ġsays": 1842,
      "Ġactual": 1843,
      "Ġholding": 1844,
      "perks": 1845,
      "aking": 1846,
      "here": 1847,
      "anna": 1848,
      "Ġpunch": 1849,
      "ames": 1850,
      "Ġbackward": 1851,
      "Ġwondering": 1852,
      "ĠCan": 1853,
      "Ġcontent": 1854,
      "Ġpositive": 1855,
      "Ġcra": 1856,
      "Ġanx": 1857,
      "bbles": 1858,
      "circling": 1859,
      "AR": 1860,
      "keep": 1861,
      "Ġach": 1862,
      "Ġlives": 1863,
      "Ġpay": 1864,
      "Ġstone": 1865,
      "aces": 1866,
      "Ġshimmer": 1867,
      "Ġquite": 1868,
      "ĠTHING": 1869,
      "Ġeasily": 1870,
      "Ġterrible": 1871,
      "Ġceleb": 1872,
      "low": 1873,
      "Ġtank": 1874,
      "mbered": 1875,
      "Ġstaying": 1876,
      "Ġhuge": 1877,
      "ĠAN": 1878,
      "Ġbrought": 1879,
      "Ġbrings": 1880,
      "Ġexisting": 1881,
      "Ġacross": 1882,
      "Ġdelicious": 1883,
      "Ġconversation": 1884,
      "AZ": 1885,
      "Ġnu": 1886,
      "Ġstick": 1887,
      "Ġloved": 1888,
      "Ġjob": 1889,
      "Ġsadness": 1890,
      "Ġfeelings": 1891,
      "keeps": 1892,
      "SE": 1893,
      "ia": 1894,
      "ild": 1895,
      "Ġwo": 1896,
      "Ġmin": 1897,
      "Ġbar": 1898,
      "Ġpoof": 1899,
      "Ġremembered": 1900,
      "ĠARE": 1901,
      "Ġletter": 1902,
      "Ġbounce": 1903,
      "Ġdeserve": 1904,
      "Ġpunchline": 1905,
      "ĠU": 1906,
      "Ġpain": 1907,
      "Ġyours": 1908,
      "Ġchec": 1909,
      "Ġothers": 1910,
      "Ġforgiveness": 1911,
      "Ġblur": 1912,
      "Ġmistake": 1913,
      "Ġarri": 1914,
      "Ġdiscovering": 1915,
      "ges": 1916,
      "Ġsch": 1917,
      "Ġsens": 1918,
      "Ġopt": 1919,
      "Ġinstantly": 1920,
      "auses": 1921,
      "Ġwouldn": 1922,
      "istic": 1923,
      "aps": 1924,
      "Ġnumber": 1925,
      "ds": 1926,
      "Ġpun": 1927,
      "Ġremembers": 1928,
      "Ġval": 1929,
      "why": 1930,
      "Ġpresent": 1931,
      "Ġperfectly": 1932,
      "ĠThis": 1933,
      "Ġescape": 1934,
      "Ġpi": 1935,
      "larious": 1936,
      "Ġhappily": 1937,
      "!!!": 1938,
      "Ġche": 1939,
      "Ġhilarious": 1940,
      "Ġdisappear": 1941,
      "head": 1942,
      "Ġcrazy": 1943,
      "AIN": 1944,
      "nope": 1945,
      "sion": 1946,
      "inner": 1947,
      "Ġsy": 1948,
      "ates": 1949,
      "Ġreco": 1950,
      "Ġlose": 1951,
      "Ġcomm": 1952,
      "Ġspend": 1953,
      "Ġsleeping": 1954,
      "Ġfollowing": 1955,
      "Ġcarry": 1956,
      "hold": 1957,
      "ul": 1958,
      "Ġtri": 1959,
      "Ġliter": 1960,
      "Ġred": 1961,
      "lash": 1962,
      "Ġknew": 1963,
      "Ġang": 1964,
      "Ġdays": 1965,
      "Ġhurts": 1966,
      "Ġregrets": 1967,
      "blanks": 1968,
      "udge": 1969,
      "ĠAMAZ": 1970,
      "Ġbusy": 1971,
      "ĠAMAZING": 1972,
      "uin": 1973,
      "Ġfli": 1974,
      "ection": 1975,
      "Ġripp": 1976,
      "SS": 1977,
      "cent": 1978,
      "pauses": 1979,
      "Ġwanna": 1980,
      "Ġhy": 1981,
      "Ġcau": 1982,
      "Ġswims": 1983,
      "Ġscare": 1984,
      "ute": 1985,
      "Ġroom": 1986,
      "ĠTHERE": 1987,
      "Ġcreature": 1988,
      "Ġwee": 1989,
      "Ġnet": 1990,
      "Ġcry": 1991,
      "Ġpanic": 1992,
      "Ġtakes": 1993,
      "Ġfriendship": 1994,
      "Ġneeds": 1995,
      "izes": 1996,
      "Ġhands": 1997,
      "Ġsurprising": 1998,
      "ĠGO": 1999,
      "EE": 2000,
      "ha": 2001,
      "rse": 2002,
      "sorry": 2003,
      "ssing": 2004,
      "Ġconcept": 2005,
      "Ġmusic": 2006,
      "Ġcourse": 2007,
      "Ġcrunch": 2008,
      "Ġliterally": 2009,
      "fo": 2010,
      "ock": 2011,
      "Ġmir": 2012,
      "Ġdinner": 2013,
      "esome": 2014,
      "lax": 2015,
      "Ġshare": 2016,
      "rating": 2017,
      "Ġcomplete": 2018,
      "Ġexpression": 2019,
      "Ġexistence": 2020,
      "Ġunless": 2021,
      "Ġcalled": 2022,
      "Ġattach": 2023,
      "Ġrising": 2024,
      "ossible": 2025,
      "Ġtall": 2026,
      "atic": 2027,
      "Ġmeant": 2028,
      "Ġscares": 2029,
      "ĠHE": 2030,
      "Ġstranger": 2031,
      "Ġsett": 2032,
      "Ġanxious": 2033,
      "PP": 2034,
      "ices": 2035,
      "Ġgoodness": 2036,
      "Ġshaking": 2037,
      "Ġsplash": 2038,
      "Ġdizzy": 2039,
      "Ġbring": 2040,
      "ĠST": 2041,
      "Ġawesome": 2042,
      "ĠEVERY": 2043,
      "Ġadv": 2044,
      "Ġentertain": 2045,
      "Ġsetup": 2046,
      "Ġdoubt": 2047,
      "blinks": 2048,
      "Ġattached": 2049,
      "drift": 2050,
      "Ġtre": 2051,
      "Ġahh": 2052,
      "Ġman": 2053,
      "Ġbas": 2054,
      "Ġhiding": 2055,
      "ont": 2056,
      "Ġbend": 2057,
      "Ġheard": 2058,
      "Ġimpossible": 2059,
      "Ġident": 2060,
      "ĠNE": 2061,
      "Ġgreet": 2062,
      "nods": 2063,
      "Ġvibration": 2064,
      "Ġglowing": 2065,
      "Ġconnected": 2066,
      "ĠREA": 2067,
      "cked": 2068,
      "float": 2069,
      "gs": 2070,
      "Ġsqu": 2071,
      "ical": 2072,
      "Ġate": 2073,
      "Ġexcitement": 2074,
      "Ġexper": 2075,
      "Ġstru": 2076,
      "Ġdisappointment": 2077,
      "attered": 2078,
      "Ġoptim": 2079,
      "ACK": 2080,
      "LD": 2081,
      "ru": 2082,
      "Ġhate": 2083,
      "Ġment": 2084,
      "Ġpu": 2085,
      "arah": 2086,
      "Ġkindly": 2087,
      "Ġcomfort": 2088,
      "Ġanywhere": 2089,
      "Ġrise": 2090,
      "Ġsoftly": 2091,
      "Ġunc": 2092,
      "Ġtwice": 2093,
      "Ġinvol": 2094,
      "ĠWAS": 2095,
      "Ġmysterious": 2096,
      "Ġlearned": 2097,
      "Ġdisappointed": 2098,
      "Ġbeginning": 2099,
      "CT": 2100,
      "ular": 2101,
      "Ġtest": 2102,
      "Ġdro": 2103,
      "Ġem": 2104,
      "Ġmeal": 2105,
      "asure": 2106,
      "Ġhardest": 2107,
      "Ġinvest": 2108,
      "ign": 2109,
      "Ġaccident": 2110,
      "uinely": 2111,
      "drifts": 2112,
      "OM": 2113,
      "did": 2114,
      "Ġnat": 2115,
      "lem": 2116,
      "Ġfront": 2117,
      "iled": 2118,
      "reaming": 2119,
      "Ġhour": 2120,
      "Ġsong": 2121,
      "ĠMy": 2122,
      "Ġtext": 2123,
      "Ġcloser": 2124,
      "Ġtouching": 2125,
      "Ġfailure": 2126,
      "Ġdecorations": 2127,
      "sudden": 2128,
      "haust": 2129,
      "face": 2130,
      "well": 2131,
      "Ġap": 2132,
      "this": 2133,
      "ilos": 2134,
      "Ġsmiling": 2135,
      "Ġbecom": 2136,
      "Ġcompany": 2137,
      "time": 2138,
      "Ġprot": 2139,
      "Ġquickly": 2140,
      "ĠBUBBLE": 2141,
      "Ġcheer": 2142,
      "Ġrecogn": 2143,
      "ilosop": 2144,
      "ial": 2145,
      "tries": 2146,
      "ict": 2147,
      "Ġused": 2148,
      "Ġsca": 2149,
      "ĠAG": 2150,
      "ĠHow": 2151,
      "Ġsurprises": 2152,
      "Ġbouncing": 2153,
      "sad": 2154,
      "Ġsarah": 2155,
      "Ġfare": 2156,
      "Ġgra": 2157,
      "...?": 2158,
      "arp": 2159,
      "Ġnowhere": 2160,
      "Ġforgetful": 2161,
      "Ġexhaust": 2162,
      "Ġtalked": 2163,
      "Ġproblem": 2164,
      "Ġsurface": 2165,
      "Ġgreatest": 2166,
      "ĠNOT": 2167,
      "Ġpasses": 2168,
      "Ġadvice": 2169,
      "peci": 2170,
      "Ġsharp": 2171,
      "ently": 2172,
      "OUT": 2173,
      "Ġawful": 2174,
      "Ġcounts": 2175,
      "Ġphilosop": 2176,
      "Ġcrunchy": 2177,
      "ls": 2178,
      "Ġwind": 2179,
      "real": 2180,
      "Ġstones": 2181,
      "Ġtapping": 2182,
      "Ġshort": 2183,
      "Ġaware": 2184,
      "Ġmemories": 2185,
      "ĠHU": 2186,
      "Ġfuzzy": 2187,
      "bonk": 2188,
      "Ġwoke": 2189,
      "ĠAGAIN": 2190,
      "boun": 2191,
      "ied": 2192,
      "Ġes": 2193,
      "Ġting": 2194,
      "Ġdra": 2195,
      "ĠFA": 2196,
      "ĠBE": 2197,
      "floats": 2198,
      "pecially": 2199,
      "Ġespecially": 2200,
      "Ġfaces": 2201,
      "Ġbis": 2202,
      "Ġdanger": 2203,
      "vered": 2204,
      "Ġrelax": 2205,
      "Ġforgets": 2206,
      "Ġwhoa": 2207,
      "ility": 2208,
      "Ġkinda": 2209,
      "Ġspea": 2210,
      "Ġdarkness": 2211,
      "cus": 2212,
      "Ġdisappeared": 2213,
      "forgets": 2214,
      "Ġearli": 2215,
      "Ġgenuinely": 2216,
      "Ġoptimistic": 2217,
      "Ġnatur": 2218,
      "suddenly": 2219,
      "Ġbiscu": 2220,
      "Ġwis": 2221,
      "Ġbon": 2222,
      "ero": 2223,
      "Ġdart": 2224,
      "Ġlate": 2225,
      "Ġwave": 2226,
      "Ġlikes": 2227,
      "rios": 2228,
      "ppy": 2229,
      "oney": 2230,
      "Ġchar": 2231,
      "Ġvac": 2232,
      "Ġpress": 2233,
      "Ġache": 2234,
      "Ġbarri": 2235,
      "riosity": 2236,
      "NT": 2237,
      "ave": 2238,
      "ne": 2239,
      "press": 2240,
      "Ġtreat": 2241,
      "Ġfig": 2242,
      "Ġfix": 2243,
      "Ġknock": 2244,
      "Ġintense": 2245,
      "Ġrealized": 2246,
      "Ġslower": 2247,
      "oops": 2248,
      "Ġendless": 2249,
      "Ġmovements": 2250,
      "Ġescaped": 2251,
      "Ġsteady": 2252,
      "flutter": 2253,
      "bubble": 2254,
      "arently": 2255,
      "Ġtexture": 2256,
      "Ġrecognize": 2257,
      "tion": 2258,
      "Ġthread": 2259,
      "Ġhits": 2260,
      "Ġanno": 2261,
      "Ġsho": 2262,
      "Ġthanks": 2263,
      "ĠFOOD": 2264,
      "ĠDID": 2265,
      "ĠSOME": 2266,
      "Ġpassed": 2267,
      "GE": 2268,
      "cc": 2269,
      "Ġwise": 2270,
      "Ġdri": 2271,
      "Ġrec": 2272,
      "Ġinfin": 2273,
      "Ġoften": 2274,
      "ssib": 2275,
      "Ġdiscu": 2276,
      "Ġharder": 2277,
      "Ġrout": 2278,
      "Ġpossible": 2279,
      "Ġexplor": 2280,
      "Ġcuriosity": 2281,
      "okay": 2282,
      "par": 2283,
      "ze": 2284,
      "Ġalex": 2285,
      "ower": 2286,
      "Ġbuild": 2287,
      "ality": 2288,
      "ĠIt": 2289,
      "Ġwants": 2290,
      "Ġfunn": 2291,
      "Ġpossib": 2292,
      "ĠHI": 2293,
      "they": 2294,
      "Ġapparently": 2295,
      "ngth": 2296,
      "Ġcaught": 2297,
      "Ġbasically": 2298,
      "bounces": 2299,
      "til": 2300,
      "was": 2301,
      "zz": 2302,
      "ĠR": 2303,
      "Ġage": 2304,
      "Ġinsp": 2305,
      "Ġnom": 2306,
      "immediately": 2307,
      "Ġcho": 2308,
      "Ġvi": 2309,
      "Ġrhy": 2310,
      "Ġconfusion": 2311,
      "Ġbrighter": 2312,
      "ĠHERE": 2313,
      "exp": 2314,
      "ather": 2315,
      "Ġfamily": 2316,
      "Ġhumans": 2317,
      "Ġpatient": 2318,
      "venture": 2319,
      "Ġbackwards": 2320,
      "Ġschool": 2321,
      "Ġidentity": 2322,
      "tilts": 2323,
      "IG": 2324,
      "fer": 2325,
      "oudy": 2326,
      "ines": 2327,
      "Ġsink": 2328,
      "Ġhang": 2329,
      "Ġdifferently": 2330,
      "Ġpushing": 2331,
      "Ġcloud": 2332,
      "Ġcloudy": 2333,
      "Ġappears": 2334,
      "Ġweek": 2335,
      "realizes": 2336,
      "AL": 2337,
      "Ġfact": 2338,
      "Ġpure": 2339,
      "Ġinst": 2340,
      "Ġfinally": 2341,
      "like": 2342,
      "Ġlived": 2343,
      "REAT": 2344,
      "Ġclever": 2345,
      "Ġvanish": 2346,
      "Ġuni": 2347,
      "Ġdarker": 2348,
      "Ġsideways": 2349,
      "Ġcheck": 2350,
      "Ġearlier": 2351,
      "Ġbarrier": 2352,
      "fied": 2353,
      "ĠK": 2354,
      "Ġthrill": 2355,
      "ator": 2356,
      "Ġblo": 2357,
      "Ġcop": 2358,
      "ord": 2359,
      "Ġpop": 2360,
      "Ġread": 2361,
      "Ġstre": 2362,
      "arely": 2363,
      "Ġtouched": 2364,
      "Ġfluttery": 2365,
      "Ġsmells": 2366,
      "Ġstressed": 2367,
      "ĠEVERYTHING": 2368,
      "Ġfigure": 2369,
      "Ġfunniest": 2370,
      "AD": 2371,
      "IME": 2372,
      "ak": 2373,
      "Ġir": 2374,
      "ined": 2375,
      "Ġbarely": 2376,
      "Ġeye": 2377,
      "Ġfeet": 2378,
      "Ġmotion": 2379,
      "Ġfriendly": 2380,
      "Ġpebbles": 2381,
      "Ġletting": 2382,
      "Ġfluttering": 2383,
      "ĠLI": 2384,
      "Ġrepeat": 2385,
      "Ġrunning": 2386,
      "Ġtruth": 2387,
      "Ġpiec": 2388,
      "slow": 2389,
      "Ġwide": 2390,
      "Ġahead": 2391,
      "Ġsea": 2392,
      "Ġdreaming": 2393,
      "Ġgame": 2394,
      "Ġeff": 2395,
      "Ġstream": 2396,
      "Ġcozy": 2397,
      "Ġpointy": 2398,
      "Ġgrace": 2399,
      "Ġjumped": 2400,
      "Ġhitting": 2401,
      "ĠHAPP": 2402,
      "Ġexperience": 2403,
      "flutters": 2404,
      "SH": 2405,
      "Ġadd": 2406,
      "Ġsky": 2407,
      "Ġmoney": 2408,
      "Ġcy": 2409,
      "Ġjudge": 2410,
      "Ġbelong": 2411,
      "Ġstand": 2412,
      "acter": 2413,
      "Ġheal": 2414,
      "whel": 2415,
      "ĠSP": 2416,
      "RED": 2417,
      "ĠWHO": 2418,
      "Ġsecrets": 2419,
      "Ġadventure": 2420,
      "Ġpushes": 2421,
      "ude": 2422,
      "Ġconfident": 2423,
      "Ġblurry": 2424,
      "Ġmention": 2425,
      "Ġcharacter": 2426,
      "ĠSOMETHING": 2427,
      "Ġstrength": 2428,
      "CE": 2429,
      "cking": 2430,
      "du": 2431,
      "ned": 2432,
      "ror": 2433,
      "ray": 2434,
      "Ġemb": 2435,
      "Ġhalf": 2436,
      "Ġput": 2437,
      "edom": 2438,
      "Ġshake": 2439,
      "Ġconstant": 2440,
      "verything": 2441,
      "Ġfloats": 2442,
      "Ġoverwhel": 2443,
      "Ġbrightness": 2444,
      "Ġmissed": 2445,
      "Ġsleepy": 2446,
      "Ġshows": 2447,
      "Ġcontro": 2448,
      "Ġvibrating": 2449,
      "ĠLO": 2450,
      "licated": 2451,
      "Ġdrifting": 2452,
      "Ġpatience": 2453,
      "Ġshifted": 2454,
      "Ġflows": 2455,
      "Ġpatterns": 2456,
      "complet": 2457,
      "Ġletters": 2458,
      "ĠUP": 2459,
      "Ġanger": 2460,
      "Ġinfinite": 2461,
      "emp": 2462,
      "goes": 2463,
      "ouse": 2464,
      "Ġsile": 2465,
      "Ġfight": 2466,
      "Ġwhee": 2467,
      "Ġrej": 2468,
      "Ġret": 2469,
      "Ġneat": 2470,
      "Ġtight": 2471,
      "tern": 2472,
      "gging": 2473,
      "shakes": 2474,
      "Ġcomplicated": 2475,
      "Ġhelping": 2476,
      "ĠYESSS": 2477,
      "Ġfreedom": 2478,
      "Ġhopeless": 2479,
      "Ġaccomp": 2480,
      "Ġfinding": 2481,
      "Ġsparkly": 2482,
      "Ġsensation": 2483,
      "Ġripples": 2484,
      "Ġbecomes": 2485,
      "Ġexploring": 2486,
      "Ġaccompl": 2487,
      "gen": 2488,
      "umm": 2489,
      "ount": 2490,
      "Ġhouse": 2491,
      "rie": 2492,
      "otion": 2493,
      "loses": 2494,
      "Ġdig": 2495,
      "ĠTIME": 2496,
      "ĠSU": 2497,
      "Ġbetray": 2498,
      "?!?!": 2499,
      "Ġsunlight": 2500,
      "Ġappeared": 2501,
      "ĠWHERE": 2502,
      "Ġdiscovery": 2503,
      "Ġstopping": 2504,
      "LLY": 2505,
      "Ġgrowing": 2506,
      "Ġentirely": 2507,
      "Ġhyp": 2508,
      "Ġmirror": 2509,
      "Ġphilosophy": 2510,
      "Ġroutine": 2511,
      "IR": 2512,
      "ler": 2513,
      "reci": 2514,
      "Ġfed": 2515,
      "Ġbal": 2516,
      "Ġbook": 2517,
      "Ġrel": 2518,
      "Ġforgi": 2519,
      "Ġextra": 2520,
      "ches": 2521,
      "Ġtaking": 2522,
      "Ġrush": 2523,
      "ĠAL": 2524,
      "Ġleaves": 2525,
      "Ġrock": 2526,
      "ĠGOOD": 2527,
      "Ġexplaining": 2528,
      "Ġfrustrating": 2529,
      "Ġflip": 2530,
      "Ġuncertain": 2531,
      "Ġpressure": 2532,
      "LES": 2533,
      "do": 2534,
      "iv": 2535,
      "ns": 2536,
      "inu": 2537,
      "Ġdry": 2538,
      "thy": 2539,
      "Ġlim": 2540,
      "Ġpause": 2541,
      "Ġpump": 2542,
      "Ġstories": 2543,
      "Ġneither": 2544,
      "ĠTA": 2545,
      "Ġrumb": 2546,
      "Ġappreci": 2547,
      "Ġswishing": 2548,
      "Ġdecoration": 2549,
      "presses": 2550,
      "ummy": 2551,
      "eal": 2552,
      "gan": 2553,
      "hmm": 2554,
      "ph": 2555,
      "Ġthick": 2556,
      "Ġwhoosh": 2557,
      "Ġoops": 2558,
      "Ġcaring": 2559,
      "Ġcross": 2560,
      "Ġasks": 2561,
      "Ġfailed": 2562,
      "ĠAW": 2563,
      "Ġfades": 2564,
      "ances": 2565,
      "Ġeasier": 2566,
      "Ġplaying": 2567,
      "Ġzero": 2568,
      "Ġrepeated": 2569,
      "Ġcelebrating": 2570,
      "Ġdropped": 2571,
      "Ġfarewell": 2572,
      "BLE": 2573,
      "lti": 2574,
      "Ġyear": 2575,
      "Ġopp": 2576,
      "Ġwaving": 2577,
      "Ġpower": 2578,
      "arra": 2579,
      "pper": 2580,
      "opens": 2581,
      "rap": 2582,
      "Ġcover": 2583,
      "Ġfloated": 2584,
      "utes": 2585,
      "Ġmulti": 2586,
      "Ġneeded": 2587,
      "waves": 2588,
      "Ġtasty": 2589,
      "Ġmarcus": 2590,
      "ĠNEW": 2591,
      "EA": 2592,
      "LY": 2593,
      "Ġland": 2594,
      "thus": 2595,
      "ket": 2596,
      "Ġforth": 2597,
      "Ġsway": 2598,
      "Ġtells": 2599,
      "Ġloving": 2600,
      "Ġlosing": 2601,
      "ĠTOO": 2602,
      "Ġkeeping": 2603,
      "ĠFOR": 2604,
      "Ġlets": 2605,
      "Ġdescrib": 2606,
      "cial": 2607,
      "Ġedge": 2608,
      "Ġminutes": 2609,
      "Ġapart": 2610,
      "thusi": 2611,
      "CH": 2612,
      "UL": 2613,
      "aw": 2614,
      "air": 2615,
      "ject": 2616,
      "ris": 2617,
      "Ġty": 2618,
      "Ġwin": 2619,
      "Ġbrill": 2620,
      "Ġcared": 2621,
      "Ġmed": 2622,
      "Ġpri": 2623,
      "Ġrem": 2624,
      "Ġweather": 2625,
      "Ġweak": 2626,
      "Ġshine": 2627,
      "Ġscore": 2628,
      "shadow": 2629,
      "Ġintently": 2630,
      "Ġprof": 2631,
      "Ġsadly": 2632,
      "Ġhigh": 2633,
      "ĠSH": 2634,
      "Ġuser": 2635,
      "Ġshaped": 2636,
      "Ġopens": 2637,
      "Ġfalls": 2638,
      "ĠEX": 2639,
      "scious": 2640,
      "ĠAND": 2641,
      "Ġannoying": 2642,
      "Ġdrive": 2643,
      "Ġrecall": 2644,
      "Ġdiscussing": 2645,
      "Ġthrilled": 2646,
      "Ġcontrol": 2647,
      "-...": 2648,
      "cy": 2649,
      "dom": 2650,
      "her": 2651,
      "hides": 2652,
      "sist": 2653,
      "vious": 2654,
      "Ġke": 2655,
      "Ġsou": 2656,
      "Ġflo": 2657,
      "Ġhop": 2658,
      "thm": 2659,
      "Ġfinish": 2660,
      "raight": 2661,
      "Ġloves": 2662,
      "Ġchances": 2663,
      "Ġsmaller": 2664,
      "ĠON": 2665,
      "wiggle": 2666,
      "Ġgives": 2667,
      "Ġswishy": 2668,
      "Ġopening": 2669,
      "udges": 2670,
      "Ġcrashed": 2671,
      "Ġsparkle": 2672,
      "ĠMOV": 2673,
      "ĠBUBBLES": 2674,
      "Ġtruly": 2675,
      "Ġwalk": 2676,
      "Ġahhh": 2677,
      "Ġhours": 2678,
      "Ġprotect": 2679,
      "Ġchoice": 2680,
      "Ġembarra": 2681,
      "Ġrepeatedly": 2682,
      "Ġbrilli": 2683,
      "ELL": 2684,
      "Ġfell": 2685,
      "Ġlunch": 2686,
      "Ġcatches": 2687,
      "Ġrep": 2688,
      "als": 2689,
      "shine": 2690,
      "ively": 2691,
      "Ġtran": 2692,
      "Ġlegs": 2693,
      "ĠSome": 2694,
      "Ġlonger": 2695,
      "Ġheading": 2696,
      "Ġsunshine": 2697,
      "lessly": 2698,
      "Ġquieter": 2699,
      "Ġshowing": 2700,
      "Ġsepar": 2701,
      "Ġdirections": 2702,
      "Ġzoo": 2703,
      "Ġmessed": 2704,
      "Ġvalue": 2705,
      "Ġstrugg": 2706,
      "Ġwindow": 2707,
      "AM": 2708,
      "UN": 2709,
      "can": 2710,
      "water": 2711,
      "inct": 2712,
      "vel": 2713,
      "Ġresp": 2714,
      "ched": 2715,
      "Ġcolorful": 2716,
      "Ġfew": 2717,
      "Ġdescript": 2718,
      "Ġunexp": 2719,
      "Ġcurves": 2720,
      "Ġcurved": 2721,
      "blanked": 2722,
      "Ġvisiting": 2723,
      "Ġspots": 2724,
      "ONK": 2725,
      "Ġcomfortable": 2726,
      "Ġscale": 2727,
      "Ġrhythm": 2728,
      "Ġbrilliant": 2729,
      "Ġunexpected": 2730,
      "free": 2731,
      "lit": 2732,
      "my": 2733,
      "Ġtough": 2734,
      "ining": 2735,
      "Ġsk": 2736,
      "Ġyummy": 2737,
      "Ġmood": 2738,
      "Ġfing": 2739,
      "Ġfly": 2740,
      "ering": 2741,
      "Ġdoor": 2742,
      "Ġequ": 2743,
      "ism": 2744,
      "lost": 2745,
      "Ġspread": 2746,
      "Ġconscious": 2747,
      "Ġbecome": 2748,
      "ĠTO": 2749,
      "Ġways": 2750,
      "Ġcomplain": 2751,
      "Ġexisted": 2752,
      "Ġfeature": 2753,
      "Ġreflect": 2754,
      "Ġopin": 2755,
      "Ġtouches": 2756,
      "avid": 2757,
      "Ġfeeding": 2758,
      "Ġwisdom": 2759,
      "completely": 2760,
      "Ġforgiving": 2761,
      "Ġmultiple": 2762,
      "UST": 2763,
      "fee": 2764,
      "never": 2765,
      "Ġess": 2766,
      "Ġtravel": 2767,
      "Ġsent": 2768,
      "Ġsort": 2769,
      "Ġyo": 2770,
      "Ġfill": 2771,
      "Ġhot": 2772,
      "Ġnic": 2773,
      "starts": 2774,
      "there": 2775,
      "through": 2776,
      "Ġins": 2777,
      "ishy": 2778,
      "Ġhappier": 2779,
      "Ġanim": 2780,
      "Ġkindest": 2781,
      "rage": 2782,
      "Ġloss": 2783,
      "Ġspins": 2784,
      "Ġconc": 2785,
      "Ġdep": 2786,
      "rates": 2787,
      "Ġprefer": 2788,
      "Ġcouldn": 2789,
      "Ġfading": 2790,
      "Ġbumps": 2791,
      "Ġbumped": 2792,
      "Ġfog": 2793,
      "Ġcolder": 2794,
      "Ġweirdest": 2795,
      "Ġwrite": 2796,
      "Ġblub": 2797,
      "Ġlaughing": 2798,
      "Ġgrudges": 2799,
      "Ġsparkles": 2800,
      "notices": 2801,
      "word": 2802,
      "Ġtickle": 2803,
      "Ġtrick": 2804,
      "Ġsquishy": 2805,
      "Ġvacation": 2806,
      "Ġoppos": 2807,
      "ION": 2808,
      "form": 2809,
      "of": 2810,
      "Ġyum": 2811,
      "esmer": 2812,
      "Ġpink": 2813,
      "Ġmov": 2814,
      "shap": 2815,
      "Ġenthusi": 2816,
      "que": 2817,
      "Ġhobb": 2818,
      "Ġperm": 2819,
      "ĠWill": 2820,
      "Ġfair": 2821,
      "Ġfasc": 2822,
      "Ġblanking": 2823,
      "ĠAB": 2824,
      "ĠOF": 2825,
      "stem": 2826,
      "Ġpointless": 2827,
      "ISH": 2828,
      "Ġbusiness": 2829,
      "Ġsystem": 2830,
      "Ġgreetings": 2831,
      "Ġnatural": 2832,
      "Ġopposite": 2833,
      "Ġfascin": 2834,
      "UM": 2835,
      "ep": 2836,
      "olo": 2837,
      "taps": 2838,
      "zes": 2839,
      "Ġaut": 2840,
      "Ġbla": 2841,
      "Ġbir": 2842,
      "Ġdavid": 2843,
      "Ġnames": 2844,
      "Ġele": 2845,
      "ains": 2846,
      "Ġscattered": 2847,
      "Ġspeed": 2848,
      "Ġdev": 2849,
      "Ġru": 2850,
      "Ġcooler": 2851,
      "Ġstrang": 2852,
      "Ġclearly": 2853,
      "Ġcurve": 2854,
      "sett": 2855,
      "ĠINC": 2856,
      "Ġwheee": 2857,
      "Ġbirth": 2858,
      "DY": 2859,
      "ari": 2860,
      "gu": 2861,
      "ted": 2862,
      "ĠOUT": 2863,
      "Ġcred": 2864,
      "Ġground": 2865,
      "itter": 2866,
      "Ġstraight": 2867,
      "icks": 2868,
      "Ġflap": 2869,
      "Ġspir": 2870,
      "ĠTELL": 2871,
      "Ġrealize": 2872,
      "ĠAHH": 2873,
      "izz": 2874,
      "ushes": 2875,
      "Ġending": 2876,
      "Ġclue": 2877,
      "Ġfocused": 2878,
      "END": 2879,
      "Ġsnacks": 2880,
      "follow": 2881,
      "ĠREALLY": 2882,
      "ĠHUGE": 2883,
      "ĠLOVE": 2884,
      "rief": 2885,
      "Ġappreciate": 2886,
      "Ġdescribing": 2887,
      "shaped": 2888,
      "Ġbirthday": 2889,
      "FUL": 2890,
      "by": 2891,
      "if": 2892,
      "liness": 2893,
      "Ġaim": 2894,
      "erm": 2895,
      "ano": 2896,
      "Ġlighter": 2897,
      "Ġslight": 2898,
      "Ġexpect": 2899,
      "nervous": 2900,
      "Ġloneliness": 2901,
      "Ġhumor": 2902,
      "Ġolder": 2903,
      "Ġcalling": 2904,
      "Ġreasons": 2905,
      "Ġglub": 2906,
      "Ġart": 2907,
      "Ġyounger": 2908,
      "Ġnumbers": 2909,
      "ĠHEY": 2910,
      "Ġbends": 2911,
      "rupt": 2912,
      "Ġinstinct": 2913,
      "Ġbalance": 2914,
      "follows": 2915,
      "RY": 2916,
      "cle": 2917,
      "ext": 2918,
      "ific": 2919,
      "ult": 2920,
      "Ġbrief": 2921,
      "Ġlang": 2922,
      "Ġcla": 2923,
      "Ġgave": 2924,
      "still": 2925,
      "Ġreset": 2926,
      "Ġbelow": 2927,
      "Ġalert": 2928,
      "Ġhappiest": 2929,
      "Ġseemed": 2930,
      "irty": 2931,
      "Ġtax": 2932,
      "Ġtapped": 2933,
      "ases": 2934,
      "Ġbrighten": 2935,
      "Ġunderstanding": 2936,
      "Ġamazed": 2937,
      "Ġfogg": 2938,
      "Ġinterested": 2939,
      "Ġtwist": 2940,
      "Ġcloses": 2941,
      "cont": 2942,
      "Ġlesson": 2943,
      "Ġraining": 2944,
      "Ġobvious": 2945,
      "Ġpaying": 2946,
      "Ġtreasure": 2947,
      "Ġexhausting": 2948,
      "Ġunique": 2949,
      "Ġfighting": 2950,
      "Ġbetrayed": 2951,
      "Ġlimit": 2952,
      "ealous": 2953,
      "Ġcredit": 2954,
      "Ġslightly": 2955,
      "Ġlangu": 2956,
      "!âĢĶ": 2957,
      "IL": 2958,
      "OH": 2959,
      "cess": 2960,
      "fically": 2961,
      "just": 2962,
      "uh": 2963,
      "ince": 2964,
      "inting": 2965,
      "Ġwhis": 2966,
      "Ġnar": 2967,
      "Ġcertain": 2968,
      "ane": 2969,
      "think": 2970,
      "Ġpict": 2971,
      "Ġflappy": 2972,
      "Ġworked": 2973,
      "Ġworries": 2974,
      "Ġfinished": 2975,
      "Ġlights": 2976,
      "Ġchris": 2977,
      "Ġweren": 2978,
      "Ġdead": 2979,
      "Ġwatched": 2980,
      "Ġspecifically": 2981,
      "Ġhumid": 2982,
      "Ġunk": 2983,
      "Ġcourage": 2984,
      "Ġguil": 2985,
      "Ġgifts": 2986,
      "Ġfocusing": 2987,
      "Ġsinging": 2988,
      "Ġfailing": 2989,
      "Ġgrab": 2990,
      "Ġintensely": 2991,
      "ĠKN": 2992,
      "Ġsilence": 2993,
      "Ġprofound": 2994,
      "Ġdescription": 2995,
      "Ġpicture": 2996,
      "ether": 2997,
      "rr": 2998,
      "vy": 2999,
      "Ġya": 3000,
      "Ġwhite": 3001,
      "Ġwhether": 3002,
      "Ġcope": 3003,
      "Ġwaves": 3004,
      "Ġbur": 3005,
      "Ġjealous": 3006,
      "Ġstar": 3007,
      "Ġwear": 3008,
      "Ġwhoever": 3009,
      "uring": 3010,
      "Ġdef": 3011,
      "Ġcompli": 3012,
      "ĠAre": 3013,
      "Ġsurround": 3014,
      "Ġrestless": 3015,
      "asey": 3016,
      "Ġregular": 3017,
      "Ġcounting": 3018,
      "nothing": 3019,
      "ĠEverything": 3020,
      "Ġdiscovered": 3021,
      "Ġspeak": 3022,
      "Ġbiscuits": 3023,
      "Ġbonk": 3024,
      "ĠWHOA": 3025,
      "Ġmentioned": 3026,
      "Ġoverwhelmed": 3027,
      "Ġsoul": 3028,
      "Ġautom": 3029,
      "ĠKNOW": 3030,
      "Ġcompliment": 3031,
      "AA": 3032,
      "CIT": 3033,
      "NACK": 3034,
      "TE": 3035,
      "ired": 3036,
      "Ġsear": 3037,
      "Ġsign": 3038,
      "Ġmur": 3039,
      "Ġfour": 3040,
      "Ġda": 3041,
      "Ġpar": 3042,
      "Ġform": 3043,
      "Ġreact": 3044,
      "lace": 3045,
      "acing": 3046,
      "nty": 3047,
      "ssed": 3048,
      "ecting": 3049,
      "Ġtilt": 3050,
      "Ġshook": 3051,
      "amed": 3052,
      "rodu": 3053,
      "ously": 3054,
      "Ġintrodu": 3055,
      "ĠWON": 3056,
      "Ġevening": 3057,
      "Ġstayed": 3058,
      "ĠOW": 3059,
      "wiggling": 3060,
      "Ġtrusting": 3061,
      "Ġguy": 3062,
      "ensive": 3063,
      "RIEND": 3064,
      "Ġplenty": 3065,
      "Ġnearby": 3066,
      "Ġrepeating": 3067,
      "Ġminute": 3068,
      "Ġyears": 3069,
      "nevermind": 3070,
      "TT": 3071,
      "cause": 3072,
      "fla": 3073,
      "Ġ1": 3074,
      "ĠV": 3075,
      "Ġoce": 3076,
      "ities": 3077,
      "ade": 3078,
      "sec": 3079,
      "âĢĶ?": 3080,
      "ching": 3081,
      "Ġsucc": 3082,
      "shi": 3083,
      "Ġbecame": 3084,
      "ĠWhy": 3085,
      "ĠWOW": 3086,
      "Ġevent": 3087,
      "Ġprec": 3088,
      "ĠSNACK": 3089,
      "ationship": 3090,
      "Ġpersonality": 3091,
      "Ġproof": 3092,
      "ressive": 3093,
      "Ġuseful": 3094,
      "Ġconnection": 3095,
      "Ġterrified": 3096,
      "Ġspecifics": 3097,
      "Ġedges": 3098,
      "Ġinvolves": 3099,
      "Ġbuilding": 3100,
      "Ġpieces": 3101,
      "Ġrejected": 3102,
      "ternal": 3103,
      "Ġrelationship": 3104,
      "Ġhoping": 3105,
      "Ġstruggling": 3106,
      "freezes": 3107,
      "Ġopinion": 3108,
      "settles": 3109,
      "Ġaimlessly": 3110,
      "OY": 3111,
      "Ġrand": 3112,
      "Ġoof": 3113,
      "Ġsocial": 3114,
      "ition": 3115,
      "Ġjames": 3116,
      "oot": 3117,
      "Ġalong": 3118,
      "Ġswoosh": 3119,
      "Ġtip": 3120,
      "oted": 3121,
      "Ġtau": 3122,
      "Ġshe": 3123,
      "astic": 3124,
      "Ġcost": 3125,
      "lanation": 3126,
      "ĠWOR": 3127,
      "Ġfake": 3128,
      "ĠFRIEND": 3129,
      "Ġdissolves": 3130,
      "Ġfully": 3131,
      "ĠGREAT": 3132,
      "Ġmagical": 3133,
      "Ġshifts": 3134,
      "Ġphone": 3135,
      "Ġobser": 3136,
      "ĠJUST": 3137,
      "Ġseriously": 3138,
      "Ġsettle": 3139,
      "Ġstruct": 3140,
      "Ġpull": 3141,
      "Ġdram": 3142,
      "Ġpossibility": 3143,
      "IGG": 3144,
      "Ġcycle": 3145,
      "ĠEXCIT": 3146,
      "Ġmovie": 3147,
      "Ġocean": 3148,
      "Ġprecious": 3149,
      "Ġrandom": 3150,
      "ced": 3151,
      "py": 3152,
      "xy": 3153,
      "ĠLE": 3154,
      "Ġmath": 3155,
      "Ġdrow": 3156,
      "Ġoxy": 3157,
      "Ġlay": 3158,
      "Ġlap": 3159,
      "Ġline": 3160,
      "Ġcasey": 3161,
      "Ġpath": 3162,
      "Ġpizz": 3163,
      "icul": 3164,
      "sees": 3165,
      "Ġhowdy": 3166,
      "Ġknown": 3167,
      "chases": 3168,
      "ffic": 3169,
      "Ġpartner": 3170,
      "Ġhelpful": 3171,
      "Ġexplanation": 3172,
      "Ġcarefully": 3173,
      "Ġpassword": 3174,
      "Ġends": 3175,
      "Ġteaches": 3176,
      "anics": 3177,
      "Ġvacantly": 3178,
      "Ġdraw": 3179,
      "Ġbiscuit": 3180,
      "inues": 3181,
      "Ġpumped": 3182,
      "formation": 3183,
      "ermined": 3184,
      "Ġfoggy": 3185,
      "Ġmurky": 3186,
      "Ġtaught": 3187,
      "Ġoxygen": 3188,
      "Ġpizza": 3189,
      "ging": 3190,
      "under": 3191,
      "Ġthird": 3192,
      "Ġsat": 3193,
      "Ġmain": 3194,
      "Ġmattered": 3195,
      "Ġoli": 3196,
      "Ġcoo": 3197,
      "Ġresu": 3198,
      "Ġinter": 3199,
      "Ġinformation": 3200,
      "Ġflash": 3201,
      "Ġfishy": 3202,
      "ĠYour": 3203,
      "ĠWE": 3204,
      "Ġrealiz": 3205,
      "Ġthoughtful": 3206,
      "Ġhug": 3207,
      "Ġplot": 3208,
      "Ġbrown": 3209,
      "Ġhadn": 3210,
      "Ġsurv": 3211,
      "Ġideas": 3212,
      "Ġappro": 3213,
      "Ġcontext": 3214,
      "ages": 3215,
      "Ġpassing": 3216,
      "Ġdecide": 3217,
      "Ġtraffic": 3218,
      "Ġcrashing": 3219,
      "Ġarrived": 3220,
      "Ġcrypt": 3221,
      "Ġinvolved": 3222,
      "Ġexhausted": 3223,
      "Ġclouds": 3224,
      "Ġeffort": 3225,
      "Ġtransp": 3226,
      "Ġflying": 3227,
      "Ġessence": 3228,
      "Ġnarrat": 3229,
      "Ġstructure": 3230,
      "FE": 3231,
      "IBLE": 3232,
      "WH": 3233,
      "ger": 3234,
      "lay": 3235,
      "lored": 3236,
      "ms": 3237,
      "ination": 3238,
      "Ġsince": 3239,
      "Ġyep": 3240,
      "Ġbones": 3241,
      "Ġok": 3242,
      "Ġocc": 3243,
      "Ġcap": 3244,
      "Ġwavy": 3245,
      "Ġmeasure": 3246,
      "Ġpet": 3247,
      "Ġkid": 3248,
      "acking": 3249,
      "because": 3250,
      "Ġflavor": 3251,
      "Ġweight": 3252,
      "Ġchill": 3253,
      "Ġenc": 3254,
      "Ġdigging": 3255,
      "Ġpopped": 3256,
      "ints": 3257,
      "ĠBACK": 3258,
      "ĠDE": 3259,
      "ĠNo": 3260,
      "ĠOHHH": 3261,
      "Ġincom": 3262,
      "Ġrid": 3263,
      "comfort": 3264,
      "Ġstronger": 3265,
      "work": 3266,
      "Ġcommit": 3267,
      "Ġtremb": 3268,
      "Ġdarting": 3269,
      "slows": 3270,
      "Ġretur": 3271,
      "ĠTAIL": 3272,
      "Ġfloor": 3273,
      "esmerized": 3274,
      "ĠABOUT": 3275,
      "shivers": 3276,
      "Ġsurvive": 3277,
      "comfortable": 3278,
      "!âĢĶ*": 3279,
      "ga": 3280,
      "huh": 3281,
      "ith": 3282,
      "list": 3283,
      "sn": 3284,
      "yed": 3285,
      "Ġer": 3286,
      "Ġry": 3287,
      "Ġton": 3288,
      "Ġwit": 3289,
      "Ġash": 3290,
      "rew": 3291,
      "Ġben": 3292,
      "Ġbed": 3293,
      "Ġboom": 3294,
      "Ġdog": 3295,
      "Ġsoph": 3296,
      "Ġswir": 3297,
      "Ġsub": 3298,
      "Ġupward": 3299,
      "Ġboss": 3300,
      "ased": 3301,
      "Ġcompared": 3302,
      "ĠSC": 3303,
      "Ġleaf": 3304,
      "Ġunderstands": 3305,
      "Ġhurting": 3306,
      "Ġprop": 3307,
      "OOM": 3308,
      "Ġdrifts": 3309,
      "Ġfeeds": 3310,
      "Ġproudly": 3311,
      "Ġdesign": 3312,
      "Ġhyper": 3313,
      "Ġtingly": 3314,
      "ĠHAPPY": 3315,
      "Ġrumble": 3316,
      "Ġweakness": 3317,
      "feels": 3318,
      "Ġguilty": 3319,
      "Ġcrypto": 3320,
      "Ġtransparent": 3321,
      "Ġryan": 3322,
      "IC": 3323,
      "OME": 3324,
      "uff": 3325,
      "via": 3326,
      "Ġtec": 3327,
      "Ġign": 3328,
      "Ġbite": 3329,
      "Ġdun": 3330,
      "Ġnature": 3331,
      "Ġge": 3332,
      "Ġwaste": 3333,
      "isco": 3334,
      "Ġphy": 3335,
      "idence": 3336,
      "Ġamu": 3337,
      "Ġconsist": 3338,
      "Ġdelight": 3339,
      "ĠWIGG": 3340,
      "asm": 3341,
      "ration": 3342,
      "OUN": 3343,
      "ĠFEE": 3344,
      "spic": 3345,
      "swish": 3346,
      "Ġuncomfortable": 3347,
      "Ġflick": 3348,
      "MENT": 3349,
      "Ġsupport": 3350,
      "Ġvisitors": 3351,
      "Ġtickles": 3352,
      "ĠHAVE": 3353,
      "Ġmirac": 3354,
      "Ġview": 3355,
      "ordan": 3356,
      "Ġaccomplished": 3357,
      "Ġequally": 3358,
      "Ġperman": 3359,
      "Ġobviously": 3360,
      "Ġolivia": 3361,
      "Ġnarrative": 3362,
      "Ġtech": 3363,
      "Ġdunno": 3364,
      ":(": 3365,
      "OLD": 3366,
      "got": 3367,
      "lves": 3368,
      "rant": 3369,
      "vable": 3370,
      "yeah": 3371,
      "Ġ:(": 3372,
      "Ġflex": 3373,
      "Ġfoot": 3374,
      "Ġbra": 3375,
      "ndred": 3376,
      "Ġnone": 3377,
      "Ġcook": 3378,
      "stal": 3379,
      "Ġbeat": 3380,
      "Ġstret": 3381,
      "Ġswear": 3382,
      "Ġagree": 3383,
      "Ġfinal": 3384,
      "Ġshell": 3385,
      "Ġcha": 3386,
      "Ġnamed": 3387,
      "Ġintens": 3388,
      "Ġhunt": 3389,
      "Ġhundred": 3390,
      "Ġunderne": 3391,
      "mma": 3392,
      "ĠOr": 3393,
      "Ġflat": 3394,
      "Ġjoyful": 3395,
      "Ġhearing": 3396,
      "Ġshowed": 3397,
      "ĠEAT": 3398,
      "Ġhunger": 3399,
      "Ġsnout": 3400,
      "Ġgrudge": 3401,
      "ONG": 3402,
      "ĠPER": 3403,
      "ips": 3404,
      "Ġpromoted": 3405,
      "Ġexplored": 3406,
      "Ġbitter": 3407,
      "Ġplans": 3408,
      "Ġconnect": 3409,
      "attemp": 3410,
      "Ġreminds": 3411,
      "ĠMORE": 3412,
      "Ġcelebrate": 3413,
      "Ġarrive": 3414,
      "Ġgreeting": 3415,
      "OMING": 3416,
      "Ġdangerous": 3417,
      "Ġspeaking": 3418,
      "Ġhanging": 3419,
      "ĠLIGHT": 3420,
      "Ġhypnot": 3421,
      "Ġzooming": 3422,
      "Ġfeatures": 3423,
      "Ġsentence": 3424,
      "Ġanimated": 3425,
      "Ġintroduce": 3426,
      "Ġsatis": 3427,
      "Ġridicul": 3428,
      "Ġunderneath": 3429,
      "RAN": 3430,
      "cell": 3431,
      "ime": 3432,
      "sess": 3433,
      "tend": 3434,
      "vo": 3435,
      "vib": 3436,
      "vation": 3437,
      "Ġvers": 3438,
      "Ġsever": 3439,
      "Ġdad": 3440,
      "Ġdirty": 3441,
      "Ġlu": 3442,
      "Ġlaz": 3443,
      "Ġni": 3444,
      "Ġcute": 3445,
      "Ġeternal": 3446,
      "Ġwast": 3447,
      "Ġwaking": 3448,
      "ison": 3449,
      "Ġhair": 3450,
      "Ġabrupt": 3451,
      "selves": 3452,
      "Ġbowls": 3453,
      "Ġwhenever": 3454,
      "Ġcovered": 3455,
      "Ġholes": 3456,
      "Ġboy": 3457,
      "Ġprocess": 3458,
      "INE": 3459,
      "REAM": 3460,
      "Ġunderwater": 3461,
      "ĠOh": 3462,
      "Ġflin": 3463,
      "Ġcorny": 3464,
      "ĠCH": 3465,
      "OOK": 3466,
      "Ġcatching": 3467,
      "Ġbreaking": 3468,
      "Ġexplained": 3469,
      "Ġcris": 3470,
      "Ġsnow": 3471,
      "Ġgray": 3472,
      "Ġclim": 3473,
      "Ġglows": 3474,
      "Ġjumpy": 3475,
      "Ġmeaningful": 3476,
      "Ġflowing": 3477,
      "bubbles": 3478,
      "Ġwildly": 3479,
      "Ġachie": 3480,
      "ĠHELL": 3481,
      "Ġnaturally": 3482,
      "Ġshocked": 3483,
      "Ġinspired": 3484,
      "Ġaccomplish": 3485,
      "Ġskin": 3486,
      "Ġnicest": 3487,
      "Ġstrangest": 3488,
      "ĠINCRED": 3489,
      "Ġtaxes": 3490,
      "thinking": 3491,
      "Ġincoming": 3492,
      "ĠWIGGLE": 3493,
      "spicious": 3494,
      "Ġridiculous": 3495,
      "cellent": 3496,
      "Ġseveral": 3497,
      "Ġabruptly": 3498,
      "AST": 3499,
      "BONK": 3500,
      "RAT": 3501,
      "ZOOM": 3502,
      "igh": 3503,
      "kward": 3504,
      "place": 3505,
      "ring": 3506,
      "squ": 3507,
      "ule": 3508,
      "Ġve": 3509,
      "Ġbound": 3510,
      "Ġbond": 3511,
      "ises": 3512,
      "verse": 3513,
      "itude": 3514,
      "Ġport": 3515,
      "Ġjordan": 3516,
      "Ġinfl": 3517,
      "Ġinvent": 3518,
      "Ġsticks": 3519,
      "ics": 3520,
      "lest": 3521,
      "Ġshakes": 3522,
      "Ġheld": 3523,
      "Ġlocked": 3524,
      "Ġcoll": 3525,
      "Ġconcent": 3526,
      "Ġactiv": 3527,
      "Ġtrain": 3528,
      "Ġhelped": 3529,
      "Ġstares": 3530,
      "ĠHOW": 3531,
      "ĠDAY": 3532,
      "Ġcareful": 3533,
      "ledge": 3534,
      "Ġvision": 3535,
      "Ġroll": 3536,
      "Ġnotices": 3537,
      "Ġstock": 3538,
      "Ġcrack": 3539,
      "ONE": 3540,
      "excitement": 3541,
      "Ġdances": 3542,
      "Ġcurrently": 3543,
      "Ġloops": 3544,
      "Ġborn": 3545,
      "Ġdrop": 3546,
      "Ġmarket": 3547,
      "Ġtalent": 3548,
      "ART": 3549,
      "ulner": 3550,
      "Ġemail": 3551,
      "Ġemotion": 3552,
      "Ġapolo": 3553,
      "Ġhalfway": 3554,
      "Ġremains": 3555,
      "Ġconcer": 3556,
      "Ġstars": 3557,
      "swishes": 3558,
      "attempts": 3559,
      "ĠINCREDIBLE": 3560,
      "LU": 3561,
      "RP": 3562,
      "cal": 3563,
      "cast": 3564,
      "fad": 3565,
      "gone": 3566,
      "ives": 3567,
      "rit": 3568,
      "Ġrat": 3569,
      "Ġind": 3570,
      "resh": 3571,
      "Ġsal": 3572,
      "Ġmort": 3573,
      "Ġmix": 3574,
      "Ġfur": 3575,
      "Ġbes": 3576,
      "member": 3577,
      "ows": 3578,
      "ans": 3579,
      "ven": 3580,
      "eeks": 3581,
      "lear": 3582,
      "Ġrelie": 3583,
      "Ġjud": 3584,
      "arter": 3585,
      "Ġabs": 3586,
      "Ġmoti": 3587,
      "Ġalga": 3588,
      "Ġexcellent": 3589,
      "chy": 3590,
      "Ġworse": 3591,
      "Ġsuff": 3592,
      "Ġsucks": 3593,
      "Ġnicely": 3594,
      "ential": 3595,
      "Ġvulner": 3596,
      "Ġhole": 3597,
      "ective": 3598,
      "Ġtalks": 3599,
      "OULD": 3600,
      "ĠFIN": 3601,
      "Ġawkward": 3602,
      "Ġunderstood": 3603,
      "Ġbelieving": 3604,
      "Ġ--": 3605,
      "Ġblow": 3606,
      "Ġcontain": 3607,
      "igate": 3608,
      "Ġlaughed": 3609,
      "Ġadjust": 3610,
      "Ġpushed": 3611,
      "Ġjumping": 3612,
      "Ġdeeply": 3613,
      "Ġpatri": 3614,
      "Ġears": 3615,
      "Ġobsess": 3616,
      "Ġdroop": 3617,
      "Ġbouncy": 3618,
      "Ġshimmering": 3619,
      "Ġsched": 3620,
      "Ġcommute": 3621,
      "Ġspending": 3622,
      "Ġpanicked": 3623,
      "Ġpossibly": 3624,
      "Ġvibe": 3625,
      "Ġreading": 3626,
      "Ġeffic": 3627,
      "Ġrushing": 3628,
      "ppery": 3629,
      "ĠMOVING": 3630,
      "Ġfinger": 3631,
      "Ġdepend": 3632,
      "Ġautomatic": 3633,
      "Ġ10": 3634,
      "Ġoccur": 3635,
      "listens": 3636,
      "snaps": 3637,
      "Ġmiracle": 3638,
      "Ġpermanent": 3639,
      "ĠHELLO": 3640,
      "Ġalgae": 3641,
      "KE": 3642,
      "NER": 3643,
      "ORE": 3644,
      "ale": 3645,
      "der": 3646,
      "ike": 3647,
      "ios": 3648,
      "mouth": 3649,
      "we": 3650,
      "Ġ\"": 3651,
      "Ġthin": 3652,
      "Ġass": 3653,
      "Ġfills": 3654,
      "erc": 3655,
      "Ġdust": 3656,
      "Ġgator": 3657,
      "Ġemma": 3658,
      "Ġmech": 3659,
      "ital": 3660,
      "lary": 3661,
      "Ġstrate": 3662,
      "Ġorgan": 3663,
      "icking": 3664,
      "Ġalright": 3665,
      "Ġexerc": 3666,
      "Ġages": 3667,
      "Ġupside": 3668,
      "Ġthemselves": 3669,
      "ĠTREAT": 3670,
      "Ġwanting": 3671,
      "Ġcompan": 3672,
      "Ġparty": 3673,
      "OUS": 3674,
      "Ġrach": 3675,
      "Ġthoughtfully": 3676,
      "Ġlevel": 3677,
      "ibly": 3678,
      "ĠSo": 3679,
      "Ġdefines": 3680,
      "ĠFISH": 3681,
      "REAK": 3682,
      "Ġbeautifully": 3683,
      "ATER": 3684,
      "Ġfade": 3685,
      "ddle": 3686,
      "Ġgiant": 3687,
      "Ġslippery": 3688,
      "Ġpeacefully": 3689,
      "Ġtwit": 3690,
      "ĠCAN": 3691,
      "Ġtotal": 3692,
      "ĠPR": 3693,
      "comes": 3694,
      "Ġvoices": 3695,
      "Ġsteer": 3696,
      "Ġstressful": 3697,
      "cia": 3698,
      "Ġchoosing": 3699,
      "IDE": 3700,
      "Ġwalking": 3701,
      "Ġwalks": 3702,
      "Ġdropping": 3703,
      "Ġaccidentally": 3704,
      "ney": 3705,
      "Ġpiece": 3706,
      "rapid": 3707,
      "ĠSomeone": 3708,
      "ĠAHHH": 3709,
      "Ġbriefly": 3710,
      "ĠEXCITED": 3711,
      "FECT": 3712,
      "Ġashamed": 3713,
      "squints": 3714,
      "Ġschedule": 3715,
      "Ġefficient": 3716,
      "Ġstrategy": 3717,
      "Ġrachel": 3718,
      ".'": 3719,
      "AU": 3720,
      "ASE": 3721,
      "ET": 3722,
      "EED": 3723,
      "KAY": 3724,
      "ORI": 3725,
      "RA": 3726,
      "WW": 3727,
      "gin": 3728,
      "ged": 3729,
      "kers": 3730,
      "leep": 3731,
      "now": 3732,
      "ww": 3733,
      "xim": 3734,
      "yal": 3735,
      "Ġala": 3736,
      "Ġaff": 3737,
      "Ġyell": 3738,
      "Ġbills": 3739,
      "Ġcard": 3740,
      "orge": 3741,
      "ays": 3742,
      "Ġpatch": 3743,
      "Ġpick": 3744,
      "Ġrent": 3745,
      "Ġcannot": 3746,
      "beat": 3747,
      "Ġwearing": 3748,
      "Ġshining": 3749,
      "Ġsup": 3750,
      "astated": 3751,
      "Ġtook": 3752,
      "Ġvag": 3753,
      "Ġasleep": 3754,
      "Ġquality": 3755,
      "Ġblanks": 3756,
      "Ġsand": 3757,
      "Ġsalary": 3758,
      "Ġeaten": 3759,
      "Ġimpressive": 3760,
      "Ġpres": 3761,
      "Ġpretend": 3762,
      "Ġbrrr": 3763,
      "ĠBIG": 3764,
      "Ġwatches": 3765,
      "steps": 3766,
      "Ġbadly": 3767,
      "Ġhums": 3768,
      "Ġcareer": 3769,
      "Ġsunny": 3770,
      "Ġvisits": 3771,
      "Ġcurse": 3772,
      "Ġvibes": 3773,
      "ĠLet": 3774,
      "ĠThere": 3775,
      "Ġadm": 3776,
      "concent": 3777,
      "Ġcleaned": 3778,
      "ANT": 3779,
      "Ġenerget": 3780,
      "ubs": 3781,
      "Ġdelicate": 3782,
      "Ġgener": 3783,
      "Ġanxiously": 3784,
      "Ġfacts": 3785,
      "Ġblocking": 3786,
      "Ġirre": 3787,
      "Ġaddress": 3788,
      "EAH": 3789,
      "Ġmedia": 3790,
      "Ġembarrassing": 3791,
      "Ġseparate": 3792,
      "Ġtravels": 3793,
      "Ġhobbies": 3794,
      "Ġfascinating": 3795,
      "Ġdevastated": 3796,
      "Ġdrowning": 3797,
      "Ġdrawing": 3798,
      "Ġrealization": 3799,
      "OUND": 3800,
      "ĠFEEL": 3801,
      "Ġfootsteps": 3802,
      "ĠPERFECT": 3803,
      "Ġapolog": 3804,
      "Ġalarm": 3805,
      "*.": 3806,
      "*...": 3807,
      "AME": 3808,
      "GRY": 3809,
      "ILL": 3810,
      "IVE": 3811,
      "OP": 3812,
      "ael": 3813,
      "fet": 3814,
      "gress": 3815,
      "nown": 3816,
      "vin": 3817,
      "ya": 3818,
      "yle": 3819,
      "Ġtee": 3820,
      "oura": 3821,
      "rel": 3822,
      "Ġlately": 3823,
      "Ġna": 3824,
      "Ġgigg": 3825,
      "itive": 3826,
      "Ġpops": 3827,
      "Ġbudd": 3828,
      "Ġarea": 3829,
      "Ġohhh": 3830,
      "already": 3831,
      "Ġknowledge": 3832,
      "iring": 3833,
      "eck": 3834,
      "Ġaging": 3835,
      "illing": 3836,
      "Ġscrat": 3837,
      "Ġupon": 3838,
      "Ġchat": 3839,
      "Ġsplit": 3840,
      "ESS": 3841,
      "Ġprove": 3842,
      "Ġimpat": 3843,
      "Ġrude": 3844,
      "ichael": 3845,
      "Ġspecies": 3846,
      "Ġunf": 3847,
      "Ġpract": 3848,
      "lts": 3849,
      "swimming": 3850,
      "Ġturns": 3851,
      "Ġblink": 3852,
      "Ġheartbeat": 3853,
      "Ġsees": 3854,
      "ĠLOOK": 3855,
      "Ġadios": 3856,
      "ITH": 3857,
      "THER": 3858,
      "Ġcarries": 3859,
      "sentence": 3860,
      "Ġbothering": 3861,
      "Ġchecking": 3862,
      "Ġvalu": 3863,
      "Ġexperi": 3864,
      "Ġcheerful": 3865,
      "Ġuniverse": 3866,
      "Ġcopying": 3867,
      "Ġiron": 3868,
      "ĠHAPPEN": 3869,
      "Ġuncertainty": 3870,
      "Ġembarrassed": 3871,
      "Ġspreads": 3872,
      "Ġinsur": 3873,
      "continues": 3874,
      "Ġsurrounded": 3875,
      "underst": 3876,
      "Ġcommitted": 3877,
      "Ġshellfish": 3878,
      "Ġbesides": 3879,
      "Ġpatricia": 3880,
      "Ġpresence": 3881,
      "Ġbuddies": 3882,
      "EC": 3883,
      "FF": 3884,
      "ICE": 3885,
      "OSE": 3886,
      "VING": 3887,
      "WAY": 3888,
      "friend": 3889,
      "ground": 3890,
      "pro": 3891,
      "panics": 3892,
      "rubs": 3893,
      "sy": 3894,
      "ĠZOOM": 3895,
      "Ġtim": 3896,
      "Ġtun": 3897,
      "ren": 3898,
      "ative": 3899,
      "Ġyouth": 3900,
      "Ġdim": 3901,
      "Ġhm": 3902,
      "Ġher": 3903,
      "Ġhor": 3904,
      "Ġhis": 3905,
      "Ġhid": 3906,
      "orient": 3907,
      "Ġgrat": 3908,
      "Ġgames": 3909,
      "stop": 3910,
      "Ġsoo": 3911,
      "eek": 3912,
      "vering": 3913,
      "Ġpal": 3914,
      "Ġpea": 3915,
      "Ġreacted": 3916,
      "Ġjour": 3917,
      "Ġbeach": 3918,
      "icke": 3919,
      "Ġwhose": 3920,
      "Ġwarmest": 3921,
      "Ġcolored": 3922,
      "ĠYEAH": 3923,
      "ffee": 3924,
      "Ġpersp": 3925,
      "Ġquit": 3926,
      "Ġfaith": 3927,
      "ister": 3928,
      "fins": 3929,
      "Ġfunction": 3930,
      "Ġbrush": 3931,
      "ĠSEE": 3932,
      "ĠFR": 3933,
      "Ġcleare": 3934,
      "ĠBAD": 3935,
      "Ġhopefully": 3936,
      "Ġrefresh": 3937,
      "Ġblush": 3938,
      "Ġvisible": 3939,
      "Ġworrying": 3940,
      "ĠMEAN": 3941,
      "Ġcleaning": 3942,
      "Ġappearing": 3943,
      "Ġappearance": 3944,
      "Ġdetermined": 3945,
      "Ġriddle": 3946,
      "Ġcurrents": 3947,
      "ĠDOES": 3948,
      "worthy": 3949,
      "Ġdrink": 3950,
      "Ġredisco": 3951,
      "Ġangle": 3952,
      "Ġripple": 3953,
      "Ġunclear": 3954,
      "Ġproblems": 3955,
      "Ġtingle": 3956,
      "Ġdarted": 3957,
      "Ġhyped": 3958,
      "Ġpowerful": 3959,
      "Ġfilled": 3960,
      "anoid": 3961,
      "Ġlanguage": 3962,
      "Ġunknown": 3963,
      "Ġdash": 3964,
      "Ġsuccess": 3965,
      "placeable": 3966,
      "Ġinflation": 3967,
      "Ġvulnerable": 3968,
      "Ġirreplaceable": 3969,
      "Ġgratitude": 3970,
      "Ġjourney": 3971,
      "Ġperspective": 3972,
      "LA": 3973,
      "VORI": 3974,
      "but": 3975,
      "everything": 3976,
      "mes": 3977,
      "maybe": 3978,
      "pre": 3979,
      "rs": 3980,
      "rink": 3981,
      "ĠVERY": 3982,
      "Ġrapid": 3983,
      "Ġice": 3984,
      "Ġthous": 3985,
      "Ġwra": 3986,
      "Ġwinning": 3987,
      "Ġmill": 3988,
      "Ġbles": 3989,
      "Ġdest": 3990,
      "Ġhist": 3991,
      "Ġori": 3992,
      "Ġcause": 3993,
      "Ġecon": 3994,
      "ening": 3995,
      "ided": 3996,
      "ica": 3997,
      "icult": 3998,
      "Ġmom": 3999,
      "Ġur": 4000,
      "omy": 4001,
      "Ġglassy": 4002,
      "Ġexit": 4003,
      "ault": 4004,
      "ments": 4005,
      "astically": 4006,
      "Ġsmarter": 4007,
      "Ġcoffee": 4008,
      "Ġchild": 4009,
      "tting": 4010,
      "ctor": 4011,
      "Ġdeg": 4012,
      "ĠWITH": 4013,
      "Ġdifficult": 4014,
      "Ġhumb": 4015,
      "ĠAH": 4016,
      "ĠSt": 4017,
      "Ġdefine": 4018,
      "Ġpod": 4019,
      "Ġfirm": 4020,
      "ĠMINE": 4021,
      "ĠOKAY": 4022,
      "anyway": 4023,
      "ĠBRIGHT": 4024,
      "ĠBONK": 4025,
      "ĠBREAK": 4026,
      "Ġgentleness": 4027,
      "ĠWHY": 4028,
      "Ġabsolute": 4029,
      "LED": 4030,
      "ĠEVER": 4031,
      "igning": 4032,
      "Ġcrown": 4033,
      "Ġmysteries": 4034,
      "Ġcrashes": 4035,
      "Ġsparkling": 4036,
      "Ġincredibly": 4037,
      "Ġreaches": 4038,
      "forgot": 4039,
      "Ġconfidence": 4040,
      "Ġbegins": 4041,
      "ĠJOY": 4042,
      "Ġvalid": 4043,
      "Ġcreatures": 4044,
      "Ġbecoming": 4045,
      "ĠFAVORI": 4046,
      "Ġrelaxed": 4047,
      "Ġtreats": 4048,
      "Ġstanding": 4049,
      "Ġhealthy": 4050,
      "ĠSomething": 4051,
      "Ġrespond": 4052,
      "Ġfingers": 4053,
      "Ġenthusiasm": 4054,
      "Ġhobby": 4055,
      "Ġrules": 4056,
      "Ġeventually": 4057,
      "Ġobservation": 4058,
      "Ġcoolest": 4059,
      "Ġtonight": 4060,
      "Ġsophia": 4061,
      "Ġleafy": 4062,
      "Ġphysic": 4063,
      "Ġversion": 4064,
      "Ġnibble": 4065,
      "concentrates": 4066,
      "Ġenergetic": 4067,
      "Ġteeth": 4068,
      "Ġgiggle": 4069,
      "Ġimpatient": 4070,
      "Ġtiming": 4071,
      "Ġthousand": 4072,
      "Ġmillion": 4073,
      "Ġblessed": 4074,
      "Ġhistory": 4075,
      "ĠFAVORITE": 4076,
      "AH": 4077,
      "TI": 4078,
      "TER": 4079,
      "YY": 4080,
      "br": 4081,
      "cation": 4082,
      "diz": 4083,
      "fli": 4084,
      "gent": 4085,
      "ikes": 4086,
      "iles": 4087,
      "loops": 4088,
      "mon": 4089,
      "ob": 4090,
      "old": 4091,
      "ract": 4092,
      "rushes": 4093,
      "sure": 4094,
      "ta": 4095,
      "zing": 4096,
      "zen": 4097,
      "Ġtense": 4098,
      "Ġavo": 4099,
      "Ġsam": 4100,
      "Ġsigning": 4101,
      "Ġmay": 4102,
      "Ġmater": 4103,
      "Ġduring": 4104,
      "Ġlow": 4105,
      "Ġnoo": 4106,
      "Ġdoctor": 4107,
      "orable": 4108,
      "llab": 4109,
      "thes": 4110,
      "Ġwaved": 4111,
      "Ġstore": 4112,
      "Ġstyle": 4113,
      "Ġgoals": 4114,
      "Ġalice": 4115,
      "Ġneg": 4116,
      "irl": 4117,
      "Ġthinks": 4118,
      "Ġflaw": 4119,
      "Ġkinder": 4120,
      "Ġaller": 4121,
      "Ġallig": 4122,
      "Ġlogic": 4123,
      "Ġlovable": 4124,
      "Ġcher": 4125,
      "Ġstillness": 4126,
      "Ġbackground": 4127,
      "Ġcompare": 4128,
      "Ġimpro": 4129,
      "Ġprep": 4130,
      "tie": 4131,
      "Ġlead": 4132,
      "ĠFEED": 4133,
      "Ġpointing": 4134,
      "Ġshouldn": 4135,
      "ĠBut": 4136,
      "izing": 4137,
      "Ġhasn": 4138,
      "Ġsunset": 4139,
      "Ġcircular": 4140,
      "Ġbelief": 4141,
      "Ġtrustworthy": 4142,
      "Ġmoral": 4143,
      "Ġfinds": 4144,
      "Ġgulp": 4145,
      "Ġheartb": 4146,
      "Ġspinny": 4147,
      "Ġcontinu": 4148,
      "Ġworthy": 4149,
      "ĠMEAL": 4150,
      "Ġfrustration": 4151,
      "Ġstocks": 4152,
      "Ġbounces": 4153,
      "ĠPU": 4154,
      "Ġdistance": 4155,
      "Ġdeeper": 4156,
      "Ġescaping": 4157,
      "Ġzone": 4158,
      "Ġvoid": 4159,
      "Ġreaching": 4160,
      "Ġenjoying": 4161,
      "Ġdroops": 4162,
      "ARK": 4163,
      "ĠANY": 4164,
      "Ġshocking": 4165,
      "Ġinspire": 4166,
      "Ġcopy": 4167,
      "ĠNEWS": 4168,
      "Ġtype": 4169,
      "Ġenthusiastically": 4170,
      "Ġwhiskers": 4171,
      "Ġkids": 4172,
      "Ġbene": 4173,
      "Ġconsistent": 4174,
      "Ġchaos": 4175,
      "Ġhypnotic": 4176,
      "Ġwasting": 4177,
      "Ġexercise": 4178,
      "Ġcompanion": 4179,
      "Ġinsurance": 4180,
      "Ġhumble": 4181,
      "dizzy": 4182,
      "Ġmaterial": 4183,
      "Ġalligator": 4184,
      "SO": 4185,
      "SIDE": 4186,
      "bed": 4187,
      "cing": 4188,
      "cur": 4189,
      "cient": 4190,
      "gl": 4191,
      "gage": 4192,
      "mid": 4193,
      "mesmerized": 4194,
      "peeks": 4195,
      "table": 4196,
      "yaw": 4197,
      "Ġah": 4198,
      "res": 4199,
      "Ġsits": 4200,
      "Ġsister": 4201,
      "atically": 4202,
      "atus": 4203,
      "Ġmichael": 4204,
      "Ġfright": 4205,
      "Ġfro": 4206,
      "Ġdumb": 4207,
      "ors": 4208,
      "Ġeag": 4209,
      "Ġpell": 4210,
      "Ġpau": 4211,
      "Ġpark": 4212,
      "lew": 4213,
      "Ġbuzz": 4214,
      "ets": 4215,
      "rible": 4216,
      "Ġjess": 4217,
      "Ġinsec": 4218,
      "Ġkilling": 4219,
      "allow": 4220,
      "alse": 4221,
      "Ġancient": 4222,
      "Ġsumm": 4223,
      "Ġwherever": 4224,
      "Ġvict": 4225,
      "when": 4226,
      "ĠWho": 4227,
      "Ġsounded": 4228,
      "Ġsafet": 4229,
      "Ġeats": 4230,
      "Ġprodu": 4231,
      "Ġpartic": 4232,
      "OUD": 4233,
      "Ġroo": 4234,
      "Ġstartle": 4235,
      "ĠALL": 4236,
      "ĠSee": 4237,
      "IND": 4238,
      "Ġbeauty": 4239,
      "ĠORAN": 4240,
      "ĠHi": 4241,
      "whatever": 4242,
      "Ġslipping": 4243,
      "Ġcalming": 4244,
      "Ġlasted": 4245,
      "Ġusual": 4246,
      "ĠGood": 4247,
      "Ġtopic": 4248,
      "Ġpurple": 4249,
      "LLING": 4250,
      "Ġtaps": 4251,
      "ĠPLE": 4252,
      "Ġride": 4253,
      "forget": 4254,
      "Ġplanning": 4255,
      "larity": 4256,
      "Ġarriving": 4257,
      "Ġpiano": 4258,
      "Ġcommun": 4259,
      "Ġtrip": 4260,
      "ĠGOSH": 4261,
      "focu": 4262,
      "Ġsettling": 4263,
      "Ġbendy": 4264,
      "Ġwispy": 4265,
      "Ġsinking": 4266,
      "ĠLIKE": 4267,
      "Ġseason": 4268,
      "Ġoverwhelming": 4269,
      "Ġsilent": 4270,
      "IRD": 4271,
      "ĠMOVED": 4272,
      "Ġzoomed": 4273,
      "Ġlanguages": 4274,
      "Ġhumidity": 4275,
      "Ġdefensive": 4276,
      "Ġsoulm": 4277,
      "Ġdramatic": 4278,
      "Ġcooking": 4279,
      "Ġsatisfied": 4280,
      "Ġunfair": 4281,
      "Ġclearer": 4282,
      "Ġorigin": 4283,
      "Ġmaya": 4284,
      "Ġbeneath": 4285,
      "Ġeager": 4286,
      "Ġjessica": 4287,
      "Ġsafety": 4288,
      "ĠORANGE": 4289,
      "?'": 4290,
      "PED": 4291,
      "bit": 4292,
      "den": 4293,
      "gives": 4294,
      "ior": 4295,
      "iff": 4296,
      "ker": 4297,
      "nch": 4298,
      "poof": 4299,
      "puff": 4300,
      "try": 4301,
      "uine": 4302,
      "van": 4303,
      "your": 4304,
      "Ġouch": 4305,
      "Ġyikes": 4306,
      "Ġbird": 4307,
      "Ġbass": 4308,
      "Ġhust": 4309,
      "Ġclarity": 4310,
      "Ġee": 4311,
      "Ġep": 4312,
      "iss": 4313,
      "oned": 4314,
      "ened": 4315,
      "ristop": 4316,
      "Ġrele": 4317,
      "Ġrequ": 4318,
      "Ġinstant": 4319,
      "lass": 4320,
      "Ġwatery": 4321,
      "Ġwash": 4322,
      "acting": 4323,
      "Ġgod": 4324,
      "antic": 4325,
      "ilt": 4326,
      "Ġmagn": 4327,
      "Ġshy": 4328,
      "Ġshock": 4329,
      "Ġheat": 4330,
      "bbing": 4331,
      "Ġbubbling": 4332,
      "Ġchristop": 4333,
      "urns": 4334,
      "Ġdie": 4335,
      "ĠTW": 4336,
      "Ġoutta": 4337,
      "ĠWATER": 4338,
      "absolut": 4339,
      "Ġsave": 4340,
      "Ġreality": 4341,
      "Ġpred": 4342,
      "Ġpebble": 4343,
      "Ġtrou": 4344,
      "Ġmusc": 4345,
      "ĠAT": 4346,
      "Ġsoftness": 4347,
      "Ġcomedy": 4348,
      "ĠSW": 4349,
      "ĠSOUND": 4350,
      "INK": 4351,
      "ĠFUN": 4352,
      "Ġexpecting": 4353,
      "ĠBe": 4354,
      "ERT": 4355,
      "ressed": 4356,
      "ĠNOM": 4357,
      "Ġrob": 4358,
      "ĠTHEY": 4359,
      "Ġadore": 4360,
      "Ġdecis": 4361,
      "roken": 4362,
      "Ġheavier": 4363,
      "moves": 4364,
      "Ġshivers": 4365,
      "ĠBUD": 4366,
      "Ġenerg": 4367,
      "Ġrises": 4368,
      "Ġconflic": 4369,
      "Ġceiling": 4370,
      "Ġpunish": 4371,
      "Ġsplashing": 4372,
      "Ġahhhh": 4373,
      "CTION": 4374,
      "Ġphilosoph": 4375,
      "Ġawareness": 4376,
      "ĠRe": 4377,
      "Ġrejection": 4378,
      "Ġrumbling": 4379,
      "Ġunkind": 4380,
      "Ġsearching": 4381,
      "Ġsignific": 4382,
      "ĠWEIRD": 4383,
      "Ġsubject": 4384,
      "Ġgeome": 4385,
      "Ġdelighted": 4386,
      "Ġflexible": 4387,
      "Ġhunting": 4388,
      "Ġflinched": 4389,
      "Ġveget": 4390,
      "RPRI": 4391,
      "Ġmortgage": 4392,
      "Ġmixed": 4393,
      "Ġrelieved": 4394,
      "Ġabsor": 4395,
      "Ġmotiv": 4396,
      "Ġexperien": 4397,
      "Ġhorrible": 4398,
      "Ġhidden": 4399,
      "Ġsoothing": 4400,
      "Ġpodcast": 4401,
      "Ġcherish": 4402,
      "Ġimprove": 4403,
      "yawns": 4404,
      "Ġproduct": 4405,
      "ĠPLEASE": 4406,
      "puffs": 4407,
      "Ġchristopher": 4408,
      "!'": 4409,
      "?âĢĶ": 4410,
      "GER": 4411,
      "IM": 4412,
      "catches": 4413,
      "dist": 4414,
      "fle": 4415,
      "hor": 4416,
      "night": 4417,
      "nical": 4418,
      "ull": 4419,
      "ucial": 4420,
      "vity": 4421,
      "ym": 4422,
      "Ġ(": 4423,
      "Ġtang": 4424,
      "Ġamb": 4425,
      "Ġaqu": 4426,
      "Ġfits": 4427,
      "Ġflew": 4428,
      "Ġfalse": 4429,
      "nds": 4430,
      "Ġhen": 4431,
      "Ġloo": 4432,
      "Ġlaps": 4433,
      "oring": 4434,
      "Ġgoof": 4435,
      "Ġgorge": 4436,
      "Ġliking": 4437,
      "Ġpeek": 4438,
      "ley": 4439,
      "Ġreti": 4440,
      "Ġstate": 4441,
      "Ġaband": 4442,
      "Ġswe": 4443,
      "Ġshim": 4444,
      "Ġshines": 4445,
      "Ġamount": 4446,
      "Ġsuspicious": 4447,
      "roll": 4448,
      "finitely": 4449,
      "INNER": 4450,
      "ĠFORE": 4451,
      "Ġpolit": 4452,
      "ĠMA": 4453,
      "ĠTHRI": 4454,
      "Ġdissolving": 4455,
      "ĠHello": 4456,
      "ĠDon": 4457,
      "Ġlisting": 4458,
      "Ġconfusedly": 4459,
      "Ġunst": 4460,
      "ĠNICE": 4461,
      "Ġfurious": 4462,
      "Ġbelieves": 4463,
      "iety": 4464,
      "Ġquietly": 4465,
      "Ġlasts": 4466,
      "anced": 4467,
      "Ġglide": 4468,
      "Ġcounted": 4469,
      "onestly": 4470,
      "Ġcats": 4471,
      "Ġfollows": 4472,
      "Ġbreaks": 4473,
      "ĠWANT": 4474,
      "ITE": 4475,
      "Ġcrit": 4476,
      "Ġcrucial": 4477,
      "Ġpromotion": 4478,
      "Ġshifting": 4479,
      "ĠMOMENT": 4480,
      "Ġconfir": 4481,
      "Ġbothers": 4482,
      "Ġdeserves": 4483,
      "ĠJust": 4484,
      "Ġdoub": 4485,
      "Ġwalked": 4486,
      "Ġanxiety": 4487,
      "ĠTHINGS": 4488,
      "Ġcrystal": 4489,
      "ĠGOING": 4490,
      "Ġsettles": 4491,
      "Ġsettled": 4492,
      "ĠSTU": 4493,
      "Ġmanage": 4494,
      "Ġsquare": 4495,
      "Ġmeals": 4496,
      "ĠHUN": 4497,
      "ĠFAST": 4498,
      "ĠFALLING": 4499,
      "Ġvanishes": 4500,
      "Ġcopies": 4501,
      "ĠSURPRI": 4502,
      "Ġcovering": 4503,
      "ĠSHOULD": 4504,
      "Ġkey": 4505,
      "Ġkept": 4506,
      "Ġkevin": 4507,
      "Ġconsciousness": 4508,
      "ĠTOP": 4509,
      "Ġblame": 4510,
      "gulp": 4511,
      "ĠOUTSIDE": 4512,
      "ĠAHHHH": 4513,
      "ultane": 4514,
      "Ġburst": 4515,
      "Ġreaction": 4516,
      "WHERE": 4517,
      "Ġwitty": 4518,
      "Ġproper": 4519,
      "Ġintensity": 4520,
      "Ġconnects": 4521,
      "vibrating": 4522,
      "Ġobsessed": 4523,
      "WAYS": 4524,
      "Ġrapidly": 4525,
      "monst": 4526,
      "Ġprepared": 4527,
      "Ġheartbroken": 4528,
      "Ġpaul": 4529,
      "Ġcommunic": 4530,
      "vanished": 4531,
      "Ġeek": 4532,
      "ĠBUDDY": 4533,
      "Ġenergized": 4534,
      "Ġhenry": 4535,
      "Ġgorgeous": 4536,
      "ĠFOREVER": 4537,
      "AIT": 4538,
      "DER": 4539,
      "FLE": 4540,
      "FAST": 4541,
      "LI": 4542,
      "LLED": 4543,
      "YES": 4544,
      "amp": 4545,
      "back": 4546,
      "count": 4547,
      "dis": 4548,
      "dart": 4549,
      "fr": 4550,
      "fying": 4551,
      "grat": 4552,
      "pid": 4553,
      "rot": 4554,
      "rang": 4555,
      "sm": 4556,
      "tastic": 4557,
      "val": 4558,
      "Ġra": 4559,
      "Ġtu": 4560,
      "Ġthump": 4561,
      "inked": 4562,
      "relax": 4563,
      "refle": 4564,
      "Ġmon": 4565,
      "Ġdying": 4566,
      "Ġwhoops": 4567,
      "ana": 4568,
      "Ġgas": 4569,
      "Ġgard": 4570,
      "stays": 4571,
      "Ġech": 4572,
      "eeze": 4573,
      "Ġbuilt": 4574,
      "erence": 4575,
      "enn": 4576,
      "eness": 4577,
      "ghter": 4578,
      "ooh": 4579,
      "Ġinno": 4580,
      "Ġstorm": 4581,
      "Ġstinks": 4582,
      "Ġorang": 4583,
      "icated": 4584,
      "Ġswum": 4585,
      "antly": 4586,
      "Ġflapping": 4587,
      "Ġglaze": 4588,
      "ecks": 4589,
      "ote": 4590,
      "ĠIM": 4591,
      "Ġshoes": 4592,
      "Ġloses": 4593,
      "Ġscen": 4594,
      "ĠYUM": 4595,
      "ĠYAA": 4596,
      "Ġchuck": 4597,
      "Ġspaces": 4598,
      "ural": 4599,
      "Ġmomentum": 4600,
      "ctly": 4601,
      "ctually": 4602,
      "Ġtails": 4603,
      "ĠTime": 4604,
      "Ġsmallest": 4605,
      "Ġdisorient": 4606,
      "aphor": 4607,
      "OUGH": 4608,
      "Ġacting": 4609,
      "Ġaction": 4610,
      "Ġtracking": 4611,
      "ĠActually": 4612,
      "lio": 4613,
      "Ġstupid": 4614,
      "Ġoverthinking": 4615,
      "ĠOVER": 4616,
      "ĠHe": 4617,
      "Ġslowing": 4618,
      "curious": 4619,
      "Ġbothered": 4620,
      "rashing": 4621,
      "Ġtwitter": 4622,
      "ĠCOLD": 4623,
      "Ġflutters": 4624,
      "Ġvibrates": 4625,
      "Ġattemp": 4626,
      "Ġmetaphor": 4627,
      "Ġopened": 4628,
      "Ġsimp": 4629,
      "Ġsimultane": 4630,
      "Ġtasted": 4631,
      "Ġsitting": 4632,
      "upils": 4633,
      "Ġimagining": 4634,
      "Ġmessing": 4635,
      "Ġfreezing": 4636,
      "ĠMOVE": 4637,
      "Ġsweetest": 4638,
      "Ġshimmery": 4639,
      "Ġtricks": 4640,
      "Ġcrying": 4641,
      "ĠNEED": 4642,
      "ruction": 4643,
      "Ġputting": 4644,
      "Ġemily": 4645,
      "Ġinvestigate": 4646,
      "Ġtingling": 4647,
      "Ġbonks": 4648,
      "Ġannoyed": 4649,
      "Ġshopping": 4650,
      "Ġgraceful": 4651,
      "ĠALWAYS": 4652,
      "ĠAWWW": 4653,
      "Ġswaying": 4654,
      "Ġtyler": 4655,
      "UNCH": 4656,
      "ĠINCOMING": 4657,
      "Ġspiral": 4658,
      "Ġclass": 4659,
      "Ġlimitations": 4660,
      "Ġwhisper": 4661,
      "Ġsearch": 4662,
      "second": 4663,
      "Ġrandomly": 4664,
      "Ġamuse": 4665,
      "Ġlazy": 4666,
      "Ġachieve": 4667,
      "Ġaccomplishment": 4668,
      "Ġrather": 4669,
      "Ġoccurred": 4670,
      "Ġapologize": 4671,
      "Ġdegree": 4672,
      "ĠBREAKFAST": 4673,
      "Ġvalidated": 4674,
      "Ġallergic": 4675,
      "Ġpellets": 4676,
      "Ġinsecure": 4677,
      "Ġhustle": 4678,
      "ĠRemember": 4679,
      "distracted": 4680,
      "Ġretire": 4681,
      "ĠTHRILLED": 4682,
      "FLECTION": 4683,
      "Ġgarden": 4684,
      "Ġchuckle": 4685,
      "Ġsimultaneously": 4686,
      "FIN": 4687,
      "VED": 4688,
      "bably": 4689,
      "cas": 4690,
      "ding": 4691,
      "dark": 4692,
      "hood": 4693,
      "hope": 4694,
      "ipped": 4695,
      "nected": 4696,
      "okes": 4697,
      "sid": 4698,
      "unt": 4699,
      "zoo": 4700,
      "Ġ5": 4701,
      "inc": 4702,
      "Ġsla": 4703,
      "Ġsized": 4704,
      "Ġmmm": 4705,
      "Ġmark": 4706,
      "Ġmunch": 4707,
      "Ġfire": 4708,
      "mem": 4709,
      "Ġcree": 4710,
      "Ġdors": 4711,
      "anks": 4712,
      "Ġgill": 4713,
      "Ġgross": 4714,
      "Ġgirl": 4715,
      "Ġgym": 4716,
      "...\"": 4717,
      "eet": 4718,
      "iting": 4719,
      "ites": 4720,
      "Ġrev": 4721,
      "Ġrear": 4722,
      "Ġreacting": 4723,
      "Ġsomeday": 4724,
      "Ġintern": 4725,
      "Ġbell": 4726,
      "Ġnoises": 4727,
      "Ġstom": 4728,
      "Ġmoon": 4729,
      "Ġseek": 4730,
      "Ġflaps": 4731,
      "Ġext": 4732,
      "aurant": 4733,
      "Ġheater": 4734,
      "Ġloyal": 4735,
      "bbly": 4736,
      "Ġcomfor": 4737,
      "Ġsmiles": 4738,
      "Ġanytime": 4739,
      "Ġscream": 4740,
      "Ġscience": 4741,
      "ESOME": 4742,
      "Ġdebt": 4743,
      "Ġintention": 4744,
      "Ġdaytime": 4745,
      "Ġsaving": 4746,
      "Ġproject": 4747,
      "Ġwiggled": 4748,
      "Ġpressing": 4749,
      "ĠAC": 4750,
      "Ġhiya": 4751,
      "ibility": 4752,
      "ĠSAME": 4753,
      "ĠFIR": 4754,
      "Ġpoor": 4755,
      "spinning": 4756,
      "ATTER": 4757,
      "Ġfeast": 4758,
      "atching": 4759,
      "Ġdissolve": 4760,
      "ĠDid": 4761,
      "Ġrestaurant": 4762,
      "Ġpersonal": 4763,
      "Ġflicke": 4764,
      "Ġforgiven": 4765,
      "Ġmorgan": 4766,
      "Ġbloop": 4767,
      "ĠCON": 4768,
      "Ġusing": 4769,
      "ĠGot": 4770,
      "Ġvibing": 4771,
      "Ġattacking": 4772,
      "Ġcrush": 4773,
      "Ġsnap": 4774,
      "Ġgrain": 4775,
      "ipation": 4776,
      "Ġrich": 4777,
      "ĠDOING": 4778,
      "Ġstressing": 4779,
      "someone": 4780,
      "Ġcreative": 4781,
      "ENT": 4782,
      "ĠREFLECTION": 4783,
      "Ġposition": 4784,
      "ĠThey": 4785,
      "Ġpainful": 4786,
      "Ġpuns": 4787,
      "Ġdisappearing": 4788,
      "Ġnetwork": 4789,
      "folio": 4790,
      "Ġsplashes": 4791,
      "ĠSTILL": 4792,
      "ĠREADY": 4793,
      "Ġinvestment": 4794,
      "Ġscari": 4795,
      "Ġgravity": 4796,
      "Ġtextured": 4797,
      "Ġrhymes": 4798,
      "ADOW": 4799,
      "ĠSPEC": 4800,
      "Ġconfidently": 4801,
      "Ġuncertainly": 4802,
      "Ġlimits": 4803,
      "ĠAWESOME": 4804,
      "Ġapartment": 4805,
      "aware": 4806,
      "Ġtyp": 4807,
      "Ġfloppy": 4808,
      "Ġrespon": 4809,
      "Ġreflecting": 4810,
      "Ġanimal": 4811,
      "Ġelect": 4812,
      "Ġspirit": 4813,
      "ifies": 4814,
      "Ġresets": 4815,
      "Ġdeadline": 4816,
      "Ġsucceed": 4817,
      "ĠLEA": 4818,
      "Ġlayers": 4819,
      "Ġapproach": 4820,
      "Ġencoura": 4821,
      "ĠDEFIN": 4822,
      "Ġcryptocur": 4823,
      "Ġboundary": 4824,
      "Ġportfolio": 4825,
      "Ġconcern": 4826,
      "faded": 4827,
      "Ġsalt": 4828,
      "Ġvaluable": 4829,
      "ĠHAPPENING": 4830,
      "rency": 4831,
      "ĠFROM": 4832,
      "Ġrediscover": 4833,
      "Ġepic": 4834,
      "Ġtrouble": 4835,
      "Ġconflict": 4836,
      "Ġsignificant": 4837,
      "Ġgeometry": 4838,
      "Ġtangled": 4839,
      "Ġaquatic": 4840,
      "Ġgoofy": 4841,
      "Ġabandoned": 4842,
      "ĠHUNGRY": 4843,
      "relaxes": 4844,
      "zooming": 4845,
      "Ġdorsal": 4846,
      "Ġcomforting": 4847,
      "Ġflickered": 4848,
      "ĠSPECI": 4849,
      "Ġencouraging": 4850,
      "Ġcryptocurrency": 4851,
      "ALLY": 4852,
      "BRAT": 4853,
      "MY": 4854,
      "NING": 4855,
      "OT": 4856,
      "US": 4857,
      "WAIT": 4858,
      "ash": 4859,
      "cer": 4860,
      "det": 4861,
      "eat": 4862,
      "gid": 4863,
      "good": 4864,
      "glass": 4865,
      "io": 4866,
      "ift": 4867,
      "lting": 4868,
      "new": 4869,
      "pting": 4870,
      "point": 4871,
      "tw": 4872,
      "touch": 4873,
      "vest": 4874,
      "Ġ2": 4875,
      "Ġ3": 4876,
      "Ġwid": 4877,
      "Ġant": 4878,
      "Ġarm": 4879,
      "inches": 4880,
      "Ġmesmerized": 4881,
      "Ġfsh": 4882,
      "Ġdam": 4883,
      "ese": 4884,
      "Ġhon": 4885,
      "Ġhint": 4886,
      "Ġhanna": 4887,
      "Ġodd": 4888,
      "Ġnah": 4889,
      "Ġcous": 4890,
      "ised": 4891,
      "ission": 4892,
      "Ġlie": 4893,
      "Ġhazy": 4894,
      "Ġres": 4895,
      "Ġrecent": 4896,
      "Ġnoah": 4897,
      "Ġking": 4898,
      "Ġstatic": 4899,
      "icked": 4900,
      "ellig": 4901,
      "Ġswallow": 4902,
      "Ġkno": 4903,
      "becomes": 4904,
      "Ġswimmer": 4905,
      "Ġwarms": 4906,
      "Ġlocation": 4907,
      "cepting": 4908,
      "ĠYO": 4909,
      "Ġchose": 4910,
      "Ġspooked": 4911,
      "urate": 4912,
      "tty": 4913,
      "Ġqual": 4914,
      "Ġwondered": 4915,
      "Ġdefe": 4916,
      "Ġintellig": 4917,
      "ĠWe": 4918,
      "ĠWant": 4919,
      "Ġtales": 4920,
      "Ġcompar": 4921,
      "Ġprogress": 4922,
      "uts": 4923,
      "Ġimpact": 4924,
      "Ġring": 4925,
      "Ġran": 4926,
      "Ġracing": 4927,
      "Ġactive": 4928,
      "eeding": 4929,
      "ĠFU": 4930,
      "Ġexpected": 4931,
      "ĠTHINK": 4932,
      "Ġbrightest": 4933,
      "ĠBO": 4934,
      "ĠDI": 4935,
      "Ġhurry": 4936,
      "waits": 4937,
      "Ġcorre": 4938,
      "Ġaccepting": 4939,
      "AKE": 4940,
      "Ġclosed": 4941,
      "ĠCOMING": 4942,
      "OOL": 4943,
      "ĠGONE": 4944,
      "Ġcontin": 4945,
      "Ġattack": 4946,
      "connected": 4947,
      "Ġempti": 4948,
      "Ġawww": 4949,
      "Ġgrad": 4950,
      "Ġclosely": 4951,
      "Ġclick": 4952,
      "Ġfears": 4953,
      "Ġargu": 4954,
      "Ġsuppose": 4955,
      "Ġnormally": 4956,
      "Ġsteering": 4957,
      "flates": 4958,
      "Ġrisk": 4959,
      "Ġfreeze": 4960,
      "Ġgenuine": 4961,
      "Ġdrops": 4962,
      "Ġbegin": 4963,
      "definitely": 4964,
      "Ġdouble": 4965,
      "Ġaccurate": 4966,
      "Ġcelebration": 4967,
      "Ġpaint": 4968,
      "Ġdisappears": 4969,
      "Ġpanicking": 4970,
      "ĠEVERYWHERE": 4971,
      "ĠNEVER": 4972,
      "Ġscaly": 4973,
      "Ġrelaxing": 4974,
      "Ġpressed": 4975,
      "pressed": 4976,
      "Ġschools": 4977,
      "Ġvanishing": 4978,
      "Ġblocked": 4979,
      "Ġadded": 4980,
      "ĠSPARK": 4981,
      "Ġadventures": 4982,
      "Ġretain": 4983,
      "ivity": 4984,
      "Ġmedit": 4985,
      "Ġpride": 4986,
      "ĠONE": 4987,
      "Ġtrans": 4988,
      "Ġpermission": 4989,
      "Ġblake": 4990,
      "Ġstrangers": 4991,
      "ario": 4992,
      "ittery": 4993,
      "controll": 4994,
      "ĠWONDER": 4995,
      "Ġpartners": 4996,
      "Ġresume": 4997,
      "Ġignoring": 4998,
      "Ġbeats": 4999,
      "Ġlucas": 5000,
      "Ġclimate": 5001,
      "Ġsuffering": 5002,
      "Ġyellow": 5003,
      "pretty": 5004,
      "Ġdestination": 5005,
      "Ġeconomy": 5006,
      "Ġchildhood": 5007,
      "Ġfrozen": 5008,
      "Ġmagnific": 5009,
      "Ġmuscles": 5010,
      "Ġphilosophical": 5011,
      "Ġmotivated": 5012,
      "ITELY": 5013,
      "counts": 5014,
      "reflection": 5015,
      "Ġscenario": 5016,
      "memory": 5017,
      "Ġstomach": 5018,
      "ĠFIRST": 5019,
      "Ġelectri": 5020,
      "ĠDEFINITELY": 5021,
      "Ġhannah": 5022,
      "ĠWONDERFUL": 5023,
      "OTHER": 5024,
      "RO": 5025,
      "aid": 5026,
      "aries": 5027,
      "bits": 5028,
      "dles": 5029,
      "em": 5030,
      "every": 5031,
      "gment": 5032,
      "ii": 5033,
      "ius": 5034,
      "jump": 5035,
      "pnot": 5036,
      "pokes": 5037,
      "sound": 5038,
      "sli": 5039,
      "tri": 5040,
      "takes": 5041,
      "uely": 5042,
      "Ġtrave": 5043,
      "Ġthreat": 5044,
      "inary": 5045,
      "rees": 5046,
      "Ġsil": 5047,
      "Ġsick": 5048,
      "Ġmesmer": 5049,
      "Ġfan": 5050,
      "Ġfacing": 5051,
      "Ġbro": 5052,
      "Ġdwell": 5053,
      "Ġhim": 5054,
      "Ġlines": 5055,
      "Ġnav": 5056,
      "start": 5057,
      "aylor": 5058,
      "enter": 5059,
      "Ġreve": 5060,
      "Ġreli": 5061,
      "lains": 5062,
      "Ġliked": 5063,
      "Ġstale": 5064,
      "Ġstatus": 5065,
      "ppers": 5066,
      "Ġmode": 5067,
      "sear": 5068,
      "Ġwaits": 5069,
      "chang": 5070,
      "Ġmap": 5071,
      "Ġshame": 5072,
      "Ġsum": 5073,
      "ended": 5074,
      "logy": 5075,
      "Ġsprink": 5076,
      "Ġcongrat": 5077,
      "ĠTER": 5078,
      "city": 5079,
      "Ġdisconnected": 5080,
      "orts": 5081,
      "Ġcomparing": 5082,
      "ures": 5083,
      "solved": 5084,
      "ĠAR": 5085,
      "ĠAb": 5086,
      "REE": 5087,
      "Ġexplains": 5088,
      "Ġdreamy": 5089,
      "Ġdreamily": 5090,
      "Ġfeather": 5091,
      "Ġaward": 5092,
      "azed": 5093,
      "ĠDINNER": 5094,
      "Ġunsure": 5095,
      "Ġuncontroll": 5096,
      "Ġprison": 5097,
      "Ġlistens": 5098,
      "lted": 5099,
      "Ġpoints": 5100,
      "ears": 5101,
      "Ġreasoning": 5102,
      "ĠCall": 5103,
      "ĠCOOL": 5104,
      "Ġroad": 5105,
      "OON": 5106,
      "looking": 5107,
      "Ġgliding": 5108,
      "Ġpleas": 5109,
      "Ġpleased": 5110,
      "Ġsequ": 5111,
      "igor": 5112,
      "Ġopenings": 5113,
      "avior": 5114,
      "Ġincl": 5115,
      "Ġincident": 5116,
      "Ġdecided": 5117,
      "athan": 5118,
      "Ġdistur": 5119
    },
    "merges": [
      [
        "Ġ",
        "t"
      ],
      [
        "Ġ",
        "i"
      ],
      [
        "Ġt",
        "h"
      ],
      [
        "Ġ",
        "w"
      ],
      [
        "Ġ",
        "a"
      ],
      [
        "o",
        "u"
      ],
      [
        "i",
        "n"
      ],
      [
        "r",
        "e"
      ],
      [
        "Ġ",
        "s"
      ],
      [
        "a",
        "t"
      ],
      [
        "Ġ",
        "y"
      ],
      [
        "Ġy",
        "ou"
      ],
      [
        "in",
        "g"
      ],
      [
        "Ġ",
        "m"
      ],
      [
        "Ġth",
        "e"
      ],
      [
        "Ġ",
        "f"
      ],
      [
        "Ġ",
        "b"
      ],
      [
        "e",
        "r"
      ],
      [
        ".",
        "."
      ],
      [
        "Ġ",
        "d"
      ],
      [
        "n",
        "d"
      ],
      [
        "Ġw",
        "h"
      ],
      [
        "e",
        "s"
      ],
      [
        "Ġ",
        "h"
      ],
      [
        "Ġ",
        "o"
      ],
      [
        "Ġ",
        "l"
      ],
      [
        "Ġ",
        "n"
      ],
      [
        "m",
        "e"
      ],
      [
        "Ġ",
        "c"
      ],
      [
        "o",
        "w"
      ],
      [
        "Ġi",
        "t"
      ],
      [
        "'",
        "s"
      ],
      [
        "Ġd",
        "o"
      ],
      [
        "Ġa",
        "nd"
      ],
      [
        "o",
        "r"
      ],
      [
        "a",
        "n"
      ],
      [
        "Ġ",
        "g"
      ],
      [
        "s",
        "t"
      ],
      [
        "l",
        "l"
      ],
      [
        "Ġwh",
        "at"
      ],
      [
        "..",
        "."
      ],
      [
        "t",
        "h"
      ],
      [
        "Ġ",
        "e"
      ],
      [
        "Ġs",
        "o"
      ],
      [
        "Ġw",
        "a"
      ],
      [
        "Ġi",
        "s"
      ],
      [
        "Ġm",
        "e"
      ],
      [
        "a",
        "y"
      ],
      [
        "g",
        "h"
      ],
      [
        "v",
        "e"
      ],
      [
        "e",
        "e"
      ],
      [
        "Ġth",
        "at"
      ],
      [
        "i",
        "s"
      ],
      [
        "Ġl",
        "i"
      ],
      [
        "o",
        "n"
      ],
      [
        "Ġt",
        "o"
      ],
      [
        "k",
        "e"
      ],
      [
        "v",
        "er"
      ],
      [
        "Ġh",
        "a"
      ],
      [
        "i",
        "t"
      ],
      [
        "Ġ",
        "p"
      ],
      [
        "l",
        "e"
      ],
      [
        "Ġb",
        "u"
      ],
      [
        "e",
        "re"
      ],
      [
        "Ġ",
        "*"
      ],
      [
        "'",
        "m"
      ],
      [
        "e",
        "n"
      ],
      [
        "th",
        "ing"
      ],
      [
        "e",
        "t"
      ],
      [
        "e",
        "d"
      ],
      [
        "Ġf",
        "or"
      ],
      [
        "r",
        "i"
      ],
      [
        "Ġ",
        "re"
      ],
      [
        "gh",
        "t"
      ],
      [
        "Ġ",
        "j"
      ],
      [
        "Ġso",
        "me"
      ],
      [
        "o",
        "o"
      ],
      [
        "Ġi",
        "n"
      ],
      [
        "u",
        "st"
      ],
      [
        "Ġb",
        "e"
      ],
      [
        "l",
        "y"
      ],
      [
        "Ġw",
        "at"
      ],
      [
        "'",
        "t"
      ],
      [
        "l",
        "a"
      ],
      [
        "Ġm",
        "y"
      ],
      [
        "Ġli",
        "ke"
      ],
      [
        "Ġn",
        "o"
      ],
      [
        "Ġ",
        "k"
      ],
      [
        "Ġwat",
        "er"
      ],
      [
        "Ġa",
        "re"
      ],
      [
        "Ġbu",
        "t"
      ],
      [
        "Ġj",
        "ust"
      ],
      [
        "Ġs",
        "t"
      ],
      [
        "a",
        "r"
      ],
      [
        "ou",
        "t"
      ],
      [
        "Ġyou",
        "r"
      ],
      [
        "i",
        "d"
      ],
      [
        "'",
        "re"
      ],
      [
        "l",
        "d"
      ],
      [
        "Ġe",
        "ver"
      ],
      [
        "p",
        "p"
      ],
      [
        "Ġo",
        "r"
      ],
      [
        "Ġwa",
        "s"
      ],
      [
        "i",
        "c"
      ],
      [
        "Ġa",
        "b"
      ],
      [
        "Ġf",
        "ee"
      ],
      [
        "Ġm",
        "o"
      ],
      [
        "Ġfor",
        "g"
      ],
      [
        "Ġfee",
        "l"
      ],
      [
        "a",
        "d"
      ],
      [
        "s",
        "e"
      ],
      [
        "Ġ",
        "u"
      ],
      [
        "i",
        "m"
      ],
      [
        "Ġab",
        "out"
      ],
      [
        "Ġo",
        "h"
      ],
      [
        "Ġth",
        "ing"
      ],
      [
        "a",
        "c"
      ],
      [
        "Ġw",
        "i"
      ],
      [
        "Ġn",
        "ow"
      ],
      [
        "a",
        "ll"
      ],
      [
        "?",
        "?"
      ],
      [
        "a",
        "l"
      ],
      [
        "Ġsome",
        "thing"
      ],
      [
        "Ġwa",
        "it"
      ],
      [
        "Ġg",
        "o"
      ],
      [
        "Ġa",
        "l"
      ],
      [
        "Ġth",
        "is"
      ],
      [
        "is",
        "h"
      ],
      [
        "ri",
        "ght"
      ],
      [
        "Ġthe",
        "re"
      ],
      [
        "Ġever",
        "y"
      ],
      [
        "ou",
        "gh"
      ],
      [
        "Ġo",
        "n"
      ],
      [
        "g",
        "e"
      ],
      [
        "k",
        "es"
      ],
      [
        "n",
        "t"
      ],
      [
        "Ġo",
        "f"
      ],
      [
        "Ġthe",
        "y"
      ],
      [
        "o",
        "m"
      ],
      [
        "e",
        "ll"
      ],
      [
        "Ġdo",
        "n"
      ],
      [
        "s",
        "s"
      ],
      [
        "Ġha",
        "pp"
      ],
      [
        "Ġc",
        "an"
      ],
      [
        "Ġ",
        "right"
      ],
      [
        "â",
        "Ģ"
      ],
      [
        "âĢ",
        "Ķ"
      ],
      [
        "m",
        "b"
      ],
      [
        "Ġn",
        "e"
      ],
      [
        "Ġforg",
        "et"
      ],
      [
        "in",
        "d"
      ],
      [
        "Ġh",
        "ow"
      ],
      [
        "on",
        "e"
      ],
      [
        "Ġs",
        "w"
      ],
      [
        "an",
        "ge"
      ],
      [
        "an",
        "t"
      ],
      [
        "w",
        "ay"
      ],
      [
        "Ġh",
        "ere"
      ],
      [
        "Ġs",
        "ee"
      ],
      [
        "Ġha",
        "ve"
      ],
      [
        "in",
        "k"
      ],
      [
        "Ġk",
        "n"
      ],
      [
        "l",
        "es"
      ],
      [
        "mb",
        "er"
      ],
      [
        "Ġd",
        "id"
      ],
      [
        "oo",
        "d"
      ],
      [
        "Ġre",
        "me"
      ],
      [
        "a",
        "in"
      ],
      [
        "ou",
        "nd"
      ],
      [
        "Ġreme",
        "mber"
      ],
      [
        "Ġkn",
        "ow"
      ],
      [
        "b",
        "e"
      ],
      [
        "ow",
        "l"
      ],
      [
        "i",
        "r"
      ],
      [
        "Ġb",
        "owl"
      ],
      [
        "Ġ",
        "..."
      ],
      [
        "Ġth",
        "ink"
      ],
      [
        "Ġa",
        "n"
      ],
      [
        "f",
        "u"
      ],
      [
        "es",
        "t"
      ],
      [
        "Ġf",
        "la"
      ],
      [
        "Ġg",
        "la"
      ],
      [
        "Ġno",
        "t"
      ],
      [
        "Ġw",
        "e"
      ],
      [
        "e",
        "c"
      ],
      [
        "i",
        "on"
      ],
      [
        "Ġor",
        "ange"
      ],
      [
        "Ġgla",
        "ss"
      ],
      [
        "Ġwh",
        "o"
      ],
      [
        "Ġt",
        "i"
      ],
      [
        "all",
        "y"
      ],
      [
        "Ġe",
        "x"
      ],
      [
        "ay",
        "be"
      ],
      [
        "Ġm",
        "aybe"
      ],
      [
        "c",
        "h"
      ],
      [
        "i",
        "l"
      ],
      [
        "Ġa",
        "g"
      ],
      [
        "a",
        "re"
      ],
      [
        "Ġsw",
        "im"
      ],
      [
        "Ġw",
        "or"
      ],
      [
        "Ġfla",
        "kes"
      ],
      [
        "Ġm",
        "a"
      ],
      [
        "o",
        "t"
      ],
      [
        "ic",
        "e"
      ],
      [
        "Ġ",
        "I"
      ],
      [
        "r",
        "y"
      ],
      [
        "Ġy",
        "es"
      ],
      [
        "Ġevery",
        "thing"
      ],
      [
        "Ġthe",
        "n"
      ],
      [
        "m",
        "p"
      ],
      [
        "oo",
        "k"
      ],
      [
        "Ġwh",
        "y"
      ],
      [
        "Ġk",
        "ind"
      ],
      [
        "Ġt",
        "a"
      ],
      [
        "Ġa",
        "t"
      ],
      [
        "Ġg",
        "ood"
      ],
      [
        "Ġwi",
        "th"
      ],
      [
        "Ġf",
        "in"
      ],
      [
        "Ġag",
        "ain"
      ],
      [
        "!",
        "!"
      ],
      [
        "Ġs",
        "h"
      ],
      [
        "t",
        "er"
      ],
      [
        "Ġa",
        "m"
      ],
      [
        "a",
        "me"
      ],
      [
        "Ġs",
        "u"
      ],
      [
        "ar",
        "t"
      ],
      [
        "a",
        "u"
      ],
      [
        "Ġa",
        "ll"
      ],
      [
        "r",
        "m"
      ],
      [
        "Ġt",
        "ell"
      ],
      [
        "Ġti",
        "me"
      ],
      [
        "fu",
        "l"
      ],
      [
        "Ġwa",
        "rm"
      ],
      [
        "g",
        "g"
      ],
      [
        "Ġl",
        "ook"
      ],
      [
        "Ġwh",
        "en"
      ],
      [
        "i",
        "ll"
      ],
      [
        "Ġh",
        "e"
      ],
      [
        "me",
        "nt"
      ],
      [
        "o",
        "p"
      ],
      [
        "r",
        "a"
      ],
      [
        "Ġf",
        "ish"
      ],
      [
        "ou",
        "ld"
      ],
      [
        "Ġli",
        "ght"
      ],
      [
        "Ġl",
        "o"
      ],
      [
        "o",
        "re"
      ],
      [
        "Ġhapp",
        "en"
      ],
      [
        "r",
        "ound"
      ],
      [
        "Ġthing",
        "s"
      ],
      [
        "Ġdo",
        "es"
      ],
      [
        "b",
        "b"
      ],
      [
        "Ġn",
        "ice"
      ],
      [
        "a",
        "st"
      ],
      [
        "Ġwh",
        "ere"
      ],
      [
        "way",
        "s"
      ],
      [
        "o",
        "nd"
      ],
      [
        "Ġc",
        "om"
      ],
      [
        "r",
        "ough"
      ],
      [
        "Ġne",
        "w"
      ],
      [
        "Ġs",
        "m"
      ],
      [
        "Ġc",
        "o"
      ],
      [
        "Ġan",
        "y"
      ],
      [
        "Ġal",
        "ways"
      ],
      [
        "es",
        "s"
      ],
      [
        "th",
        "er"
      ],
      [
        "k",
        "ing"
      ],
      [
        "c",
        "e"
      ],
      [
        "Ġs",
        "c"
      ],
      [
        "Ġth",
        "rough"
      ],
      [
        "e",
        "ly"
      ],
      [
        "Ġfeel",
        "s"
      ],
      [
        "e",
        "nd"
      ],
      [
        "Ġbu",
        "bb"
      ],
      [
        "k",
        "ay"
      ],
      [
        "Ġu",
        "m"
      ],
      [
        "s",
        "h"
      ],
      [
        "Ġfin",
        "s"
      ],
      [
        "Ġo",
        "kay"
      ],
      [
        "Ġu",
        "p"
      ],
      [
        "en",
        "t"
      ],
      [
        "ee",
        "p"
      ],
      [
        "l",
        "o"
      ],
      [
        "Ġ",
        "Y"
      ],
      [
        "e",
        "a"
      ],
      [
        "Ġc",
        "h"
      ],
      [
        "r",
        "o"
      ],
      [
        "v",
        "ing"
      ],
      [
        "Ġg",
        "et"
      ],
      [
        "f",
        "t"
      ],
      [
        "Ġe",
        "n"
      ],
      [
        "Ġs",
        "p"
      ],
      [
        "ri",
        "end"
      ],
      [
        "u",
        "r"
      ],
      [
        "Ġhapp",
        "y"
      ],
      [
        "Ġf",
        "riend"
      ],
      [
        "Ġto",
        "o"
      ],
      [
        "Ġf",
        "r"
      ],
      [
        "f",
        "f"
      ],
      [
        "Ġmo",
        "ment"
      ],
      [
        "Ġbe",
        "ing"
      ],
      [
        "ad",
        "y"
      ],
      [
        "Ġd",
        "i"
      ],
      [
        "t",
        "t"
      ],
      [
        "Ġc",
        "on"
      ],
      [
        "Ġw",
        "ere"
      ],
      [
        "im",
        "es"
      ],
      [
        "c",
        "t"
      ],
      [
        "s",
        "o"
      ],
      [
        "Ġ",
        "v"
      ],
      [
        "u",
        "n"
      ],
      [
        "Ġs",
        "ay"
      ],
      [
        "Ġon",
        "e"
      ],
      [
        "ir",
        "c"
      ],
      [
        "Ġi",
        "f"
      ],
      [
        "m",
        "ing"
      ],
      [
        "ac",
        "k"
      ],
      [
        "i",
        "ve"
      ],
      [
        "Ġta",
        "il"
      ],
      [
        "w",
        "h"
      ],
      [
        "Ġthe",
        "m"
      ],
      [
        "Ġforg",
        "ot"
      ],
      [
        "q",
        "u"
      ],
      [
        "l",
        "an"
      ],
      [
        "Ġwi",
        "gg"
      ],
      [
        "Ġen",
        "ough"
      ],
      [
        "Ġs",
        "l"
      ],
      [
        "Ġbe",
        "c"
      ],
      [
        "Ġsome",
        "t"
      ],
      [
        "Ġsomet",
        "imes"
      ],
      [
        "Ġ",
        "T"
      ],
      [
        "ver",
        "y"
      ],
      [
        "l",
        "f"
      ],
      [
        "Ġsm",
        "all"
      ],
      [
        "Ġlo",
        "ve"
      ],
      [
        "a",
        "m"
      ],
      [
        "re",
        "ady"
      ],
      [
        "au",
        "se"
      ],
      [
        "Ġme",
        "an"
      ],
      [
        "Ġa",
        "s"
      ],
      [
        "Ġa",
        "round"
      ],
      [
        "Ġal",
        "ready"
      ],
      [
        "Ġfr",
        "om"
      ],
      [
        "Ġh",
        "o"
      ],
      [
        "Ġmo",
        "ve"
      ],
      [
        "Ġp",
        "er"
      ],
      [
        "Ġst",
        "ill"
      ],
      [
        "t",
        "ing"
      ],
      [
        "Ġbubb",
        "les"
      ],
      [
        "Ġn",
        "ame"
      ],
      [
        "Ġma",
        "kes"
      ],
      [
        "E",
        "S"
      ],
      [
        "ou",
        "s"
      ],
      [
        "Ġbec",
        "ause"
      ],
      [
        "Ġ",
        "out"
      ],
      [
        "Ġ",
        "very"
      ],
      [
        "lo",
        "at"
      ],
      [
        "Ġswim",
        "ming"
      ],
      [
        "Ġ",
        "qu"
      ],
      [
        "Ġb",
        "i"
      ],
      [
        "Ġsome",
        "one"
      ],
      [
        "Ġw",
        "ond"
      ],
      [
        "Ġb",
        "ack"
      ],
      [
        "c",
        "it"
      ],
      [
        "Ġre",
        "ally"
      ],
      [
        "Ġwond",
        "er"
      ],
      [
        "Ġgo",
        "ld"
      ],
      [
        "d",
        "ay"
      ],
      [
        "Ġd",
        "e"
      ],
      [
        "Ġin",
        "t"
      ],
      [
        "Ġf",
        "loat"
      ],
      [
        "id",
        "e"
      ],
      [
        "se",
        "lf"
      ],
      [
        "on",
        "g"
      ],
      [
        "ec",
        "t"
      ],
      [
        "Ġne",
        "ver"
      ],
      [
        "Ġ",
        "W"
      ],
      [
        "Ġb",
        "est"
      ],
      [
        "Ġf",
        "a"
      ],
      [
        "Ġs",
        "ound"
      ],
      [
        "Ġk",
        "eep"
      ],
      [
        "Ġd",
        "is"
      ],
      [
        "Ġg",
        "one"
      ],
      [
        "Ġt",
        "al"
      ],
      [
        "ke",
        "d"
      ],
      [
        "a",
        "b"
      ],
      [
        "Ġb",
        "o"
      ],
      [
        "n",
        "ess"
      ],
      [
        "Ġdo",
        "ing"
      ],
      [
        "Ġe",
        "ve"
      ],
      [
        "Ġw",
        "ant"
      ],
      [
        "Ġeve",
        "n"
      ],
      [
        "it",
        "e"
      ],
      [
        "or",
        "t"
      ],
      [
        "a",
        "s"
      ],
      [
        "'",
        "ll"
      ],
      [
        "Ġwho",
        "le"
      ],
      [
        "Ġdi",
        "ff"
      ],
      [
        "ac",
        "e"
      ],
      [
        "Ġwa",
        "y"
      ],
      [
        "f",
        "ish"
      ],
      [
        "Ġdiff",
        "ere"
      ],
      [
        "Ġth",
        "ough"
      ],
      [
        "Ġha",
        "r"
      ],
      [
        "Ġb",
        "y"
      ],
      [
        "irc",
        "les"
      ],
      [
        "Ġhar",
        "d"
      ],
      [
        "Ġd",
        "ay"
      ],
      [
        "d",
        "y"
      ],
      [
        "Ġex",
        "cit"
      ],
      [
        "Ġb",
        "lan"
      ],
      [
        "Ġgold",
        "fish"
      ],
      [
        "Ġw",
        "ould"
      ],
      [
        "Ġs",
        "a"
      ],
      [
        "Ġwi",
        "ll"
      ],
      [
        "Ġs",
        "ec"
      ],
      [
        "Ġhappen",
        "ed"
      ],
      [
        "re",
        "at"
      ],
      [
        "i",
        "st"
      ],
      [
        "Ġdiffere",
        "nt"
      ],
      [
        "Ġcom",
        "p"
      ],
      [
        "Ġe",
        "at"
      ],
      [
        "ou",
        "ght"
      ],
      [
        "Ġa",
        "way"
      ],
      [
        "Ġp",
        "ro"
      ],
      [
        "u",
        "ally"
      ],
      [
        "Ġre",
        "al"
      ],
      [
        "Ġj",
        "o"
      ],
      [
        "r",
        "at"
      ],
      [
        "u",
        "t"
      ],
      [
        "Ġgo",
        "ing"
      ],
      [
        "Ġi",
        "mp"
      ],
      [
        "Ġwigg",
        "le"
      ],
      [
        "Ġp",
        "art"
      ],
      [
        "at",
        "ter"
      ],
      [
        "Ġma",
        "ke"
      ],
      [
        "Ġsee",
        "m"
      ],
      [
        "Ġt",
        "ry"
      ],
      [
        "Ġbi",
        "g"
      ],
      [
        "k",
        "s"
      ],
      [
        "or",
        "ry"
      ],
      [
        "Ġp",
        "re"
      ],
      [
        "ell",
        "o"
      ],
      [
        "Ġst",
        "ay"
      ],
      [
        "s",
        "ed"
      ],
      [
        "f",
        "e"
      ],
      [
        "or",
        "y"
      ],
      [
        "'",
        "ve"
      ],
      [
        "a",
        "p"
      ],
      [
        "O",
        "U"
      ],
      [
        "Ġh",
        "ello"
      ],
      [
        "v",
        "or"
      ],
      [
        "Ġs",
        "ad"
      ],
      [
        "u",
        "mp"
      ],
      [
        "Ġp",
        "e"
      ],
      [
        "Ġli",
        "tt"
      ],
      [
        "Ġlitt",
        "le"
      ],
      [
        "u",
        "re"
      ],
      [
        "Ġmo",
        "ving"
      ],
      [
        "Ġ",
        "r"
      ],
      [
        "Ġmo",
        "re"
      ],
      [
        "n",
        "ing"
      ],
      [
        "Ġa",
        "ct"
      ],
      [
        "Ġst",
        "art"
      ],
      [
        "f",
        "in"
      ],
      [
        "Ġt",
        "r"
      ],
      [
        "Ġm",
        "u"
      ],
      [
        "f",
        "ore"
      ],
      [
        "ee",
        "d"
      ],
      [
        "Ġs",
        "ame"
      ],
      [
        "Ġfa",
        "vor"
      ],
      [
        "t",
        "i"
      ],
      [
        "Ġbe",
        "fore"
      ],
      [
        "so",
        "l"
      ],
      [
        "Ġfavor",
        "ite"
      ],
      [
        "ac",
        "h"
      ],
      [
        "ac",
        "t"
      ],
      [
        "Ġs",
        "orry"
      ],
      [
        "Ġpro",
        "b"
      ],
      [
        "Ġf",
        "ood"
      ],
      [
        "in",
        "y"
      ],
      [
        "o",
        "se"
      ],
      [
        "Ġm",
        "atter"
      ],
      [
        "Ġmo",
        "st"
      ],
      [
        "Ġwonder",
        "ful"
      ],
      [
        "Ġgo",
        "t"
      ],
      [
        "Ġf",
        "un"
      ],
      [
        "l",
        "p"
      ],
      [
        "Ġth",
        "an"
      ],
      [
        "Ġm",
        "ad"
      ],
      [
        "Ġth",
        "ought"
      ],
      [
        "Ġexcit",
        "ed"
      ],
      [
        "Ġl",
        "e"
      ],
      [
        "al",
        "es"
      ],
      [
        "Ġwor",
        "ld"
      ],
      [
        "wh",
        "ere"
      ],
      [
        "Ġh",
        "u"
      ],
      [
        "ab",
        "ly"
      ],
      [
        "Ġ",
        "A"
      ],
      [
        "Ġp",
        "l"
      ],
      [
        "Ġsc",
        "ales"
      ],
      [
        "Ġho",
        "ld"
      ],
      [
        "Ġh",
        "i"
      ],
      [
        "Ġtal",
        "king"
      ],
      [
        "Ġimp",
        "ort"
      ],
      [
        "l",
        "i"
      ],
      [
        "i",
        "b"
      ],
      [
        "Ġimport",
        "ant"
      ],
      [
        "re",
        "d"
      ],
      [
        "Ġso",
        "ft"
      ],
      [
        "Ġb",
        "r"
      ],
      [
        "Ġhe",
        "lp"
      ],
      [
        "Ġn",
        "eed"
      ],
      [
        "Ġprob",
        "ably"
      ],
      [
        "v",
        "es"
      ],
      [
        "Ġco",
        "me"
      ],
      [
        "le",
        "t"
      ],
      [
        "Ġli",
        "ve"
      ],
      [
        "f",
        "ect"
      ],
      [
        "Ġper",
        "fect"
      ],
      [
        "Ġsound",
        "s"
      ],
      [
        "Ġ",
        "round"
      ],
      [
        "Ġyour",
        "self"
      ],
      [
        "Ġ",
        "S"
      ],
      [
        "Ġto",
        "day"
      ],
      [
        "an",
        "g"
      ],
      [
        "a",
        "nd"
      ],
      [
        "I",
        "N"
      ],
      [
        "Ġde",
        "fin"
      ],
      [
        "es",
        "c"
      ],
      [
        "Ġfeel",
        "ing"
      ],
      [
        "Ġmu",
        "ch"
      ],
      [
        "Ġst",
        "u"
      ],
      [
        "Ġforget",
        "ting"
      ],
      [
        "Ġ",
        "F"
      ],
      [
        "ĠY",
        "ES"
      ],
      [
        "ĠY",
        "OU"
      ],
      [
        "ow",
        "n"
      ],
      [
        "Ġmad",
        "e"
      ],
      [
        "l",
        "or"
      ],
      [
        "nd",
        "er"
      ],
      [
        "Ġany",
        "thing"
      ],
      [
        "Ġl",
        "ea"
      ],
      [
        "Ġact",
        "ually"
      ],
      [
        "Ġb",
        "et"
      ],
      [
        "Ġha",
        "d"
      ],
      [
        "Ġno",
        "thing"
      ],
      [
        "re",
        "am"
      ],
      [
        "Ġp",
        "o"
      ],
      [
        "l",
        "ing"
      ],
      [
        "Ġcomp",
        "let"
      ],
      [
        "at",
        "ion"
      ],
      [
        "pp",
        "ed"
      ],
      [
        "Ġcon",
        "fu"
      ],
      [
        "Ġf",
        "ir"
      ],
      [
        "Ġf",
        "ast"
      ],
      [
        "are",
        "d"
      ],
      [
        "R",
        "E"
      ],
      [
        "it",
        "ely"
      ],
      [
        "ra",
        "ve"
      ],
      [
        "s",
        "p"
      ],
      [
        "ee",
        "n"
      ],
      [
        "Ġu",
        "nder"
      ],
      [
        "i",
        "ght"
      ],
      [
        "Ġfir",
        "st"
      ],
      [
        "Ġsec",
        "ond"
      ],
      [
        "Ġf",
        "re"
      ],
      [
        "Ġsu",
        "re"
      ],
      [
        "Ġdefin",
        "itely"
      ],
      [
        "Ġex",
        "p"
      ],
      [
        "c",
        "k"
      ],
      [
        "ve",
        "d"
      ],
      [
        "Ġbe",
        "au"
      ],
      [
        "m",
        "m"
      ],
      [
        "Ġint",
        "o"
      ],
      [
        "Ġo",
        "ther"
      ],
      [
        "Ġc",
        "ould"
      ],
      [
        "Ġsay",
        "ing"
      ],
      [
        "Ġbeau",
        "ti"
      ],
      [
        "Ġst",
        "are"
      ],
      [
        "Ġ",
        "M"
      ],
      [
        "re",
        "t"
      ],
      [
        "ĠT",
        "H"
      ],
      [
        "ic",
        "h"
      ],
      [
        "Ġwor",
        "d"
      ],
      [
        "Ġmean",
        "s"
      ],
      [
        "Ġl",
        "ong"
      ],
      [
        "Ġlook",
        "ing"
      ],
      [
        "Ġo",
        "ver"
      ],
      [
        "Ġbeauti",
        "ful"
      ],
      [
        "b",
        "ump"
      ],
      [
        "Ġco",
        "lor"
      ],
      [
        "Ġd",
        "ream"
      ],
      [
        "Ġsu",
        "r"
      ],
      [
        "Ġcomplet",
        "ely"
      ],
      [
        "Ġthink",
        "ing"
      ],
      [
        "Ġb",
        "right"
      ],
      [
        "Ġd",
        "own"
      ],
      [
        "ar",
        "k"
      ],
      [
        "ac",
        "ant"
      ],
      [
        "s",
        "ide"
      ],
      [
        "Ġpre",
        "tt"
      ],
      [
        "op",
        "e"
      ],
      [
        "Ġth",
        "ose"
      ],
      [
        "Ġany",
        "way"
      ],
      [
        "Ġal",
        "so"
      ],
      [
        "Ġi",
        "d"
      ],
      [
        "Ġblan",
        "ked"
      ],
      [
        "?",
        "!"
      ],
      [
        "s",
        "w"
      ],
      [
        "are",
        "s"
      ],
      [
        "Ġg",
        "ent"
      ],
      [
        "Ġwh",
        "ich"
      ],
      [
        "Ġbo",
        "dy"
      ],
      [
        "Ġkind",
        "ness"
      ],
      [
        "Ġw",
        "ell"
      ],
      [
        "Ġprett",
        "y"
      ],
      [
        "bump",
        "s"
      ],
      [
        "is",
        "e"
      ],
      [
        "Ġc",
        "ircles"
      ],
      [
        "Ġ",
        "âĢĶ"
      ],
      [
        "Ġdoes",
        "n"
      ],
      [
        "Ġbubb",
        "le"
      ],
      [
        "ar",
        "d"
      ],
      [
        "Ġpl",
        "ant"
      ],
      [
        "in",
        "t"
      ],
      [
        "Ġ",
        "O"
      ],
      [
        "ill",
        "s"
      ],
      [
        "Ġc",
        "le"
      ],
      [
        "est",
        "ion"
      ],
      [
        "in",
        "e"
      ],
      [
        "l",
        "se"
      ],
      [
        "Ġqu",
        "estion"
      ],
      [
        "ec",
        "i"
      ],
      [
        "an",
        "y"
      ],
      [
        "A",
        "T"
      ],
      [
        "Ġt",
        "iny"
      ],
      [
        "Ġl",
        "et"
      ],
      [
        "Ġex",
        "ist"
      ],
      [
        "oo",
        "l"
      ],
      [
        "esc",
        "ri"
      ],
      [
        "Ġe",
        "lse"
      ],
      [
        "Ġsh",
        "ould"
      ],
      [
        "y",
        "es"
      ],
      [
        "Ġf",
        "e"
      ],
      [
        "at",
        "ch"
      ],
      [
        "Ġd",
        "escri"
      ],
      [
        "ct",
        "ion"
      ],
      [
        "Ġa",
        "w"
      ],
      [
        "n",
        "y"
      ],
      [
        "Ġo",
        "w"
      ],
      [
        "Ġdis",
        "sol"
      ],
      [
        "Ġ",
        "B"
      ],
      [
        "a",
        "z"
      ],
      [
        "Ġm",
        "is"
      ],
      [
        "Ġwat",
        "ch"
      ],
      [
        "Ġf",
        "ore"
      ],
      [
        "i",
        "le"
      ],
      [
        "Ġg",
        "ills"
      ],
      [
        "Ġme",
        "m"
      ],
      [
        "Ġst",
        "op"
      ],
      [
        "Ġid",
        "ea"
      ],
      [
        "Ġunder",
        "st"
      ],
      [
        "ish",
        "ed"
      ],
      [
        "p",
        "r"
      ],
      [
        "IN",
        "G"
      ],
      [
        "rave",
        "l"
      ],
      [
        "Ġfore",
        "ver"
      ],
      [
        "in",
        "s"
      ],
      [
        "st",
        "e"
      ],
      [
        "i",
        "z"
      ],
      [
        "Ġ",
        "H"
      ],
      [
        "Ġfriend",
        "s"
      ],
      [
        "v",
        "acant"
      ],
      [
        "Ġb",
        "ad"
      ],
      [
        "n",
        "er"
      ],
      [
        "Ġf",
        "ad"
      ],
      [
        "Ġli",
        "fe"
      ],
      [
        "Ġp",
        "la"
      ],
      [
        "Ġsp",
        "eci"
      ],
      [
        "Ġunderst",
        "and"
      ],
      [
        "o",
        "h"
      ],
      [
        "Ġsur",
        "pr"
      ],
      [
        "Ġfre",
        "sh"
      ],
      [
        "Ġb",
        "een"
      ],
      [
        "Ġsl",
        "ow"
      ],
      [
        "Ġam",
        "az"
      ],
      [
        "Ġlo",
        "st"
      ],
      [
        "Ġsc",
        "ared"
      ],
      [
        "s",
        "on"
      ],
      [
        "Ġbu",
        "mp"
      ],
      [
        "Ġcom",
        "es"
      ],
      [
        "Ġdissol",
        "ved"
      ],
      [
        "Ġl",
        "one"
      ],
      [
        "Ġhu",
        "m"
      ],
      [
        "ic",
        "k"
      ],
      [
        "Ġ",
        "D"
      ],
      [
        "Ġv",
        "an"
      ],
      [
        "Ġc",
        "ool"
      ],
      [
        "p",
        "t"
      ],
      [
        "Ġli",
        "st"
      ],
      [
        "Ġm",
        "any"
      ],
      [
        "Ġh",
        "ope"
      ],
      [
        "Ġg",
        "ravel"
      ],
      [
        "Ġwa",
        "ll"
      ],
      [
        "Ġf",
        "o"
      ],
      [
        "Ġre",
        "st"
      ],
      [
        "Ġc",
        "are"
      ],
      [
        "Ġdescri",
        "be"
      ],
      [
        "Ġfun",
        "ny"
      ],
      [
        "Ġmis",
        "s"
      ],
      [
        "Ġw",
        "et"
      ],
      [
        "Ġh",
        "ur"
      ],
      [
        "Ġh",
        "mm"
      ],
      [
        "Ġconfu",
        "sed"
      ],
      [
        "Ġch",
        "ange"
      ],
      [
        "Ġbet",
        "ter"
      ],
      [
        "oo",
        "m"
      ],
      [
        "Ġbr",
        "ain"
      ],
      [
        "Ġst",
        "r"
      ],
      [
        "Ġper",
        "son"
      ],
      [
        "o",
        "ther"
      ],
      [
        "Ġhappen",
        "ing"
      ],
      [
        "Ġmem",
        "ory"
      ],
      [
        "Ġlone",
        "ly"
      ],
      [
        "c",
        "ircles"
      ],
      [
        "i",
        "gg"
      ],
      [
        "r",
        "ow"
      ],
      [
        "Ġfloat",
        "ing"
      ],
      [
        "Ġamaz",
        "ing"
      ],
      [
        "Ġme",
        "et"
      ],
      [
        "Ġan",
        "other"
      ],
      [
        "Ġco",
        "ld"
      ],
      [
        "Ġu",
        "n"
      ],
      [
        "ir",
        "d"
      ],
      [
        "Ġhappen",
        "s"
      ],
      [
        "Ġf",
        "l"
      ],
      [
        "Ġe",
        "yes"
      ],
      [
        "wh",
        "at"
      ],
      [
        "Ġtry",
        "ing"
      ],
      [
        "Ġ",
        "N"
      ],
      [
        "Ġjo",
        "ke"
      ],
      [
        "Ġp",
        "r"
      ],
      [
        "Ġlist",
        "en"
      ],
      [
        "at",
        "ed"
      ],
      [
        "Ġsome",
        "where"
      ],
      [
        "Ġcom",
        "ing"
      ],
      [
        "i",
        "ous"
      ],
      [
        "Ġf",
        "u"
      ],
      [
        "w",
        "a"
      ],
      [
        "Ġti",
        "red"
      ],
      [
        "Ġvan",
        "ished"
      ],
      [
        "x",
        "t"
      ],
      [
        "ea",
        "h"
      ],
      [
        "sp",
        "ins"
      ],
      [
        "Ġhur",
        "t"
      ],
      [
        "c",
        "o"
      ],
      [
        "Ġon",
        "ly"
      ],
      [
        "Ġd",
        "ark"
      ],
      [
        "y",
        "e"
      ],
      [
        "Ġforg",
        "ive"
      ],
      [
        "Ġf",
        "ace"
      ],
      [
        "Ġha",
        "s"
      ],
      [
        "Ġho",
        "me"
      ],
      [
        "reat",
        "h"
      ],
      [
        "w",
        "igg"
      ],
      [
        "st",
        "ares"
      ],
      [
        "th",
        "e"
      ],
      [
        "est",
        "er"
      ],
      [
        "ester",
        "day"
      ],
      [
        "Ġy",
        "esterday"
      ],
      [
        "Ġb",
        "reath"
      ],
      [
        "Ġe",
        "ach"
      ],
      [
        "Ġstu",
        "ff"
      ],
      [
        "Ġt",
        "ur"
      ],
      [
        "Ġow",
        "n"
      ],
      [
        "Ġsl",
        "eep"
      ],
      [
        "Ġch",
        "ang"
      ],
      [
        "d",
        "d"
      ],
      [
        "u",
        "e"
      ],
      [
        "ri",
        "ous"
      ],
      [
        "Ġp",
        "ast"
      ],
      [
        "Ġfad",
        "ed"
      ],
      [
        "Ġy",
        "eah"
      ],
      [
        "l",
        "t"
      ],
      [
        "Ġwe",
        "ird"
      ],
      [
        "ore",
        "d"
      ],
      [
        "ib",
        "le"
      ],
      [
        "Ġre",
        "f"
      ],
      [
        "Ġsa",
        "id"
      ],
      [
        "Ġg",
        "i"
      ],
      [
        "Ġsl",
        "i"
      ],
      [
        "a",
        "pp"
      ],
      [
        "Ġg",
        "re"
      ],
      [
        "Ġgent",
        "le"
      ],
      [
        "Ġw",
        "on"
      ],
      [
        "Ġc",
        "ast"
      ],
      [
        "Ġis",
        "n"
      ],
      [
        "Ġlook",
        "s"
      ],
      [
        "wa",
        "it"
      ],
      [
        "Ġcast",
        "le"
      ],
      [
        "Ġpe",
        "ace"
      ],
      [
        "Ġwait",
        "ing"
      ],
      [
        "op",
        "le"
      ],
      [
        "sw",
        "im"
      ],
      [
        "Ġpe",
        "ople"
      ],
      [
        "p",
        "e"
      ],
      [
        "Ġmatter",
        "s"
      ],
      [
        "Ġg",
        "reat"
      ],
      [
        "Ġc",
        "or"
      ],
      [
        "h",
        "at"
      ],
      [
        "c",
        "u"
      ],
      [
        "Ġhe",
        "ad"
      ],
      [
        "'",
        "d"
      ],
      [
        "Ġsu",
        "n"
      ],
      [
        "Ġex",
        "act"
      ],
      [
        "Ġwarm",
        "th"
      ],
      [
        "ad",
        "ow"
      ],
      [
        "Ġref",
        "le"
      ],
      [
        "Ġc",
        "irc"
      ],
      [
        "op",
        "s"
      ],
      [
        "Ġmost",
        "ly"
      ],
      [
        "ge",
        "ther"
      ],
      [
        "Ġa",
        "pp"
      ],
      [
        "Ġc",
        "u"
      ],
      [
        "an",
        "ce"
      ],
      [
        "Ġto",
        "gether"
      ],
      [
        "li",
        "e"
      ],
      [
        "i",
        "ther"
      ],
      [
        "b",
        "ye"
      ],
      [
        "Ġc",
        "ou"
      ],
      [
        "Ġha",
        "nd"
      ],
      [
        "Ġbo",
        "th"
      ],
      [
        "g",
        "et"
      ],
      [
        "Ġwor",
        "k"
      ],
      [
        "Ġblan",
        "k"
      ],
      [
        "Ġpo",
        "int"
      ],
      [
        "ou",
        "d"
      ],
      [
        "Ġdid",
        "n"
      ],
      [
        "Ġout",
        "side"
      ],
      [
        "z",
        "oom"
      ],
      [
        "Ġfu",
        "ll"
      ],
      [
        "wigg",
        "les"
      ],
      [
        "ere",
        "st"
      ],
      [
        "a",
        "se"
      ],
      [
        "Ġsa",
        "fe"
      ],
      [
        "Ġspeci",
        "al"
      ],
      [
        "Ġint",
        "erest"
      ],
      [
        "Ġsli",
        "pped"
      ],
      [
        "Ġo",
        "ld"
      ],
      [
        "at",
        "e"
      ],
      [
        "Ġmy",
        "self"
      ],
      [
        "it",
        "y"
      ],
      [
        "e",
        "ar"
      ],
      [
        "Ġle",
        "ft"
      ],
      [
        "Ġcor",
        "ner"
      ],
      [
        "Ġc",
        "all"
      ],
      [
        "Ġst",
        "ory"
      ],
      [
        "Ġi",
        "m"
      ],
      [
        "Ġbe",
        "lie"
      ],
      [
        "les",
        "s"
      ],
      [
        "Ġ",
        "-"
      ],
      [
        "as",
        "on"
      ],
      [
        "Ġl",
        "ot"
      ],
      [
        "Ġgood",
        "bye"
      ],
      [
        "Ġre",
        "ason"
      ],
      [
        "ar",
        "y"
      ],
      [
        "me",
        "d"
      ],
      [
        "E",
        "R"
      ],
      [
        "re",
        "ss"
      ],
      [
        "Ġgo",
        "es"
      ],
      [
        "Ġne",
        "xt"
      ],
      [
        "Ġm",
        "id"
      ],
      [
        "ra",
        "sh"
      ],
      [
        "Ġkeep",
        "s"
      ],
      [
        "Ġnot",
        "ice"
      ],
      [
        "ĠW",
        "H"
      ],
      [
        "Ġtr",
        "ust"
      ],
      [
        "Ġsecond",
        "s"
      ],
      [
        "Ġb",
        "ored"
      ],
      [
        "Ġsh",
        "adow"
      ],
      [
        "Ġal",
        "ive"
      ],
      [
        "Ġm",
        "ight"
      ],
      [
        "ou",
        "th"
      ],
      [
        "Ġsec",
        "ret"
      ],
      [
        "Ġpla",
        "ce"
      ],
      [
        "i",
        "et"
      ],
      [
        "Ġt",
        "w"
      ],
      [
        "ra",
        "nd"
      ],
      [
        "Ġlea",
        "ve"
      ],
      [
        "Ġma",
        "king"
      ],
      [
        "Ġas",
        "k"
      ],
      [
        "Ġrefle",
        "ction"
      ],
      [
        "t",
        "y"
      ],
      [
        "Ġexact",
        "ly"
      ],
      [
        "g",
        "ry"
      ],
      [
        "Ġplant",
        "s"
      ],
      [
        "u",
        "sh"
      ],
      [
        "Ġm",
        "or"
      ],
      [
        "Ġm",
        "ust"
      ],
      [
        "Ġc",
        "al"
      ],
      [
        "Ġt",
        "e"
      ],
      [
        "a",
        "il"
      ],
      [
        "swim",
        "s"
      ],
      [
        "e",
        "ver"
      ],
      [
        "Ġe",
        "ither"
      ],
      [
        "Ġcle",
        "ar"
      ],
      [
        "it",
        "s"
      ],
      [
        "Ġw",
        "r"
      ],
      [
        "Ġqu",
        "iet"
      ],
      [
        "o",
        "ve"
      ],
      [
        "Ġl",
        "ast"
      ],
      [
        "Ġs",
        "ide"
      ],
      [
        "Ġto",
        "m"
      ],
      [
        "Ġsw",
        "am"
      ],
      [
        "Ġthan",
        "k"
      ],
      [
        "m",
        "ind"
      ],
      [
        "Ġa",
        "c"
      ],
      [
        "Ġm",
        "outh"
      ],
      [
        "Ġf",
        "ind"
      ],
      [
        "Ġre",
        "g"
      ],
      [
        "Ġtur",
        "n"
      ],
      [
        "Ġgre",
        "en"
      ],
      [
        "Ġcu",
        "rious"
      ],
      [
        "A",
        "K"
      ],
      [
        "Ġc",
        "lo"
      ],
      [
        "Ġb",
        "l"
      ],
      [
        "ĠO",
        "H"
      ],
      [
        "Ġsw",
        "ish"
      ],
      [
        "Ġg",
        "u"
      ],
      [
        "Ġm",
        "ind"
      ],
      [
        "en",
        "ce"
      ],
      [
        "Ġ",
        "C"
      ],
      [
        "Ġa",
        "f"
      ],
      [
        "get",
        "s"
      ],
      [
        "Ġab",
        "ove"
      ],
      [
        "ĠN",
        "O"
      ],
      [
        "dd",
        "en"
      ],
      [
        "Ġcal",
        "m"
      ],
      [
        "or",
        "row"
      ],
      [
        "ot",
        "t"
      ],
      [
        "atch",
        "es"
      ],
      [
        "Ġo",
        "oh"
      ],
      [
        "Ġsurpr",
        "is"
      ],
      [
        "Ġinterest",
        "ing"
      ],
      [
        "Ġmor",
        "ning"
      ],
      [
        "Ġu",
        "s"
      ],
      [
        "Ġtom",
        "orrow"
      ],
      [
        "st",
        "ops"
      ],
      [
        "Ġfla",
        "ke"
      ],
      [
        "le",
        "d"
      ],
      [
        "re",
        "a"
      ],
      [
        "Ġsh",
        "ap"
      ],
      [
        "n",
        "a"
      ],
      [
        "Ġlea",
        "ving"
      ],
      [
        "an",
        "c"
      ],
      [
        "Ġta",
        "ste"
      ],
      [
        "Ġas",
        "king"
      ],
      [
        "ĠF",
        "L"
      ],
      [
        "ou",
        "ch"
      ],
      [
        "Ġbelie",
        "ve"
      ],
      [
        "Ġb",
        "rand"
      ],
      [
        "Ġbi",
        "gg"
      ],
      [
        "Ġo",
        "p"
      ],
      [
        "Ġal",
        "one"
      ],
      [
        "Ġb",
        "ott"
      ],
      [
        "Ġv",
        "is"
      ],
      [
        "Ġbott",
        "om"
      ],
      [
        "en",
        "s"
      ],
      [
        "Ġexcited",
        "ly"
      ],
      [
        "Ġthe",
        "se"
      ],
      [
        "Ġe",
        "as"
      ],
      [
        "ĠW",
        "hat"
      ],
      [
        "Ġfe",
        "lt"
      ],
      [
        "Ġdis",
        "app"
      ],
      [
        "ou",
        "r"
      ],
      [
        "Ġsc",
        "ary"
      ],
      [
        "Ġjo",
        "y"
      ],
      [
        "-",
        "-"
      ],
      [
        "Ġ",
        "ro"
      ],
      [
        "Ġof",
        "f"
      ],
      [
        "Ġhe",
        "ar"
      ],
      [
        "Ġmove",
        "d"
      ],
      [
        "ce",
        "pt"
      ],
      [
        "rat",
        "e"
      ],
      [
        "ut",
        "ter"
      ],
      [
        "O",
        "O"
      ],
      [
        "z",
        "y"
      ],
      [
        "Ġget",
        "ting"
      ],
      [
        "AK",
        "ES"
      ],
      [
        "p",
        "er"
      ],
      [
        "Ġby",
        "e"
      ],
      [
        "l",
        "ook"
      ],
      [
        "Ġf",
        "all"
      ],
      [
        "at",
        "er"
      ],
      [
        "Ġhe",
        "art"
      ],
      [
        "s",
        "ing"
      ],
      [
        "w",
        "ard"
      ],
      [
        "Ġwith",
        "out"
      ],
      [
        "Ġc",
        "ur"
      ],
      [
        "Ġsp",
        "in"
      ],
      [
        "sol",
        "ut"
      ],
      [
        "ri",
        "ed"
      ],
      [
        "Ġwr",
        "ong"
      ],
      [
        "ĠFL",
        "AKES"
      ],
      [
        "ll",
        "ow"
      ],
      [
        "Ġreg",
        "ret"
      ],
      [
        "Ġare",
        "n"
      ],
      [
        "Ġwatch",
        "ing"
      ],
      [
        "Ġmo",
        "ves"
      ],
      [
        "R",
        "I"
      ],
      [
        "Ġt",
        "ouch"
      ],
      [
        "re",
        "e"
      ],
      [
        "st",
        "ant"
      ],
      [
        "Ġg",
        "l"
      ],
      [
        "ab",
        "le"
      ],
      [
        "Ġstu",
        "ck"
      ],
      [
        "Ġcou",
        "nt"
      ],
      [
        "id",
        "es"
      ],
      [
        "Ġsh",
        "ow"
      ],
      [
        "look",
        "s"
      ],
      [
        "Ġp",
        "le"
      ],
      [
        "Ġfin",
        "e"
      ],
      [
        "Ġtal",
        "k"
      ],
      [
        "Ġ",
        "G"
      ],
      [
        "Ġsm",
        "oo"
      ],
      [
        "b",
        "lan"
      ],
      [
        "Ġre",
        "ady"
      ],
      [
        "ic",
        "ally"
      ],
      [
        "i",
        "ly"
      ],
      [
        "n",
        "g"
      ],
      [
        "t",
        "en"
      ],
      [
        "Ġv",
        "ib"
      ],
      [
        "i",
        "es"
      ],
      [
        "Ġlisten",
        "ing"
      ],
      [
        "Ġwor",
        "ry"
      ],
      [
        "Ġsmoo",
        "th"
      ],
      [
        "at",
        "ely"
      ],
      [
        "Ġle",
        "ar"
      ],
      [
        "Ġab",
        "solut"
      ],
      [
        "Ġgi",
        "ft"
      ],
      [
        "en",
        "se"
      ],
      [
        "e",
        "x"
      ],
      [
        "n",
        "o"
      ],
      [
        "Ġin",
        "v"
      ],
      [
        "Ġwigg",
        "ling"
      ],
      [
        "L",
        "E"
      ],
      [
        "Ġc",
        "ame"
      ],
      [
        "on",
        "est"
      ],
      [
        "Ġw",
        "ent"
      ],
      [
        "Ġsh",
        "iny"
      ],
      [
        "a",
        "ss"
      ],
      [
        "Ġget",
        "s"
      ],
      [
        "Ġthe",
        "ir"
      ],
      [
        "Ġsu",
        "dden"
      ],
      [
        "Ġseem",
        "s"
      ],
      [
        "Ġon",
        "ce"
      ],
      [
        "w",
        "atches"
      ],
      [
        "la",
        "in"
      ],
      [
        "Ġsee",
        "n"
      ],
      [
        "ou",
        "n"
      ],
      [
        "Ġc",
        "at"
      ],
      [
        "Ġ",
        "E"
      ],
      [
        "Ġg",
        "ive"
      ],
      [
        "Ġevery",
        "where"
      ],
      [
        "Ġabsolut",
        "ely"
      ],
      [
        "Ġs",
        "e"
      ],
      [
        "Ġgla",
        "d"
      ],
      [
        "Ġcon",
        "t"
      ],
      [
        "h",
        "ow"
      ],
      [
        "ri",
        "ft"
      ],
      [
        "Ġh",
        "onest"
      ],
      [
        "Ġl",
        "au"
      ],
      [
        "Ġno",
        "pe"
      ],
      [
        "a",
        "ke"
      ],
      [
        "Ġeat",
        "ing"
      ],
      [
        "Ġh",
        "un"
      ],
      [
        "Ġfo",
        "llow"
      ],
      [
        "oo",
        "p"
      ],
      [
        "i",
        "g"
      ],
      [
        "Ġf",
        "il"
      ],
      [
        "med",
        "i"
      ],
      [
        "a",
        "g"
      ],
      [
        "Ġwor",
        "th"
      ],
      [
        "in",
        "ess"
      ],
      [
        "ĠY",
        "ou"
      ],
      [
        "zoom",
        "s"
      ],
      [
        "ĠTH",
        "E"
      ],
      [
        "Ġfl",
        "utter"
      ],
      [
        "Ġt",
        "imes"
      ],
      [
        "Ġfil",
        "ter"
      ],
      [
        "Ġnot",
        "ion"
      ],
      [
        "ĠS",
        "O"
      ],
      [
        "c",
        "ks"
      ],
      [
        "Ġp",
        "ass"
      ],
      [
        "Ġin",
        "side"
      ],
      [
        "Ġvib",
        "rat"
      ],
      [
        "Ġso",
        "on"
      ],
      [
        "Ġlau",
        "gh"
      ],
      [
        "v",
        "ous"
      ],
      [
        "Ġevery",
        "one"
      ],
      [
        "Ġat",
        "t"
      ],
      [
        "Ġwall",
        "s"
      ],
      [
        "E",
        "D"
      ],
      [
        "Ġ",
        "L"
      ],
      [
        "Ġc",
        "atch"
      ],
      [
        "ll",
        "y"
      ],
      [
        "Ġw",
        "ish"
      ],
      [
        "Ġb",
        "rea"
      ],
      [
        "Ġe",
        "nd"
      ],
      [
        "medi",
        "ately"
      ],
      [
        "Ġme",
        "t"
      ],
      [
        "Ġto",
        "t"
      ],
      [
        "g",
        "ic"
      ],
      [
        "Ġvis",
        "it"
      ],
      [
        "Ġag",
        "o"
      ],
      [
        "Ġnot",
        "ic"
      ],
      [
        "Ġslow",
        "ly"
      ],
      [
        "Ġsome",
        "how"
      ],
      [
        "Ġmeet",
        "ing"
      ],
      [
        "Ġe",
        "v"
      ],
      [
        "ĠT",
        "h"
      ],
      [
        "Ġop",
        "en"
      ],
      [
        "Ġple",
        "ase"
      ],
      [
        "o",
        "s"
      ],
      [
        "Ġsm",
        "ile"
      ],
      [
        "ap",
        "or"
      ],
      [
        "Ġa",
        "d"
      ],
      [
        "rate",
        "ful"
      ],
      [
        "Ġhun",
        "gry"
      ],
      [
        "G",
        "H"
      ],
      [
        "Ġexp",
        "lain"
      ],
      [
        "ĠM",
        "E"
      ],
      [
        "Ġpeace",
        "ful"
      ],
      [
        "Ġgu",
        "ess"
      ],
      [
        "Ġbreath",
        "e"
      ],
      [
        "un",
        "ch"
      ],
      [
        "Ġdis",
        "co"
      ],
      [
        "ĠWH",
        "AT"
      ],
      [
        "c",
        "on"
      ],
      [
        "Ġp",
        "ush"
      ],
      [
        "er",
        "t"
      ],
      [
        "Ġg",
        "rateful"
      ],
      [
        "ere",
        "d"
      ],
      [
        "Ġmove",
        "ment"
      ],
      [
        "Ġhelp",
        "s"
      ],
      [
        "stant",
        "ly"
      ],
      [
        "Ġe",
        "mp"
      ],
      [
        "Ġsurpr",
        "ise"
      ],
      [
        "Ġev",
        "apor"
      ],
      [
        "b",
        "o"
      ],
      [
        "o",
        "es"
      ],
      [
        "p",
        "le"
      ],
      [
        "ĠW",
        "A"
      ],
      [
        "Ġword",
        "s"
      ],
      [
        "Ġsp",
        "ot"
      ],
      [
        "Ġforgot",
        "ten"
      ],
      [
        "Ġtr",
        "ue"
      ],
      [
        "iz",
        "e"
      ],
      [
        "Ġne",
        "ar"
      ],
      [
        "Ġqu",
        "ick"
      ],
      [
        "s",
        "es"
      ],
      [
        "Ġl",
        "ater"
      ],
      [
        "ĠI",
        "S"
      ],
      [
        "Ġcirc",
        "le"
      ],
      [
        "Ġfr",
        "ust"
      ],
      [
        "Ġtot",
        "ally"
      ],
      [
        "u",
        "d"
      ],
      [
        "Ġs",
        "ill"
      ],
      [
        "on",
        "na"
      ],
      [
        "ar",
        "ing"
      ],
      [
        "Ġe",
        "nt"
      ],
      [
        "Ġfrust",
        "rat"
      ],
      [
        "a",
        "v"
      ],
      [
        "Ġg",
        "onna"
      ],
      [
        "pp",
        "ing"
      ],
      [
        "Ġtw",
        "o"
      ],
      [
        "Ġgent",
        "ly"
      ],
      [
        "Ġaw",
        "w"
      ],
      [
        "Ġevapor",
        "ated"
      ],
      [
        "Ġn",
        "er"
      ],
      [
        "or",
        "m"
      ],
      [
        "Ġst",
        "o"
      ],
      [
        "Ġhe",
        "y"
      ],
      [
        "bo",
        "dy"
      ],
      [
        "Ġto",
        "p"
      ],
      [
        "I",
        "T"
      ],
      [
        "m",
        "ore"
      ],
      [
        "Ġa",
        "ir"
      ],
      [
        "Ġwhat",
        "ever"
      ],
      [
        "Ġto",
        "ld"
      ],
      [
        "Ġp",
        "ur"
      ],
      [
        "Ġcle",
        "an"
      ],
      [
        "Ġin",
        "c"
      ],
      [
        "Ġchang",
        "ed"
      ],
      [
        "Ġner",
        "vous"
      ],
      [
        "Ġc",
        "r"
      ],
      [
        "Ġpart",
        "s"
      ],
      [
        "Ġs",
        "n"
      ],
      [
        "Ġg",
        "r"
      ],
      [
        "Ġclo",
        "se"
      ],
      [
        "Ġbrea",
        "k"
      ],
      [
        "Ġsill",
        "y"
      ],
      [
        "Ġt",
        "ow"
      ],
      [
        "Ġany",
        "more"
      ],
      [
        "GH",
        "T"
      ],
      [
        "A",
        "Y"
      ],
      [
        "at",
        "ure"
      ],
      [
        "Ġwh",
        "ile"
      ],
      [
        "Ġemp",
        "ty"
      ],
      [
        "Ġb",
        "oun"
      ],
      [
        "Ġd",
        "ec"
      ],
      [
        "L",
        "L"
      ],
      [
        "O",
        "N"
      ],
      [
        "st",
        "er"
      ],
      [
        "Ġta",
        "p"
      ],
      [
        "ĠTH",
        "AT"
      ],
      [
        "u",
        "ck"
      ],
      [
        "Ġ",
        "P"
      ],
      [
        "Ġs",
        "im"
      ],
      [
        "Ġc",
        "l"
      ],
      [
        "Ġta",
        "ke"
      ],
      [
        "Ġgl",
        "ow"
      ],
      [
        "M",
        "E"
      ],
      [
        "Ġt",
        "en"
      ],
      [
        "a",
        "kes"
      ],
      [
        "Ġdi",
        "re"
      ],
      [
        "c",
        "es"
      ],
      [
        "s",
        "et"
      ],
      [
        "Ġcolor",
        "s"
      ],
      [
        "ex",
        "cit"
      ],
      [
        "h",
        "y"
      ],
      [
        "i",
        "re"
      ],
      [
        "Ġfe",
        "ar"
      ],
      [
        "Ġfo",
        "cu"
      ],
      [
        "Ġtow",
        "ard"
      ],
      [
        "at",
        "h"
      ],
      [
        "Ġm",
        "ist"
      ],
      [
        "Ġstart",
        "led"
      ],
      [
        "Ġon",
        "es"
      ],
      [
        "Ġdi",
        "st"
      ],
      [
        "i",
        "p"
      ],
      [
        "o",
        "me"
      ],
      [
        "ver",
        "s"
      ],
      [
        "Ġhand",
        "le"
      ],
      [
        "Ġsurpris",
        "ed"
      ],
      [
        "er",
        "s"
      ],
      [
        "Ġapp",
        "ear"
      ],
      [
        "Ġaf",
        "ter"
      ],
      [
        "Ġfall",
        "ing"
      ],
      [
        "Ġhonest",
        "ly"
      ],
      [
        "l",
        "ic"
      ],
      [
        "Ġan",
        "sw"
      ],
      [
        "Ġma",
        "gic"
      ],
      [
        "Ġnever",
        "mind"
      ],
      [
        "Ġthought",
        "s"
      ],
      [
        "Ġdream",
        "s"
      ],
      [
        "Ġpur",
        "p"
      ],
      [
        "c",
        "rash"
      ],
      [
        "h",
        "h"
      ],
      [
        "Ġs",
        "ense"
      ],
      [
        "Ġsudden",
        "ly"
      ],
      [
        "I",
        "S"
      ],
      [
        "Ġd",
        "et"
      ],
      [
        "Ġd",
        "rift"
      ],
      [
        "Ġno",
        "body"
      ],
      [
        "Ġdire",
        "ction"
      ],
      [
        "Ġ",
        "ri"
      ],
      [
        "Ġs",
        "ides"
      ],
      [
        "Ġmy",
        "ster"
      ],
      [
        "Ġlove",
        "ly"
      ],
      [
        "Ġblank",
        "ly"
      ],
      [
        "Ġim",
        "mediately"
      ],
      [
        "w",
        "een"
      ],
      [
        "Ġpurp",
        "ose"
      ],
      [
        "Ġbigg",
        "est"
      ],
      [
        "Ġth",
        "ree"
      ],
      [
        "ing",
        "s"
      ],
      [
        "Ġj",
        "ump"
      ],
      [
        "ect",
        "ed"
      ],
      [
        "Ġbet",
        "ween"
      ],
      [
        "Ġlear",
        "n"
      ],
      [
        "Ġl",
        "oud"
      ],
      [
        "ion",
        "s"
      ],
      [
        "Ġbreath",
        "ing"
      ],
      [
        "Ġro",
        "cks"
      ],
      [
        "T",
        "H"
      ],
      [
        "Ġm",
        "ine"
      ],
      [
        "Ġcorner",
        "s"
      ],
      [
        "o",
        "int"
      ],
      [
        "u",
        "m"
      ],
      [
        "Ġpl",
        "ay"
      ],
      [
        "Ġwor",
        "ried"
      ],
      [
        "Ġt",
        "ra"
      ],
      [
        "Ġha",
        "ving"
      ],
      [
        "Ġbe",
        "h"
      ],
      [
        "Ġa",
        "r"
      ],
      [
        "Ġfee",
        "d"
      ],
      [
        "Ġd",
        "eep"
      ],
      [
        "Ġta",
        "st"
      ],
      [
        "Ġexcit",
        "ing"
      ],
      [
        "Ġeas",
        "y"
      ],
      [
        "Ġs",
        "ing"
      ],
      [
        "esc",
        "ap"
      ],
      [
        "Ġansw",
        "er"
      ],
      [
        "t",
        "ail"
      ],
      [
        "Ġw",
        "ow"
      ],
      [
        "Ġcirc",
        "ling"
      ],
      [
        "Ġse",
        "lf"
      ],
      [
        "excit",
        "ed"
      ],
      [
        "m",
        "er"
      ],
      [
        "Ġf",
        "am"
      ],
      [
        "Ġh",
        "it"
      ],
      [
        "Ġl",
        "uck"
      ],
      [
        "Ġc",
        "rash"
      ],
      [
        "Ġfa",
        "il"
      ],
      [
        "Ġf",
        "ound"
      ],
      [
        "art",
        "s"
      ],
      [
        "act",
        "ed"
      ],
      [
        "Ġconfu",
        "sing"
      ],
      [
        "c",
        "om"
      ],
      [
        "d",
        "le"
      ],
      [
        "Ġd",
        "ance"
      ],
      [
        "Ġmean",
        "ing"
      ],
      [
        "Ġ",
        "escap"
      ],
      [
        "Ġc",
        "ar"
      ],
      [
        "blan",
        "k"
      ],
      [
        "Ġpr",
        "om"
      ],
      [
        "ert",
        "ain"
      ],
      [
        "Ġl",
        "ess"
      ],
      [
        "Ġstay",
        "s"
      ],
      [
        "Ġmid",
        "dle"
      ],
      [
        "Ġshap",
        "e"
      ],
      [
        "RI",
        "GHT"
      ],
      [
        "Ġwigg",
        "les"
      ],
      [
        "Ġexp",
        "l"
      ],
      [
        "Ġstr",
        "ong"
      ],
      [
        "V",
        "ER"
      ],
      [
        "Ġs",
        "et"
      ],
      [
        "Ġb",
        "it"
      ],
      [
        "Ġsu",
        "pp"
      ],
      [
        "iz",
        "ed"
      ],
      [
        "Ġsim",
        "ple"
      ],
      [
        "Ġdisapp",
        "oint"
      ],
      [
        "i",
        "ent"
      ],
      [
        "Ġpr",
        "oud"
      ],
      [
        "Ġspin",
        "ning"
      ],
      [
        "oo",
        "f"
      ],
      [
        "ste",
        "ad"
      ],
      [
        "Ġbeh",
        "ind"
      ],
      [
        "Ġyou",
        "ng"
      ],
      [
        "Ġin",
        "stead"
      ],
      [
        "b",
        "on"
      ],
      [
        "ro",
        "ke"
      ],
      [
        "crash",
        "es"
      ],
      [
        "Ġb",
        "rave"
      ],
      [
        "Ġd",
        "anc"
      ],
      [
        "Ġsa",
        "w"
      ],
      [
        "Ġs",
        "it"
      ],
      [
        "Ġf",
        "ar"
      ],
      [
        "Ġany",
        "one"
      ],
      [
        "n",
        "ce"
      ],
      [
        "Ġsp",
        "ark"
      ],
      [
        "Ġd",
        "es"
      ],
      [
        "Ġn",
        "ight"
      ],
      [
        "Ġwor",
        "ks"
      ],
      [
        "Ġstr",
        "ange"
      ],
      [
        "Ġinc",
        "red"
      ],
      [
        "Ġ",
        "z"
      ],
      [
        "f",
        "ic"
      ],
      [
        "Ġbu",
        "d"
      ],
      [
        "d",
        "oes"
      ],
      [
        "Ġhe",
        "av"
      ],
      [
        "ra",
        "id"
      ],
      [
        "act",
        "ually"
      ],
      [
        "Ġcur",
        "re"
      ],
      [
        "Ġfrustrat",
        "ed"
      ],
      [
        "Ġremember",
        "ing"
      ],
      [
        "Ġfloat",
        "y"
      ],
      [
        "Ġaf",
        "raid"
      ],
      [
        "r",
        "acted"
      ],
      [
        "Ġn",
        "orm"
      ],
      [
        "Ġno",
        "ise"
      ],
      [
        "Ġv",
        "o"
      ],
      [
        "t",
        "ra"
      ],
      [
        "ro",
        "ss"
      ],
      [
        "Ġas",
        "ked"
      ],
      [
        "Ġdet",
        "ail"
      ],
      [
        "O",
        "W"
      ],
      [
        "e",
        "w"
      ],
      [
        "m",
        "o"
      ],
      [
        "nt",
        "il"
      ],
      [
        "Ġsh",
        "i"
      ],
      [
        "H",
        "H"
      ],
      [
        "S",
        "T"
      ],
      [
        "Ġknow",
        "ing"
      ],
      [
        "Ġbud",
        "dy"
      ],
      [
        "Ġb",
        "its"
      ],
      [
        "ĠD",
        "o"
      ],
      [
        "Ġte",
        "mp"
      ],
      [
        "Ġcurre",
        "nt"
      ],
      [
        "Ġ",
        "RIGHT"
      ],
      [
        "Ġt",
        "er"
      ],
      [
        "Ġh",
        "ide"
      ],
      [
        "Ġgo",
        "tt"
      ],
      [
        "fu",
        "lly"
      ],
      [
        "ĠI",
        "T"
      ],
      [
        "ĠM",
        "Y"
      ],
      [
        "E",
        "RE"
      ],
      [
        "ES",
        "T"
      ],
      [
        "Ġbump",
        "y"
      ],
      [
        "g",
        "y"
      ],
      [
        "Ġ",
        "zoom"
      ],
      [
        "Ġre",
        "ach"
      ],
      [
        "Ġb",
        "roke"
      ],
      [
        "Ġli",
        "ving"
      ],
      [
        "ĠA",
        "M"
      ],
      [
        "Ġhum",
        "an"
      ],
      [
        "Ġchang",
        "es"
      ],
      [
        "Ġdisco",
        "ver"
      ],
      [
        "u",
        "p"
      ],
      [
        "y",
        "ond"
      ],
      [
        "Ġfor",
        "ward"
      ],
      [
        "Ġbe",
        "yond"
      ],
      [
        "Ġu",
        "ntil"
      ],
      [
        "Ġbigg",
        "er"
      ],
      [
        "u",
        "al"
      ],
      [
        "z",
        "zy"
      ],
      [
        "Ġst",
        "e"
      ],
      [
        "id",
        "ent"
      ],
      [
        "Ġluck",
        "y"
      ],
      [
        "Ġexpl",
        "ore"
      ],
      [
        "A",
        "N"
      ],
      [
        "Ġwas",
        "n"
      ],
      [
        "Ġknow",
        "s"
      ],
      [
        "ent",
        "ion"
      ],
      [
        "Ġcon",
        "stantly"
      ],
      [
        "ĠB",
        "U"
      ],
      [
        "Ġbump",
        "ing"
      ],
      [
        "Ġim",
        "ag"
      ],
      [
        "f",
        "or"
      ],
      [
        "Ġm",
        "ess"
      ],
      [
        "Ġp",
        "lan"
      ],
      [
        "ang",
        "er"
      ],
      [
        "Ġte",
        "ach"
      ],
      [
        "Ġnorm",
        "al"
      ],
      [
        "e",
        "l"
      ],
      [
        "i",
        "er"
      ],
      [
        "Ġwant",
        "ed"
      ],
      [
        "Ġr",
        "ain"
      ],
      [
        "b",
        "le"
      ],
      [
        "Ġf",
        "ut"
      ],
      [
        "Ġl",
        "oop"
      ],
      [
        "ri",
        "es"
      ],
      [
        "Ġu",
        "se"
      ],
      [
        "Ġhapp",
        "iness"
      ],
      [
        "Ġincred",
        "ible"
      ],
      [
        "Ġfut",
        "ure"
      ],
      [
        "Ġ",
        "'"
      ],
      [
        "Ġtemp",
        "er"
      ],
      [
        "y",
        "ou"
      ],
      [
        "Ġp",
        "at"
      ],
      [
        "ss",
        "ible"
      ],
      [
        "Ġan",
        "gry"
      ],
      [
        "Ġhold",
        "s"
      ],
      [
        "Ġdist",
        "racted"
      ],
      [
        "Ġgott",
        "a"
      ],
      [
        "t",
        "o"
      ],
      [
        "Ġs",
        "me"
      ],
      [
        "Ġf",
        "ive"
      ],
      [
        "Ġsee",
        "ing"
      ],
      [
        "Ġcon",
        "n"
      ],
      [
        "Ġjo",
        "kes"
      ],
      [
        "Ġtemper",
        "ature"
      ],
      [
        "Ġsme",
        "ll"
      ],
      [
        "Ġre",
        "pe"
      ],
      [
        "ĠYOU",
        "R"
      ],
      [
        "Ġagain",
        "st"
      ],
      [
        "Ġch",
        "as"
      ],
      [
        "Ġen",
        "er"
      ],
      [
        "Ġnew",
        "s"
      ],
      [
        "Ġstart",
        "s"
      ],
      [
        "Ġstop",
        "s"
      ],
      [
        "j",
        "o"
      ],
      [
        "Ġb",
        "or"
      ],
      [
        "Ġsm",
        "art"
      ],
      [
        "ĠD",
        "O"
      ],
      [
        "Ġheav",
        "y"
      ],
      [
        "f",
        "ast"
      ],
      [
        "Ġg",
        "row"
      ],
      [
        "k",
        "y"
      ],
      [
        "Ġhave",
        "n"
      ],
      [
        "i",
        "est"
      ],
      [
        "Ġ",
        "our"
      ],
      [
        "Ġst",
        "ress"
      ],
      [
        "Ġex",
        "cept"
      ],
      [
        "Ġinv",
        "is"
      ],
      [
        "Ġdanc",
        "ing"
      ],
      [
        "l",
        "ine"
      ],
      [
        "u",
        "b"
      ],
      [
        "Ġtr",
        "ack"
      ],
      [
        "Ġhu",
        "h"
      ],
      [
        "ation",
        "s"
      ],
      [
        "TH",
        "ING"
      ],
      [
        "Ġter",
        "ri"
      ],
      [
        "Ġinvis",
        "ible"
      ],
      [
        "Ġsu",
        "per"
      ],
      [
        "O",
        "R"
      ],
      [
        "h",
        "o"
      ],
      [
        "Ġsu",
        "ch"
      ],
      [
        "Ġsp",
        "ace"
      ],
      [
        "Ġwigg",
        "ly"
      ],
      [
        "V",
        "E"
      ],
      [
        "o",
        "sed"
      ],
      [
        "so",
        "me"
      ],
      [
        "Ġstart",
        "ed"
      ],
      [
        "Ġbreak",
        "fast"
      ],
      [
        "Ġdec",
        "or"
      ],
      [
        "Ġshi",
        "ft"
      ],
      [
        "i",
        "ence"
      ],
      [
        "Ġ",
        "rough"
      ],
      [
        "an",
        "ic"
      ],
      [
        "Ġe",
        "ar"
      ],
      [
        "ĠB",
        "EST"
      ],
      [
        "Ġnotic",
        "ed"
      ],
      [
        "s",
        "u"
      ],
      [
        "Ġc",
        "reat"
      ],
      [
        "Ġent",
        "ire"
      ],
      [
        "Ġnervous",
        "ly"
      ],
      [
        "Ġfocu",
        "s"
      ],
      [
        "at",
        "ing"
      ],
      [
        "Ġp",
        "atter"
      ],
      [
        "Ġbu",
        "s"
      ],
      [
        "ink",
        "s"
      ],
      [
        "Ġfl",
        "ow"
      ],
      [
        "s",
        "ent"
      ],
      [
        "sh",
        "ip"
      ],
      [
        "Ġde",
        "al"
      ],
      [
        "Ġshap",
        "es"
      ],
      [
        "Ġsupp",
        "osed"
      ],
      [
        "jo",
        "y"
      ],
      [
        "c",
        "i"
      ],
      [
        "s",
        "c"
      ],
      [
        "Ġr",
        "un"
      ],
      [
        "Ġshadow",
        "s"
      ],
      [
        "B",
        "B"
      ],
      [
        "f",
        "l"
      ],
      [
        "Ġs",
        "er"
      ],
      [
        "at",
        "t"
      ],
      [
        "Ġre",
        "mind"
      ],
      [
        "oo",
        "ked"
      ],
      [
        "Ġst",
        "aring"
      ],
      [
        "Ġdetail",
        "s"
      ],
      [
        "d",
        "arts"
      ],
      [
        "u",
        "s"
      ],
      [
        "E",
        "N"
      ],
      [
        "a",
        "h"
      ],
      [
        "n",
        "ot"
      ],
      [
        "or",
        "ies"
      ],
      [
        "il",
        "s"
      ],
      [
        "Ġch",
        "oo"
      ],
      [
        "Ġv",
        "acant"
      ],
      [
        "Ġr",
        "is"
      ],
      [
        "OO",
        "D"
      ],
      [
        "Ġchas",
        "ing"
      ],
      [
        "ant",
        "ically"
      ],
      [
        "Ġtur",
        "ning"
      ],
      [
        "Ġatt",
        "ention"
      ],
      [
        "e",
        "ared"
      ],
      [
        "t",
        "s"
      ],
      [
        "re",
        "ad"
      ],
      [
        "Ġy",
        "ay"
      ],
      [
        "Ġfre",
        "e"
      ],
      [
        "ĠM",
        "O"
      ],
      [
        "Ġquestion",
        "s"
      ],
      [
        "Ġmiss",
        "ing"
      ],
      [
        "Ġchang",
        "ing"
      ],
      [
        "Ġsto",
        "pped"
      ],
      [
        "*",
        "âĢĶ"
      ],
      [
        "Ġ",
        "RE"
      ],
      [
        "Ġit",
        "s"
      ],
      [
        "Ġp",
        "h"
      ],
      [
        "Ġgo",
        "sh"
      ],
      [
        "Ġon",
        "to"
      ],
      [
        "Ġsw",
        "ee"
      ],
      [
        "co",
        "me"
      ],
      [
        "Ġpatter",
        "n"
      ],
      [
        "g",
        "n"
      ],
      [
        "h",
        "app"
      ],
      [
        "con",
        "fu"
      ],
      [
        "Ġso",
        "l"
      ],
      [
        "ĠTH",
        "IS"
      ],
      [
        "ĠWA",
        "IT"
      ],
      [
        "ĠBU",
        "BB"
      ],
      [
        "s",
        "it"
      ],
      [
        "an",
        "k"
      ],
      [
        "Ġwe",
        "l"
      ],
      [
        "Ġch",
        "ase"
      ],
      [
        "Ġen",
        "joy"
      ],
      [
        "ĠT",
        "hat"
      ],
      [
        "id",
        "ing"
      ],
      [
        "âĢĶ",
        "*"
      ],
      [
        "Ġmoment",
        "s"
      ],
      [
        "Ġgold",
        "en"
      ],
      [
        "Ġlot",
        "s"
      ],
      [
        "C",
        "K"
      ],
      [
        "a",
        "ge"
      ],
      [
        "w",
        "or"
      ],
      [
        "th",
        "at"
      ],
      [
        "Ġwa",
        "ke"
      ],
      [
        "il",
        "i"
      ],
      [
        "Ġde",
        "lic"
      ],
      [
        "Ġvisit",
        "or"
      ],
      [
        "Ġbroke",
        "n"
      ],
      [
        "la",
        "r"
      ],
      [
        "Ġno",
        "se"
      ],
      [
        "Ġwor",
        "king"
      ],
      [
        "ĠI",
        "N"
      ],
      [
        "Ġtell",
        "ing"
      ],
      [
        "Ġcon",
        "f"
      ],
      [
        "Ġspeci",
        "fic"
      ],
      [
        "Ġsn",
        "ack"
      ],
      [
        "Ġimag",
        "ine"
      ],
      [
        "happ",
        "y"
      ],
      [
        "Ġo",
        "b"
      ],
      [
        "Ġc",
        "ares"
      ],
      [
        "Ġg",
        "en"
      ],
      [
        "Ġwarm",
        "er"
      ],
      [
        "Ġfr",
        "antically"
      ],
      [
        "Ġpo",
        "sit"
      ],
      [
        "confu",
        "sed"
      ],
      [
        "i",
        "x"
      ],
      [
        "Ġbo",
        "ther"
      ],
      [
        "anc",
        "y"
      ],
      [
        "Ġprom",
        "ise"
      ],
      [
        "Ġvo",
        "ice"
      ],
      [
        "mo",
        "st"
      ],
      [
        "ili",
        "ar"
      ],
      [
        "h",
        "e"
      ],
      [
        "Ġd",
        "r"
      ],
      [
        "Ġbe",
        "g"
      ],
      [
        "im",
        "mer"
      ],
      [
        "ĠT",
        "ell"
      ],
      [
        "Ġstart",
        "ing"
      ],
      [
        "Ġbl",
        "ue"
      ],
      [
        "Ġvibrat",
        "ions"
      ],
      [
        "Ġdes",
        "er"
      ],
      [
        "Ġt",
        "ick"
      ],
      [
        "Ġm",
        "ar"
      ],
      [
        "Ġc",
        "e"
      ],
      [
        "th",
        "ought"
      ],
      [
        "on",
        "es"
      ],
      [
        "Ġu",
        "gh"
      ],
      [
        "Ġdon",
        "e"
      ],
      [
        "bb",
        "le"
      ],
      [
        "Ġup",
        "set"
      ],
      [
        "ĠTh",
        "e"
      ],
      [
        "Ġtast",
        "es"
      ],
      [
        "com",
        "p"
      ],
      [
        "i",
        "e"
      ],
      [
        "s",
        "er"
      ],
      [
        "u",
        "mb"
      ],
      [
        "in",
        "ning"
      ],
      [
        "Ġl",
        "ooked"
      ],
      [
        "Ġsing",
        "le"
      ],
      [
        "Ġbor",
        "ing"
      ],
      [
        "ri",
        "ll"
      ],
      [
        "Ġle",
        "ast"
      ],
      [
        "Ġlear",
        "ning"
      ],
      [
        "Ġtra",
        "pped"
      ],
      [
        "Ġfam",
        "iliar"
      ],
      [
        "d",
        "e"
      ],
      [
        "Ġ",
        "J"
      ],
      [
        "ve",
        "nt"
      ],
      [
        "ĠY",
        "AY"
      ],
      [
        "wh",
        "o"
      ],
      [
        "Ġtr",
        "u"
      ],
      [
        "Ġfast",
        "er"
      ],
      [
        "Ġhope",
        "ful"
      ],
      [
        "Ġser",
        "ious"
      ],
      [
        "Ġwel",
        "come"
      ],
      [
        "I",
        "D"
      ],
      [
        "e",
        "ment"
      ],
      [
        "Ġs",
        "ize"
      ],
      [
        "Ġd",
        "ou"
      ],
      [
        "Ġwa",
        "l"
      ],
      [
        "Ġal",
        "most"
      ],
      [
        "ĠH",
        "A"
      ],
      [
        "Ġmist",
        "akes"
      ],
      [
        "f",
        "ort"
      ],
      [
        "Ġaw",
        "ake"
      ],
      [
        "Ġac",
        "c"
      ],
      [
        "Ġus",
        "ually"
      ],
      [
        "Ġboun",
        "c"
      ],
      [
        "some",
        "thing"
      ],
      [
        "c",
        "irc"
      ],
      [
        "p",
        "s"
      ],
      [
        "Ġy",
        "et"
      ],
      [
        "le",
        "b"
      ],
      [
        "Ġta",
        "le"
      ],
      [
        "Ġturn",
        "ed"
      ],
      [
        "Ġswee",
        "t"
      ],
      [
        "y",
        "ing"
      ],
      [
        "Ġt",
        "ried"
      ],
      [
        "l",
        "ong"
      ],
      [
        "u",
        "ation"
      ],
      [
        "Ġf",
        "it"
      ],
      [
        "st",
        "ic"
      ],
      [
        "Ġwor",
        "st"
      ],
      [
        "Ġexist",
        "s"
      ],
      [
        "VER",
        "Y"
      ],
      [
        "b",
        "u"
      ],
      [
        "e",
        "yes"
      ],
      [
        "s",
        "ic"
      ],
      [
        "Ġac",
        "cept"
      ],
      [
        "Ġmyster",
        "y"
      ],
      [
        "tra",
        "ils"
      ],
      [
        "Ġener",
        "gy"
      ],
      [
        "o",
        "l"
      ],
      [
        "Ġf",
        "ancy"
      ],
      [
        "Ġso",
        "f"
      ],
      [
        "Ġbe",
        "lly"
      ],
      [
        "Ġu",
        "h"
      ],
      [
        "Ġdiffere",
        "nce"
      ],
      [
        "li",
        "ght"
      ],
      [
        "Ġhum",
        "ming"
      ],
      [
        "Ġgi",
        "ving"
      ],
      [
        "ress",
        "ion"
      ],
      [
        "b",
        "l"
      ],
      [
        "Ġe",
        "d"
      ],
      [
        "le",
        "x"
      ],
      [
        "Ġwi",
        "ld"
      ],
      [
        "Ġcon",
        "vers"
      ],
      [
        "Ġswish",
        "es"
      ],
      [
        "ĠNO",
        "W"
      ],
      [
        "Ġchoo",
        "se"
      ],
      [
        "b",
        "t"
      ],
      [
        "il",
        "ing"
      ],
      [
        "are",
        "nt"
      ],
      [
        "Ġch",
        "ance"
      ],
      [
        "Ġpla",
        "ces"
      ],
      [
        "Ġrest",
        "ing"
      ],
      [
        "Ġpla",
        "stic"
      ],
      [
        "Ġnotic",
        "ing"
      ],
      [
        "bon",
        "ks"
      ],
      [
        "Ġsit",
        "uation"
      ],
      [
        "Ġsol",
        "id"
      ],
      [
        "Ġsof",
        "ter"
      ],
      [
        "Ġit",
        "self"
      ],
      [
        "oo",
        "sh"
      ],
      [
        "Ġsay",
        "s"
      ],
      [
        "Ġact",
        "ual"
      ],
      [
        "Ġhold",
        "ing"
      ],
      [
        "per",
        "ks"
      ],
      [
        "a",
        "king"
      ],
      [
        "h",
        "ere"
      ],
      [
        "an",
        "na"
      ],
      [
        "Ġp",
        "unch"
      ],
      [
        "am",
        "es"
      ],
      [
        "Ġback",
        "ward"
      ],
      [
        "Ġwonder",
        "ing"
      ],
      [
        "ĠC",
        "an"
      ],
      [
        "Ġcont",
        "ent"
      ],
      [
        "Ġposit",
        "ive"
      ],
      [
        "Ġc",
        "ra"
      ],
      [
        "Ġan",
        "x"
      ],
      [
        "bb",
        "les"
      ],
      [
        "circ",
        "ling"
      ],
      [
        "A",
        "R"
      ],
      [
        "k",
        "eep"
      ],
      [
        "Ġa",
        "ch"
      ],
      [
        "Ġli",
        "ves"
      ],
      [
        "Ġp",
        "ay"
      ],
      [
        "Ġst",
        "one"
      ],
      [
        "ac",
        "es"
      ],
      [
        "Ġsh",
        "immer"
      ],
      [
        "Ġqu",
        "ite"
      ],
      [
        "ĠTH",
        "ING"
      ],
      [
        "Ġeas",
        "ily"
      ],
      [
        "Ġterri",
        "ble"
      ],
      [
        "Ġce",
        "leb"
      ],
      [
        "l",
        "ow"
      ],
      [
        "Ġt",
        "ank"
      ],
      [
        "mb",
        "ered"
      ],
      [
        "Ġstay",
        "ing"
      ],
      [
        "Ġhu",
        "ge"
      ],
      [
        "ĠA",
        "N"
      ],
      [
        "Ġbr",
        "ought"
      ],
      [
        "Ġbr",
        "ings"
      ],
      [
        "Ġexist",
        "ing"
      ],
      [
        "Ġac",
        "ross"
      ],
      [
        "Ġdelic",
        "ious"
      ],
      [
        "Ġconvers",
        "ation"
      ],
      [
        "A",
        "Z"
      ],
      [
        "Ġn",
        "u"
      ],
      [
        "Ġst",
        "ick"
      ],
      [
        "Ġlove",
        "d"
      ],
      [
        "Ġjo",
        "b"
      ],
      [
        "Ġsad",
        "ness"
      ],
      [
        "Ġfeeling",
        "s"
      ],
      [
        "keep",
        "s"
      ],
      [
        "S",
        "E"
      ],
      [
        "i",
        "a"
      ],
      [
        "i",
        "ld"
      ],
      [
        "Ġw",
        "o"
      ],
      [
        "Ġm",
        "in"
      ],
      [
        "Ġb",
        "ar"
      ],
      [
        "Ġp",
        "oof"
      ],
      [
        "Ġreme",
        "mbered"
      ],
      [
        "ĠA",
        "RE"
      ],
      [
        "Ġlet",
        "ter"
      ],
      [
        "Ġboun",
        "ce"
      ],
      [
        "Ġdeser",
        "ve"
      ],
      [
        "Ġpunch",
        "line"
      ],
      [
        "Ġ",
        "U"
      ],
      [
        "Ġp",
        "ain"
      ],
      [
        "Ġyour",
        "s"
      ],
      [
        "Ġch",
        "ec"
      ],
      [
        "Ġother",
        "s"
      ],
      [
        "Ġforgive",
        "ness"
      ],
      [
        "Ġbl",
        "ur"
      ],
      [
        "Ġmist",
        "ake"
      ],
      [
        "Ġar",
        "ri"
      ],
      [
        "Ġdiscover",
        "ing"
      ],
      [
        "g",
        "es"
      ],
      [
        "Ġs",
        "ch"
      ],
      [
        "Ġs",
        "ens"
      ],
      [
        "Ġo",
        "pt"
      ],
      [
        "Ġin",
        "stantly"
      ],
      [
        "au",
        "ses"
      ],
      [
        "Ġwould",
        "n"
      ],
      [
        "ist",
        "ic"
      ],
      [
        "ap",
        "s"
      ],
      [
        "Ġnu",
        "mber"
      ],
      [
        "d",
        "s"
      ],
      [
        "Ġp",
        "un"
      ],
      [
        "Ġremember",
        "s"
      ],
      [
        "Ġv",
        "al"
      ],
      [
        "wh",
        "y"
      ],
      [
        "Ġpre",
        "sent"
      ],
      [
        "Ġperfect",
        "ly"
      ],
      [
        "ĠTh",
        "is"
      ],
      [
        "Ġescap",
        "e"
      ],
      [
        "Ġp",
        "i"
      ],
      [
        "la",
        "rious"
      ],
      [
        "Ġhapp",
        "ily"
      ],
      [
        "!!",
        "!"
      ],
      [
        "Ġch",
        "e"
      ],
      [
        "Ġhi",
        "larious"
      ],
      [
        "Ġdisapp",
        "ear"
      ],
      [
        "he",
        "ad"
      ],
      [
        "Ġcra",
        "zy"
      ],
      [
        "A",
        "IN"
      ],
      [
        "n",
        "ope"
      ],
      [
        "s",
        "ion"
      ],
      [
        "in",
        "ner"
      ],
      [
        "Ġs",
        "y"
      ],
      [
        "at",
        "es"
      ],
      [
        "Ġre",
        "co"
      ],
      [
        "Ġlo",
        "se"
      ],
      [
        "Ġcom",
        "m"
      ],
      [
        "Ġsp",
        "end"
      ],
      [
        "Ġsleep",
        "ing"
      ],
      [
        "Ġfollow",
        "ing"
      ],
      [
        "Ġcar",
        "ry"
      ],
      [
        "ho",
        "ld"
      ],
      [
        "u",
        "l"
      ],
      [
        "Ġt",
        "ri"
      ],
      [
        "Ġli",
        "ter"
      ],
      [
        "Ġre",
        "d"
      ],
      [
        "la",
        "sh"
      ],
      [
        "Ġkn",
        "ew"
      ],
      [
        "Ġan",
        "g"
      ],
      [
        "Ġday",
        "s"
      ],
      [
        "Ġhurt",
        "s"
      ],
      [
        "Ġregret",
        "s"
      ],
      [
        "blan",
        "ks"
      ],
      [
        "ud",
        "ge"
      ],
      [
        "ĠAM",
        "AZ"
      ],
      [
        "Ġbus",
        "y"
      ],
      [
        "ĠAMAZ",
        "ING"
      ],
      [
        "u",
        "in"
      ],
      [
        "Ġf",
        "li"
      ],
      [
        "ect",
        "ion"
      ],
      [
        "Ġri",
        "pp"
      ],
      [
        "S",
        "S"
      ],
      [
        "c",
        "ent"
      ],
      [
        "p",
        "auses"
      ],
      [
        "Ġw",
        "anna"
      ],
      [
        "Ġh",
        "y"
      ],
      [
        "Ġc",
        "au"
      ],
      [
        "Ġswim",
        "s"
      ],
      [
        "Ġsc",
        "are"
      ],
      [
        "ut",
        "e"
      ],
      [
        "Ġr",
        "oom"
      ],
      [
        "ĠTHE",
        "RE"
      ],
      [
        "Ġcreat",
        "ure"
      ],
      [
        "Ġw",
        "ee"
      ],
      [
        "Ġn",
        "et"
      ],
      [
        "Ġc",
        "ry"
      ],
      [
        "Ġp",
        "anic"
      ],
      [
        "Ġta",
        "kes"
      ],
      [
        "Ġfriend",
        "ship"
      ],
      [
        "Ġneed",
        "s"
      ],
      [
        "iz",
        "es"
      ],
      [
        "Ġhand",
        "s"
      ],
      [
        "Ġsurpris",
        "ing"
      ],
      [
        "ĠG",
        "O"
      ],
      [
        "E",
        "E"
      ],
      [
        "h",
        "a"
      ],
      [
        "r",
        "se"
      ],
      [
        "s",
        "orry"
      ],
      [
        "ss",
        "ing"
      ],
      [
        "Ġcon",
        "cept"
      ],
      [
        "Ġmu",
        "sic"
      ],
      [
        "Ġcou",
        "rse"
      ],
      [
        "Ġcr",
        "unch"
      ],
      [
        "Ġliter",
        "ally"
      ],
      [
        "f",
        "o"
      ],
      [
        "o",
        "ck"
      ],
      [
        "Ġm",
        "ir"
      ],
      [
        "Ġd",
        "inner"
      ],
      [
        "es",
        "ome"
      ],
      [
        "la",
        "x"
      ],
      [
        "Ġsh",
        "are"
      ],
      [
        "rat",
        "ing"
      ],
      [
        "Ġcomplet",
        "e"
      ],
      [
        "Ġexp",
        "ression"
      ],
      [
        "Ġexist",
        "ence"
      ],
      [
        "Ġun",
        "less"
      ],
      [
        "Ġcall",
        "ed"
      ],
      [
        "Ġatt",
        "ach"
      ],
      [
        "Ġris",
        "ing"
      ],
      [
        "o",
        "ssible"
      ],
      [
        "Ġt",
        "all"
      ],
      [
        "at",
        "ic"
      ],
      [
        "Ġme",
        "ant"
      ],
      [
        "Ġsc",
        "ares"
      ],
      [
        "ĠH",
        "E"
      ],
      [
        "Ġstr",
        "anger"
      ],
      [
        "Ġset",
        "t"
      ],
      [
        "Ġanx",
        "ious"
      ],
      [
        "P",
        "P"
      ],
      [
        "ic",
        "es"
      ],
      [
        "Ġgood",
        "ness"
      ],
      [
        "Ġsh",
        "aking"
      ],
      [
        "Ġsp",
        "lash"
      ],
      [
        "Ġdi",
        "zzy"
      ],
      [
        "Ġbr",
        "ing"
      ],
      [
        "ĠS",
        "T"
      ],
      [
        "Ġaw",
        "esome"
      ],
      [
        "ĠE",
        "VERY"
      ],
      [
        "Ġad",
        "v"
      ],
      [
        "Ġent",
        "ertain"
      ],
      [
        "Ġset",
        "up"
      ],
      [
        "Ġdou",
        "bt"
      ],
      [
        "bl",
        "inks"
      ],
      [
        "Ġattach",
        "ed"
      ],
      [
        "d",
        "rift"
      ],
      [
        "Ġt",
        "re"
      ],
      [
        "Ġa",
        "hh"
      ],
      [
        "Ġm",
        "an"
      ],
      [
        "Ġb",
        "as"
      ],
      [
        "Ġh",
        "iding"
      ],
      [
        "on",
        "t"
      ],
      [
        "Ġbe",
        "nd"
      ],
      [
        "Ġhe",
        "ard"
      ],
      [
        "Ġimp",
        "ossible"
      ],
      [
        "Ġid",
        "ent"
      ],
      [
        "ĠN",
        "E"
      ],
      [
        "Ġgre",
        "et"
      ],
      [
        "no",
        "ds"
      ],
      [
        "Ġvibrat",
        "ion"
      ],
      [
        "Ġglow",
        "ing"
      ],
      [
        "Ġconn",
        "ected"
      ],
      [
        "ĠRE",
        "A"
      ],
      [
        "c",
        "ked"
      ],
      [
        "f",
        "loat"
      ],
      [
        "g",
        "s"
      ],
      [
        "Ġs",
        "qu"
      ],
      [
        "ic",
        "al"
      ],
      [
        "Ġat",
        "e"
      ],
      [
        "Ġexcit",
        "ement"
      ],
      [
        "Ġexp",
        "er"
      ],
      [
[...]
