{
  "version": "1.0",
  "truncation": null,
  "padding": null,
  "added_tokens": [
    {
      "id": 0,
      "content": "<pad>",
      "single_word": false,
      "lstrip": false,
      "rstrip": false,
      "normalized": false,
      "special": true
    },
    {
      "id": 1,
      "content": "<bos>",
      "single_word": false,
      "lstrip": false,
      "rstrip": false,
      "normalized": false,
      "special": true
    },
    {
      "id": 2,
      "content": "<eos>",
      "single_word": false,
      "lstrip": false,
      "rstrip": false,
      "normalized": false,
      "special": true
    },
    {
      "id": 3,
      "content": "<unk>",
      "single_word": false,
      "lstrip": false,
      "rstrip": false,
      "normalized": false,
      "special": true
    }
  ],
  "normalizer": null,
  "pre_tokenizer": {
    "type": "ByteLevel",
    "add_prefix_space": true,
    "trim_offsets": true,
    "use_regex": true
  },
  "post_processor": {
    "type": "TemplateProcessing",
    "single": [
      {
        "SpecialToken": {
          "id": "<bos>",
          "type_id": 0
        }
      },
      {
        "Sequence": {
          "id": "A",
          "type_id": 0
        }
      },
      {
        "SpecialToken": {
          "id": "<eos>",
          "type_id": 0
        }
      }
    ],
    "pair": [
      {
        "Sequence": {
          "id": "A",
          "type_id": 0
        }
      },
      {
        "Sequence": {
          "id": "B",
          "type_id": 1
        }
      }
    ],
    "special_tokens": {
      "<bos>": {
        "id": "<bos>",
        "ids": [
          1
        ],
        "tokens": [
          "<bos>"
        ]
      },
      "<eos>": {
        "id": "<eos>",
        "ids": [
          2
        ],
        "tokens": [
          "<eos>"
        ]
      }
    }
  },
  "decoder": {
    "type": "ByteLevel",
    "add_prefix_space": true,
    "trim_offsets": true,
    "use_regex": true
  },
  "model": {
    "type": "BPE",
    "dropout": null,
    "unk_token": "<unk>",
    "continuing_subword_prefix": null,
    "end_of_word_suffix": null,
    "fuse_unk": false,
    "byte_fallback": false,
    "ignore_merges": false,
    "vocab": {
      "<pad>": 0,
      "<bos>": 1,
      "<eos>": 2,
      "<unk>": 3,
      "!": 4,
      "%": 5,
      "'": 6,
      "(": 7,
      ")": 8,
      "*": 9,
      ",": 10,
      "-": 11,
      ".": 12,
      "0": 13,
      "1": 14,
      "2": 15,
      "3": 16,
      "4": 17,
      "5": 18,
      "6": 19,
      "7": 20,
      "8": 21,
      "9": 22,
      ":": 23,
      ";": 24,
      "?": 25,
      "A": 26,
      "B": 27,
      "C": 28,
      "D": 29,
      "E": 30,
      "F": 31,
      "G": 32,
      "H": 33,
      "I": 34,
      "J": 35,
      "K": 36,
      "L": 37,
      "M": 38,
      "N": 39,
      "O": 40,
      "P": 41,
      "Q": 42,
      "R": 43,
      "S": 44,
      "T": 45,
      "U": 46,
      "V": 47,
      "W": 48,
      "X": 49,
      "Y": 50,
      "Z": 51,
      "a": 52,
      "b": 53,
      "c": 54,
      "d": 55,
      "e": 56,
      "f": 57,
      "g": 58,
      "h": 59,
      "i": 60,
      "j": 61,
      "k": 62,
      "l": 63,
      "m": 64,
      "n": 65,
      "o": 66,
      "p": 67,
      "q": 68,
      "r": 69,
      "s": 70,
      "t": 71,
      "u": 72,
      "v": 73,
      "w": 74,
      "x": 75,
      "y": 76,
      "z": 77,
      "©": 78,
      "Ã": 79,
      "â": 80,
      "Ġ": 81,
      "Ģ": 82,
      "Ķ": 83,
      "Ġt": 84,
      "Ġi": 85,
      "Ġth": 86,
      "Ġw": 87,
      "Ġa": 88,
      "in": 89,
      "ou": 90,
      "er": 91,
      "Ġs": 92,
      "at": 93,
      "Ġthe": 94,
      "Ġy": 95,
      "Ġm": 96,
      "ing": 97,
      "Ġb": 98,
      "Ġyou": 99,
      "Ġf": 100,
      "es": 101,
      "Ġd": 102,
      "re": 103,
      "nd": 104,
      "Ġh": 105,
      "Ġl": 106,
      "Ġwh": 107,
      "ow": 108,
      "Ġn": 109,
      "Ġdo": 110,
      "Ġo": 111,
      "me": 112,
      "Ġand": 113,
      "Ġc": 114,
      "Ġit": 115,
      "Ġis": 116,
      "'s": 117,
      "Ġg": 118,
      "el": 119,
      "th": 120,
      "en": 121,
      "Ġso": 122,
      "an": 123,
      "Ġli": 124,
      "ay": 125,
      "or": 126,
      "st": 127,
      "Ġe": 128,
      "gh": 129,
      "Ġwhat": 130,
      "ar": 131,
      "Ġto": 132,
      "Ġwat": 133,
      "Ġme": 134,
      "ll": 135,
      "ver": 136,
      "ke": 137,
      "Ġwater": 138,
      "Ġthat": 139,
      "ere": 140,
      "Ġbe": 141,
      "ght": 142,
      "ve": 143,
      "le": 144,
      "Ġp": 145,
      "Ġbu": 146,
      "on": 147,
      "is": 148,
      "Ġk": 149,
      "thing": 150,
      "oo": 151,
      "ri": 152,
      "Ġsome": 153,
      "Ġin": 154,
      "'t": 155,
      "Ġfe": 156,
      "Ġever": 157,
      "Ġlike": 158,
      "Ġfeel": 159,
      "Ġno": 160,
      "et": 161,
      "Ġj": 162,
      "Ġha": 163,
      "Ġmo": 164,
      "'m": 165,
      "ust": 166,
      "Ġfor": 167,
      "Ġbut": 168,
      "ti": 169,
      "ld": 170,
      "la": 171,
      "ce": 172,
      "Ġmy": 173,
      "Ġjust": 174,
      "Ġevery": 175,
      "Ġre": 176,
      "Ġyour": 177,
      "Ġare": 178,
      "ind": 179,
      "'re": 180,
      "Ġne": 181,
      "Ġthey": 182,
      "kes": 183,
      "out": 184,
      "ed": 185,
      "right": 186,
      "Ġse": 187,
      "Ġwi": 188,
      "Ġnow": 189,
      "Ġst": 190,
      "Ġdon": 191,
      "arm": 192,
      "Ġwarm": 193,
      "Ġhow": 194,
      "pp": 195,
      "Ġal": 196,
      "Ġkind": 197,
      "..": 198,
      "Ġwa": 199,
      "it": 200,
      "Ġkn": 201,
      "Ġof": 202,
      "Ġab": 203,
      "ang": 204,
      "owl": 205,
      "Ġknow": 206,
      "Ġor": 207,
      "Ġcan": 208,
      "Ġbowl": 209,
      "est": 210,
      "id": 211,
      "Ġco": 212,
      "ch": 213,
      "Ġlight": 214,
      "Ġright": 215,
      "Ġthing": 216,
      "Ġon": 217,
      "ad": 218,
      "Ġthere": 219,
      "all": 220,
      "be": 221,
      "ess": 222,
      "ood": 223,
      "Ġabout": 224,
      "Ġforg": 225,
      "se": 226,
      "Ġhere": 227,
      "one": 228,
      "ent": 229,
      "al": 230,
      "Ġu": 231,
      "Ġgo": 232,
      "way": 233,
      "Ġwhen": 234,
      "Ġsee": 235,
      "Ġeverything": 236,
      "Ġsomething": 237,
      "Ġhapp": 238,
      "ly": 239,
      "Ġthis": 240,
      "Ġfla": 241,
      "ange": 242,
      "rou": 243,
      "ink": 244,
      "Ġmay": 245,
      "Ġmaybe": 246,
      "fu": 247,
      "nt": 248,
      "lo": 249,
      "Ġoh": 250,
      "Ġma": 251,
      "Ġyes": 252,
      "Ġsh": 253,
      "Ġwor": 254,
      "ft": 255,
      "Ġthink": 256,
      "Ġti": 257,
      "ish": 258,
      "tt": 259,
      "ful": 260,
      "Ġnot": 261,
      "Ġfeels": 262,
      "Ġloo": 263,
      "im": 264,
      "ment": 265,
      "Ġgood": 266,
      "mes": 267,
      "Ġsw": 268,
      "Ġwith": 269,
      "Ġflakes": 270,
      "Ġan": 271,
      "Ġlook": 272,
      "Ġdoes": 273,
      "ur": 274,
      "mb": 275,
      "ro": 276,
      "Ġall": 277,
      "ss": 278,
      "ways": 279,
      "Ġalways": 280,
      "Ġmoment": 281,
      "Ġswim": 282,
      "Ġhave": 283,
      "Ġsm": 284,
      "memb": 285,
      "Ġrememb": 286,
      "Ġat": 287,
      "Ġorange": 288,
      "ck": 289,
      "Ġforget": 290,
      "Ġwhy": 291,
      "ould": 292,
      "au": 293,
      "Ġif": 294,
      "Ġbeing": 295,
      "ra": 296,
      "Ġremember": 297,
      "Ġwas": 298,
      "ant": 299,
      "Ġni": 300,
      "Ġho": 301,
      "les": 302,
      "ry": 303,
      "...": 304,
      "art": 305,
      "Ġnew": 306,
      "nder": 307,
      "Ġtime": 308,
      "Ġgla": 309,
      "ness": 310,
      "Ġthings": 311,
      "ast": 312,
      "Ġch": 313,
      "fe": 314,
      "bb": 315,
      "Ġlo": 316,
      "ep": 317,
      "Ġwho": 318,
      "ir": 319,
      "Ġag": 320,
      "Ġr": 321,
      "ain": 322,
      "Ġsomeone": 323,
      "Ġbubb": 324,
      "ea": 325,
      "Ġsa": 326,
      "Ġsoft": 327,
      "Ġget": 328,
      "Ġfin": 329,
      "ther": 330,
      "Ġnice": 331,
      "Ġglass": 332,
      "Ġany": 333,
      "round": 334,
      "Ġagain": 335,
      "ct": 336,
      "Ġthem": 337,
      "ough": 338,
      "ell": 339,
      "Ġthen": 340,
      "ter": 341,
      "Ġmakes": 342,
      "Ġsometi": 343,
      "Ġsometimes": 344,
      "Ġup": 345,
      "Ġsu": 346,
      "Ġsti": 347,
      "Ġflo": 348,
      "Ġdid": 349,
      "Ġfloat": 350,
      "Ġsc": 351,
      "ving": 352,
      "Ġen": 353,
      "Ġstill": 354,
      "Ġsmall": 355,
      "Ġhel": 356,
      "Ġtoo": 357,
      "red": 358,
      "Ġwhere": 359,
      "Ġwe": 360,
      "ming": 361,
      "Ġfa": 362,
      "mp": 363,
      "Ġhappy": 364,
      "Ġmean": 365,
      "Ġdi": 366,
      "Ġgent": 367,
      "ff": 368,
      "Ġam": 369,
      "Ġfish": 370,
      "Ġbo": 371,
      "Ġhappen": 372,
      "Ġfins": 373,
      "pe": 374,
      "Ġwo": 375,
      "Ġta": 376,
      "ven": 377,
      "il": 378,
      "Ġwait": 379,
      "Ġbec": 380,
      "Ġex": 381,
      "ally": 382,
      "nds": 383,
      "Ġok": 384,
      "Ġbubbles": 385,
      "Ġwonder": 386,
      "Ġenough": 387,
      "Ġgi": 388,
      "rom": 389,
      "op": 390,
      "Ġmove": 391,
      "ard": 392,
      "very": 393,
      "Ġone": 394,
      "Ġper": 395,
      "Ġke": 396,
      "Ġokay": 397,
      "ig": 398,
      "rie": 399,
      "Ġkindness": 400,
      "Ġfrom": 401,
      "Ġkeep": 402,
      "qu": 403,
      "rough": 404,
      "Ġfrie": 405,
      "Ġvery": 406,
      "Ġstay": 407,
      "Ġtell": 408,
      "Ġthrough": 409,
      "ffer": 410,
      "Ġway": 411,
      "Ġdiffer": 412,
      "elf": 413,
      "Ġbig": 414,
      "Ġworld": 415,
      "ong": 416,
      "ause": 417,
      "Ġqu": 418,
      "Ġlove": 419,
      "day": 420,
      "Ġbecause": 421,
      "Ġba": 422,
      "Ġrest": 423,
      "Ġwhole": 424,
      "Ġtry": 425,
      "Ġdifferent": 426,
      "Ġlitt": 427,
      "atter": 428,
      "Ġlittle": 429,
      "Ġeven": 430,
      "Ġgold": 431,
      "Ġwill": 432,
      "Ġsay": 433,
      "self": 434,
      "Ġwarmth": 435,
      "own": 436,
      "Ġback": 437,
      "Ġday": 438,
      "Ġgentle": 439,
      "Ġthan": 440,
      "Ġhe": 441,
      "Ġaround": 442,
      "ore": 443,
      "Ġwould": 444,
      "Ġmatter": 445,
      "ting": 446,
      "Ġas": 447,
      "ady": 448,
      "king": 449,
      "ive": 450,
      "Ġbest": 451,
      "low": 452,
      "ide": 453,
      "Ġneed": 454,
      "Ġwant": 455,
      "Ġhu": 456,
      "rea": 457,
      "Ġnever": 458,
      "gg": 459,
      "Ġbel": 460,
      "Ġmost": 461,
      "Ġbright": 462,
      "ely": 463,
      "ves": 464,
      "Ġfu": 465,
      "Ġtr": 466,
      "Ġwonderful": 467,
      "Ġqui": 468,
      "Ġea": 469,
      "Ġcome": 470,
      "Ġv": 471,
      "Ġreally": 472,
      "fect": 473,
      "Ġseem": 474,
      "Ġmoving": 475,
      "ite": 476,
      "Ġperfect": 477,
      "Ġmore": 478,
      "Ġbeau": 479,
      "Ġsec": 480,
      "Ġfriend": 481,
      "Ġmake": 482,
      "Ġreal": 483,
      "Ġmu": 484,
      "Ġswimming": 485,
      "Ġca": 486,
      "Ġbeauti": 487,
      "Ġsou": 488,
      "Ġmeans": 489,
      "Ġhard": 490,
      "Ġnoti": 491,
      "Ġsame": 492,
      "Ġtoday": 493,
      "Ġwigg": 494,
      "ie": 495,
      "ark": 496,
      "Ġbeautiful": 497,
      "rat": 498,
      "fish": 499,
      "Ġhold": 500,
      "Ġstart": 501,
      "Ġpe": 502,
      "Ġpl": 503,
      "ic": 504,
      "reat": 505,
      "Ġby": 506,
      "Ġdrea": 507,
      "Ġgoldfish": 508,
      "ge": 509,
      "res": 510,
      "Ġout": 511,
      "'ll": 512,
      "iny": 513,
      "Ġmuch": 514,
      "Ġquiet": 515,
      "Ġhello": 516,
      "Ġpart": 517,
      "Ġdoesn": 518,
      "dy": 519,
      "Ġcomes": 520,
      "Ġlet": 521,
      "Ġhelp": 522,
      "Ġsp": 523,
      "ight": 524,
      "ous": 525,
      "sta": 526,
      "Ġdream": 527,
      "Ġjo": 528,
      "Ġdown": 529,
      "Ġlooking": 530,
      "ople": 531,
      "Ġbra": 532,
      "Ġpeople": 533,
      "Ġnothing": 534,
      "Ġbelie": 535,
      "Ġanything": 536,
      "Ġstr": 537,
      "Ġsca": 538,
      "orn": 539,
      "Ġtail": 540,
      "Ġpea": 541,
      "Ġfood": 542,
      "Ġsure": 543,
      "Ġunder": 544,
      "Ġcle": 545,
      "here": 546,
      "Ġdark": 547,
      "ready": 548,
      "Ġalready": 549,
      "Ġpeace": 550,
      "Ġchange": 551,
      "vor": 552,
      "ot": 553,
      "tter": 554,
      "Ġfloating": 555,
      "Ġcon": 556,
      "Ġshould": 557,
      "tion": 558,
      "ion": 559,
      "Ġwatch": 560,
      "Ġsad": 561,
      "Ġfavor": 562,
      "ort": 563,
      "Ġsafe": 564,
      "Ġfavorite": 565,
      "Ġround": 566,
      "Ġother": 567,
      "Ġyourself": 568,
      "ib": 569,
      "Ġwere": 570,
      "resh": 571,
      "ure": 572,
      "where": 573,
      "mor": 574,
      "Ġpo": 575,
      "Ġeat": 576,
      "Ġtiny": 577,
      "lls": 578,
      "sh": 579,
      "Ġnotice": 580,
      "'ve": 581,
      "Ġtast": 582,
      "Ġey": 583,
      "Ġfeeling": 584,
      "Ġfir": 585,
      "Ġdoing": 586,
      "ret": 587,
      "Ġhope": 588,
      "Ġhome": 589,
      "sten": 590,
      "Ġfresh": 591,
      "ng": 592,
      "side": 593,
      "Ġscared": 594,
      "Ġfirst": 595,
      "urn": 596,
      "Ġgoing": 597,
      "Ġtrying": 598,
      "Ġlive": 599,
      "Ġchang": 600,
      "Ġde": 601,
      "Ġpla": 602,
      "Ġsur": 603,
      "Ġsha": 604,
      "Ġeyes": 605,
      "Ġbetter": 606,
      "Ġonly": 607,
      "lor": 608,
      "Ġfind": 609,
      "Ġlisten": 610,
      "Ġgra": 611,
      "Ġmatters": 612,
      "Ġturn": 613,
      "Ġslow": 614,
      "Ġhum": 615,
      "Ġundersta": 616,
      "ose": 617,
      "Ġdes": 618,
      "Ġbelieve": 619,
      "vel": 620,
      "Ġscal": 621,
      "Ġscales": 622,
      "Ġlong": 623,
      "Ġplant": 624,
      "Ġbubble": 625,
      "Ġel": 626,
      "Ġsun": 627,
      "Ġaway": 628,
      "Ġseco": 629,
      "Ġeach": 630,
      "ab": 631,
      "Ġword": 632,
      "Ġtrust": 633,
      "Ġtal": 634,
      "Ġunderstand": 635,
      "Ġstop": 636,
      "Ġhur": 637,
      "Ġwhi": 638,
      "Ġcolor": 639,
      "Ġelse": 640,
      "Ġlooks": 641,
      "Ġpro": 642,
      "ool": 643,
      "reath": 644,
      "ise": 645,
      "Ġbreath": 646,
      "Ġpre": 647,
      "Ġhappens": 648,
      "Ġtired": 649,
      "Ġcould": 650,
      "Ġover": 651,
      "Ġfast": 652,
      "ear": 653,
      "fore": 654,
      "om": 655,
      "ade": 656,
      "Ġcare": 657,
      "son": 658,
      "Ġbefore": 659,
      "Ġgravel": 660,
      "Ġimp": 661,
      "Ġlon": 662,
      "Ġalive": 663,
      "Ġwiggle": 664,
      "Ġlife": 665,
      "ance": 666,
      "ove": 667,
      "Ġthank": 668,
      "Ġhurt": 669,
      "Ġcool": 670,
      "leep": 671,
      "Ġabove": 672,
      "Ġkeeps": 673,
      "Ġforgot": 674,
      "int": 675,
      "Ġshad": 676,
      "Ġcal": 677,
      "Ġcar": 678,
      "Ġshadow": 679,
      "Ġdis": 680,
      "irc": 681,
      "Ġcirc": 682,
      "ci": 683,
      "Ġsounds": 684,
      "row": 685,
      "Ġcold": 686,
      "Ġcat": 687,
      "Ġcalm": 688,
      "Ġmight": 689,
      "Ġmade": 690,
      "Ġanyway": 691,
      "Ġtaste": 692,
      "pr": 693,
      "Ġsleep": 694,
      "Ġbody": 695,
      "Ġfull": 696,
      "âĢ": 697,
      "âĢĶ": 698,
      "Ġgills": 699,
      "ine": 700,
      "Ġcoming": 701,
      "Ġsurpr": 702,
      "xt": 703,
      "ist": 704,
      "tty": 705,
      "Ġisn": 706,
      "Ġpretty": 707,
      "Ġplace": 708,
      "so": 709,
      "Ġlea": 710,
      "Ġface": 711,
      "ces": 712,
      "Ġlonely": 713,
      "Ġfriends": 714,
      "Ġpu": 715,
      "Ġcorn": 716,
      "Ġflake": 717,
      "Ġforgetting": 718,
      "Ġthinking": 719,
      "Ġthose": 720,
      "Ġforgive": 721,
      "Ġwithout": 722,
      "Ġclear": 723,
      "Ġtheir": 724,
      "Ġheart": 725,
      "Ġnext": 726,
      "Ġgone": 727,
      "Ġmostly": 728,
      "ue": 729,
      "ers": 730,
      "Ġeveryone": 731,
      "Ġop": 732,
      "to": 733,
      "Ġbr": 734,
      "Ġun": 735,
      "cing": 736,
      "Ġjoy": 737,
      "Ġgets": 738,
      "other": 739,
      "Ġbeen": 740,
      "Ġanother": 741,
      "Ġboth": 742,
      "Ġmeet": 743,
      "Ġalone": 744,
      "Ġwell": 745,
      "Ġcu": 746,
      "Ġwork": 747,
      "Ġus": 748,
      "any": 749,
      "ling": 750,
      "iss": 751,
      "Ġfore": 752,
      "Ġforever": 753,
      "Ġshow": 754,
      "Ġimport": 755,
      "Ġpeaceful": 756,
      "Ġimportant": 757,
      "Ġgift": 758,
      "Ġeas": 759,
      "cri": 760,
      "ence": 761,
      "Ġdescri": 762,
      "Ġcuri": 763,
      "Ġcur": 764,
      "Ġsaying": 765,
      "Ġdescribe": 766,
      "Ġprob": 767,
      "Ġsound": 768,
      "Ġexp": 769,
      "Ġfun": 770,
      "Ġhas": 771,
      "by": 772,
      "Ġmiss": 773,
      "Ġbad": 774,
      "Ġtoge": 775,
      "Ġtogether": 776,
      "Ġthough": 777,
      "Ġperson": 778,
      "Ġholds": 779,
      "Ġcomp": 780,
      "Ġhappened": 781,
      "Ġspe": 782,
      "Ġhand": 783,
      "its": 784,
      "idd": 785,
      "Ġbring": 786,
      "Ġcircles": 787,
      "Ġgetting": 788,
      "Ġplants": 789,
      "ttom": 790,
      "Ġbottom": 791,
      "Ġsecret": 792,
      "Ġpoint": 793,
      "Ġgently": 794,
      "Ġhappening": 795,
      "iness": 796,
      "erday": 797,
      "Ġyest": 798,
      "Ġyesterday": 799,
      "Ġmidd": 800,
      "Ġmiddle": 801,
      "rate": 802,
      "Ġworth": 803,
      "Ġvib": 804,
      "Ġtalking": 805,
      "ud": 806,
      "Ġcurious": 807,
      "ouch": 808,
      "Ġfall": 809,
      "ably": 810,
      "Ġfo": 811,
      "ked": 812,
      "Ġmoves": 813,
      "Ġalso": 814,
      "Ġprobably": 815,
      "Ġtouch": 816,
      "co": 817,
      "ither": 818,
      "Ġopen": 819,
      "Ġexist": 820,
      "ary": 821,
      "Ġclo": 822,
      "Ġwatching": 823,
      "Ġvibrat": 824,
      "Ġinter": 825,
      "Ġwhich": 826,
      "Ġseen": 827,
      "Ġstu": 828,
      "Ġmany": 829,
      "Ġmemor": 830,
      "Ġhear": 831,
      "Ġgive": 832,
      "Ġoutside": 833,
      "Ġbrand": 834,
      "Ġsmoo": 835,
      "Ġold": 836,
      "Ġtop": 837,
      "Ġnear": 838,
      "Ġsmooth": 839,
      "Ġcou": 840,
      "Ġapp": 841,
      "Ġmyself": 842,
      "ction": 843,
      "Ġgre": 844,
      "Ġgot": 845,
      "Ġglow": 846,
      "Ġtomor": 847,
      "Ġtomorrow": 848,
      "Ġwon": 849,
      "Ġseems": 850,
      "ions": 851,
      "Ġgoodby": 852,
      "Ġsecond": 853,
      "rateful": 854,
      "Ġwr": 855,
      "Ġinterest": 856,
      "Ġgrateful": 857,
      "Ġwrong": 858,
      "ually": 859,
      "ice": 860,
      "Ġvis": 861,
      "Ġrea": 862,
      "ty": 863,
      "Ġmust": 864,
      "Ġsomewhere": 865,
      "Ġgoodbye": 866,
      "Ġbl": 867,
      "Ġdri": 868,
      "Ġglad": 869,
      "Ġwaiting": 870,
      "Ġpast": 871,
      "Ġchanges": 872,
      "Ġworry": 873,
      "Ġclean": 874,
      "elt": 875,
      "Ġinside": 876,
      "Ġmemory": 877,
      "Ġmorn": 878,
      "Ġmorning": 879,
      "iz": 880,
      "Ġgoes": 881,
      "Ġna": 882,
      "Ġown": 883,
      "Ġac": 884,
      "Ġcast": 885,
      "Ġpat": 886,
      "Ġinto": 887,
      "Ġbigg": 888,
      "'d": 889,
      "ile": 890,
      "Ġbrave": 891,
      "cial": 892,
      "Ġfelt": 893,
      "Ġsor": 894,
      "Ġgreen": 895,
      "ought": 896,
      "ead": 897,
      "Ġhi": 898,
      "Ġte": 899,
      "Ġcastle": 900,
      "Ġthought": 901,
      "Ġeither": 902,
      "Ġresting": 903,
      "Ġdreams": 904,
      "Ġlast": 905,
      "act": 906,
      "cu": 907,
      "Ġcame": 908,
      "Ġinteresting": 909,
      "Ġscary": 910,
      "Ġeverywhere": 911,
      "Ġwish": 912,
      "Ġtrue": 913,
      "Ġdrift": 914,
      "Ġhelps": 915,
      "Ġforgi": 916,
      "ning": 917,
      "Ġdisa": 918,
      "Ġspecial": 919,
      "Ġknowing": 920,
      "Ġtap": 921,
      "Ġexc": 922,
      "Ġlistening": 923,
      "Ġsurpris": 924,
      "ward": 925,
      "Ġwet": 926,
      "sing": 927,
      "Ġsim": 928,
      "Ġseconds": 929,
      "Ġsorry": 930,
      "Ġru": 931,
      "Ġexact": 932,
      "Ġsimp": 933,
      "Ġpa": 934,
      "ible": 935,
      "Ġstays": 936,
      "Ġvisit": 937,
      "Ġinst": 938,
      "Ġnight": 939,
      "bo": 940,
      "Ġdisapp": 941,
      "Ġready": 942,
      "Ġmaking": 943,
      "Ġdidn": 944,
      "ate": 945,
      "Ġten": 946,
      "Ġmovement": 947,
      "tten": 948,
      "ity": 949,
      "body": 950,
      "Ġmi": 951,
      "Ġdan": 952,
      "az": 953,
      "Ġhung": 954,
      "Ġbrings": 955,
      "Ġlost": 956,
      "oud": 957,
      "ever": 958,
      "Ġsmile": 959,
      "Ġjoke": 960,
      "Ġbreathe": 961,
      "Ġexcit": 962,
      "ny": 963,
      "Ġair": 964,
      "ill": 965,
      "cks": 966,
      "Ġshadows": 967,
      "Ġstrong": 968,
      "Ġmoved": 969,
      "Ġlear": 970,
      "Ġro": 971,
      "Ġsofter": 972,
      "Ġstrange": 973,
      "Ġsimple": 974,
      "Ġonce": 975,
      "Ġreg": 976,
      "Ġanyone": 977,
      "dd": 978,
      "Ġnobody": 979,
      "Ġle": 980,
      "Ġclose": 981,
      "Ġaf": 982,
      "oom": 983,
      "Ġwhile": 984,
      "Ġexactly": 985,
      "Ġtea": 986,
      "Ġpush": 987,
      "ase": 988,
      "Ġfear": 989,
      "Ġbeco": 990,
      "gic": 991,
      "Ġwords": 992,
      "Ġbreathing": 993,
      "pped": 994,
      "Ġteach": 995,
      "Ġact": 996,
      "Ġlot": 997,
      "Ġleave": 998,
      "raid": 999,
      "Ġwiggling": 1000,
      "ature": 1001,
      "Ġyoung": 1002,
      "Ġconfu": 1003,
      "Ġafraid": 1004,
      "Ġsl": 1005,
      "ound": 1006,
      "Ġfine": 1007,
      "Ġvibrations": 1008,
      "how": 1009,
      "sed": 1010,
      "Ġeasy": 1011,
      "ious": 1012,
      "Ġmou": 1013,
      "Ġmagic": 1014,
      "Ġsomehow": 1015,
      "Ġcorners": 1016,
      "Ġtemp": 1017,
      "lu": 1018,
      "Ġbet": 1019,
      "Ġknows": 1020,
      "Ġcares": 1021,
      "Ġregret": 1022,
      "Ġfunny": 1023,
      "Ġdance": 1024,
      "Ġsoon": 1025,
      "Ġaren": 1026,
      "Ġones": 1027,
      "Ġcorner": 1028,
      "Ġpass": 1029,
      "Ġinstead": 1030,
      "Ġmouth": 1031,
      "ace": 1032,
      "led": 1033,
      "Ġlov": 1034,
      "Ġfar": 1035,
      "fter": 1036,
      "Ġdancing": 1037,
      "Ġafter": 1038,
      "Ġmind": 1039,
      "Ġshap": 1040,
      "Ġhappiness": 1041,
      "Ġhuman": 1042,
      "Ġbit": 1043,
      "ried": 1044,
      "ize": 1045,
      "ier": 1046,
      "Ġhea": 1047,
      "Ġcall": 1048,
      "Ġsaid": 1049,
      "Ġswish": 1050,
      "Ġsurprise": 1051,
      "Ġcount": 1052,
      "Ġcatch": 1053,
      "Ġtemper": 1054,
      "Ġlovely": 1055,
      "Ġheav": 1056,
      "Ġwarmer": 1057,
      "Ġside": 1058,
      "Ġless": 1059,
      "Ġhad": 1060,
      "Ġgolden": 1061,
      "Ġfil": 1062,
      "Ġtemperature": 1063,
      "Ġname": 1064,
      "Ġfeed": 1065,
      "pt": 1066,
      "ation": 1067,
      "Ġjud": 1068,
      "Ġbored": 1069,
      "ree": 1070,
      "Ġcolors": 1071,
      "Ġfilter": 1072,
      "able": 1073,
      "Ġpati": 1074,
      "oice": 1075,
      "Ġamaz": 1076,
      "Ġtow": 1077,
      "Ġang": 1078,
      "Ġshapes": 1079,
      "Ġend": 1080,
      "Ġhandle": 1081,
      "Ġloud": 1082,
      "Ġtoward": 1083,
      "llow": 1084,
      "Ġfail": 1085,
      "Ġtake": 1086,
      "Ġri": 1087,
      "Ġhon": 1088,
      "less": 1089,
      "Ġra": 1090,
      "Ġfalling": 1091,
      "Ġholding": 1092,
      "Ġappear": 1093,
      "Ġbump": 1094,
      "tive": 1095,
      "Ġmeaning": 1096,
      "Ġdeser": 1097,
      "Ġforward": 1098,
      "Ġchance": 1099,
      "Ġstrang": 1100,
      "Ġsing": 1101,
      "Ġmeeting": 1102,
      "Ġfollow": 1103,
      "Ġlu": 1104,
      "Ġref": 1105,
      "Ġforgiven": 1106,
      "Ġquick": 1107,
      "Ġspot": 1108,
      "Ġdeep": 1109,
      "Ġaw": 1110,
      "Ġhungry": 1111,
      "ump": 1112,
      "Ġturning": 1113,
      "Ġsen": 1114,
      "tely": 1115,
      "Ġgu": 1116,
      "Ġcont": 1117,
      "Ġshape": 1118,
      "Ġheavy": 1119,
      "fin": 1120,
      "mm": 1121,
      "zy": 1122,
      "Ġask": 1123,
      "Ġshi": 1124,
      "Ġtalk": 1125,
      "Ġchanged": 1126,
      "we": 1127,
      "Ġstuck": 1128,
      "Ġhonest": 1129,
      "Ġactually": 1130,
      "Ġad": 1131,
      "Ġsudd": 1132,
      "Ġsudden": 1133,
      "Ġgreat": 1134,
      "Ġchanging": 1135,
      "Ġmista": 1136,
      "Ġlearn": 1137,
      "our": 1138,
      "Ġfound": 1139,
      "Ġthese": 1140,
      "Ġexplo": 1141,
      "ond": 1142,
      "Ġyet": 1143,
      "ird": 1144,
      "ster": 1145,
      "Ġpur": 1146,
      "cept": 1147,
      "ween": 1148,
      "Ġcl": 1149,
      "Ġemp": 1150,
      "Ġneeds": 1151,
      "Ġreason": 1152,
      "Ġbetween": 1153,
      "Ġmyster": 1154,
      "Ġrocks": 1155,
      "estion": 1156,
      "Ġhide": 1157,
      "Ġmoments": 1158,
      "Ġquestion": 1159,
      "Ġamazing": 1160,
      "ered": 1161,
      "Ġpurp": 1162,
      "Ġsill": 1163,
      "Ġwhatever": 1164,
      "Ġpres": 1165,
      "ones": 1166,
      "Ġlooked": 1167,
      "Ġdisco": 1168,
      "Ġbis": 1169,
      "Ġshiny": 1170,
      "Ġbiscu": 1171,
      "Ġforgiveness": 1172,
      "lease": 1173,
      "Ġothers": 1174,
      "Ġliving": 1175,
      "pping": 1176,
      "Ġnoticing": 1177,
      "Ġcurve": 1178,
      "owly": 1179,
      "ides": 1180,
      "Ġum": 1181,
      "Ġslowly": 1182,
      "yond": 1183,
      "Ġflow": 1184,
      "Ġed": 1185,
      "Ġmet": 1186,
      "Ġbeyond": 1187,
      "Ġasking": 1188,
      "Ġbigger": 1189,
      "Ġawa": 1190,
      "ip": 1191,
      "ges": 1192,
      "Ġeating": 1193,
      "Ġris": 1194,
      "Ġstuff": 1195,
      "Ġtw": 1196,
      "Ġits": 1197,
      "lain": 1198,
      "Ġrem": 1199,
      "Ġtakes": 1200,
      "Ġid": 1201,
      "oy": 1202,
      "Ġexplore": 1203,
      "ater": 1204,
      "Ġplay": 1205,
      "Ġseeing": 1206,
      "Ġfr": 1207,
      "eak": 1208,
      "si": 1209,
      "Ġpr": 1210,
      "Ġtra": 1211,
      "Ġmine": 1212,
      "Ġempty": 1213,
      "Ġbrea": 1214,
      "Ġitself": 1215,
      "imm": 1216,
      "Ġbrightness": 1217,
      "Ġtru": 1218,
      "Ġrain": 1219,
      "Ġim": 1220,
      "Ġdire": 1221,
      "inning": 1222,
      "?!": 1223,
      "Ġself": 1224,
      "Ġstones": 1225,
      "Ġtimes": 1226,
      "Ġchoo": 1227,
      "Ġleaving": 1228,
      "Ġleft": 1229,
      "Ġsilly": 1230,
      "ily": 1231,
      "ne": 1232,
      "Ġgr": 1233,
      "Ġste": 1234,
      "Ġshift": 1235,
      "Ġsto": 1236,
      "Ġsurprised": 1237,
      "Ġrefle": 1238,
      "Ġmess": 1239,
      "Ġplease": 1240,
      "Ġdarkness": 1241,
      "Ġgrow": 1242,
      "Ġcomple": 1243,
      "Ġbiggest": 1244,
      "mo": 1245,
      "Ġdec": 1246,
      "Ġexcited": 1247,
      "rent": 1248,
      "Ġkindly": 1249,
      "Ġcom": 1250,
      "Ġluck": 1251,
      "Ġsense": 1252,
      "ies": 1253,
      "Ġremembering": 1254,
      "Ġwent": 1255,
      "Ġweird": 1256,
      "Ġloved": 1257,
      "Ġdirection": 1258,
      "Ġcomf": 1259,
      "Ġpurpose": 1260,
      "Ġach": 1261,
      "Ġgiving": 1262,
      "Ġripp": 1263,
      "Ġdisappo": 1264,
      "Ġdiscover": 1265,
      "te": 1266,
      "cted": 1267,
      "Ġsays": 1268,
      "Ġtastes": 1269,
      "Ġworks": 1270,
      "Ġgoodness": 1271,
      "ssible": 1272,
      "Ġfi": 1273,
      "Ġjump": 1274,
      "Ġar": 1275,
      "Ġcarry": 1276,
      "Ġremind": 1277,
      "ture": 1278,
      "Ġfuture": 1279,
      "Ġreach": 1280,
      "Ġvisitor": 1281,
      "Ġdeserve": 1282,
      "Ġdefin": 1283,
      "Ġletting": 1284,
      "Ġbreak": 1285,
      "Ġgentl": 1286,
      "Ġdisappoint": 1287,
      "Ġawake": 1288,
      "Ġes": 1289,
      "Ġwake": 1290,
      "more": 1291,
      "Ġhaving": 1292,
      "Ġaccept": 1293,
      "Ġanymore": 1294,
      "Ġspark": 1295,
      "Ġbelly": 1296,
      "stant": 1297,
      "Ġnoise": 1298,
      "Ġidea": 1299,
      "Ġstartled": 1300,
      "Ġsteady": 1301,
      "most": 1302,
      "os": 1303,
      "Ġconfused": 1304,
      "ky": 1305,
      "Ġhaven": 1306,
      "Ġalmost": 1307,
      "Ġbelong": 1308,
      "Ġatten": 1309,
      "Ġche": 1310,
      "Ġevening": 1311,
      "immer": 1312,
      "Ġflu": 1313,
      "Ġvoice": 1314,
      "Ġadv": 1315,
      "iest": 1316,
      "ick": 1317,
      "Ġconstant": 1318,
      "Ġjudge": 1319,
      "Ġcomfort": 1320,
      "Ġattention": 1321,
      "Ġstor": 1322,
      "Ġhopeful": 1323,
      "Ġcurrent": 1324,
      "Ġset": 1325,
      "iding": 1326,
      "Ġspace": 1327,
      "Ġ-": 1328,
      "Ġshar": 1329,
      "Ġsadness": 1330,
      "Ġonto": 1331,
      "Ġexplain": 1332,
      "hy": 1333,
      "joy": 1334,
      "Ġdel": 1335,
      "Ġenjoy": 1336,
      "Ġparts": 1337,
      "Ġache": 1338,
      "Ġnoticed": 1339,
      "Ġusually": 1340,
      "am": 1341,
      "Ġbeg": 1342,
      "Ġhands": 1343,
      "Ġhumming": 1344,
      "sitive": 1345,
      "Ġlucky": 1346,
      "bt": 1347,
      "otten": 1348,
      "Ġforgotten": 1349,
      "Ġinv": 1350,
      "Ġbecomes": 1351,
      "Ġz": 1352,
      "Ġwow": 1353,
      "itely": 1354,
      "Ġsuch": 1355,
      "Ġreflection": 1356,
      "ert": 1357,
      "Ġdou": 1358,
      "Ġrush": 1359,
      "Ġchoose": 1360,
      "Ġsaw": 1361,
      "Ġdefinitely": 1362,
      "Ġflutter": 1363,
      "Ġcompletely": 1364,
      "ath": 1365,
      "Ġbus": 1366,
      "Ġsme": 1367,
      "til": 1368,
      "Ġheld": 1369,
      "ag": 1370,
      "fer": 1371,
      "Ġbro": 1372,
      "Ġstre": 1373,
      "Ġblue": 1374,
      "Ġpresent": 1375,
      "Ġworried": 1376,
      "med": 1377,
      "ngth": 1378,
      "Ġstrength": 1379,
      "Ġroom": 1380,
      "Ġrising": 1381,
      "Ġlives": 1382,
      "Ġdifference": 1383,
      "gy": 1384,
      "Ġsharp": 1385,
      "Ġsides": 1386,
      "Ġbits": 1387,
      "vers": 1388,
      "Ġslower": 1389,
      "Ġuntil": 1390,
      "Ġres": 1391,
      "Ġexciting": 1392,
      "Ġbeh": 1393,
      "ading": 1394,
      "Ġago": 1395,
      "Ġcircle": 1396,
      "Ġfree": 1397,
      "Ġquieter": 1398,
      "Ġdoubt": 1399,
      "ken": 1400,
      "ul": 1401,
      "Ġstops": 1402,
      "ances": 1403,
      "Ġshimmer": 1404,
      "Ġanywhere": 1405,
      "Ġquite": 1406,
      "Ġwast": 1407,
      "Ġglowing": 1408,
      "Ġga": 1409,
      "Ġstarting": 1410,
      "Ġdarker": 1411,
      "Ġsleeping": 1412,
      "Ġsuddenly": 1413,
      "gn": 1414,
      "Ġener": 1415,
      "eness": 1416,
      "Ġear": 1417,
      "Ġtick": 1418,
      "Ġpatience": 1419,
      "Ġdeal": 1420,
      "Ġcontent": 1421,
      "Ġstaying": 1422,
      "Ġpositive": 1423,
      "Ġpatient": 1424,
      "Ġripples": 1425,
      "Ġsleepy": 1426,
      "Ġangry": 1427,
      "Ġmistakes": 1428,
      "Ġbiscuits": 1429,
      "Ġstory": 1430,
      "Ġstranger": 1431,
      "sic": 1432,
      "ross": 1433,
      "Ġcurves": 1434,
      "ertain": 1435,
      "Ġbroken": 1436,
      "Ġbehind": 1437,
      "Ġsmart": 1438,
      "Ġchances": 1439,
      "Ġbother": 1440,
      "Ġtouches": 1441,
      "Ġsingle": 1442,
      "face": 1443,
      "Ġsurface": 1444,
      "Ġcooler": 1445,
      "Ġimag": 1446,
      "Ġplast": 1447,
      "Ġeasier": 1448,
      "rage": 1449,
      "Ġnic": 1450,
      "Ġsett": 1451,
      "Ġplastic": 1452,
      "ries": 1453,
      "Ġgives": 1454,
      "Ġshowing": 1455,
      "atur": 1456,
      "Ġfrust": 1457,
      "Ġ'": 1458,
      "Ġfit": 1459,
      "oring": 1460,
      "Ġplaces": 1461,
      "sw": 1462,
      "Ġcha": 1463,
      "Ġguess": 1464,
      "Ġfrustrat": 1465,
      "Ġrise": 1466,
      "Ġwouldn": 1467,
      "li": 1468,
      "ten": 1469,
      "orm": 1470,
      "Ġweak": 1471,
      "Ġsit": 1472,
      "Ġsize": 1473,
      "Ġyours": 1474,
      "Ġkindest": 1475,
      "Ġwalls": 1476,
      "Ġworking": 1477,
      "Ġhug": 1478,
      "Ġlonel": 1479,
      "Ġshows": 1480,
      "Ġbusy": 1481,
      "ations": 1482,
      "Ġfloaty": 1483,
      "Ġtells": 1484,
      "Ġarri": 1485,
      "Ġgentleness": 1486,
      "oun": 1487,
      "Ġswam": 1488,
      "Ġwants": 1489,
      "Ġbrighter": 1490,
      "Ġscare": 1491,
      "Ġstopped": 1492,
      "Ġah": 1493,
      "Ġhiding": 1494,
      "oof": 1495,
      "Ġunc": 1496,
      "Ġcourage": 1497,
      "Ġmovements": 1498,
      "Ġboun": 1499,
      "Ġfight": 1500,
      "Ġlau": 1501,
      "Ġfeelings": 1502,
      "Ġlets": 1503,
      "Ġdisappear": 1504,
      "hip": 1505,
      "ated": 1506,
      "Ġansw": 1507,
      "Ġbrain": 1508,
      "Ġedges": 1509,
      "Ġpress": 1510,
      "Ġloneliness": 1511,
      "Ġtried": 1512,
      "eared": 1513,
      "Ġfam": 1514,
      "Ġfriendship": 1515,
      "Ġclos": 1516,
      "Ġimagine": 1517,
      "Ġboring": 1518,
      "Ġnatur": 1519,
      "Ġprom": 1520,
      "ility": 1521,
      "Ġap": 1522,
      "Ġsink": 1523,
      "Ġtapping": 1524,
      "Ġcaring": 1525,
      "ps": 1526,
      "set": 1527,
      "Ġph": 1528,
      "Ġheal": 1529,
      "Ġlaugh": 1530,
      "ha": 1531,
      "Ġour": 1532,
      "Ġlater": 1533,
      "Ġshe": 1534,
      "Ġagainst": 1535,
      "Ġeasily": 1536,
      "Ġlots": 1537,
      "ĠY": 1538,
      "Ġdro": 1539,
      "Ġdifferently": 1540,
      "Ġperfectly": 1541,
      "Ġfaster": 1542,
      "Ġshine": 1543,
      "Ġenergy": 1544,
      "Ġpain": 1545,
      "isp": 1546,
      "Ġpun": 1547,
      "Ġdelic": 1548,
      "and": 1549,
      "Ġtreat": 1550,
      "Ġremembers": 1551,
      "Ġhardest": 1552,
      "Ġuse": 1553,
      "Ġplan": 1554,
      "Ġcompany": 1555,
      "Ġfocu": 1556,
      "Ġhonestly": 1557,
      "age": 1558,
      "erv": 1559,
      "Ġcozy": 1560,
      "Ġmystery": 1561,
      "Ġtold": 1562,
      "Ġfaces": 1563,
      "Ġwondering": 1564,
      "Ġdreaming": 1565,
      "cially": 1566,
      "Ġhumans": 1567,
      "cy": 1568,
      "time": 1569,
      "Ġsees": 1570,
      "pecially": 1571,
      "Ġwiggles": 1572,
      "Ġstarted": 1573,
      "Ġturned": 1574,
      "Ġcounts": 1575,
      "Ġespecially": 1576,
      "Ġvibration": 1577,
      "Ġdrifting": 1578,
      "Ġendless": 1579,
      "Ġcomfortable": 1580,
      "ru": 1581,
      "full": 1582,
      "Ġsoftly": 1583,
      "Ġmissing": 1584,
      "Ġtruly": 1585,
      "Ġfre": 1586,
      "rely": 1587,
      "Ġpatter": 1588,
      "Ġchoice": 1589,
      "pect": 1590,
      "Ġhead": 1591,
      "Ġcurved": 1592,
      "ili": 1593,
      "Ġcared": 1594,
      "Ġshaking": 1595,
      "Ġanger": 1596,
      "light": 1597,
      "Ġsupp": 1598,
      "fully": 1599,
      "Ġtre": 1600,
      "Ġnose": 1601,
      "Ġshin": 1602,
      "Ġremembered": 1603,
      "iling": 1604,
      "Ġmistake": 1605,
      "Ġgrud": 1606,
      "Ġoften": 1607,
      "Ġstru": 1608,
      "Ġlearning": 1609,
      "Ġchasing": 1610,
      "Ġreco": 1611,
      "Ġoff": 1612,
      "Ġsoftness": 1613,
      "Ġdist": 1614,
      "Ġharder": 1615,
      "Ġleaves": 1616,
      "Ġforgiving": 1617,
      "cking": 1618,
      "Ġmusic": 1619,
      "Ġnotices": 1620,
      "Ġpossible": 1621,
      "come": 1622,
      "Ġthoughts": 1623,
      "Ġfrustrated": 1624,
      "ew": 1625,
      "ner": 1626,
      "Ġeff": 1627,
      "mble": 1628,
      "Ġscar": 1629,
      "Ġways": 1630,
      "Ġwiggly": 1631,
      "Ġjokes": 1632,
      "Ġconne": 1633,
      "Ġrun": 1634,
      "Ġmysterious": 1635,
      "Ġpebb": 1636,
      "Ġdecor": 1637,
      "Ġwel": 1638,
      "Ġnorm": 1639,
      "Ġgl": 1640,
      "Ġpay": 1641,
      "Ġsurprises": 1642,
      "Ġhunger": 1643,
      "Ġconfusing": 1644,
      "Ġ*": 1645,
      "ĠI": 1646,
      "rac": 1647,
      "Ġprefer": 1648,
      "Ġtwo": 1649,
      "ved": 1650,
      "ook": 1651,
      "tim": 1652,
      "Ġdays": 1653,
      "Ġflows": 1654,
      "Ġadvice": 1655,
      "Ġinvis": 1656,
      "Ġnormal": 1657,
      "Ġting": 1658,
      "Ġsil": 1659,
      "Ġnerv": 1660,
      "Ġinvisible": 1661,
      "Ġnervous": 1662,
      "Ġwis": 1663,
      "Ġhmm": 1664,
      "Ġcreat": 1665,
      "Ġabso": 1666,
      "ssib": 1667,
      "Ġneeded": 1668,
      "Ġstarts": 1669,
      "Ġacross": 1670,
      "Ġanswer": 1671,
      "Ġabsolu": 1672,
      "Ġneither": 1673,
      "Ġstone": 1674,
      "Ġchase": 1675,
      "Ġimpo": 1676,
      "Ġjudg": 1677,
      "Ġgreatest": 1678,
      "Ġpromise": 1679,
      "Ġstrugg": 1680,
      "ower": 1681,
      "Ġswe": 1682,
      "istic": 1683,
      "Ġfix": 1684,
      "Ġzoom": 1685,
      "Ġsmell": 1686,
      "na": 1687,
      "Ġoptim": 1688,
      "Ġedge": 1689,
      "Ġdisappointment": 1690,
      "Ġbeginning": 1691,
      "Ġabsolutely": 1692,
      "Ġdone": 1693,
      "Ġpossib": 1694,
      "Ġbecome": 1695,
      "olo": 1696,
      "Ġsky": 1697,
      "Ġlate": 1698,
      "Ġpure": 1699,
      "Ġstillness": 1700,
      "Ġbarely": 1701,
      "Ġbelieving": 1702,
      "Ġgifts": 1703,
      "Ġimpossible": 1704,
      "OU": 1705,
      "ĠW": 1706,
      "Ġhits": 1707,
      "Ġstar": 1708,
      "Ġlighter": 1709,
      "Ġrecogn": 1710,
      "Ġeffort": 1711,
      "Ġsweet": 1712,
      "sp": 1713,
      "Ġfading": 1714,
      "Ġlim": 1715,
      "Ġhop": 1716,
      "dom": 1717,
      "Ġtu": 1718,
      "lax": 1719,
      "Ġrelax": 1720,
      "Ġknew": 1721,
      "Ġspinning": 1722,
      "Ġtrusting": 1723,
      "Ġglows": 1724,
      "Ġsurprising": 1725,
      "Ġuncertain": 1726,
      "Ġwelcome": 1727,
      "ca": 1728,
      "Ġwasn": 1729,
      "Ġage": 1730,
      "Ġbumpy": 1731,
      "Ġsinging": 1732,
      "Ġdiscovering": 1733,
      "Ġcra": 1734,
      "Ġbiscuit": 1735,
      "ĠYOU": 1736,
      "Ġpebbles": 1737,
      "zzy": 1738,
      "Ġopp": 1739,
      "Ġsong": 1740,
      "Ġspin": 1741,
      "Ġprote": 1742,
      "Ġtruth": 1743,
      "ee": 1744,
      "ild": 1745,
      "ilo": 1746,
      "sop": 1747,
      "Ġnowhere": 1748,
      "Ġsmiling": 1749,
      "Ġloves": 1750,
      "Ġused": 1751,
      "Ġphilo": 1752,
      "Ġwisdom": 1753,
      "Ġphilosop": 1754,
      "reci": 1755,
      "Ġtouching": 1756,
      "Ġappreci": 1757,
      "Ġfills": 1758,
      "Ġapolo": 1759,
      "ele": 1760,
      "Ġmeant": 1761,
      "Ġtelling": 1762,
      "Ġleast": 1763,
      "Ġoptimistic": 1764,
      "end": 1765,
      "fast": 1766,
      "sure": 1767,
      "ident": 1768,
      "ched": 1769,
      "enty": 1770,
      "Ġplenty": 1771,
      "Ġbelief": 1772,
      "Ġsunlight": 1773,
      "Ġbreakfast": 1774,
      "??": 1775,
      "ek": 1776,
      "Ġcele": 1777,
      "Ġteaches": 1778,
      "Ġpasses": 1779,
      "Ġlearned": 1780,
      "Ġcloud": 1781,
      "Ġnatural": 1782,
      "Ġscares": 1783,
      "Ġceleb": 1784,
      "Ġfl": 1785,
      "Ġsear": 1786,
      "Ġwaking": 1787,
      "Ġsaf": 1788,
      "Ġkeeping": 1789,
      "Ġspeak": 1790,
      "Ġfalls": 1791,
      "Ġtouched": 1792,
      "Ġpushing": 1793,
      "Ġquickly": 1794,
      "Ġdelicious": 1795,
      "Ġfreed": 1796,
      "iliar": 1797,
      "Ġblo": 1798,
      "thm": 1799,
      "ket": 1800,
      "Ġblur": 1801,
      "Ġgave": 1802,
      "Ġfighting": 1803,
      "Ġoppos": 1804,
      "Ġphilosophy": 1805,
      "Ġfreedom": 1806,
      "ble": 1807,
      "ience": 1808,
      "Ġlikes": 1809,
      "Ġasked": 1810,
      "Ġlonger": 1811,
      "ude": 1812,
      "ized": 1813,
      "Ġregrets": 1814,
      "cess": 1815,
      "Ġwise": 1816,
      "ating": 1817,
      "Ġexpect": 1818,
      "Ġheard": 1819,
      "Ġappears": 1820,
      "Ġrecognize": 1821,
      "Ġdart": 1822,
      "ices": 1823,
      "Ġfinds": 1824,
      "Ġnearby": 1825,
      "hythm": 1826,
      "Ġcloser": 1827,
      "Ġtremb": 1828,
      "Ġpossibility": 1829,
      "oh": 1830,
      "Ġshort": 1831,
      "ures": 1832,
      "Ġrhythm": 1833,
      "Ġsmaller": 1834,
      "Ġhurts": 1835,
      "Ġcatches": 1836,
      "Ġstrangers": 1837,
      "Ġfocus": 1838,
      "Ġpattern": 1839,
      "are": 1840,
      "Ġthick": 1841,
      "Ġpop": 1842,
      "Ġpret": 1843,
      "Ġtaking": 1844,
      "Ġpassed": 1845,
      "Ġsearch": 1846,
      "oices": 1847,
      "ut": 1848,
      "wor": 1849,
      "oudy": 1850,
      "Ġlose": 1851,
      "Ġupset": 1852,
      "Ġwanting": 1853,
      "Ġcloudy": 1854,
      "Ġshifts": 1855,
      "Ġmad": 1856,
      "Ġfill": 1857,
      "oot": 1858,
      "aught": 1859,
      "Ġbelieves": 1860,
      "Ġconvers": 1861,
      "Ġplaying": 1862,
      "Ġopposite": 1863,
      "Ġter": 1864,
      "Ġbrou": 1865,
      "Ġbends": 1866,
      "Ġshare": 1867,
      "Ġshakes": 1868,
      "Ġesca": 1869,
      "Ġbrought": 1870,
      "Ġred": 1871,
      "Ġkinder": 1872,
      "Ġfloats": 1873,
      "Ġbackward": 1874,
      "Ġcarries": 1875,
      "Ġfeeds": 1876,
      "Ġreminds": 1877,
      "Ġfamiliar": 1878,
      "cked": 1879,
      "lash": 1880,
      "Ġwal": 1881,
      "Ġexha": 1882,
      "Ġexper": 1883,
      "Ġexists": 1884,
      "Ġbecoming": 1885,
      "Ġfailure": 1886,
      "Ġproof": 1887,
      "Ġsparkles": 1888,
      "Ġconstantly": 1889,
      "Ġapolog": 1890,
      "Ġexhaust": 1891,
      "ress": 1892,
      "Ġpie": 1893,
      "Ġsplash": 1894,
      "lic": 1895,
      "night": 1896,
      "ins": 1897,
      "Ġsna": 1898,
      "ont": 1899,
      "tic": 1900,
      "Ġspre": 1901,
      "Ġstronger": 1902,
      "Ġpushes": 1903,
      "Ġfive": 1904,
      "Ġwarmest": 1905,
      "eps": 1906,
      "Ġpatch": 1907,
      "Ġpresence": 1908,
      "Ġfront": 1909,
      "Ġcheer": 1910,
      "Ġgrudges": 1911,
      "Ġsol": 1912,
      "Ġpower": 1913,
      "Ġswims": 1914,
      "cious": 1915,
      "osity": 1916,
      "Ġcry": 1917,
      "oosh": 1918,
      "Ġwanted": 1919,
      "shine": 1920,
      "Ġfinding": 1921,
      "Ġsunshine": 1922,
      "Ġolder": 1923,
      "tra": 1924,
      "Ġboom": 1925,
      "Ġlaz": 1926,
      "Ġwoke": 1927,
      "Ġunk": 1928,
      "Ġappeared": 1929,
      "Ġterri": 1930,
      "rse": 1931,
      "Ġhit": 1932,
      "Ġnet": 1933,
      "Ġwall": 1934,
      "Ġworst": 1935,
      "Ġfriendly": 1936,
      "Ġput": 1937,
      "Ġcuriosity": 1938,
      "Ġcourse": 1939,
      "Ġblan": 1940,
      "Ġsilence": 1941,
      "Ġstruggling": 1942,
      "sel": 1943,
      "umb": 1944,
      "water": 1945,
      "Ġfew": 1946,
      "Ġlosing": 1947,
      "Ġgrowing": 1948,
      "Ġsmells": 1949,
      "Ġappreciate": 1950,
      "Ġconversation": 1951,
      "Ġbal": 1952,
      "Ġwhisp": 1953,
      "Ġpink": 1954,
      "Ġtight": 1955,
      "Ġshake": 1956,
      "Ġgrace": 1957,
      "Ġspend": 1958,
      "Ġvisitors": 1959,
      "Ġdistra": 1960,
      "no": 1961,
      "att": 1962,
      "Ġextra": 1963,
      "Ġfog": 1964,
      "Ġacc": 1965,
      "Ġtrapped": 1966,
      "Ġdecorations": 1967,
      "Ġexperience": 1968,
      "osed": 1969,
      "Ġends": 1970,
      "Ġret": 1971,
      "Ġkno": 1972,
      "Ġscore": 1973,
      "Ġwherever": 1974,
      "Ġhelping": 1975,
      "Ġhurting": 1976,
      "Ġexplor": 1977,
      "Ġpath": 1978,
      "Ġmagical": 1979,
      "Ġdeserves": 1980,
      "Ġcontro": 1981,
      "Ġtwice": 1982,
      "Ġprotect": 1983,
      "Ġwind": 1984,
      "Ġadd": 1985,
      "Ġser": 1986,
      "lem": 1987,
      "Ġwaves": 1988,
      "Ġpull": 1989,
      "Ġproblem": 1990,
      "Ġstrongest": 1991,
      "Ġswishes": 1992,
      "Ġquestions": 1993,
      "Ġadvent": 1994,
      "Ġescape": 1995,
      "selves": 1996,
      "Ġthree": 1997,
      "Ġate": 1998,
      "Ġsuc": 1999,
      "Ġdig": 2000,
      "Ġhuge": 2001,
      "Ġbeauty": 2002,
      "Ġmemories": 2003,
      "Ġjumped": 2004,
      "Ġahead": 2005,
      "Ġcontrol": 2006,
      "Ġfed": 2007,
      "Ġrepe": 2008,
      "Ġloving": 2009,
      "Ġsecrets": 2010,
      "Ġexisting": 2011,
      "ather": 2012,
      "Ġbalance": 2013,
      "ush": 2014,
      "Ġfoot": 2015,
      "Ġbuild": 2016,
      "gging": 2017,
      "Ġjob": 2018,
      "Ġconf": 2019,
      "Ġlived": 2020,
      "Ġturns": 2021,
      "Ġselfish": 2022,
      "Ġrunning": 2023,
      "Ġexploring": 2024,
      "us": 2025,
      "Ġgen": 2026,
      "steps": 2027,
      "Ġmeal": 2028,
      "itude": 2029,
      "Ġwhoever": 2030,
      "Ġthemselves": 2031,
      "Ġmirac": 2032,
      "Ġtravel": 2033,
      "Ġcelebrat": 2034,
      "Ġlazy": 2035,
      "Ġaccident": 2036,
      "Ġadventure": 2037,
      "Ġfootsteps": 2038,
      "hh": 2039,
      "ĠâĢĶ": 2040,
      "Ġfad": 2041,
      "Ġdim": 2042,
      "Ġdry": 2043,
      "Ġcover": 2044,
      "Ġwatched": 2045,
      "Ġsupposed": 2046,
      "Ġuncertainty": 2047,
      "ient": 2048,
      "Ġyouth": 2049,
      "Ġcr": 2050,
      "Ġweight": 2051,
      "Ġwatches": 2052,
      "Ġcouldn": 2053,
      "Ġflowing": 2054,
      "Ġpressure": 2055,
      "LE": 2056,
      "nch": 2057,
      "Ġtri": 2058,
      "ings": 2059,
      "Ġprou": 2060,
      "Ġwave": 2061,
      "Ġfake": 2062,
      "ratitude": 2063,
      "Ġstress": 2064,
      "Ġhigh": 2065,
      "Ġfeeding": 2066,
      "Ġearl": 2067,
      "Ġsettle": 2068,
      "Ġproud": 2069,
      "du": 2070,
      "Ġwra": 2071,
      "thy": 2072,
      "Ġrel": 2073,
      "Ġvoices": 2074,
      "Ġclearly": 2075,
      "Ġshifted": 2076,
      "Ġlimit": 2077,
      "ap": 2078,
      "ctive": 2079,
      "ses": 2080,
      "Ġfade": 2081,
      "Ġgratitude": 2082,
      "Ġev": 2083,
      "Ġstick": 2084,
      "Ġdef": 2085,
      "Ġspots": 2086,
      "Ġjudgment": 2087,
      "Ġbound": 2088,
      "Ġdang": 2089,
      "Ġflavor": 2090,
      "attered": 2091,
      "Ġreturn": 2092,
      "de": 2093,
      "Ġmur": 2094,
      "Ġnews": 2095,
      "Ġhey": 2096,
      "Ġthanks": 2097,
      "Ġcomplic": 2098,
      "Ġspeed": 2099,
      "Ġfollowing": 2100,
      "Ġgray": 2101,
      "Ġweakness": 2102,
      "Ġpretend": 2103,
      "Ġdistracted": 2104,
      "Ġwindow": 2105,
      "Ġsuccess": 2106,
      "Ġcomplicated": 2107,
      ".'": 2108,
      "Ġyear": 2109,
      "Ġmin": 2110,
      "Ġground": 2111,
      "ens": 2112,
      "Ġrep": 2113,
      "Ġrout": 2114,
      "Ġeye": 2115,
      "Ġfully": 2116,
      "Ġinterested": 2117,
      "Ġtaps": 2118,
      "Ġwaste": 2119,
      "Ġshines": 2120,
      "Ġhoping": 2121,
      "Ġblurry": 2122,
      "Ġdanger": 2123,
      "je": 2124,
      "Ġwhe": 2125,
      "Ġnumb": 2126,
      "Ġloop": 2127,
      "Ġloss": 2128,
      "Ġuni": 2129,
      "Ġdisappeared": 2130,
      "Ġdances": 2131,
      "Ġfailing": 2132,
      "Ġknock": 2133,
      "Ġfades": 2134,
      "um": 2135,
      "Ġsch": 2136,
      "Ġsway": 2137,
      "Ġsurround": 2138,
      "Ġprecious": 2139,
      "Ġnaive": 2140,
      "Ġvisiting": 2141,
      "Ġrefresh": 2142,
      "Ġwhether": 2143,
      "ach": 2144,
      "ĠB": 2145,
      "ĠT": 2146,
      "Ġtall": 2147,
      "Ġbend": 2148,
      "Ġcomm": 2149,
      "icul": 2150,
      "Ġyounger": 2151,
      "Ġtickle": 2152,
      "Ġsolid": 2153,
      "ĠA": 2154,
      "Ġwhite": 2155,
      "oney": 2156,
      "Ġwhenever": 2157,
      "Ġhappiest": 2158,
      "Ġperm": 2159,
      "ship": 2160,
      "Ġunderstanding": 2161,
      "Ġfogg": 2162,
      "Ġcalling": 2163,
      "Ġconnected": 2164,
      "Ġapologize": 2165,
      "Ġpieces": 2166,
      "Ġmiracle": 2167,
      "Ġschool": 2168,
      "ail": 2169,
      "ith": 2170,
      "Ġfing": 2171,
      "Ġinfin": 2172,
      "ety": 2173,
      "Ġsurv": 2174,
      "Ġspread": 2175,
      "Ġserious": 2176,
      "Ġmurky": 2177,
      "ual": 2178,
      "well": 2179,
      "Ġtrea": 2180,
      "Ġwin": 2181,
      "ately": 2182,
      "Ġcru": 2183,
      "Ġinc": 2184,
      "Ġstra": 2185,
      "tta": 2186,
      "irl": 2187,
      "Ġasleep": 2188,
      "Ġbelow": 2189,
      "Ġshowed": 2190,
      "Ġguil": 2191,
      "Ġrushing": 2192,
      "Ġgame": 2193,
      "inner": 2194,
      "Ġdr": 2195,
      "Ġsoo": 2196,
      "beat": 2197,
      "Ġforgetful": 2198,
      "Ġexcept": 2199,
      "Ġcomplain": 2200,
      "Ġsparkle": 2201,
      "Ġnicer": 2202,
      "Ġtingly": 2203,
      "Ġstaring": 2204,
      "per": 2205,
      "ouse": 2206,
      "Ġhour": 2207,
      "Ġhouse": 2208,
      "Ġdoor": 2209,
      "Ġmotion": 2210,
      "Ġstrea": 2211,
      "Ġhappier": 2212,
      "Ġhot": 2213,
      "Ġfact": 2214,
      "pected": 2215,
      "ign": 2216,
      "Ġunderstands": 2217,
      "Ġnicest": 2218,
      "Ġearlier": 2219,
      "Ġfan": 2220,
      "Ġfly": 2221,
      "Ġwarms": 2222,
      "Ġalong": 2223,
      "Ġshook": 2224,
      "Ġann": 2225,
      "Ġhumble": 2226,
      "Ġcolder": 2227,
      "Ġamazed": 2228,
      "Ġreaches": 2229,
      "Ġwasting": 2230,
      "Ġwasted": 2231,
      "Ġarrive": 2232,
      "Ġsearching": 2233,
      "Ġblanket": 2234,
      "Ġroutine": 2235,
      "fi": 2236,
      "Ġdep": 2237,
      "Ġhate": 2238,
      "enti": 2239,
      "Ġrec": 2240,
      "Ġanx": 2241,
      "Ġfloated": 2242,
      "Ġwear": 2243,
      "Ġweek": 2244,
      "Ġfaith": 2245,
      "Ġdizzy": 2246,
      "stence": 2247,
      "Ġcolorful": 2248,
      "Ġheartbeat": 2249,
      "Ġpointless": 2250,
      "Ġopening": 2251,
      "Ġshining": 2252,
      "gen": 2253,
      "ze": 2254,
      "Ġmar": 2255,
      "Ġfle": 2256,
      "Ġneat": 2257,
      "Ġvibrating": 2258,
      "Ġdeeper": 2259,
      "Ġbackwards": 2260,
      "OH": 2261,
      "wh": 2262,
      "Ġmood": 2263,
      "eless": 2264,
      "Ġcope": 2265,
      "Ġworries": 2266,
      "Ġdaytime": 2267,
      "Ġbrush": 2268,
      "Ġrock": 2269,
      "Ġbitter": 2270,
      "Ġdecide": 2271,
      "Ġevent": 2272,
      "Ġsurvive": 2273,
      "Ġstraight": 2274,
      "Ġannoy": 2275,
      "nown": 2276,
      "Ġmattered": 2277,
      "Ġdinner": 2278,
      "Ġooh": 2279,
      "that": 2280,
      "tiv": 2281,
      "Ġstret": 2282,
      "Ġknown": 2283,
      "Ġcost": 2284,
      "bble": 2285,
      "Ġfuzzy": 2286,
      "Ġvul": 2287,
      "Ġinstant": 2288,
      "Ġmix": 2289,
      "Ġdirections": 2290,
      "Ġcheck": 2291,
      "Ġpatterns": 2292,
      "Ġyears": 2293,
      "Ġeventually": 2294,
      "Ġvulner": 2295,
      "em": 2296,
      "igh": 2297,
      "Ġthump": 2298,
      "Ġsal": 2299,
      "anic": 2300,
      "Ġthinks": 2301,
      "Ġval": 2302,
      "Ġtalked": 2303,
      "Ġgreet": 2304,
      "Ġvisible": 2305,
      "Ġrumble": 2306,
      "Ġcheerful": 2307,
      "Ġunknown": 2308,
      "Ġtrick": 2309,
      "Ġfoggy": 2310,
      "Ġinfinite": 2311,
      "ES": 2312,
      "get": 2313,
      "ire": 2314,
      "ition": 2315,
      "Ġfell": 2316,
      "Ġcaught": 2317,
      "Ġpi": 2318,
      "Ġsea": 2319,
      "Ġsafer": 2320,
      "Ġbrightest": 2321,
      "Ġslows": 2322,
      "Ġappro": 2323,
      "Ġtext": 2324,
      "Ġchoosing": 2325,
      "Ġgentler": 2326,
      "Ġinvest": 2327,
      "Ġahhh": 2328,
      "UB": 2329,
      "ks": 2330,
      "Ġign": 2331,
      "Ġyea": 2332,
      "Ġher": 2333,
      "Ġwhoosh": 2334,
      "Ġemb": 2335,
      "Ġbud": 2336,
      "Ġstand": 2337,
      "itter": 2338,
      "Ġlights": 2339,
      "Ġdreamy": 2340,
      "Ġtasty": 2341,
      "mmy": 2342,
      "Ġripple": 2343,
      "Ġdelight": 2344,
      "Ġbounce": 2345,
      "Ġfamily": 2346,
      "Ġdropped": 2347,
      "Ġcreature": 2348,
      "Ġcrazy": 2349,
      "Ġterrible": 2350,
      "Ġyeah": 2351,
      "not": 2352,
      "xy": 2353,
      "Ġrough": 2354,
      "Ġwer": 2355,
      "Ġsqu": 2356,
      "Ġob": 2357,
      "Ġmea": 2358,
      "Ġmed": 2359,
      "Ġsuffer": 2360,
      "Ġfair": 2361,
      "iew": 2362,
      "Ġthankful": 2363,
      "Ġcompare": 2364,
      "Ġworrying": 2365,
      "Ġswishing": 2366,
      "Ġcatching": 2367,
      "Ġstrangest": 2368,
      "Ġreasons": 2369,
      "Ġstopping": 2370,
      "Ġmessed": 2371,
      "Ġweren": 2372,
      "BLE": 2373,
      "IN": 2374,
      "you": 2375,
      "Ġsk": 2376,
      "atic": 2377,
      "Ġhar": 2378,
      "Ġoxy": 2379,
      "the": 2380,
      "Ġprac": 2381,
      "Ġforgets": 2382,
      "Ġtapped": 2383,
      "Ġlistens": 2384,
      "Ġcareful": 2385,
      "Ġbless": 2386,
      "Ġsideways": 2387,
      "ationship": 2388,
      "Ġending": 2389,
      "Ġtrack": 2390,
      "Ġdisappointed": 2391,
      "Ġsparkly": 2392,
      "Ġnicely": 2393,
      "Ġarrived": 2394,
      "Ġcreatures": 2395,
      "Ġsafest": 2396,
      "Ġsafety": 2397,
      "Ġrelationship": 2398,
      "fied": 2399,
      "Ġoxygen": 2400,
      "iles": 2401,
      "ume": 2402,
      "ĠF": 2403,
      "Ġforth": 2404,
      "Ġcannot": 2405,
      "uring": 2406,
      "Ġsmiles": 2407,
      "Ġaging": 2408,
      "Ġexi": 2409,
      "Ġview": 2410,
      "Ġrealize": 2411,
      "Ġquietly": 2412,
      "Ġcons": 2413,
      "Ġworthy": 2414,
      "Ġcarrying": 2415,
      "Ġresp": 2416,
      "Ġspreads": 2417,
      "Ġfancy": 2418,
      "Ġharsh": 2419,
      "line": 2420,
      "ray": 2421,
      "Ġwri": 2422,
      "Ġpanic": 2423,
      "ism": 2424,
      "Ġinsp": 2425,
      "sol": 2426,
      "Ġpointy": 2427,
      "Ġbetray": 2428,
      "Ġappearing": 2429,
      "Ġraining": 2430,
      "Ġtickles": 2431,
      "Ġnaturally": 2432,
      "Ġdrop": 2433,
      "Ġpaying": 2434,
      "Ġclouds": 2435,
      "Ġblocking": 2436,
      "Ġstream": 2437,
      "Ġflying": 2438,
      "Ġmeasure": 2439,
      "ER": 2440,
      "sion": 2441,
      "vest": 2442,
      "verse": 2443,
      "Ġpri": 2444,
      "Ġnope": 2445,
      "tice": 2446,
      "Ġwhoa": 2447,
      "Ġkindnesses": 2448,
      "Ġrestless": 2449,
      "Ġbravest": 2450,
      "Ġprodu": 2451,
      "Ġmissed": 2452,
      "Ġadm": 2453,
      "Ġstars": 2454,
      "Ġexhausted": 2455,
      "Ġdefine": 2456,
      "ĠBUB": 2457,
      "Ġhours": 2458,
      "Ġanxious": 2459,
      "Ġexistence": 2460,
      "ĠBUBBLE": 2461,
      "just": 2462,
      "ĠOH": 2463,
      "Ġsin": 2464,
      "Ġfig": 2465,
      "Ġda": 2466,
      "Ġla": 2467,
      "Ġequ": 2468,
      "ppy": 2469,
      "Ġswirl": 2470,
      "Ġfloor": 2471,
      "igg": 2472,
      "rief": 2473,
      "Ġscale": 2474,
      "Ġdissol": 2475,
      "Ġclearer": 2476,
      "Ġhearts": 2477,
      "Ġhearing": 2478,
      "Ġshivers": 2479,
      "Ġbegins": 2480,
      "Ġglide": 2481,
      "Ġfilled": 2482,
      "Ġwalking": 2483,
      "Ġrepeat": 2484,
      "Ġsoothing": 2485,
      "par": 2486,
      "ĠS": 2487,
      "Ġfits": 2488,
      "Ġdir": 2489,
      "Ġduring": 2490,
      "Ġgoof": 2491,
      "ank": 2492,
      "Ġjour": 2493,
      "Ġreje": 2494,
      "Ġsepar": 2495,
      "als": 2496,
      "tern": 2497,
      "Ġclever": 2498,
      "Ġsunset": 2499,
      "Ġfunn": 2500,
      "Ġblink": 2501,
      "Ġpassing": 2502,
      "ney": 2503,
      "Ġcomplete": 2504,
      "Ġgrudge": 2505,
      "Ġtingle": 2506,
      "Ġlimits": 2507,
      "Ġproblems": 2508,
      "Ġtreasure": 2509,
      "Ġjourney": 2510,
      "ared": 2511,
      "ex": 2512,
      "ror": 2513,
      "vy": 2514,
      "Ġtaught": 2515,
      "Ġborn": 2516,
      "Ġlang": 2517,
      "Ġwhee": 2518,
      "owed": 2519,
      "Ġcred": 2520,
      "aries": 2521,
      "Ġtonight": 2522,
      "Ġwaving": 2523,
      "Ġbowls": 2524,
      "Ġshy": 2525,
      "Ġnibble": 2526,
      "Ġfinally": 2527,
      "Ġenti": 2528,
      "Ġbraver": 2529,
      "Ġbravery": 2530,
      "Ġunderne": 2531,
      "Ġvisits": 2532,
      "Ġforgives": 2533,
      "Ġdiscovery": 2534,
      "Ġreaching": 2535,
      "Ġchecking": 2536,
      "Ġbusiness": 2537,
      "like": 2538,
      "Ġapart": 2539,
      "Ġuniverse": 2540,
      "Ġannoying": 2541,
      "Ġfunniest": 2542,
      "Ġlangu": 2543,
      "Ġunderneath": 2544,
      "gree": 2545,
      "Ġsits": 2546,
      "Ġmir": 2547,
      "Ġbed": 2548,
      "Ġmov": 2549,
      "Ġwash": 2550,
      "Ġrather": 2551,
      "itement": 2552,
      "Ġbeautifully": 2553,
      "Ġunex": 2554,
      "Ġexcitement": 2555,
      "Ġdeeply": 2556,
      "Ġbegin": 2557,
      "Ġdelicate": 2558,
      "Ġdecoration": 2559,
      "Ġexhausting": 2560,
      "Ġcelebrating": 2561,
      "Ġboundaries": 2562,
      "Ġstretch": 2563,
      "Ġmixed": 2564,
      "Ġbuddy": 2565,
      "Ġsince": 2566,
      "Ġunexpected": 2567,
      "ring": 2568,
      "ying": 2569,
      "Ġent": 2570,
      "Ġ...": 2571,
      "Ġcross": 2572,
      "Ġtot": 2573,
      "ality": 2574,
      "Ġgoodnight": 2575,
      "Ġupside": 2576,
      "Ġsticks": 2577,
      "Ġstayed": 2578,
      "Ġhasn": 2579,
      "Ġbringing": 2580,
      "Ġopens": 2581,
      "Ġnighttime": 2582,
      "Ġswishy": 2583,
      "Ġaware": 2584,
      "Ġearn": 2585,
      "Ġsettles": 2586,
      "Ġbounces": 2587,
      "Ġbouncing": 2588,
      "Ġhealthy": 2589,
      "Ġuseful": 2590,
      "Ġwhispers": 2591,
      "Ġsuffering": 2592,
      "Ġdirty": 2593,
      "Ġcredit": 2594,
      "Ġthous": 2595,
      "inting": 2596,
      "Ġsy": 2597,
      "Ġbla": 2598,
      "Ġbrief": 2599,
      "Ġfur": 2600,
      "Ġdet": 2601,
      "Ġoce": 2602,
      "Ġpick": 2603,
      "Ġbur": 2604,
      "Ġwavy": 2605,
      "Ġsmallest": 2606,
      "Ġtook": 2607,
      "Ġfare": 2608,
      "Ġrested": 2609,
      "Ġrealized": 2610,
      "Ġunderwater": 2611,
      "Ġoverwh": 2612,
      "Ġunf": 2613,
      "Ġlasts": 2614,
      "Ġconfusion": 2615,
      "Ġsli": 2616,
      "Ġbreaks": 2617,
      "Ġconnection": 2618,
      "Ġsnack": 2619,
      "Ġsurrounded": 2620,
      "Ġvulnerable": 2621,
      "Ġwheee": 2622,
      "Ġmirror": 2623,
      "Ġocean": 2624,
      "Ġoverwhel": 2625,
      "fic": 2626,
      "ga": 2627,
      "Ġthin": 2628,
      "Ġass": 2629,
      "Ġatta": 2630,
      "orting": 2631,
      "lea": 2632,
      "Ġwide": 2633,
      "Ġbasic": 2634,
      "Ġhums": 2635,
      "Ġdiscu": 2636,
      "iled": 2637,
      "Ġcalled": 2638,
      "Ġrid": 2639,
      "Ġtreats": 2640,
      "Ġflick": 2641,
      "Ġtrembles": 2642,
      "Ġwhisper": 2643,
      "Ġpretending": 2644,
      "Ġnumbers": 2645,
      "Ġinstantly": 2646,
      "Ġapproach": 2647,
      "Ġpractice": 2648,
      "Ġdiscuss": 2649,
      "gress": 2650,
      "lay": 2651,
      "nic": 2652,
      "Ġsign": 2653,
      "Ġyell": 2654,
      "Ġbes": 2655,
      "Ġben": 2656,
      "Ġcy": 2657,
      "arity": 2658,
      "Ġpause": 2659,
      "ons": 2660,
      "Ġint": 2661,
      "Ġstep": 2662,
      "Ġwarming": 2663,
      "Ġcop": 2664,
      "Ġworse": 2665,
      "Ġallowed": 2666,
      "cts": 2667,
      "ilar": 2668,
      "Ġheat": 2669,
      "Ġtran": 2670,
      "Ġhelped": 2671,
      "Ġtasted": 2672,
      "Ġslowing": 2673,
      "Ġjoyful": 2674,
      "Ġnames": 2675,
      "Ġsort": 2676,
      "Ġrumb": 2677,
      "Ġclarity": 2678,
      "Ġfluttery": 2679,
      "Ġtrembling": 2680,
      "Ġguilty": 2681,
      "ING": 2682,
      "Ġlanguage": 2683,
      "Ġbasically": 2684,
      "eal": 2685,
      "sc": 2686,
      "ute": 2687,
      "Ġmoney": 2688,
      "Ġpar": 2689,
      "Ġins": 2690,
      "pper": 2691,
      "ids": 2692,
      "Ġflash": 2693,
      "Ġsuper": 2694,
      "redible": 2695,
      "Ġimpat": 2696,
      "Ġactive": 2697,
      "Ġcurrents": 2698,
      "Ġenjoying": 2699,
      "ular": 2700,
      "Ġshimmering": 2701,
      "Ġsitting": 2702,
      "ĠWH": 2703,
      "utes": 2704,
      "Ġcrisp": 2705,
      "Ġminutes": 2706,
      "Ġbene": 2707,
      "ame": 2708,
      "iv": 2709,
      "pting": 2710,
      "ted": 2711,
      "Ġaut": 2712,
      "ates": 2713,
      "Ġmath": 2714,
      "Ġland": 2715,
      "Ġcertain": 2716,
      "stood": 2717,
      "Ġetern": 2718,
      "Ġseemed": 2719,
      "astic": 2720,
      "Ġfinal": 2721,
      "Ġbecame": 2722,
      "omatic": 2723,
      "Ġbrown": 2724,
      "Ġcurse": 2725,
      "ledge": 2726,
      "Ġbumping": 2727,
      "Ġshifting": 2728,
      "Ġzoo": 2729,
      "Ġears": 2730,
      "Ġcontentment": 2731,
      "Ġarrives": 2732,
      "word": 2733,
      "Ġembra": 2734,
      "Ġdaily": 2735,
      "Ġfarewell": 2736,
      "Ġattached": 2737,
      "Ġautomatic": 2738,
      "mer": 2739,
      "vo": 2740,
      "ines": 2741,
      "Ġlead": 2742,
      "Ġinf": 2743,
      "Ġshimm": 2744,
      "Ġchose": 2745,
      "Ġsoftest": 2746,
      "Ġfailed": 2747,
      "Ġbye": 2748,
      "Ġtalent": 2749,
      "Ġcircling": 2750,
      "ission": 2751,
      "Ġcleaned": 2752,
      "Ġtender": 2753,
      "Ġpassword": 2754,
      "Ġshaped": 2755,
      "Ġfollows": 2756,
      "Ġgrows": 2757,
      "Ġsettling": 2758,
      "Ġsinking": 2759,
      "Ġheals": 2760,
      "Ġstruggle": 2761,
      "Ġhopeless": 2762,
      "Ġrelaxed": 2763,
      "Ġunkind": 2764,
      "Ġgener": 2765,
      "Ġtotally": 2766,
      "Ġeternal": 2767,
      "iately": 2768,
      "ler": 2769,
      "ĠH": 2770,
      "Ġtough": 2771,
      "Ġyu": 2772,
      "Ġlow": 2773,
      "Ġnature": 2774,
      "Ġglu": 2775,
      "oop": 2776,
      "rill": 2777,
      "Ġwakes": 2778,
      "Ġdiff": 2779,
      "Ġhumor": 2780,
      "Ġvibrates": 2781,
      "Ġblu": 2782,
      "Ġnap": 2783,
      "Ġafterno": 2784,
      "Ġlouder": 2785,
      "Ġsensitive": 2786,
      "Ġrises": 2787,
      "Ġimmed": 2788,
      "Ġpressed": 2789,
      "Ġjudging": 2790,
      "Ġblocked": 2791,
      "Ġgenu": 2792,
      "Ġwrapped": 2793,
      "Ġlimitations": 2794,
      "Ġpermission": 2795,
      "Ġfingers": 2796,
      "Ġincredible": 2797,
      "Ġrecall": 2798,
      "Ġwrite": 2799,
      "Ġmovie": 2800,
      "Ġdifficul": 2801,
      "Ġimmediately": 2802,
      "cent": 2803,
      "up": 2804,
      "Ġty": 2805,
      "Ġfool": 2806,
      "ory": 2807,
      "Ġbeat": 2808,
      "cepting": 2809,
      "Ġalga": 2810,
      "ished": 2811,
      "Ġeaten": 2812,
      "Ġunless": 2813,
      "Ġdrive": 2814,
      "Ġdisagree": 2815,
      "Ġheavier": 2816,
      "Ġhadn": 2817,
      "Ġtalks": 2818,
      "Ġfluttering": 2819,
      "Ġrespect": 2820,
      "Ġpowerful": 2821,
      "Ġstressed": 2822,
      "Ġreplay": 2823,
      "iculous": 2824,
      "Ġinspire": 2825,
      "Ġproductive": 2826,
      "Ġequally": 2827,
      "Ġgoofy": 2828,
      "Ġdetail": 2829,
      "Ġridiculous": 2830,
      "Ġyellow": 2831,
      "Ġyummy": 2832,
      "Ġdifficult": 2833,
      "Ġalgae": 2834,
      "--": 2835,
      "IG": 2836,
      "lf": 2837,
      "sy": 2838,
      "Ġtank": 2839,
      "Ġamb": 2840,
      "Ġman": 2841,
      "Ġdra": 2842,
      "Ġline": 2843,
      "Ġcent": 2844,
      "ention": 2845,
      "lace": 2846,
      "Ġalright": 2847,
      "Ġknowledge": 2848,
      "Ġdigging": 2849,
      "Ġtax": 2850,
      "Ġgiven": 2851,
      "Ġneeding": 2852,
      "Ġprogress": 2853,
      "Ġimpro": 2854,
      "Ġusual": 2855,
      "Ġcompared": 2856,
      "Ġclosing": 2857,
      "Ġaccepting": 2858,
      "Ġangle": 2859,
      "Ġdeepest": 2860,
      "Ġexplored": 2861,
      "Ġpurple": 2862,
      "Ġsmarter": 2863,
      "Ġphone": 2864,
      "Ġhitting": 2865,
      "Ġconfident": 2866,
      "Ġtravels": 2867,
      "Ġcovered": 2868,
      "Ġwraps": 2869,
      "Ġrefreshed": 2870,
      "Ġadmit": 2871,
      "Ġfigure": 2872,
      "Ġthousand": 2873,
      "Ġimpatient": 2874,
      "Ġglub": 2875,
      "Ġafternoon": 2876,
      "AK": 2877,
      "hat": 2878,
      "pto": 2879,
      "spe": 2880,
      "ĠD": 2881,
      "Ġthird": 2882,
      "Ġmmm": 2883,
      "Ġmention": 2884,
      "Ġbook": 2885,
      "Ġhilar": 2886,
      "llab": 2887,
      "ties": 2888,
      "Ġwild": 2889,
      "Ġalert": 2890,
      "eaking": 2891,
      "Ġheater": 2892,
      "Ġhugging": 2893,
      "Ġspa": 2894,
      "Ġshouldn": 2895,
      "Ġsunny": 2896,
      "Ġrisk": 2897,
      "Ġmessing": 2898,
      "Ġcomforting": 2899,
      "Ġdiscovered": 2900,
      "ĠWhat": 2901,
      "Ġbalanced": 2902,
      "Ġperman": 2903,
      "Ġfinger": 2904,
      "Ġembrace": 2905,
      "Ġhilarious": 2906,
      "LAK": 2907,
      "ac": 2908,
      "der": 2909,
      "ts": 2910,
      "ured": 2911,
      "zz": 2912,
      "Ġwinning": 2913,
      "Ġavo": 2914,
      "Ġfright": 2915,
      "Ġdu": 2916,
      "Ġcri": 2917,
      "Ġsocial": 2918,
      "stal": 2919,
      "stem": 2920,
      "Ġpau": 2921,
      "Ġpitter": 2922,
      "ises": 2923,
      "ison": 2924,
      "Ġinten": 2925,
      "Ġhalf": 2926,
      "Ġread": 2927,
      "Ġrelease": 2928,
      "Ġneg": 2929,
      "Ġchild": 2930,
      "cture": 2931,
      "Ġrests": 2932,
      "Ġspeaking": 2933,
      "Ġroundness": 2934,
      "Ġprove": 2935,
      "Ġcorny": 2936,
      "Ġcleaning": 2937,
      "Ġcounting": 2938,
      "Ġasks": 2939,
      "Ġidenti": 2940,
      "Ġshimmery": 2941,
      "Ġcelebrate": 2942,
      "Ġpiece": 2943,
      "Ġspreading": 2944,
      "Ġcrypto": 2945,
      "Ġpulling": 2946,
      "Ġmarket": 2947,
      "Ġdelighted": 2948,
      "Ġobs": 2949,
      "ĠFLAK": 2950,
      "Ġsystem": 2951,
      "Ġassume": 2952,
      "Ġbesides": 2953,
      "Ġpermanent": 2954,
      "!!": 2955,
      "arent": 2956,
      "ia": 2957,
      "mail": 2958,
      "now": 2959,
      "tastic": 2960,
      "wigg": 2961,
      "yal": 2962,
      "ĠM": 2963,
      "Ġsat": 2964,
      "Ġhoney": 2965,
      "Ġnone": 2966,
      "Ġcla": 2967,
      "orary": 2968,
      "ided": 2969,
      "Ġchill": 2970,
      "fection": 2971,
      "Ġfinish": 2972,
      "Ġweather": 2973,
      "shap": 2974,
      "Ġbelieved": 2975,
      "Ġcoolness": 2976,
      "istent": 2977,
      "Ġopin": 2978,
      "Ġsmiled": 2979,
      "Ġtemporary": 2980,
      "Ġcalls": 2981,
      "Ġlesson": 2982,
      "Ġmeaningful": 2983,
      "Ġmysteries": 2984,
      "Ġjumpy": 2985,
      "Ġgentlest": 2986,
      "Ġbroke": 2987,
      "Ġenerget": 2988,
      "Ġanswers": 2989,
      "Ġrepeating": 2990,
      "Ġbuilding": 2991,
      "Ġboundary": 2992,
      "Ġminute": 2993,
      "ĠTH": 2994,
      "Ġtexture": 2995,
      "Ġskin": 2996,
      "Ġentire": 2997,
      "Ġoverwhelmed": 2998,
      "Ġfoolish": 2999,
      "Ġtaxes": 3000,
      "Ġspaces": 3001,
      "ĠFLAKES": 3002,
      "Ġenergetic": 3003,
      "bor": 3004,
      "ict": 3005,
      "loo": 3006,
      "ored": 3007,
      "rise": 3008,
      "Ġtrou": 3009,
      "ined": 3010,
      "inary": 3011,
      "Ġblow": 3012,
      "Ġdimmer": 3013,
      "Ġhm": 3014,
      "Ġlie": 3015,
      "Ġemail": 3016,
      "Ġtong": 3017,
      "Ġneigh": 3018,
      "Ġflaw": 3019,
      "Ġmain": 3020,
      "Ġloops": 3021,
      "rodu": 3022,
      "Ġsand": 3023,
      "Ġfishy": 3024,
      "Ġvan": 3025,
      "Ġstartle": 3026,
      "Ġunderstood": 3027,
      "Ġpeacefully": 3028,
      "Ġdead": 3029,
      "Ġsunrise": 3030,
      "comp": 3031,
      "Ġthoughtful": 3032,
      "Ġlean": 3033,
      "Ġbumped": 3034,
      "Ġlunch": 3035,
      "Ġlullab": 3036,
      "Ġreset": 3037,
      "Ġhealing": 3038,
      "Ġdropping": 3039,
      "Ġfocused": 3040,
      "ĠYOUR": 3041,
      "Ġflin": 3042,
      "Ġspeaks": 3043,
      "Ġthicker": 3044,
      "Ġpretti": 3045,
      "Ġcelebration": 3046,
      "Ġnumber": 3047,
      "Ġdrown": 3048,
      "tivity": 3049,
      "Ġvalue": 3050,
      "Ġentertain": 3051,
      "Ġrumbling": 3052,
      "Ġgenerous": 3053,
      "Ġreplaying": 3054,
      "shaped": 3055,
      "Ġtongue": 3056,
      "Ġneighbor": 3057,
      "Ġlullaby": 3058,
      "AT": 3059,
      "ome": 3060,
      "tiness": 3061,
      "wa": 3062,
      "ount": 3063,
      "orient": 3064,
      "Ġreward": 3065,
      "Ġsta": 3066,
      "Ġwaved": 3067,
      "Ġflap": 3068,
      "lored": 3069,
      "Ġshell": 3070,
      "Ġchoices": 3071,
      "Ġagree": 3072,
      "Ġperfection": 3073,
      "que": 3074,
      "Ġrestful": 3075,
      "Ġwatcher": 3076,
      "Ġfirm": 3077,
      "Ġprof": 3078,
      "Ġleaf": 3079,
      "Ġmeets": 3080,
      "Ġeasiest": 3081,
      "Ġexisted": 3082,
      "Ġroll": 3083,
      "Ġguide": 3084,
      "Ġemptiness": 3085,
      "Ġreflect": 3086,
      "Ġjumping": 3087,
      "Ġart": 3088,
      "Ġsparkling": 3089,
      "Ġbouncy": 3090,
      "Ġpressing": 3091,
      "work": 3092,
      "Ġblank": 3093,
      "Ġcrunch": 3094,
      "Ġseparate": 3095,
      "Ġimprove": 3096,
      "Ġidentity": 3097,
      "RE": 3098,
      "air": 3099,
      "bow": 3100,
      "fort": 3101,
      "lish": 3102,
      "ms": 3103,
      "Ġvers": 3104,
      "ative": 3105,
      "Ġbite": 3106,
      "Ġbones": 3107,
      "Ġdrow": 3108,
      "Ġlap": 3109,
      "Ġcrow": 3110,
      "Ġpour": 3111,
      "Ġsomeday": 3112,
      "Ġforce": 3113,
      "Ġgosh": 3114,
      "Ġsho": 3115,
      "Ġswoosh": 3116,
      "Ġswum": 3117,
      "Ġholes": 3118,
      "Ġages": 3119,
      "Ġrude": 3120,
      "ains": 3121,
      "Ġsoftens": 3122,
      "Ġsoul": 3123,
      "ieve": 3124,
      "Ġpeek": 3125,
      "Ġpointing": 3126,
      "Ġtasting": 3127,
      "omfort": 3128,
      "Ġcalming": 3129,
      "Ġbreaking": 3130,
      "Ġstock": 3131,
      "Ġpunch": 3132,
      "Ġpunish": 3133,
      "Ġdarting": 3134,
      "Ġtrembled": 3135,
      "Ġreturns": 3136,
      "Ġguilt": 3137,
      "Ġdepend": 3138,
      "ential": 3139,
      "Ġwearing": 3140,
      "Ġblessed": 3141,
      "Ġdiscussing": 3142,
      "Ġintrodu": 3143,
      "Ġtransp": 3144,
      "Ġopinion": 3145,
      "Ġdrowsy": 3146,
      "Ġcrowd": 3147,
      "dinary": 3148,
      "ground": 3149,
      "ial": 3150,
      "rink": 3151,
      "under": 3152,
      "Ġer": 3153,
      "Ġow": 3154,
      "Ġess": 3155,
      "Ġbird": 3156,
      "Ġdust": 3157,
      "Ġdwell": 3158,
      "Ġgest": 3159,
      "Ġwobb": 3160,
      "Ġgiant": 3161,
      "Ġheading": 3162,
      "Ġasha": 3163,
      "Ġspi": 3164,
      "Ġpod": 3165,
      "Ġcompar": 3166,
      "Ġregular": 3167,
      "Ġslip": 3168,
      "Ġguy": 3169,
      "Ġadjust": 3170,
      "Ġgrump": 3171,
      "Ġdecided": 3172,
      "Ġsettled": 3173,
      "Ġuncomfort": 3174,
      "Ġdisappears": 3175,
      "Ġsupport": 3176,
      "Ġdistance": 3177,
      "Ġgliding": 3178,
      "Ġcrystal": 3179,
      "Ġterrified": 3180,
      "Ġcruel": 3181,
      "Ġdroop": 3182,
      "Ġvalu": 3183,
      "they": 3184,
      "Ġconsistent": 3185,
      "Ġblame": 3186,
      "Ġcynic": 3187,
      "Ġbeneath": 3188,
      "Ġcenter": 3189,
      "Ġdrowning": 3190,
      "Ġtransparent": 3191,
      "Ġashamed": 3192,
      "con": 3193,
      "cur": 3194,
      "lud": 3195,
      "mming": 3196,
      "oes": 3197,
      "ule": 3198,
      "Ġwisp": 3199,
      "inked": 3200,
      "Ġsched": 3201,
      "Ġmort": 3202,
      "Ġdru": 3203,
      "ren": 3204,
      "rees": 3205,
      "ndered": 3206,
      "Ġhis": 3207,
      "Ġlately": 3208,
      "think": 3209,
      "ays": 3210,
      "Ġmotiv": 3211,
      "Ġrequ": 3212,
      "Ġorang": 3213,
      "ches": 3214,
      "Ġhappily": 3215,
      "Ġsoften": 3216,
      "Ġweigh": 3217,
      "Ġfasc": 3218,
      "Ġkept": 3219,
      "Ġbass": 3220,
      "Ġhuh": 3221,
      "Ġbrighten": 3222,
      "Ġvac": 3223,
      "Ġshame": 3224,
      "Ġoverthink": 3225,
      "Ġcareer": 3226,
      "Ġdisorient": 3227,
      "Ġpul": 3228,
      "Ġclosed": 3229,
      "Ġpale": 3230,
      "Ġacts": 3231,
      "Ġplayful": 3232,
      "Ġrainbow": 3233,
      "Ġachieve": 3234,
      "Ġarg": 3235,
      "Ġreminding": 3236,
      "Ġacceptance": 3237,
      "Ġstories": 3238,
      "lict": 3239,
      "Ġplans": 3240,
      "Ġsuppose": 3241,
      "Ġsweetest": 3242,
      "Ġwalked": 3243,
      "Ġconflict": 3244,
      "Ġcommon": 3245,
      "Ġflex": 3246,
      "Ġcosts": 3247,
      "Ġrespond": 3248,
      "Ġlands": 3249,
      "Ġwashes": 3250,
      "Ġinsur": 3251,
      "Ġblub": 3252,
      "Ġdetails": 3253,
      "Ġfrighten": 3254,
      "wait": 3255,
      "Ġgrumpy": 3256,
      "Ġuncomfortable": 3257,
      "Ġwispy": 3258,
      "Ġschedule": 3259,
      "Ġfascin": 3260,
      "TH": 3261,
      "cle": 3262,
      "power": 3263,
      "un": 3264,
      "ĠE": 3265,
      "Ġhim": 3266,
      "Ġhidd": 3267,
      "Ġodd": 3268,
      "arr": 3269,
      "Ġbear": 3270,
      "Ġport": 3271,
      "Ġinno": 3272,
      "Ġrearr": 3273,
      "Ġsty": 3274,
      "Ġkinds": 3275,
      "Ġgotten": 3276,
      "ments": 3277,
      "Ġwondered": 3278,
      "Ġhunt": 3279,
      "tions": 3280,
      "ibility": 3281,
      "Ġimpress": 3282,
      "Ġsens": 3283,
      "Ġcontin": 3284,
      "Ġsilliness": 3285,
      "Ġmessage": 3286,
      "Ġdeciding": 3287,
      "Ġdefines": 3288,
      "Ġfrustrating": 3289,
      "Ġlaughing": 3290,
      "Ġdrops": 3291,
      "Ġpuns": 3292,
      "Ġglance": 3293,
      "Ġexpectations": 3294,
      "worthy": 3295,
      "Ġgracefully": 3296,
      "Ġprotecting": 3297,
      "Ġaddress": 3298,
      "Ġhigher": 3299,
      "Ġgrounded": 3300,
      "ject": 3301,
      "Ġrefreshing": 3302,
      "Ġinclud": 3303,
      "Ġflew": 3304,
      "Ġstanding": 3305,
      "Ġconscious": 3306,
      "Ġsuperpower": 3307,
      "Ġshimmers": 3308,
      "Ġavoid": 3309,
      "wiggles": 3310,
      "Ġsatis": 3311,
      "Ġtrouble": 3312,
      "Ġcrunchy": 3313,
      "Ġhidden": 3314,
      "eiling": 3315,
      "kers": 3316,
      "lt": 3317,
      "lation": 3318,
      "ol": 3319,
      "pid": 3320,
      "ĠG": 3321,
      "Ġmelt": 3322,
      "Ġbang": 3323,
      "Ġwhis": 3324,
      "Ġcau": 3325,
      "Ġceiling": 3326,
      "Ġge": 3327,
      "Ġlist": 3328,
      "Ġech": 3329,
      "Ġeek": 3330,
      "Ġwhats": 3331,
      "Ġplea": 3332,
      "Ġbuzz": 3333,
      "Ġliked": 3334,
      "Ġhazy": 3335,
      "Ġsever": 3336,
      "Ġsends": 3337,
      "ites": 3338,
      "itation": 3339,
      "Ġoffer": 3340,
      "Ġcolored": 3341,
      "Ġur": 3342,
      "Ġgotta": 3343,
      "Ġshade": 3344,
      "Ġscrat": 3345,
      "Ġparty": 3346,
      "Ġspir": 3347,
      "ability": 3348,
      "Ġcalmer": 3349,
      "Ġunha": 3350,
      "Ġinterru": 3351,
      "Ġreact": 3352,
      "Ġcleaner": 3353,
      "Ġmornings": 3354,
      "Ġdrifts": 3355,
      "Ġlevel": 3356,
      "Ġpushed": 3357,
      "Ġfears": 3358,
      "Ġteaching": 3359,
      "Ġacting": 3360,
      "Ġrich": 3361,
      "Ġclim": 3362,
      "Ġtwit": 3363,
      "Ġdisappearing": 3364,
      "ĠWIG": 3365,
      "Ġflip": 3366,
      "Ġdarted": 3367,
      "Ġsplashes": 3368,
      "Ġcrown": 3369,
      "Ġunique": 3370,
      "Ġswaying": 3371,
      "Ġsalt": 3372,
      "Ġpicture": 3373,
      "ERE": 3374,
      "Ġswirls": 3375,
      "Ġcritic": 3376,
      "Ġpunchline": 3377,
      "Ġspiri": 3378,
      "Ġcynical": 3379,
      "rency": 3380,
      "Ġdisoriented": 3381,
      "ĠWIGG": 3382,
      "AS": 3383,
      "HH": 3384,
      "cast": 3385,
      "ends": 3386,
      "Ġwar": 3387,
      "ero": 3388,
      "Ġsla": 3389,
      "Ġsent": 3390,
      "Ġfli": 3391,
      "Ġdus": 3392,
      "nding": 3393,
      "nded": 3394,
      "Ġhides": 3395,
      "Ġlines": 3396,
      "elids": 3397,
      "arge": 3398,
      "Ġwatery": 3399,
      "Ġjeal": 3400,
      "Ġreading": 3401,
      "idence": 3402,
      "Ġamount": 3403,
      "Ġbackground": 3404,
      "Ġcap": 3405,
      "Ġsprink": 3406,
      "Ġeyelids": 3407,
      "stency": 3408,
      "Ġlistener": 3409,
      "Ġcarefully": 3410,
      "Ġcools": 3411,
      "Ġopened": 3412,
      "Ġgoodbyes": 3413,
      "Ġblush": 3414,
      "Ġrules": 3415,
      "Ġlovable": 3416,
      "Ġhonor": 3417,
      "Ġappearance": 3418,
      "Ġguard": 3419,
      "Ġtwist": 3420,
      "sistency": 3421,
      "Ġsteer": 3422,
      "Ġsetting": 3423,
      "Ġexplaining": 3424,
      "Ġbothers": 3425,
      "Ġarriving": 3426,
      "ĠYES": 3427,
      "Ġconnects": 3428,
      "Ġexpecting": 3429,
      "Ġfilling": 3430,
      "Ġpowerless": 3431,
      "Ġputs": 3432,
      "Ġgraceful": 3433,
      "Ġprotects": 3434,
      "Ġdangerous": 3435,
      "Ġdepends": 3436,
      "Ġsalary": 3437,
      "Ġrejection": 3438,
      "ĠHow": 3439,
      "Ġtype": 3440,
      "Ġdraw": 3441,
      "Ġchilly": 3442,
      "looking": 3443,
      "Ġpodcast": 3444,
      "Ġinsurance": 3445,
      "Ġstyle": 3446,
      "Ġwhiskers": 3447,
      "Ġseveral": 3448,
      "ĠWIGGLE": 3449,
      "Ġjealous": 3450,
      "ave": 3451,
      "eth": 3452,
      "emp": 3453,
      "ker": 3454,
      "vig": 3455,
      "ĠC": 3456,
      "erc": 3457,
      "Ġyum": 3458,
      "Ġfro": 3459,
      "Ġdad": 3460,
      "ndred": 3461,
      "Ġlarge": 3462,
      "Ġnest": 3463,
      "Ġlift": 3464,
      "Ġliter": 3465,
      "Ġliking": 3466,
      "Ġpot": 3467,
      "Ġnom": 3468,
      "Ġform": 3469,
      "Ġstrate": 3470,
      "Ġstate": 3471,
      "ital": 3472,
      "Ġable": 3473,
      "Ġordinary": 3474,
      "Ġshall": 3475,
      "tting": 3476,
      "Ġanci": 3477,
      "Ġboy": 3478,
      "Ġexerc": 3479,
      "Ġgigg": 3480,
      "Ġperspe": 3481,
      "Ġquality": 3482,
      "Ġhundred": 3483,
      "Ġconsistency": 3484,
      "Ġpopped": 3485,
      "Ġpoli": 3486,
      "Ġlistened": 3487,
      "Ġsuns": 3488,
      "Ġtrustworthy": 3489,
      "press": 3490,
      "Ġpump": 3491,
      "Ġbothered": 3492,
      "Ġbadly": 3493,
      "Ġspeci": 3494,
      "cond": 3495,
      "Ġgrey": 3496,
      "Ġnavig": 3497,
      "Ġaccomp": 3498,
      "Ġpace": 3499,
      "Ġbumps": 3500,
      "Ġshiver": 3501,
      "Ġhonesty": 3502,
      "Ġstocks": 3503,
      "Ġbelonging": 3504,
      "Ġsharing": 3505,
      "Ġchaos": 3506,
      "lio": 3507,
      "Ġclosely": 3508,
      "Ġfocusing": 3509,
      "Ġfreely": 3510,
      "ĠIS": 3511,
      "Ġjudged": 3512,
      "Ġtummy": 3513,
      "Ġsplashing": 3514,
      "Ġsnap": 3515,
      "Ġtreas": 3516,
      "Ġmedia": 3517,
      "ivid": 3518,
      "Ġzooming": 3519,
      "Ġflinched": 3520,
      "Ġcrowded": 3521,
      "Ġowe": 3522,
      "Ġachievement": 3523,
      "Ġsensation": 3524,
      "Ġunhappy": 3525,
      "Ġstrategy": 3526,
      "Ġancient": 3527,
      "Ġperspective": 3528,
      "AI": 3529,
      "OM": 3530,
      "fo": 3531,
      "head": 3532,
      "ific": 3533,
      "lks": 3534,
      "vious": 3535,
      "Ġthrill": 3536,
      "Ġsick": 3537,
      "Ġbon": 3538,
      "Ġfra": 3539,
      "Ġdam": 3540,
      "Ġdying": 3541,
      "Ġcard": 3542,
      "Ġecon": 3543,
      "Ġkids": 3544,
      "ooked": 3545,
      "Ġrent": 3546,
      "Ġstare": 3547,
      "Ġtire": 3548,
      "Ġanim": 3549,
      "Ġhobb": 3550,
      "Ġloyal": 3551,
      "Ġupward": 3552,
      "Ġsub": 3553,
      "Ġenem": 3554,
      "Ġamu": 3555,
      "Ġexpected": 3556,
      "gged": 3557,
      "Ġstartling": 3558,
      "Ġdebt": 3559,
      "Ġdeath": 3560,
      "Ġshaky": 3561,
      "Ġpulls": 3562,
      "Ġpoints": 3563,
      "Ġfolks": 3564,
      "Ġreacted": 3565,
      "izing": 3566,
      "Ġteeth": 3567,
      "Ġtense": 3568,
      "Ġcounted": 3569,
      "Ġjudges": 3570,
      "Ġstorm": 3571,
      "Ġresul": 3572,
      "Ġhugs": 3573,
      "Ġahh": 3574,
      "Ġtreating": 3575,
      "ĠIT": 3576,
      "Ġsilent": 3577,
      "Ġcrack": 3578,
      "Ġcrash": 3579,
      "Ġblock": 3580,
      "Ġpops": 3581,
      "Ġcrying": 3582,
      "Ġsurrounds": 3583,
      "Ġbitterness": 3584,
      "Ġignored": 3585,
      "Ġblessing": 3586,
      "Ġbetrayed": 3587,
      "Ġzoomed": 3588,
      "Ġinflation": 3589,
      "Ġgenuine": 3590,
      "Ġbeats": 3591,
      "Ġmanage": 3592,
      "Ġshellfish": 3593,
      "Ġprofound": 3594,
      "Ġversion": 3595,
      "Ġportfo": 3596,
      "Ġinnocent": 3597,
      "Ġincluding": 3598,
      "Ġsatisfied": 3599,
      "Ġdusk": 3600,
      "Ġpolitic": 3601,
      "Ġnavigate": 3602,
      "Ġtreasures": 3603,
      "Ġportfolio": 3604,
      "dest": 3605,
      "fit": 3606,
      "gent": 3607,
      "gra": 3608,
      "gage": 3609,
      "uter": 3610,
      "zing": 3611,
      "ĠN": 3612,
      "Ġtin": 3613,
      "Ġtest": 3614,
      "Ġtries": 3615,
      "Ġwins": 3616,
      "Ġau": 3617,
      "Ġaction": 3618,
      "inely": 3619,
      "Ġfour": 3620,
      "Ġhor": 3621,
      "Ġoc": 3622,
      "arra": 3623,
      "lear": 3624,
      "Ġpet": 3625,
      "Ġpoof": 3626,
      "ised": 3627,
      "Ġkiss": 3628,
      "Ġjigg": 3629,
      "tious": 3630,
      "Ġseek": 3631,
      "Ġmap": 3632,
      "irs": 3633,
      "Ġsave": 3634,
      "ctor": 3635,
      "Ġfacing": 3636,
      "Ġexpress": 3637,
      "Ġquit": 3638,
      "Ġrounded": 3639,
      "Ġshared": 3640,
      "Ġhurry": 3641,
      "Ġclears": 3642,
      "Ġcurving": 3643,
      "Ġsounded": 3644,
      "Ġpersonality": 3645,
      "Ġcompli": 3646,
      "Ġcomputer": 3647,
      "Ġinstru": 3648,
      "Ġtruest": 3649,
      "Ġrains": 3650,
      "Ġideas": 3651,
      "Ġrushed": 3652,
      "Ġresist": 3653,
      "Ġresume": 3654,
      "ĠYou": 3655,
      "ilities": 3656,
      "Ġscariest": 3657,
      "Ġpebble": 3658,
      "Ġtingling": 3659,
      "Ġrelaxing": 3660,
      "Ġspins": 3661,
      "Ġapology": 3662,
      "Ġwalk": 3663,
      "Ġsnacks": 3664,
      "Ġrelie": 3665,
      "Ġembarra": 3666,
      "Ġdelightful": 3667,
      "Ġsquee": 3668,
      "Ġsquare": 3669,
      "Ġrespons": 3670,
      "Ġslipper": 3671,
      "Ġcopy": 3672,
      "ĠWHAT": 3673,
      "Ġgenuinely": 3674,
      "Ġintense": 3675,
      "Ġstale": 3676,
      "Ġdepending": 3677,
      "Ġintroduce": 3678,
      "Ġerase": 3679,
      "Ġwobbly": 3680,
      "Ġmortgage": 3681,
      "THING": 3682,
      "Ġurgent": 3683,
      "Ġscratch": 3684,
      "Ġspirit": 3685,
      "Ġsentence": 3686,
      "Ġliterally": 3687,
      "Ġpotential": 3688,
      "Ġaccomplish": 3689,
      "Ġeconom": 3690,
      "Ġembarrass": 3691,
      "Ġslippery": 3692,
      "IS": 3693,
      "av": 3694,
      "cket": 3695,
      "den": 3696,
      "every": 3697,
      "for": 3698,
      "ior": 3699,
      "ma": 3700,
      "ped": 3701,
      "uation": 3702,
      "vity": 3703,
      "ym": 3704,
      "Ġtang": 3705,
      "ining": 3706,
      "Ġsn": 3707,
      "Ġyi": 3708,
      "Ġmat": 3709,
      "Ġbi": 3710,
      "Ġwhoo": 3711,
      "Ġgym": 3712,
      "els": 3713,
      "thes": 3714,
      "then": 3715,
      "ense": 3716,
      "Ġliqu": 3717,
      "Ġking": 3718,
      "Ġinch": 3719,
      "eti": 3720,
      "Ġreti": 3721,
      "Ġrelea": 3722,
      "Ġnecess": 3723,
      "Ġwander": 3724,
      "second": 3725,
      "Ġswir": 3726,
      "urb": 3727,
      "ault": 3728,
      "antage": 3729,
      "Ġhover": 3730,
      "Ġhole": 3731,
      "Ġroot": 3732,
      "Ġscattered": 3733,
      "redict": 3734,
      "Ġplus": 3735,
      "ical": 3736,
      "Ġquietest": 3737,
      "Ġgrab": 3738,
      "Ġdesign": 3739,
      "Ġele": 3740,
      "Ġproves": 3741,
      "Ġprocess": 3742,
      "Ġunsure": 3743,
      "Ġvibrate": 3744,
      "coming": 3745,
      "Ġstupid": 3746,
      "Ġdrip": 3747,
      "Ġactivity": 3748,
      "Ġtech": 3749,
      "Ġwishing": 3750,
      "Ġmill": 3751,
      "Ġrare": 3752,
      "Ġrace": 3753,
      "Ġclick": 3754,
      "Ġrisky": 3755,
      "Ġtwitter": 3756,
      "Ġprison": 3757,
      "Ġluckiest": 3758,
      "Ġexplained": 3759,
      "Ġzero": 3760,
      "Ġdoubts": 3761,
      "Ġearly": 3762,
      "Ġunclear": 3763,
      "Ġcloses": 3764,
      "Ġdisturb": 3765,
      "spins": 3766,
      "Ġcrave": 3767,
      "Ġsplashed": 3768,
      "Ġconfidence": 3769,
      "Ġcovering": 3770,
      "Ġvulnerability": 3771,
      "Ġgreetings": 3772,
      "ĠBUBBLES": 3773,
      "Ġdissolves": 3774,
      "Ġentirely": 3775,
      "Ġslipped": 3776,
      "Ġdull": 3777,
      "Ġessence": 3778,
      "Ġcomparing": 3779,
      "Ġvaluable": 3780,
      "Ġmotivated": 3781,
      "Ġflexible": 3782,
      "Ġinterrupt": 3783,
      "Ġnestle": 3784,
      "Ġgiggle": 3785,
      "Ġtiniest": 3786,
      "Ġliquid": 3787,
      "VER": 3788,
      "cou": 3789,
      "gs": 3790,
      "gile": 3791,
      "ian": 3792,
      "rr": 3793,
      "Ġ1": 3794,
      "Ġatt": 3795,
      "Ġmid": 3796,
      "Ġbar": 3797,
      "Ġbri": 3798,
      "Ġfsh": 3799,
      "Ġdumb": 3800,
      "Ġnud": 3801,
      "Ġgross": 3802,
      "Ġgirl": 3803,
      "Ġbeating": 3804,
      "isco": 3805,
      "Ġfeast": 3806,
      "Ġnoises": 3807,
      "Ġhab": 3808,
      "Ġforcing": 3809,
      "Ġforgave": 3810,
      "Ġgoals": 3811,
      "Ġtiring": 3812,
      "Ġagrees": 3813,
      "Ġring": 3814,
      "Ġanytime": 3815,
      "Ġstir": 3816,
      "Ġdie": 3817,
      "Ġwonders": 3818,
      "Ġkey": 3819,
      "Ġworlds": 3820,
      "Ġwilling": 3821,
      "Ġmattering": 3822,
      "Ġhugged": 3823,
      "Ġtrade": 3824,
      "Ġcomedy": 3825,
      "Ġreality": 3826,
      "Ġdreamed": 3827,
      "Ġhelpful": 3828,
      "Ġspooked": 3829,
      "ote": 3830,
      "Ġsaddest": 3831,
      "shing": 3832,
      "Ġfresher": 3833,
      "Ġimper": 3834,
      "Ġcats": 3835,
      "Ġblinked": 3836,
      "izes": 3837,
      "izon": 3838,
      "cul": 3839,
      "Ġsimplic": 3840,
      "Ġsimpler": 3841,
      "Ġheaviness": 3842,
      "Ġawful": 3843,
      "Ġcontain": 3844,
      "Ġgrowth": 3845,
      "Ġreminder": 3846,
      "Ġreached": 3847,
      "Ġchecks": 3848,
      "Ġadvantage": 3849,
      "Ġreflections": 3850,
      "Ġresent": 3851,
      "Ġresili": 3852,
      "Ġfitting": 3853,
      "Ġfriendships": 3854,
      "Ġpromises": 3855,
      "Ġsinks": 3856,
      "Ġtucked": 3857,
      "Ġexpects": 3858,
      "Ġrhythmic": 3859,
      "Ġsnail": 3860,
      "Ġsolve": 3861,
      "Ġnetwork": 3862,
      "Ġmeals": 3863,
      "Ġtricks": 3864,
      "Ġearliest": 3865,
      "Ġreplace": 3866,
      "Ġsoothes": 3867,
      "Ġseason": 3868,
      "Ġmeditation": 3869,
      "Ġdissolve": 3870,
      "Ġreject": 3871,
      "Ġcrossed": 3872,
      "Ġearned": 3873,
      "Ġunfair": 3874,
      "Ġcopies": 3875,
      "Ġpausing": 3876,
      "Ġnegle": 3877,
      "Ġcryptocur": 3878,
      "Ġvanished": 3879,
      "Ġneighbors": 3880,
      "Ġsupports": 3881,
      "Ġvacation": 3882,
      "Ġrearrang": 3883,
      "Ġcontinu": 3884,
      "Ġcriticism": 3885,
      "Ġslam": 3886,
      "Ġexercise": 3887,
      "Ġthrilling": 3888,
      "Ġsubject": 3889,
      "Ġauthen": 3890,
      "Ġhorizon": 3891,
      "Ġcompliment": 3892,
      "Ġtangled": 3893,
      "Ġretire": 3894,
      "Ġmillion": 3895,
      "Ġsimplicity": 3896,
      "Ġcryptocurrency": 3897,
      "Ġauthentic": 3898,
      "OO": 3899,
      "aur": 3900,
      "free": 3901,
      "ien": 3902,
      "iant": 3903,
      "kward": 3904,
      "lest": 3905,
      "mand": 3906,
      "sant": 3907,
      "uck": 3908,
      "unic": 3909,
      "ĠR": 3910,
      "Ġther": 3911,
      "Ġthra": 3912,
      "Ġthunder": 3913,
      "inct": 3914,
      "Ġmel": 3915,
      "Ġmis": 3916,
      "Ġbrill": 3917,
      "Ġfal": 3918,
      "ndom": 3919,
      "Ġhist": 3920,
      "ord": 3921,
      "Ġemo": 3922,
      "Ġbuil": 3923,
      "Ġreb": 3924,
      "Ġrene": 3925,
      "Ġflaps": 3926,
      "Ġworn": 3927,
      "Ġtiming": 3928,
      "Ġswimmer": 3929,
      "Ġhollow": 3930,
      "Ġsuits": 3931,
      "Ġenorm": 3932,
      "Ġmeanness": 3933,
      "Ġwaits": 3934,
      "Ġrestaur": 3935,
      "Ġdaylight": 3936,
      "Ġvivid": 3937,
      "Ġrealest": 3938,
      "Ġpepper": 3939,
      "Ġspo": 3940,
      "ightly": 3941,
      "stairs": 3942,
      "Ġsadder": 3943,
      "Ġeats": 3944,
      "Ġdemand": 3945,
      "Ġgravity": 3946,
      "Ġlongest": 3947,
      "Ġoverhead": 3948,
      "Ġputting": 3949,
      "Ġtheirs": 3950,
      "Ġcut": 3951,
      "Ġuseless": 3952,
      "Ġvisibility": 3953,
      "Ġruined": 3954,
      "Ġrocked": 3955,
      "Ġslightly": 3956,
      "Ġendings": 3957,
      "Ġrandom": 3958,
      "Ġawkward": 3959,
      "Ġdisappointing": 3960,
      "Ġaccepts": 3961,
      "Ġchecked": 3962,
      "Ġzone": 3963,
      "atures": 3964,
      "Ġfrustration": 3965,
      "Ġsituation": 3966,
      "Ġpromised": 3967,
      "Ġpainting": 3968,
      "Ġrecover": 3969,
      "Ġeffic": 3970,
      "Ġtug": 3971,
      "Ġtucking": 3972,
      "Ġredisco": 3973,
      "Ġapologies": 3974,
      "Ġpatches": 3975,
      "Ġmiracles": 3976,
      "Ġreturning": 3977,
      "ensive": 3978,
      "ĠTh": 3979,
      "Ġbendy": 3980,
      "Ġcommunic": 3981,
      "Ġschools": 3982,
      "Ġcomplaining": 3983,
      "Ġweeks": 3984,
      "Ġstretched": 3985,
      "Ġgreeting": 3986,
      "Ġobvious": 3987,
      "Ġblack": 3988,
      "Ġflickered": 3989,
      "Ġwhispering": 3990,
      "Ġbenefit": 3991,
      "Ġtyp": 3992,
      "Ġambition": 3993,
      "Ġmentioned": 3994,
      "Ġflaws": 3995,
      "Ġvanish": 3996,
      "Ġprettier": 3997,
      "Ġgesture": 3998,
      "Ġdroopy": 3999,
      "Ġrainbows": 4000,
      "Ġargu": 4001,
      "Ġfascinating": 4002,
      "Ġmelts": 4003,
      "Ġspirals": 4004,
      "Ġclimate": 4005,
      "Ġtwitch": 4006,
      "Ġfragile": 4007,
      "Ġpolitics": 4008,
      "Ġsqueeze": 4009,
      "Ġyikes": 4010,
      "Ġmatches": 4011,
      "Ġtechn": 4012,
      "VERY": 4013,
      "Ġbrid": 4014,
      "Ġfalse": 4015,
      "Ġhistory": 4016,
      "Ġbuilt": 4017,
      "Ġrenew": 4018,
      "Ġenormous": 4019,
      "Ġrestaurant": 4020,
      "ED": 4021,
      "but": 4022,
      "fla": 4023,
      "form": 4024,
      "gan": 4025,
      "ho": 4026,
      "iety": 4027,
      "lan": 4028,
      "ned": 4029,
      "ron": 4030,
      "sized": 4031,
      "try": 4032,
      "vot": 4033,
      "zen": 4034,
      "Ġve": 4035,
      "Ġtree": 4036,
      "Ġaim": 4037,
      "Ġack": 4038,
      "Ġsways": 4039,
      "Ġble": 4040,
      "Ġbir": 4041,
      "Ġhang": 4042,
      "Ġdoctor": 4043,
      "Ġcoo": 4044,
      "Ġgri": 4045,
      "aract": 4046,
      "ric": 4047,
      "Ġfeet": 4048,
      "Ġfeatures": 4049,
      "ceed": 4050,
      "Ġsteps": 4051,
      "Ġalarm": 4052,
      "Ġabs": 4053,
      "Ġcond": 4054,
      "Ġuh": 4055,
      "Ġtil": 4056,
      "anted": 4057,
      "Ġtimeless": 4058,
      "Ġchat": 4059,
      "Ġchuck": 4060,
      "Ġcharact": 4061,
      "bbing": 4062,
      "ires": 4063,
      "ctly": 4064,
      "Ġsumm": 4065,
      "Ġsuspe": 4066,
      "Ġscience": 4067,
      "Ġencou": 4068,
      "Ġwonderfully": 4069,
      "Ġgill": 4070,
      "Ġpersi": 4071,
      "Ġconcent": 4072,
      "ngs": 4073,
      "Ġgrand": 4074,
      "Ġprov": 4075,
      "Ġbreaths": 4076,
      "Ġtiredness": 4077,
      "Ġshades": 4078,
      "Ġpuff": 4079,
      "Ġunp": 4080,
      "Ġjoys": 4081,
      "Ġcute": 4082,
      "bye": 4083,
      "Ġcompan": 4084,
      "Ġspeck": 4085,
      "Ġspecks": 4086,
      "Ġwhichever": 4087,
      "Ġsmoothly": 4088,
      "Ġglowy": 4089,
      "Ġlasted": 4090,
      "Ġsimplest": 4091,
      "Ġvisited": 4092,
      "Ġinstinct": 4093,
      "Ġlungs": 4094,
      "sition": 4095,
      "Ġtrap": 4096,
      "nee": 4097,
      "Ġsetup": 4098,
      "Ġdelays": 4099,
      "Ġbehav": 4100,
      "Ġfreeing": 4101,
      "Ġfreezing": 4102,
      "Ġearth": 4103,
      "liable": 4104,
      "Ġpaint": 4105,
      "Ġplanning": 4106,
      "Ġsilver": 4107,
      "Ġfixes": 4108,
      "Ġtuck": 4109,
      "Ġspinny": 4110,
      "Ġprotected": 4111,
      "Ġappreciating": 4112,
      "Ġredemp": 4113,
      "Ġapologized": 4114,
      "Ġadded": 4115,
      "Ġlimited": 4116,
      "Ġdefault": 4117,
      "Ġfacts": 4118,
      "Ġanxiety": 4119,
      "what": 4120,
      "Ġpian": 4121,
      "Ġinvestment": 4122,
      "Ġignore": 4123,
      "Ġignoring": 4124,
      "Ġbetrayal": 4125,
      "Ġpriv": 4126,
      "Ġseparates": 4127,
      "Ġbedtime": 4128,
      "Ġbriefly": 4129,
      "Ġburden": 4130,
      "ĠWHERE": 4131,
      "Ġleads": 4132,
      "Ġobserv": 4133,
      "Ġresets": 4134,
      "Ġpouring": 4135,
      "Ġoverthinking": 4136,
      "Ġfrightened": 4137,
      "Ġhunting": 4138,
      "Ġgeome": 4139,
      "Ġbuzzing": 4140,
      "Ġfrozen": 4141,
      "Ġspecific": 4142,
      "AIT": 4143,
      "Ġresults": 4144,
      "Ġnecessary": 4145,
      "Ġ10": 4146,
      "Ġmelting": 4147,
      "Ġefficient": 4148,
      "Ġrediscover": 4149,
      "Ġbridge": 4150,
      "Ġbirth": 4151,
      "Ġchuckle": 4152,
      "Ġsuspended": 4153,
      "Ġpersistence": 4154,
      "Ġbehavior": 4155,
      "Ġredemption": 4156,
      "!âĢĶ": 4157,
      "HT": 4158,
      "ah": 4159,
      "ages": 4160,
      "ger": 4161,
      "he": 4162,
      "itious": 4163,
      "nn": 4164,
      "net": 4165,
      "oi": 4166,
      "pa": 4167,
      "place": 4168,
      "tual": 4169,
      "warm": 4170,
      "yes": 4171,
      "Ġind": 4172,
      "Ġwings": 4173,
      "Ġaqu": 4174,
      "Ġsle": 4175,
      "Ġsnee": 4176,
      "ator": 4177,
      "Ġhook": 4178,
      "Ġlay": 4179,
      "Ġlower": 4180,
      "Ġlying": 4181,
      "mend": 4182,
      "Ġcre": 4183,
      "Ġcor": 4184,
      "Ġcook": 4185,
      "Ġgaz": 4186,
      "Ġgpa": 4187,
      "through": 4188,
      "Ġlies": 4189,
      "sts": 4190,
      "stine": 4191,
      "Ġkoi": 4192,
      "Ġhair": 4193,
      "Ġreven": 4194,
      "Ġreliable": 4195,
      "Ġwit": 4196,
      "Ġstore": 4197,
      "Ġstable": 4198,
      "Ġcoll": 4199,
      "Ġflappy": 4200,
      "Ġmagn": 4201,
      "Ġworked": 4202,
      "Ġanti": 4203,
      "ury": 4204,
      "Ġhomes": 4205,
      "lesome": 4206,
      "feel": 4207,
      "Ġwholesome": 4208,
      "iring": 4209,
      "Ġrays": 4210,
      "Ġbubbler": 4211,
      "Ġglassy": 4212,
      "Ġanybody": 4213,
      "Ġsometime": 4214,
      "Ġsmallness": 4215,
      "Ġvast": 4216,
      "Ġhellos": 4217,
      "Ġparting": 4218,
      "Ġtails": 4219,
      "Ġpoor": 4220,
      "Ġdear": 4221,
      "Ġslowness": 4222,
      "ommend": 4223,
      "Ġcarried": 4224,
      "Ġfuller": 4225,
      "Ġusing": 4226,
      "Ġdescrib": 4227,
      "Ġinternet": 4228,
      "Ġdrives": 4229,
      "Ġnapping": 4230,
      "curi": 4231,
      "Ġwishes": 4232,
      "Ġrule": 4233,
      "Ġaffect": 4234,
      "Ġteacher": 4235,
      "Ġconfuse": 4236,
      "Ġconfuses": 4237,
      "Ġslide": 4238,
      "Ġsings": 4239,
      "Ġclue": 4240,
      "Ġsilliest": 4241,
      "Ġremove": 4242,
      "Ġgranted": 4243,
      "Ġaches": 4244,
      "Ġrippling": 4245,
      "Ġrippled": 4246,
      "Ġdefinition": 4247,
      "Ġdisappoints": 4248,
      "Ġbelongs": 4249,
      "amiliar": 4250,
      "Ġdoub": 4251,
      "Ġbothering": 4252,
      "Ġhealth": 4253,
      "Ġglimmer": 4254,
      "Ġfixing": 4255,
      "Ġhopes": 4256,
      "Ġtunn": 4257,
      "Ġblurs": 4258,
      "Ġconversations": 4259,
      "Ġwalks": 4260,
      "Ġexperien": 4261,
      "Ġretain": 4262,
      "Ġpaths": 4263,
      "Ġsucceed": 4264,
      "Ġcrad": 4265,
      "Ġdrink": 4266,
      "Ġstreaming": 4267,
      "Ġrecommend": 4268,
      "Ġtextured": 4269,
      "Ġignor": 4270,
      "Ġstreams": 4271,
      "Ġpristine": 4272,
      "Ġadmire": 4273,
      "Ġfurther": 4274,
      "Ġunfamiliar": 4275,
      "Ġoverwhelming": 4276,
      "Ġcycle": 4277,
      "Ġtrans": 4278,
      "Ġtalented": 4279,
      "IGHT": 4280,
      "Ġambitious": 4281,
      "Ġobsess": 4282,
      "ĠMO": 4283,
      "Ġprettiest": 4284,
      "Ġdusty": 4285,
      "Ġdwelling": 4286,
      "Ġgestures": 4287,
      "Ġdrum": 4288,
      "unity": 4289,
      "Ġimpressive": 4290,
      "Ġecho": 4291,
      "Ġpleasant": 4292,
      "Ġwarmed": 4293,
      "Ġcapital": 4294,
      "Ġsprinkle": 4295,
      "Ġhobby": 4296,
      "ĠNO": 4297,
      "Ġinstrument": 4298,
      "Ġeconomy": 4299,
      "etitive": 4300,
      "Ġwandering": 4301,
      "Ġimperfect": 4302,
      "Ġslammed": 4303,
      "Ġmisunder": 4304,
      "Ġemotions": 4305,
      "Ġencourage": 4306,
      "Ġpiano": 4307,
      "Ġbirthday": 4308,
      "Ġsneeze": 4309,
      "Ġgaze": 4310,
      "Ġexperiencing": 4311,
      "!'": 4312,
      "?'": 4313,
      "as": 4314,
      "bra": 4315,
      "cation": 4316,
      "ctivity": 4317,
      "ds": 4318,
      "ding": 4319,
      "fy": 4320,
      "hood": 4321,
      "iving": 4322,
      "ills": 4323,
      "ius": 4324,
      "lti": 4325,
      "ple": 4326,
      "val": 4327,
      "vable": 4328,
      "wise": 4329,
      "xury": 4330,
      "zoom": 4331,
      "Ġ(": 4332,
      "Ġill": 4333,
      "Ġwea": 4334,
      "ination": 4335,
      "Ġsized": 4336,
      "Ġsnow": 4337,
      "Ġyay": 4338,
      "Ġmes": 4339,
      "Ġmist": 4340,
      "Ġboo": 4341,
      "Ġden": 4342,
      "read": 4343,
      "Ġhust": 4344,
      "Ġharm": 4345,
      "Ġwha": 4346,
      "Ġgon": 4347,
      "Ġgard": 4348,
      "Ġgho": 4349,
      "Ġlips": 4350,
      "Ġbeach": 4351,
      "rier": 4352,
      "Ġsomebody": 4353,
      "Ġinse": 4354,
      "eting": 4355,
      "tific": 4356,
      "Ġstri": 4357,
      "Ġorgan": 4358,
      "Ġlightness": 4359,
      "being": 4360,
      "oodbye": 4361,
      "Ġmach": 4362,
      "Ġswall": 4363,
      "Ġbubbly": 4364,
      "Ġsaving": 4365,
      "cting": 4366,
      "ctric": 4367,
      "ellent": 4368,
      "Ġupstairs": 4369,
      "Ġsusp": 4370,
      "Ġeager": 4371,
      "Ġfriendl": 4372,
      "Ġmunch": 4373,
      "Ġmulti": 4374,
      "Ġhardness": 4375,
      "Ġoutcome": 4376,
      "Ġposition": 4377,
      "shion": 4378,
      "Ġdegree": 4379,
      "Ġsurre": 4380,
      "Ġgrain": 4381,
      "Ġhummm": 4382,
      "Ġdesp": 4383,
      "Ġelsewhere": 4384,
      "Ġproper": 4385,
      "Ġwiggled": 4386,
      "Ġdisg": 4387,
      "Ġbrrr": 4388,
      "Ġexplan": 4389,
      "Ġfunction": 4390,
      "Ġopenness": 4391,
      "Ġopenings": 4392,
      "Ġapps": 4393,
      "Ġexcellent": 4394,
      "Ġsimply": 4395,
      "Ġpaw": 4396,
      "Ġroyal": 4397,
      "Ġlegs": 4398,
      "Ġfarther": 4399,
      "Ġdeserving": 4400,
      "Ġluxury": 4401,
      "Ġideal": 4402,
      "Ġreflected": 4403,
      "Ġmessy": 4404,
      "Ġdecis": 4405,
      "Ġweirdest": 4406,
      "Ġfire": 4407,
      "Ġrushes": 4408,
      "ormation": 4409,
      "Ġpainful": 4410,
      "Ġtreated": 4411,
      "Ġtremble": 4412,
      "Ġfixed": 4413,
      "Ġpossibly": 4414,
      "ĠWAIT": 4415,
      "Ġtuna": 4416,
      "Ġprotection": 4417,
      "Ġescaped": 4418,
      "Ġgenius": 4419,
      "ĠAH": 4420,
      "Ġseriously": 4421,
      "Ġpivot": 4422,
      "Ġpanicked": 4423,
      "Ġprime": 4424,
      "Ġproductivity": 4425,
      "Ġfigured": 4426,
      "Ġstretching": 4427,
      "Ġburn": 4428,
      "Ġunfor": 4429,
      "Ġmirrors": 4430,
      "Ġdiscussed": 4431,
      "Ġinformation": 4432,
      "Ġshimmy": 4433,
      "Ġpauses": 4434,
      "Ġnegative": 4435,
      "Ġdeadline": 4436,
      "Ġreflecting": 4437,
      "Ġpours": 4438,
      "Ġorangest": 4439,
      "Ġargue": 4440,
      "ĠEVERY": 4441,
      "Ġechoes": 4442,
      "Ġflicks": 4443,
      "Ġshallow": 4444,
      "Ġenemy": 4445,
      "Ġamusing": 4446,
      "Ġembarrassed": 4447,
      "Ġroots": 4448,
      "Ġelectric": 4449,
      "Ġringing": 4450,
      "Ġcontainer": 4451,
      "Ġresentment": 4452,
      "Ġretirement": 4453,
      "ĠRIGHT": 4454,
      "Ġbrilliant": 4455,
      "Ġcommunicate": 4456,
      "Ġcondition": 4457,
      "Ġcharacter": 4458,
      "Ġobservation": 4459,
      "Ġgeometry": 4460,
      "Ġwitness": 4461,
      "Ġobsessed": 4462,
      "Ġmesmer": 4463,
      "Ġhustle": 4464,
      "Ġgonna": 4465,
      "Ġgarden": 4466,
      "Ġsuspic": 4467,
      "ĠEVERYTHING": 4468,
      "aw": 4469,
      "ake": 4470,
      "ands": 4471,
      "ases": 4472,
      "bs": 4473,
      "ball": 4474,
      "cles": 4475,
      "dies": 4476,
      "ffe": 4477,
      "frie": 4478,
      "gized": 4479,
      "grees": 4480,
      "ii": 4481,
      "ired": 4482,
      "ium": 4483,
      "ls": 4484,
      "mar": 4485,
      "ph": 4486,
      "table": 4487,
      "zed": 4488,
      "ĠL": 4489,
      "Ġthri": 4490,
      "atus": 4491,
      "Ġbell": 4492,
      "Ġfer": 4493,
      "Ġdest": 4494,
      "Ġnour": 4495,
      "Ġoy": 4496,
      "Ġcrea": 4497,
      "Ġgrie": 4498,
      "thu": 4499,
      "thest": 4500,
      "ans": 4501,
      "Ġlif": 4502,
      "Ġlied": 4503,
      "orable": 4504,
      "Ġeight": 4505,
      "Ġtoy": 4506,
      "Ġplo": 4507,
      "Ġphy": 4508,
      "Ġpredict": 4509,
      "Ġkid": 4510,
      "Ġinner": 4511,
      "Ġincomp": 4512,
      "Ġincoming": 4513,
      "Ġfeature": 4514,
      "etition": 4515,
      "Ġmoon": 4516,
      "Ġmode": 4517,
      "Ġjustice": 4518,
      "Ġrece": 4519,
      "kest": 4520,
      "Ġsending": 4521,
      "Ġwitty": 4522,
      "Ġstead": 4523,
      "Ġstatus": 4524,
      "Ġkinda": 4525,
      "iting": 4526,
      "ited": 4527,
      "Ġcovers": 4528,
      "Ġshout": 4529,
      "Ġbubbling": 4530,
      "Ġfloppy": 4531,
      "Ġboss": 4532,
      "Ġbodies": 4533,
      "Ġthanked": 4534,
      "Ġvo": 4535,
      "Ġmusc": 4536,
      "rated": 4537,
      "Ġstartles": 4538,
      "Ġhelpers": 4539,
      "Ġstring": 4540,
      "Ġpeak": 4541,
      "Ġotherwise": 4542,
      "Ġpoison": 4543,
      "Ġdegrees": 4544,
      "Ġbreathes": 4545,
      "Ġprep": 4546,
      "Ġcooling": 4547,
      "Ġcarro": 4548,
      "Ġmighty": 4549,
      "Ġsleepier": 4550,
      "some": 4551,
      "Ġpersonal": 4552,
      "Ġstudy": 4553,
      "ctions": 4554,
      "Ġwetness": 4555,
      "Ġwetter": 4556,
      "Ġslate": 4557,
      "Ġslides": 4558,
      "Ġsliding": 4559,
      "Ġmount": 4560,
      "Ġloudly": 4561,
      "Ġfails": 4562,
      "Ġritual": 4563,
      "Ġracing": 4564,
      "Ġmeaningless": 4565,
      "Ġstrangely": 4566,
      "Ġsensing": 4567,
      "Ġsenses": 4568,
      "Ġguides": 4569,
      "weed": 4570,
      "Ġadorable": 4571,
      "Ġempti": 4572,
      "Ġdirectly": 4573,
      "Ġgrin": 4574,
      "Ġgrad": 4575,
      "Ġdouble": 4576,
      "Ġenergized": 4577,
      "Ġtickly": 4578,
      "Ġbrains": 4579,
      "Ġclosest": 4580,
      "Ġpainted": 4581,
      "Ġsupporting": 4582,
      "Ġtremor": 4583,
      "ooks": 4584,
      "Ġoptimism": 4585,
      "Ġpossibilities": 4586,
      "ology": 4587,
      "ĠWAS": 4588,
      "Ġcracks": 4589,
      "Ġprotective": 4590,
      "Ġflat": 4591,
      "tical": 4592,
      "Ġlaziness": 4593,
      "Ġspending": 4594,
      "Ġfaded": 4595,
      "Ġevil": 4596,
      "Ġrepetitive": 4597,
      "Ġcommit": 4598,
      "Ġcommute": 4599,
      "Ġwinter": 4600,
      "Ġdoors": 4601,
      "Ġrecent": 4602,
      "Ġwears": 4603,
      "Ġmarried": 4604,
      "Ġfleeting": 4605,
      "Ġannoyed": 4606,
      "Ġsalty": 4607,
      "Ġtricky": 4608,
      "Ġseaweed": 4609,
      "Ġrelationships": 4610,
      "Ġinspiring": 4611,
      "Ġbetraying": 4612,
      "Ġequal": 4613,
      "Ġdissolving": 4614,
      "ĠSO": 4615,
      "Ġgoofball": 4616,
      "Ġstretches": 4617,
      "Ġthousands": 4618,
      "Ġpicky": 4619,
      "Ġburst": 4620,
      "Ġslipping": 4621,
      "Ġbeside": 4622,
      "Ġrumbles": 4623,
      "Ġflashes": 4624,
      "Ġcertainty": 4625,
      "Ġblues": 4626,
      "Ġadmitting": 4627,
      "Ġleans": 4628,
      "Ġflinch": 4629,
      "Ġshock": 4630,
      "Ġessential": 4631,
      "Ġdrooping": 4632,
      "Ġdrumming": 4633,
      "Ġoranges": 4634,
      "Ġvacc": 4635,
      "olved": 4636,
      "ĠGoodbye": 4637,
      "Ġanimal": 4638,
      "Ġloyalty": 4639,
      "Ġoccur": 4640,
      "Ġresistance": 4641,
      "Ġrelief": 4642,
      "Ġbike": 4643,
      "Ġwhoooosh": 4644,
      "Ġbarrier": 4645,
      "Ġresilience": 4646,
      "Ġthrashing": 4647,
      "Ġobviously": 4648,
      "Ġtypical": 4649,
      "Ġtechnology": 4650,
      "Ġcompanion": 4651,
      "Ġaquatic": 4652,
      "Ġslept": 4653,
      "Ġrevenge": 4654,
      "feeling": 4655,
      "Ġremoved": 4656,
      "ĠNOW": 4657,
      "Ġmisunderstood": 4658,
      "zooms": 4659,
      "Ġdenial": 4660,
      "Ġsurrender": 4661,
      "Ġexplanation": 4662,
      "Ġdecisions": 4663,
      "Ġnourish": 4664,
      "Ġphysic": 4665,
      "EE": 4666,
      "NT": 4667,
      "br": 4668,
      "do": 4669,
      "fying": 4670,
      "ged": 4671,
      "gate": 4672,
      "heal": 4673,
      "mark": 4674,
      "nment": 4675,
      "otion": 4676,
      "ping": 4677,
      "pes": 4678,
      "rce": 4679,
      "ral": 4680,
      "tory": 4681,
      "ucation": 4682,
      "vely": 4683,
      "Ġ7": 4684,
      "Ġice": 4685,
      "Ġwan": 4686,
      "ering": 4687,
      "Ġsight": 4688,
      "Ġmm": 4689,
      "Ġmon": 4690,
      "Ġmark": 4691,
      "Ġbow": 4692,
      "Ġbor": 4693,
      "Ġder": 4694,
      "Ġdar": 4695,
      "Ġdating": 4696,
      "reed": 4697,
      "Ġhy": 4698,
      "Ġlinked": 4699,
      "Ġnor": 4700,
      "Ġoop": 4701,
      "Ġcling": 4702,
      "Ġcity": 4703,
      "Ġitch": 4704,
      "Ġgrou": 4705,
      "Ġgro": 4706,
      "elter": 4707,
      "Ġsoa": 4708,
      "Ġlids": 4709,
      "Ġlively": 4710,
      "armed": 4711,
      "arls": 4712,
      "vernment": 4713,
      "lete": 4714,
      "Ġbull": 4715,
      "Ġinves": 4716,
      "Ġmom": 4717,
      "tie": 4718,
      "ticing": 4719,
      "tigate": 4720,
      "Ġeverybody": 4721,
      "Ġreel": 4722,
      "Ġrefu": 4723,
      "Ġneut": 4724,
      "Ġsend": 4725,
      "Ġseven": 4726,
      "Ġwifi": 4727,
      "Ġstro": 4728,
      "Ġstom": 4729,
      "Ġali": 4730,
      "Ġaltern": 4731,
      "chain": 4732,
      "aly": 4733,
      "Ġunt": 4734,
      "Ġgovernment": 4735,
      "Ġmaint": 4736,
      "Ġshelter": 4737,
      "Ġtip": 4738,
      "ishy": 4739,
      "Ġloose": 4740,
      "arted": 4741,
      "Ġnewness": 4742,
      "Ġcho": 4743,
      "Ġratt": 4744,
      "aint": 4745,
      "Ġfashion": 4746,
      "ffic": 4747,
      "Ġwobble": 4748,
      "Ġexcu": 4749,
      "Ġquant": 4750,
      "Ġease": 4751,
      "Ġvict": 4752,
      "Ġsource": 4753,
      "Ġstartup": 4754,
      "Ġpearls": 4755,
      "icked": 4756,
      "Ġsphere": 4757,
      "Ġsport": 4758,
      "Ġjoin": 4759,
      "Ġconst": 4760,
      "Ġfavorites": 4761,
      "Ġpol": 4762,
      "Ġpoet": 4763,
      "Ġfreshness": 4764,
      "Ġscaly": 4765,
      "Ġtrusted": 4766,
      "Ġprop": 4767,
      "Ġproven": 4768,
      "Ġcoolest": 4769,
      "ints": 4770,
      "Ġcircular": 4771,
      "Ġoption": 4772,
      "Ġunw": 4773,
      "izz": 4774,
      "Ġgreener": 4775,
      "Ġsimilar": 4776,
      "Ġpair": 4777,
      "Ġroad": 4778,
      "Ġpassage": 4779,
      "Ġangles": 4780,
      "Ġride": 4781,
      "Ġrainy": 4782,
      "Ġfollowed": 4783,
      "Ġeducation": 4784,
      "Ġremains": 4785,
      "Ġtragic": 4786,
      "Ġtraffic": 4787,
      "Ġstomp": 4788,
      "Ġreflects": 4789,
      "Ġpurposeful": 4790,
      "Ġartific": 4791,
      "Ġevenings": 4792,
      "Ġfluff": 4793,
      "Ġexplains": 4794,
      "Ġinvent": 4795,
      "Ġinviting": 4796,
      "Ġinvolved": 4797,
      "Ġgames": 4798,
      "Ġtickled": 4799,
      "Ġsmartest": 4800,
      "Ġimagining": 4801,
      "Ġfamous": 4802,
      "Ġclosure": 4803,
      "Ġtrees": 4804,
      "Ġstructure": 4805,
      "Ġsilk": 4806,
      "Ġwiser": 4807,
      "Ġcreating": 4808,
      "Ġbeginnings": 4809,
      "Ġsweetness": 4810,
      "Ġtumble": 4811,
      "Ġsongs": 4812,
      "Ġtruths": 4813,
      "Ġclouded": 4814,
      "Ġsafely": 4815,
      "Ġopposites": 4816,
      "Ġterritory": 4817,
      "notice": 4818,
      "Ġknocked": 4819,
      "Ġadding": 4820,
      "Ġflavors": 4821,
      "Ġsurroundings": 4822,
      "ĠAN": 4823,
      "ĠAHH": 4824,
      "Ġinfinity": 4825,
      "Ġcrumb": 4826,
      "Ġdepth": 4827,
      "gency": 4828,
      "Ġbrushed": 4829,
      "Ġthumps": 4830,
      "Ġapproval": 4831,
      "Ġsquishy": 4832,
      "Ġlack": 4833,
      "Ġdissolved": 4834,
      "ĠSOM": 4835,
      "Ġrejected": 4836,
      "Ġmovies": 4837,
      "Ġfurry": 4838,
      "Ġfurthest": 4839,
      "Ġparaly": 4840,
      "Ġautomatically": 4841,
      "Ġamber": 4842,
      "ĠDo": 4843,
      "Ġavoiding": 4844,
      "Ġintention": 4845,
      "Ġreadiness": 4846,
      "Ġclass": 4847,
      "Ġstands": 4848,
      "Ġleafy": 4849,
      "Ġshocked": 4850,
      "Ġpunishment": 4851,
      "Ġrequire": 4852,
      "Ġpulse": 4853,
      "Ġrearrange": 4854,
      "Ġcontinue": 4855,
      "Ġconsciousness": 4856,
      "Ġpleased": 4857,
      "Ġspiral": 4858,
      "Ġclimb": 4859,
      "Ġdrawn": 4860,
      "Ġjealousy": 4861,
      "Ġhundredth": 4862,
      "ificent": 4863,
      "ificant": 4864,
      "Ġbonus": 4865,
      "Ġenemies": 4866,
      "Ġamuse": 4867,
      "Ġblockchain": 4868,
      "Ġkisses": 4869,
      "Ġjiggling": 4870,
      "Ġrelieved": 4871,
      "Ġresponsibility": 4872,
      "Ġswirling": 4873,
      "Ġnudge": 4874,
      "Ġhabit": 4875,
      "Ġstirring": 4876,
      "cular": 4877,
      "Ġseasons": 4878,
      "Ġneglect": 4879,
      "ĠThis": 4880,
      "Ġarguments": 4881,
      "flakes": 4882,
      "Ġblend": 4883,
      "Ġconcentrate": 4884,
      "Ġearthqu": 4885,
      "Ġcorre": 4886,
      "Ġcolle": 4887,
      "Ġmagnificent": 4888,
      "Ġdescribing": 4889,
      "Ġdoubting": 4890,
      "ĠMOV": 4891,
      "Ġinsecuri": 4892,
      "Ġmachine": 4893,
      "Ġswallow": 4894,
      "Ġfriendlier": 4895,
      "Ġhummmmm": 4896,
      "Ġelectricity": 4897,
      "Ġincomplete": 4898,
      "Ġmuscles": 4899,
      "Ġstringy": 4900,
      "healthy": 4901,
      "Ġwanna": 4902,
      "Ġbowtie": 4903,
      "Ġoops": 4904,
      "Ġinvestigate": 4905,
      "Ġneutral": 4906,
      "Ġstroke": 4907,
      "Ġstomach": 4908,
      "Ġalternative": 4909,
      "Ġartificial": 4910,
      "ĠSOME": 4911,
      "LL": 4912,
      "NC": 4913,
      "ON": 4914,
      "XC": 4915,
      "ass": 4916,
      "bles": 4917,
      "brea": 4918,
      "bul": 4919,
      "go": 4920,
      "giv": 4921,
      "hant": 4922,
      "io": 4923,
      "ives": 4924,
      "ios": 4925,
      "ified": 4926,
      "looks": 4927,
      "my": 4928,
      "of": 4929,
      "rad": 4930,
      "und": 4931,
      "xic": 4932,
      "ye": 4933,
      "zier": 4934,
      "ĠP": 4935,
      "ĠU": 4936,
      "Ġtide": 4937,
      "Ġthinner": 4938,
      "Ġthread": 4939,
      "Ġaward": 4940,
      "ership": 4941,
      "Ġsan": 4942,
      "Ġsar": 4943,
      "Ġske": 4944,
      "Ġserv": 4945,
      "Ġsizes": 4946,
      "Ġment": 4947,
      "Ġbath": 4948,
      "Ġfant": 4949,
      "Ġfaint": 4950,
      "Ġded": 4951,
      "Ġlever": 4952,
      "Ġoof": 4953,
      "this": 4954,
      "thump": 4955,
      "eng": 4956,
      "Ġlit": 4957,
      "orter": 4958,
      "sters": 4959,
      "Ġegg": 4960,
      "Ġtoxic": 4961,
      "keting": 4962,
      "Ġwaters": 4963,
      "ghter": 4964,
      "Ġpile": 4965,
      "Ġpizz": 4966,
      "Ġburied": 4967,
      "Ġbucket": 4968,
      "ising": 4969,
      "Ġfeather": 4970,
      "ticular": 4971,
      "Ġstur": 4972,
      "Ġstance": 4973,
      "Ġstud": 4974,
      "Ġalarmed": 4975,
      "Ġwagging": 4976,
      "Ġabund": 4977,
      "Ġcoffe": 4978,
      "chases": 4979,
      "Ġgod": 4980,
      "Ġseeking": 4981,
      "Ġflaky": 4982,
      "loat": 4983,
      "Ġshorter": 4984,
      "Ġtill": 4985,
      "Ġtips": 4986,
      "Ġloos": 4987,
      "Ġswa": 4988,
      "Ġswear": 4989,
      "cky": 4990,
      "Ġchir": 4991,
      "Ġloans": 4992,
      "ephant": 4993,
      "Ġaggress": 4994,
      "Ġrow": 4995,
      "Ġrate": 4996,
      "eable": 4997,
      "Ġsaved": 4998,
      "ellig": 4999,
      "Ġsuit": 5000,
      "Ġstiff": 5001,
      "Ġsticking": 5002,
      "Ġscatter": 5003,
      "Ġwee": 5004,
      "Ġdive": 5005,
      "Ġdistant": 5006,
      "Ġamong": 5007,
      "Ġbob": 5008,
      "Ġtaken": 5009,
      "Ġtable": 5010,
      "venient": 5011,
      "Ġperk": 5012,
      "Ġperha": 5013,
      "quen": 5014,
      "Ġbaby": 5015,
      "Ġcomed": 5016,
      "Ġvote": 5017,
      "Ġrealizing": 5018,
      "Ġsoup": 5019,
      "ics": 5020,
      "icated": 5021,
      "Ġspit": 5022,
      "Ġspent": 5023,
      "Ġspring": 5024,
      "Ġspun": 5025,
      "Ġsurely": 5026,
      "Ġconc": 5027,
      "Ġconcept": 5028,
      "Ġconvenient": 5029,
      "Ġshoulder": 5030,
      "Ġpopping": 5031,
      "Ġhopefully": 5032,
      "Ġhomework": 5033,
      "Ġdefe": 5034,
      "Ġplaice": 5035,
      "Ġelephant": 5036,
      "Ġprogra": 5037,
      "Ġovernight": 5038,
      "cip": 5039,
      "Ġcalms": 5040,
      "Ġclearest": 5041,
      "Ġunst": 5042,
      "Ġunhealthy": 5043,
      "Ġcurrency": 5044,
      "Ġexposed": 5045,
      "Ġexpensive": 5046,
      "Ġcompound": 5047,
      "Ġcompass": 5048,
      "Ġfond": 5049,
      "Ġvibrated": 5050,
      "Ġsmoothness": 5051,
      "Ġgrew": 5052,
      "Ġwronged": 5053,
      "Ġblind": 5054,
      "Ġbloop": 5055,
      "Ġcleans": 5056,
      "ilege": 5057,
      "Ġdrifted": 5058,
      "Ġrubbing": 5059,
      "Ġparent": 5060,
      "Ġnightmar": 5061,
      "illing": 5062,
      "Ġrole": 5063,
      "ddle": 5064,
      "Ġslits": 5065,
      "ounding": 5066,
      "Ġdanced": 5067,
      "Ġminds": 5068,
      "Ġnamed": 5069,
      "Ġended": 5070,
      "Ġfailures": 5071,
      "Ġhonored": 5072,
      "lessly": 5073,
      "Ġfollowers": 5074,
      "Ġgul": 5075,
      "Ġcontag": 5076,
      "Ġadios": 5077,
      "Ġpurring": 5078,
      "Ġpurples": 5079,
      "Ġflowy": 5080,
      "Ġcomplex": 5081,
      "Ġjumps": 5082,
      "Ġarr": 5083,
      "Ġarmor": 5084,
      "Ġreminded": 5085,
      "Ġinvitation": 5086,
      "Ġzi": 5087,
      "ageable": 5088,
      "Ġfreeze": 5089,
      "Ġgasp": 5090,
      "Ġimagined": 5091,
      "swim": 5092,
      "Ġchased": 5093,
      "Ġweaker": 5094,
      "Ġlaughter": 5095,
      "sett": 5096,
      "Ġphew": 5097,
      "ruction": 5098,
      "Ġmusical": 5099,
      "Ġwelco": 5100,
      "Ġwelcoming": 5101,
      "ĠWill": 5102,
      "Ġstares": 5103,
      "Ġrecognition": 5104,
      "Ġrecognizes": 5105,
      "Ġsweetly": 5106,
      "Ġtube": 5107,
      "casion": 5108,
      "Ġopport": 5109,
      "Ġphilosoph": 5110,
      "Ġappreciated": 5111,
      "Ġsearched": 5112,
      "working": 5113,
      "Ġupsets": 5114,
      "ticated": 5115,
      "Ġcheering": 5116,
      "Ġfewer": 5117,
      "Ġknocking": 5118,
      "Ġrepeated": 5119
    },
    "merges": [
      [
        "Ġ",
        "t"
      ],
      [
        "Ġ",
        "i"
      ],
      [
        "Ġt",
        "h"
      ],
      [
        "Ġ",
        "w"
      ],
      [
        "Ġ",
        "a"
      ],
      [
        "i",
        "n"
      ],
      [
        "o",
        "u"
      ],
      [
        "e",
        "r"
      ],
      [
        "Ġ",
        "s"
      ],
      [
        "a",
        "t"
      ],
      [
        "Ġth",
        "e"
      ],
      [
        "Ġ",
        "y"
      ],
      [
        "Ġ",
        "m"
      ],
      [
        "in",
        "g"
      ],
      [
        "Ġ",
        "b"
      ],
      [
        "Ġy",
        "ou"
      ],
      [
        "Ġ",
        "f"
      ],
      [
        "e",
        "s"
      ],
      [
        "Ġ",
        "d"
      ],
      [
        "r",
        "e"
      ],
      [
        "n",
        "d"
      ],
      [
        "Ġ",
        "h"
      ],
      [
        "Ġ",
        "l"
      ],
      [
        "Ġw",
        "h"
      ],
      [
        "o",
        "w"
      ],
      [
        "Ġ",
        "n"
      ],
      [
        "Ġd",
        "o"
      ],
      [
        "Ġ",
        "o"
      ],
      [
        "m",
        "e"
      ],
      [
        "Ġa",
        "nd"
      ],
      [
        "Ġ",
        "c"
      ],
      [
        "Ġi",
        "t"
      ],
      [
        "Ġi",
        "s"
      ],
      [
        "'",
        "s"
      ],
      [
        "Ġ",
        "g"
      ],
      [
        "e",
        "l"
      ],
      [
        "t",
        "h"
      ],
      [
        "e",
        "n"
      ],
      [
        "Ġs",
        "o"
      ],
      [
        "a",
        "n"
      ],
      [
        "Ġl",
        "i"
      ],
      [
        "a",
        "y"
      ],
      [
        "o",
        "r"
      ],
      [
        "s",
        "t"
      ],
      [
        "Ġ",
        "e"
      ],
      [
        "g",
        "h"
      ],
      [
        "Ġwh",
        "at"
      ],
      [
        "a",
        "r"
      ],
      [
        "Ġt",
        "o"
      ],
      [
        "Ġw",
        "at"
      ],
      [
        "Ġm",
        "e"
      ],
      [
        "l",
        "l"
      ],
      [
        "v",
        "er"
      ],
      [
        "k",
        "e"
      ],
      [
        "Ġwat",
        "er"
      ],
      [
        "Ġth",
        "at"
      ],
      [
        "er",
        "e"
      ],
      [
        "Ġb",
        "e"
      ],
      [
        "gh",
        "t"
      ],
      [
        "v",
        "e"
      ],
      [
        "l",
        "e"
      ],
      [
        "Ġ",
        "p"
      ],
      [
        "Ġb",
        "u"
      ],
      [
        "o",
        "n"
      ],
      [
        "i",
        "s"
      ],
      [
        "Ġ",
        "k"
      ],
      [
        "th",
        "ing"
      ],
      [
        "o",
        "o"
      ],
      [
        "r",
        "i"
      ],
      [
        "Ġso",
        "me"
      ],
      [
        "Ġi",
        "n"
      ],
      [
        "'",
        "t"
      ],
      [
        "Ġf",
        "e"
      ],
      [
        "Ġe",
        "ver"
      ],
      [
        "Ġli",
        "ke"
      ],
      [
        "Ġfe",
        "el"
      ],
      [
        "Ġn",
        "o"
      ],
      [
        "e",
        "t"
      ],
      [
        "Ġ",
        "j"
      ],
      [
        "Ġh",
        "a"
      ],
      [
        "Ġm",
        "o"
      ],
      [
        "'",
        "m"
      ],
      [
        "u",
        "st"
      ],
      [
        "Ġf",
        "or"
      ],
      [
        "Ġbu",
        "t"
      ],
      [
        "t",
        "i"
      ],
      [
        "l",
        "d"
      ],
      [
        "l",
        "a"
      ],
      [
        "c",
        "e"
      ],
      [
        "Ġm",
        "y"
      ],
      [
        "Ġj",
        "ust"
      ],
      [
        "Ġever",
        "y"
      ],
      [
        "Ġ",
        "re"
      ],
      [
        "Ġyou",
        "r"
      ],
      [
        "Ġa",
        "re"
      ],
      [
        "in",
        "d"
      ],
      [
        "'",
        "re"
      ],
      [
        "Ġn",
        "e"
      ],
      [
        "Ġthe",
        "y"
      ],
      [
        "k",
        "es"
      ],
      [
        "ou",
        "t"
      ],
      [
        "e",
        "d"
      ],
      [
        "ri",
        "ght"
      ],
      [
        "Ġs",
        "e"
      ],
      [
        "Ġw",
        "i"
      ],
      [
        "Ġn",
        "ow"
      ],
      [
        "Ġs",
        "t"
      ],
      [
        "Ġdo",
        "n"
      ],
      [
        "ar",
        "m"
      ],
      [
        "Ġw",
        "arm"
      ],
      [
        "Ġh",
        "ow"
      ],
      [
        "p",
        "p"
      ],
      [
        "Ġa",
        "l"
      ],
      [
        "Ġk",
        "ind"
      ],
      [
        ".",
        "."
      ],
      [
        "Ġw",
        "a"
      ],
      [
        "i",
        "t"
      ],
      [
        "Ġk",
        "n"
      ],
      [
        "Ġo",
        "f"
      ],
      [
        "Ġa",
        "b"
      ],
      [
        "an",
        "g"
      ],
      [
        "ow",
        "l"
      ],
      [
        "Ġkn",
        "ow"
      ],
      [
        "Ġo",
        "r"
      ],
      [
        "Ġc",
        "an"
      ],
      [
        "Ġb",
        "owl"
      ],
      [
        "es",
        "t"
      ],
      [
        "i",
        "d"
      ],
      [
        "Ġc",
        "o"
      ],
      [
        "c",
        "h"
      ],
      [
        "Ġli",
        "ght"
      ],
      [
        "Ġ",
        "right"
      ],
      [
        "Ġth",
        "ing"
      ],
      [
        "Ġo",
        "n"
      ],
      [
        "a",
        "d"
      ],
      [
        "Ġth",
        "ere"
      ],
      [
        "a",
        "ll"
      ],
      [
        "b",
        "e"
      ],
      [
        "es",
        "s"
      ],
      [
        "oo",
        "d"
      ],
      [
        "Ġab",
        "out"
      ],
      [
        "Ġfor",
        "g"
      ],
      [
        "s",
        "e"
      ],
      [
        "Ġh",
        "ere"
      ],
      [
        "on",
        "e"
      ],
      [
        "en",
        "t"
      ],
      [
        "a",
        "l"
      ],
      [
        "Ġ",
        "u"
      ],
      [
        "Ġg",
        "o"
      ],
      [
        "w",
        "ay"
      ],
      [
        "Ġwh",
        "en"
      ],
      [
        "Ġse",
        "e"
      ],
      [
        "Ġevery",
        "thing"
      ],
      [
        "Ġsome",
        "thing"
      ],
      [
        "Ġha",
        "pp"
      ],
      [
        "l",
        "y"
      ],
      [
        "Ġth",
        "is"
      ],
      [
        "Ġf",
        "la"
      ],
      [
        "ang",
        "e"
      ],
      [
        "r",
        "ou"
      ],
      [
        "in",
        "k"
      ],
      [
        "Ġm",
        "ay"
      ],
      [
        "Ġmay",
        "be"
      ],
      [
        "f",
        "u"
      ],
      [
        "n",
        "t"
      ],
      [
        "l",
        "o"
      ],
      [
        "Ġo",
        "h"
      ],
      [
        "Ġm",
        "a"
      ],
      [
        "Ġy",
        "es"
      ],
      [
        "Ġs",
        "h"
      ],
      [
        "Ġw",
        "or"
      ],
      [
        "f",
        "t"
      ],
      [
        "Ġth",
        "ink"
      ],
      [
        "Ġt",
        "i"
      ],
      [
        "is",
        "h"
      ],
      [
        "t",
        "t"
      ],
      [
        "fu",
        "l"
      ],
      [
        "Ġno",
        "t"
      ],
      [
        "Ġfeel",
        "s"
      ],
      [
        "Ġl",
        "oo"
      ],
      [
        "i",
        "m"
      ],
      [
        "me",
        "nt"
      ],
      [
        "Ġg",
        "ood"
      ],
      [
        "m",
        "es"
      ],
      [
        "Ġs",
        "w"
      ],
      [
        "Ġwi",
        "th"
      ],
      [
        "Ġfla",
        "kes"
      ],
      [
        "Ġa",
        "n"
      ],
      [
        "Ġloo",
        "k"
      ],
      [
        "Ġdo",
        "es"
      ],
      [
        "u",
        "r"
      ],
      [
        "m",
        "b"
      ],
      [
        "r",
        "o"
      ],
      [
        "Ġa",
        "ll"
      ],
      [
        "s",
        "s"
      ],
      [
        "way",
        "s"
      ],
      [
        "Ġal",
        "ways"
      ],
      [
        "Ġmo",
        "ment"
      ],
      [
        "Ġsw",
        "im"
      ],
      [
        "Ġha",
        "ve"
      ],
      [
        "Ġs",
        "m"
      ],
      [
        "me",
        "mb"
      ],
      [
        "Ġre",
        "memb"
      ],
      [
        "Ġa",
        "t"
      ],
      [
        "Ġor",
        "ange"
      ],
      [
        "c",
        "k"
      ],
      [
        "Ġforg",
        "et"
      ],
      [
        "Ġwh",
        "y"
      ],
      [
        "ou",
        "ld"
      ],
      [
        "a",
        "u"
      ],
      [
        "Ġi",
        "f"
      ],
      [
        "Ġbe",
        "ing"
      ],
      [
        "r",
        "a"
      ],
      [
        "Ġrememb",
        "er"
      ],
      [
        "Ġwa",
        "s"
      ],
      [
        "an",
        "t"
      ],
      [
        "Ġn",
        "i"
      ],
      [
        "Ġh",
        "o"
      ],
      [
        "l",
        "es"
      ],
      [
        "r",
        "y"
      ],
      [
        "..",
        "."
      ],
      [
        "ar",
        "t"
      ],
      [
        "Ġne",
        "w"
      ],
      [
        "nd",
        "er"
      ],
      [
        "Ġti",
        "me"
      ],
      [
        "Ġg",
        "la"
      ],
      [
        "n",
        "ess"
      ],
      [
        "Ġthing",
        "s"
      ],
      [
        "a",
        "st"
      ],
      [
        "Ġc",
        "h"
      ],
      [
        "f",
        "e"
      ],
      [
        "b",
        "b"
      ],
      [
        "Ġl",
        "o"
      ],
      [
        "e",
        "p"
      ],
      [
        "Ġwh",
        "o"
      ],
      [
        "i",
        "r"
      ],
      [
        "Ġa",
        "g"
      ],
      [
        "Ġ",
        "r"
      ],
      [
        "a",
        "in"
      ],
      [
        "Ġsome",
        "one"
      ],
      [
        "Ġbu",
        "bb"
      ],
      [
        "e",
        "a"
      ],
      [
        "Ġs",
        "a"
      ],
      [
        "Ġso",
        "ft"
      ],
      [
        "Ġg",
        "et"
      ],
      [
        "Ġf",
        "in"
      ],
      [
        "th",
        "er"
      ],
      [
        "Ġni",
        "ce"
      ],
      [
        "Ġgla",
        "ss"
      ],
      [
        "Ġan",
        "y"
      ],
      [
        "rou",
        "nd"
      ],
      [
        "Ġag",
        "ain"
      ],
      [
        "c",
        "t"
      ],
      [
        "Ġthe",
        "m"
      ],
      [
        "ou",
        "gh"
      ],
      [
        "el",
        "l"
      ],
      [
        "Ġthe",
        "n"
      ],
      [
        "t",
        "er"
      ],
      [
        "Ġma",
        "kes"
      ],
      [
        "Ġsome",
        "ti"
      ],
      [
        "Ġsometi",
        "mes"
      ],
      [
        "Ġu",
        "p"
      ],
      [
        "Ġs",
        "u"
      ],
      [
        "Ġs",
        "ti"
      ],
      [
        "Ġf",
        "lo"
      ],
      [
        "Ġd",
        "id"
      ],
      [
        "Ġflo",
        "at"
      ],
      [
        "Ġs",
        "c"
      ],
      [
        "v",
        "ing"
      ],
      [
        "Ġ",
        "en"
      ],
      [
        "Ġsti",
        "ll"
      ],
      [
        "Ġsm",
        "all"
      ],
      [
        "Ġh",
        "el"
      ],
      [
        "Ġto",
        "o"
      ],
      [
        "re",
        "d"
      ],
      [
        "Ġwh",
        "ere"
      ],
      [
        "Ġw",
        "e"
      ],
      [
        "m",
        "ing"
      ],
      [
        "Ġf",
        "a"
      ],
      [
        "m",
        "p"
      ],
      [
        "Ġhapp",
        "y"
      ],
      [
        "Ġme",
        "an"
      ],
      [
        "Ġd",
        "i"
      ],
      [
        "Ġg",
        "ent"
      ],
      [
        "f",
        "f"
      ],
      [
        "Ġa",
        "m"
      ],
      [
        "Ġf",
        "ish"
      ],
      [
        "Ġb",
        "o"
      ],
      [
        "Ġhapp",
        "en"
      ],
      [
        "Ġfin",
        "s"
      ],
      [
        "p",
        "e"
      ],
      [
        "Ġw",
        "o"
      ],
      [
        "Ġt",
        "a"
      ],
      [
        "v",
        "en"
      ],
      [
        "i",
        "l"
      ],
      [
        "Ġwa",
        "it"
      ],
      [
        "Ġbe",
        "c"
      ],
      [
        "Ġe",
        "x"
      ],
      [
        "all",
        "y"
      ],
      [
        "nd",
        "s"
      ],
      [
        "Ġo",
        "k"
      ],
      [
        "Ġbubb",
        "les"
      ],
      [
        "Ġwo",
        "nder"
      ],
      [
        "Ġen",
        "ough"
      ],
      [
        "Ġg",
        "i"
      ],
      [
        "ro",
        "m"
      ],
      [
        "o",
        "p"
      ],
      [
        "Ġmo",
        "ve"
      ],
      [
        "ar",
        "d"
      ],
      [
        "ver",
        "y"
      ],
      [
        "Ġon",
        "e"
      ],
      [
        "Ġp",
        "er"
      ],
      [
        "Ġ",
        "ke"
      ],
      [
        "Ġok",
        "ay"
      ],
      [
        "i",
        "g"
      ],
      [
        "ri",
        "e"
      ],
      [
        "Ġkind",
        "ness"
      ],
      [
        "Ġf",
        "rom"
      ],
      [
        "Ġke",
        "ep"
      ],
      [
        "q",
        "u"
      ],
      [
        "rou",
        "gh"
      ],
      [
        "Ġf",
        "rie"
      ],
      [
        "Ġ",
        "very"
      ],
      [
        "Ġst",
        "ay"
      ],
      [
        "Ġt",
        "ell"
      ],
      [
        "Ġth",
        "rough"
      ],
      [
        "ff",
        "er"
      ],
      [
        "Ġw",
        "ay"
      ],
      [
        "Ġdi",
        "ffer"
      ],
      [
        "el",
        "f"
      ],
      [
        "Ġb",
        "ig"
      ],
      [
        "Ġwor",
        "ld"
      ],
      [
        "on",
        "g"
      ],
      [
        "au",
        "se"
      ],
      [
        "Ġ",
        "qu"
      ],
      [
        "Ġlo",
        "ve"
      ],
      [
        "d",
        "ay"
      ],
      [
        "Ġbec",
        "ause"
      ],
      [
        "Ġb",
        "a"
      ],
      [
        "Ġr",
        "est"
      ],
      [
        "Ġwho",
        "le"
      ],
      [
        "Ġt",
        "ry"
      ],
      [
        "Ġdiffer",
        "ent"
      ],
      [
        "Ġli",
        "tt"
      ],
      [
        "at",
        "ter"
      ],
      [
        "Ġlitt",
        "le"
      ],
      [
        "Ġe",
        "ven"
      ],
      [
        "Ġgo",
        "ld"
      ],
      [
        "Ġwi",
        "ll"
      ],
      [
        "Ġs",
        "ay"
      ],
      [
        "s",
        "elf"
      ],
      [
        "Ġwarm",
        "th"
      ],
      [
        "ow",
        "n"
      ],
      [
        "Ġba",
        "ck"
      ],
      [
        "Ġd",
        "ay"
      ],
      [
        "Ġgent",
        "le"
      ],
      [
        "Ġth",
        "an"
      ],
      [
        "Ġh",
        "e"
      ],
      [
        "Ġa",
        "round"
      ],
      [
        "o",
        "re"
      ],
      [
        "Ġw",
        "ould"
      ],
      [
        "Ġm",
        "atter"
      ],
      [
        "t",
        "ing"
      ],
      [
        "Ġa",
        "s"
      ],
      [
        "ad",
        "y"
      ],
      [
        "k",
        "ing"
      ],
      [
        "i",
        "ve"
      ],
      [
        "Ġb",
        "est"
      ],
      [
        "l",
        "ow"
      ],
      [
        "id",
        "e"
      ],
      [
        "Ġne",
        "ed"
      ],
      [
        "Ġw",
        "ant"
      ],
      [
        "Ġh",
        "u"
      ],
      [
        "re",
        "a"
      ],
      [
        "Ġne",
        "ver"
      ],
      [
        "g",
        "g"
      ],
      [
        "Ġb",
        "el"
      ],
      [
        "Ġmo",
        "st"
      ],
      [
        "Ġb",
        "right"
      ],
      [
        "el",
        "y"
      ],
      [
        "v",
        "es"
      ],
      [
        "Ġf",
        "u"
      ],
      [
        "Ġt",
        "r"
      ],
      [
        "Ġwonder",
        "ful"
      ],
      [
        "Ġqu",
        "i"
      ],
      [
        "Ġe",
        "a"
      ],
      [
        "Ġco",
        "me"
      ],
      [
        "Ġ",
        "v"
      ],
      [
        "Ġre",
        "ally"
      ],
      [
        "fe",
        "ct"
      ],
      [
        "Ġsee",
        "m"
      ],
      [
        "Ġmo",
        "ving"
      ],
      [
        "it",
        "e"
      ],
      [
        "Ġper",
        "fect"
      ],
      [
        "Ġmo",
        "re"
      ],
      [
        "Ġbe",
        "au"
      ],
      [
        "Ġse",
        "c"
      ],
      [
        "Ġfrie",
        "nd"
      ],
      [
        "Ġma",
        "ke"
      ],
      [
        "Ġre",
        "al"
      ],
      [
        "Ġm",
        "u"
      ],
      [
        "Ġswim",
        "ming"
      ],
      [
        "Ġc",
        "a"
      ],
      [
        "Ġbeau",
        "ti"
      ],
      [
        "Ġs",
        "ou"
      ],
      [
        "Ġmean",
        "s"
      ],
      [
        "Ġh",
        "ard"
      ],
      [
        "Ġno",
        "ti"
      ],
      [
        "Ġsa",
        "me"
      ],
      [
        "Ġto",
        "day"
      ],
      [
        "Ġwi",
        "gg"
      ],
      [
        "i",
        "e"
      ],
      [
        "ar",
        "k"
      ],
      [
        "Ġbeauti",
        "ful"
      ],
      [
        "r",
        "at"
      ],
      [
        "f",
        "ish"
      ],
      [
        "Ġho",
        "ld"
      ],
      [
        "Ġst",
        "art"
      ],
      [
        "Ġp",
        "e"
      ],
      [
        "Ġp",
        "l"
      ],
      [
        "i",
        "c"
      ],
      [
        "re",
        "at"
      ],
      [
        "Ġb",
        "y"
      ],
      [
        "Ġd",
        "rea"
      ],
      [
        "Ġgold",
        "fish"
      ],
      [
        "g",
        "e"
      ],
      [
        "r",
        "es"
      ],
      [
        "Ġ",
        "out"
      ],
      [
        "'",
        "ll"
      ],
      [
        "in",
        "y"
      ],
      [
        "Ġmu",
        "ch"
      ],
      [
        "Ġqui",
        "et"
      ],
      [
        "Ġhel",
        "lo"
      ],
      [
        "Ġp",
        "art"
      ],
      [
        "Ġdoes",
        "n"
      ],
      [
        "d",
        "y"
      ],
      [
        "Ġco",
        "mes"
      ],
      [
        "Ġl",
        "et"
      ],
      [
        "Ġhel",
        "p"
      ],
      [
        "Ġs",
        "p"
      ],
      [
        "i",
        "ght"
      ],
      [
        "ou",
        "s"
      ],
      [
        "st",
        "a"
      ],
      [
        "Ġdrea",
        "m"
      ],
      [
        "Ġj",
        "o"
      ],
      [
        "Ġd",
        "own"
      ],
      [
        "Ġlook",
        "ing"
      ],
      [
        "op",
        "le"
      ],
      [
        "Ġb",
        "ra"
      ],
      [
        "Ġpe",
        "ople"
      ],
      [
        "Ġno",
        "thing"
      ],
      [
        "Ġbel",
        "ie"
      ],
      [
        "Ġany",
        "thing"
      ],
      [
        "Ġst",
        "r"
      ],
      [
        "Ġsc",
        "a"
      ],
      [
        "or",
        "n"
      ],
      [
        "Ġta",
        "il"
      ],
      [
        "Ġp",
        "ea"
      ],
      [
        "Ġf",
        "ood"
      ],
      [
        "Ġsu",
        "re"
      ],
      [
        "Ġu",
        "nder"
      ],
      [
        "Ġc",
        "le"
      ],
      [
        "h",
        "ere"
      ],
      [
        "Ġd",
        "ark"
      ],
      [
        "re",
        "ady"
      ],
      [
        "Ġal",
        "ready"
      ],
      [
        "Ġpea",
        "ce"
      ],
      [
        "Ġch",
        "ange"
      ],
      [
        "v",
        "or"
      ],
      [
        "o",
        "t"
      ],
      [
        "tt",
        "er"
      ],
      [
        "Ġfloat",
        "ing"
      ],
      [
        "Ġc",
        "on"
      ],
      [
        "Ġsh",
        "ould"
      ],
      [
        "ti",
        "on"
      ],
      [
        "i",
        "on"
      ],
      [
        "Ġwat",
        "ch"
      ],
      [
        "Ġs",
        "ad"
      ],
      [
        "Ġfa",
        "vor"
      ],
      [
        "or",
        "t"
      ],
      [
        "Ġsa",
        "fe"
      ],
      [
        "Ġfavor",
        "ite"
      ],
      [
        "Ġ",
        "round"
      ],
      [
        "Ġo",
        "ther"
      ],
      [
        "Ġyour",
        "self"
      ],
      [
        "i",
        "b"
      ],
      [
        "Ġw",
        "ere"
      ],
      [
        "res",
        "h"
      ],
      [
        "u",
        "re"
      ],
      [
        "w",
        "here"
      ],
      [
        "m",
        "or"
      ],
      [
        "Ġp",
        "o"
      ],
      [
        "Ġe",
        "at"
      ],
      [
        "Ġt",
        "iny"
      ],
      [
        "ll",
        "s"
      ],
      [
        "s",
        "h"
      ],
      [
        "Ġnoti",
        "ce"
      ],
      [
        "'",
        "ve"
      ],
      [
        "Ġt",
        "ast"
      ],
      [
        "Ġe",
        "y"
      ],
      [
        "Ġfeel",
        "ing"
      ],
      [
        "Ġf",
        "ir"
      ],
      [
        "Ġdo",
        "ing"
      ],
      [
        "re",
        "t"
      ],
      [
        "Ġho",
        "pe"
      ],
      [
        "Ġho",
        "me"
      ],
      [
        "st",
        "en"
      ],
      [
        "Ġf",
        "resh"
      ],
      [
        "n",
        "g"
      ],
      [
        "s",
        "ide"
      ],
      [
        "Ġsca",
        "red"
      ],
      [
        "Ġfir",
        "st"
      ],
      [
        "ur",
        "n"
      ],
      [
        "Ġgo",
        "ing"
      ],
      [
        "Ġtry",
        "ing"
      ],
      [
        "Ġli",
        "ve"
      ],
      [
        "Ġch",
        "ang"
      ],
      [
        "Ġd",
        "e"
      ],
      [
        "Ġp",
        "la"
      ],
      [
        "Ġs",
        "ur"
      ],
      [
        "Ġsh",
        "a"
      ],
      [
        "Ġey",
        "es"
      ],
      [
        "Ġbe",
        "tter"
      ],
      [
        "Ġon",
        "ly"
      ],
      [
        "l",
        "or"
      ],
      [
        "Ġf",
        "ind"
      ],
      [
        "Ġli",
        "sten"
      ],
      [
        "Ġg",
        "ra"
      ],
      [
        "Ġmatter",
        "s"
      ],
      [
        "Ġt",
        "urn"
      ],
      [
        "Ġs",
        "low"
      ],
      [
        "Ġhu",
        "m"
      ],
      [
        "Ġunder",
        "sta"
      ],
      [
        "o",
        "se"
      ],
      [
        "Ġd",
        "es"
      ],
      [
        "Ġbelie",
        "ve"
      ],
      [
        "v",
        "el"
      ],
      [
        "Ġsc",
        "al"
      ],
      [
        "Ġscal",
        "es"
      ],
      [
        "Ġl",
        "ong"
      ],
      [
        "Ġpl",
        "ant"
      ],
      [
        "Ġbubb",
        "le"
      ],
      [
        "Ġ",
        "el"
      ],
      [
        "Ġsu",
        "n"
      ],
      [
        "Ġa",
        "way"
      ],
      [
        "Ġsec",
        "o"
      ],
      [
        "Ġea",
        "ch"
      ],
      [
        "a",
        "b"
      ],
      [
        "Ġwor",
        "d"
      ],
      [
        "Ġtr",
        "ust"
      ],
      [
        "Ġt",
        "al"
      ],
      [
        "Ġundersta",
        "nd"
      ],
      [
        "Ġst",
        "op"
      ],
      [
        "Ġh",
        "ur"
      ],
      [
        "Ġwh",
        "i"
      ],
      [
        "Ġco",
        "lor"
      ],
      [
        "Ġel",
        "se"
      ],
      [
        "Ġlook",
        "s"
      ],
      [
        "Ġp",
        "ro"
      ],
      [
        "oo",
        "l"
      ],
      [
        "reat",
        "h"
      ],
      [
        "is",
        "e"
      ],
      [
        "Ġb",
        "reath"
      ],
      [
        "Ġp",
        "re"
      ],
      [
        "Ġhappen",
        "s"
      ],
      [
        "Ġti",
        "red"
      ],
      [
        "Ġc",
        "ould"
      ],
      [
        "Ġo",
        "ver"
      ],
      [
        "Ġf",
        "ast"
      ],
      [
        "e",
        "ar"
      ],
      [
        "f",
        "ore"
      ],
      [
        "o",
        "m"
      ],
      [
        "ad",
        "e"
      ],
      [
        "Ġca",
        "re"
      ],
      [
        "s",
        "on"
      ],
      [
        "Ġbe",
        "fore"
      ],
      [
        "Ġgra",
        "vel"
      ],
      [
        "Ġi",
        "mp"
      ],
      [
        "Ġl",
        "on"
      ],
      [
        "Ġal",
        "ive"
      ],
      [
        "Ġwigg",
        "le"
      ],
      [
        "Ġli",
        "fe"
      ],
      [
        "an",
        "ce"
      ],
      [
        "o",
        "ve"
      ],
      [
        "Ġthan",
        "k"
      ],
      [
        "Ġhur",
        "t"
      ],
      [
        "Ġc",
        "ool"
      ],
      [
        "le",
        "ep"
      ],
      [
        "Ġab",
        "ove"
      ],
      [
        "Ġkeep",
        "s"
      ],
      [
        "Ġforg",
        "ot"
      ],
      [
        "in",
        "t"
      ],
      [
        "Ġsh",
        "ad"
      ],
      [
        "Ġc",
        "al"
      ],
      [
        "Ġc",
        "ar"
      ],
      [
        "Ġshad",
        "ow"
      ],
      [
        "Ġd",
        "is"
      ],
      [
        "ir",
        "c"
      ],
      [
        "Ġc",
        "irc"
      ],
      [
        "c",
        "i"
      ],
      [
        "Ġsou",
        "nds"
      ],
      [
        "r",
        "ow"
      ],
      [
        "Ġco",
        "ld"
      ],
      [
        "Ġc",
        "at"
      ],
      [
        "Ġcal",
        "m"
      ],
      [
        "Ġm",
        "ight"
      ],
      [
        "Ġm",
        "ade"
      ],
      [
        "Ġany",
        "way"
      ],
      [
        "Ġtast",
        "e"
      ],
      [
        "p",
        "r"
      ],
      [
        "Ġs",
        "leep"
      ],
      [
        "Ġbo",
        "dy"
      ],
      [
        "Ġfu",
        "ll"
      ],
      [
        "â",
        "Ģ"
      ],
      [
        "âĢ",
        "Ķ"
      ],
      [
        "Ġgi",
        "lls"
      ],
      [
        "in",
        "e"
      ],
      [
        "Ġco",
        "ming"
      ],
      [
        "Ġsur",
        "pr"
      ],
      [
        "x",
        "t"
      ],
      [
        "i",
        "st"
      ],
      [
        "tt",
        "y"
      ],
      [
        "Ġis",
        "n"
      ],
      [
        "Ġpre",
        "tty"
      ],
      [
        "Ġpla",
        "ce"
      ],
      [
        "s",
        "o"
      ],
      [
        "Ġl",
        "ea"
      ],
      [
        "Ġfa",
        "ce"
      ],
      [
        "c",
        "es"
      ],
      [
        "Ġlon",
        "ely"
      ],
      [
        "Ġfrie",
        "nds"
      ],
      [
        "Ġp",
        "u"
      ],
      [
        "Ġc",
        "orn"
      ],
      [
        "Ġfla",
        "ke"
      ],
      [
        "Ġforget",
        "ting"
      ],
      [
        "Ġthink",
        "ing"
      ],
      [
        "Ġth",
        "ose"
      ],
      [
        "Ġforg",
        "ive"
      ],
      [
        "Ġwith",
        "out"
      ],
      [
        "Ġcle",
        "ar"
      ],
      [
        "Ġthe",
        "ir"
      ],
      [
        "Ġhe",
        "art"
      ],
      [
        "Ġne",
        "xt"
      ],
      [
        "Ġg",
        "one"
      ],
      [
        "Ġmost",
        "ly"
      ],
      [
        "u",
        "e"
      ],
      [
        "er",
        "s"
      ],
      [
        "Ġevery",
        "one"
      ],
      [
        "Ġo",
        "p"
      ],
      [
        "t",
        "o"
      ],
      [
        "Ġb",
        "r"
      ],
      [
        "Ġu",
        "n"
      ],
      [
        "c",
        "ing"
      ],
      [
        "Ġjo",
        "y"
      ],
      [
        "Ġget",
        "s"
      ],
      [
        "o",
        "ther"
      ],
      [
        "Ġbe",
        "en"
      ],
      [
        "Ġan",
        "other"
      ],
      [
        "Ġbo",
        "th"
      ],
      [
        "Ġme",
        "et"
      ],
      [
        "Ġal",
        "one"
      ],
      [
        "Ġw",
        "ell"
      ],
      [
        "Ġc",
        "u"
      ],
      [
        "Ġwor",
        "k"
      ],
      [
        "Ġu",
        "s"
      ],
      [
        "an",
        "y"
      ],
      [
        "l",
        "ing"
      ],
      [
        "is",
        "s"
      ],
      [
        "Ġf",
        "ore"
      ],
      [
        "Ġfore",
        "ver"
      ],
      [
        "Ġsh",
        "ow"
      ],
      [
        "Ġimp",
        "ort"
      ],
      [
        "Ġpeace",
        "ful"
      ],
      [
        "Ġimport",
        "ant"
      ],
      [
        "Ġgi",
        "ft"
      ],
      [
        "Ġea",
        "s"
      ],
      [
        "c",
        "ri"
      ],
      [
        "en",
        "ce"
      ],
      [
        "Ġdes",
        "cri"
      ],
      [
        "Ġcu",
        "ri"
      ],
      [
        "Ġc",
        "ur"
      ],
      [
        "Ġsay",
        "ing"
      ],
      [
        "Ġdescri",
        "be"
      ],
      [
        "Ġpro",
        "b"
      ],
      [
        "Ġsou",
        "nd"
      ],
      [
        "Ġex",
        "p"
      ],
      [
        "Ġfu",
        "n"
      ],
      [
        "Ġha",
        "s"
      ],
      [
        "b",
        "y"
      ],
      [
        "Ġm",
        "iss"
      ],
      [
        "Ġb",
        "ad"
      ],
      [
        "Ġto",
        "ge"
      ],
      [
        "Ġtoge",
        "ther"
      ],
      [
        "Ġth",
        "ough"
      ],
      [
        "Ġper",
        "son"
      ],
      [
        "Ġhold",
        "s"
      ],
      [
        "Ġco",
        "mp"
      ],
      [
        "Ġhappen",
        "ed"
      ],
      [
        "Ġs",
        "pe"
      ],
      [
        "Ġha",
        "nd"
      ],
      [
        "it",
        "s"
      ],
      [
        "id",
        "d"
      ],
      [
        "Ġbr",
        "ing"
      ],
      [
        "Ġcirc",
        "les"
      ],
      [
        "Ġget",
        "ting"
      ],
      [
        "Ġplant",
        "s"
      ],
      [
        "tt",
        "om"
      ],
      [
        "Ġbo",
        "ttom"
      ],
      [
        "Ġsec",
        "ret"
      ],
      [
        "Ġpo",
        "int"
      ],
      [
        "Ġgent",
        "ly"
      ],
      [
        "Ġhappen",
        "ing"
      ],
      [
        "in",
        "ess"
      ],
      [
        "er",
        "day"
      ],
      [
        "Ġy",
        "est"
      ],
      [
        "Ġyest",
        "erday"
      ],
      [
        "Ġm",
        "idd"
      ],
      [
        "Ġmidd",
        "le"
      ],
      [
        "rat",
        "e"
      ],
      [
        "Ġwor",
        "th"
      ],
      [
        "Ġv",
        "ib"
      ],
      [
        "Ġtal",
        "king"
      ],
      [
        "u",
        "d"
      ],
      [
        "Ġcuri",
        "ous"
      ],
      [
        "ou",
        "ch"
      ],
      [
        "Ġf",
        "all"
      ],
      [
        "ab",
        "ly"
      ],
      [
        "Ġf",
        "o"
      ],
      [
        "ke",
        "d"
      ],
      [
        "Ġmo",
        "ves"
      ],
      [
        "Ġal",
        "so"
      ],
      [
        "Ġprob",
        "ably"
      ],
      [
        "Ġt",
        "ouch"
      ],
      [
        "c",
        "o"
      ],
      [
        "i",
        "ther"
      ],
      [
        "Ġop",
        "en"
      ],
      [
        "Ġex",
        "ist"
      ],
      [
        "ar",
        "y"
      ],
      [
        "Ġc",
        "lo"
      ],
      [
        "Ġwatch",
        "ing"
      ],
      [
        "Ġvib",
        "rat"
      ],
      [
        "Ġin",
        "ter"
      ],
      [
        "Ġwhi",
        "ch"
      ],
      [
        "Ġse",
        "en"
      ],
      [
        "Ġst",
        "u"
      ],
      [
        "Ġm",
        "any"
      ],
      [
        "Ġme",
        "mor"
      ],
      [
        "Ġhe",
        "ar"
      ],
      [
        "Ġgi",
        "ve"
      ],
      [
        "Ġout",
        "side"
      ],
      [
        "Ġbra",
        "nd"
      ],
      [
        "Ġsm",
        "oo"
      ],
      [
        "Ġo",
        "ld"
      ],
      [
        "Ġto",
        "p"
      ],
      [
        "Ġne",
        "ar"
      ],
      [
        "Ġsmoo",
        "th"
      ],
      [
        "Ġc",
        "ou"
      ],
      [
        "Ġa",
        "pp"
      ],
      [
        "Ġmy",
        "self"
      ],
      [
        "c",
        "tion"
      ],
      [
        "Ġg",
        "re"
      ],
      [
        "Ġgo",
        "t"
      ],
      [
        "Ġg",
        "low"
      ],
      [
        "Ġto",
        "mor"
      ],
      [
        "Ġtomor",
        "row"
      ],
      [
        "Ġw",
        "on"
      ],
      [
        "Ġseem",
        "s"
      ],
      [
        "ion",
        "s"
      ],
      [
        "Ġgood",
        "by"
      ],
      [
        "Ġseco",
        "nd"
      ],
      [
        "rate",
        "ful"
      ],
      [
        "Ġw",
        "r"
      ],
      [
        "Ġinter",
        "est"
      ],
      [
        "Ġg",
        "rateful"
      ],
      [
        "Ġwr",
        "ong"
      ],
      [
        "u",
        "ally"
      ],
      [
        "i",
        "ce"
      ],
      [
        "Ġv",
        "is"
      ],
      [
        "Ġre",
        "a"
      ],
      [
        "t",
        "y"
      ],
      [
        "Ġm",
        "ust"
      ],
      [
        "Ġsome",
        "where"
      ],
      [
        "Ġgoodby",
        "e"
      ],
      [
        "Ġb",
        "l"
      ],
      [
        "Ġd",
        "ri"
      ],
      [
        "Ġgla",
        "d"
      ],
      [
        "Ġwait",
        "ing"
      ],
      [
        "Ġp",
        "ast"
      ],
      [
        "Ġchang",
        "es"
      ],
      [
        "Ġwor",
        "ry"
      ],
      [
        "Ġcle",
        "an"
      ],
      [
        "el",
        "t"
      ],
      [
        "Ġin",
        "side"
      ],
      [
        "Ġmemor",
        "y"
      ],
      [
        "Ġm",
        "orn"
      ],
      [
        "Ġmorn",
        "ing"
      ],
      [
        "i",
        "z"
      ],
      [
        "Ġgo",
        "es"
      ],
      [
        "Ġn",
        "a"
      ],
      [
        "Ġ",
        "own"
      ],
      [
        "Ġa",
        "c"
      ],
      [
        "Ġc",
        "ast"
      ],
      [
        "Ġp",
        "at"
      ],
      [
        "Ġin",
        "to"
      ],
      [
        "Ġbig",
        "g"
      ],
      [
        "'",
        "d"
      ],
      [
        "i",
        "le"
      ],
      [
        "Ġbra",
        "ve"
      ],
      [
        "ci",
        "al"
      ],
      [
        "Ġf",
        "elt"
      ],
      [
        "Ġso",
        "r"
      ],
      [
        "Ġgre",
        "en"
      ],
      [
        "ou",
        "ght"
      ],
      [
        "e",
        "ad"
      ],
      [
        "Ġh",
        "i"
      ],
      [
        "Ġt",
        "e"
      ],
      [
        "Ġcast",
        "le"
      ],
      [
        "Ġth",
        "ought"
      ],
      [
        "Ġe",
        "ither"
      ],
      [
        "Ġrest",
        "ing"
      ],
      [
        "Ġdream",
        "s"
      ],
      [
        "Ġl",
        "ast"
      ],
      [
        "a",
        "ct"
      ],
      [
        "c",
        "u"
      ],
      [
        "Ġca",
        "me"
      ],
      [
        "Ġinterest",
        "ing"
      ],
      [
        "Ġsc",
        "ary"
      ],
      [
        "Ġevery",
        "where"
      ],
      [
        "Ġw",
        "ish"
      ],
      [
        "Ġtr",
        "ue"
      ],
      [
        "Ġdri",
        "ft"
      ],
      [
        "Ġhelp",
        "s"
      ],
      [
        "Ġforg",
        "i"
      ],
      [
        "n",
        "ing"
      ],
      [
        "Ġdis",
        "a"
      ],
      [
        "Ġspe",
        "cial"
      ],
      [
        "Ġknow",
        "ing"
      ],
      [
        "Ġta",
        "p"
      ],
      [
        "Ġex",
        "c"
      ],
      [
        "Ġlisten",
        "ing"
      ],
      [
        "Ġsurpr",
        "is"
      ],
      [
        "w",
        "ard"
      ],
      [
        "Ġw",
        "et"
      ],
      [
        "s",
        "ing"
      ],
      [
        "Ġs",
        "im"
      ],
      [
        "Ġseco",
        "nds"
      ],
      [
        "Ġsor",
        "ry"
      ],
      [
        "Ġr",
        "u"
      ],
      [
        "Ġex",
        "act"
      ],
      [
        "Ġsim",
        "p"
      ],
      [
        "Ġp",
        "a"
      ],
      [
        "ib",
        "le"
      ],
      [
        "Ġstay",
        "s"
      ],
      [
        "Ġvis",
        "it"
      ],
      [
        "Ġin",
        "st"
      ],
      [
        "Ġni",
        "ght"
      ],
      [
        "b",
        "o"
      ],
      [
        "Ġdisa",
        "pp"
      ],
      [
        "Ġre",
        "ady"
      ],
      [
        "Ġma",
        "king"
      ],
      [
        "Ġdid",
        "n"
      ],
      [
        "at",
        "e"
      ],
      [
        "Ġt",
        "en"
      ],
      [
        "Ġmove",
        "ment"
      ],
      [
        "tt",
        "en"
      ],
      [
        "it",
        "y"
      ],
      [
        "bo",
        "dy"
      ],
      [
        "Ġm",
        "i"
      ],
      [
        "Ġd",
        "an"
      ],
      [
        "a",
        "z"
      ],
      [
        "Ġhu",
        "ng"
      ],
      [
        "Ġbring",
        "s"
      ],
      [
        "Ġlo",
        "st"
      ],
      [
        "ou",
        "d"
      ],
      [
        "e",
        "ver"
      ],
      [
        "Ġsm",
        "ile"
      ],
      [
        "Ġjo",
        "ke"
      ],
      [
        "Ġbreath",
        "e"
      ],
      [
        "Ġexc",
        "it"
      ],
      [
        "n",
        "y"
      ],
      [
        "Ġa",
        "ir"
      ],
      [
        "i",
        "ll"
      ],
      [
        "ck",
        "s"
      ],
      [
        "Ġshadow",
        "s"
      ],
      [
        "Ġstr",
        "ong"
      ],
      [
        "Ġmove",
        "d"
      ],
      [
        "Ġl",
        "ear"
      ],
      [
        "Ġ",
        "ro"
      ],
      [
        "Ġsoft",
        "er"
      ],
      [
        "Ġstr",
        "ange"
      ],
      [
        "Ġsimp",
        "le"
      ],
      [
        "Ġon",
        "ce"
      ],
      [
        "Ġre",
        "g"
      ],
      [
        "Ġany",
        "one"
      ],
      [
        "d",
        "d"
      ],
      [
        "Ġno",
        "body"
      ],
      [
        "Ġl",
        "e"
      ],
      [
        "Ġclo",
        "se"
      ],
      [
        "Ġa",
        "f"
      ],
      [
        "oo",
        "m"
      ],
      [
        "Ġwhi",
        "le"
      ],
      [
        "Ġexact",
        "ly"
      ],
      [
        "Ġt",
        "ea"
      ],
      [
        "Ġpu",
        "sh"
      ],
      [
        "a",
        "se"
      ],
      [
        "Ġfe",
        "ar"
      ],
      [
        "Ġbec",
        "o"
      ],
      [
        "g",
        "ic"
      ],
      [
        "Ġword",
        "s"
      ],
      [
        "Ġbreath",
        "ing"
      ],
      [
        "pp",
        "ed"
      ],
      [
        "Ġtea",
        "ch"
      ],
      [
        "Ġa",
        "ct"
      ],
      [
        "Ġlo",
        "t"
      ],
      [
        "Ġlea",
        "ve"
      ],
      [
        "ra",
        "id"
      ],
      [
        "Ġwigg",
        "ling"
      ],
      [
        "at",
        "ure"
      ],
      [
        "Ġyou",
        "ng"
      ],
      [
        "Ġcon",
        "fu"
      ],
      [
        "Ġaf",
        "raid"
      ],
      [
        "Ġs",
        "l"
      ],
      [
        "ou",
        "nd"
      ],
      [
        "Ġfin",
        "e"
      ],
      [
        "Ġvibrat",
        "ions"
      ],
      [
        "h",
        "ow"
      ],
      [
        "s",
        "ed"
      ],
      [
        "Ġeas",
        "y"
      ],
      [
        "i",
        "ous"
      ],
      [
        "Ġm",
        "ou"
      ],
      [
        "Ġma",
        "gic"
      ],
      [
        "Ġsome",
        "how"
      ],
      [
        "Ġcorn",
        "ers"
      ],
      [
        "Ġte",
        "mp"
      ],
      [
        "l",
        "u"
      ],
      [
        "Ġbe",
        "t"
      ],
      [
        "Ġknow",
        "s"
      ],
      [
        "Ġcar",
        "es"
      ],
      [
        "Ġreg",
        "ret"
      ],
      [
        "Ġfun",
        "ny"
      ],
      [
        "Ġd",
        "ance"
      ],
      [
        "Ġso",
        "on"
      ],
      [
        "Ġare",
        "n"
      ],
      [
        "Ġon",
        "es"
      ],
      [
        "Ġcorn",
        "er"
      ],
      [
        "Ġpa",
        "ss"
      ],
      [
        "Ġinst",
        "ead"
      ],
      [
        "Ġmou",
        "th"
      ],
      [
        "a",
        "ce"
      ],
      [
        "le",
        "d"
      ],
      [
        "Ġlo",
        "v"
      ],
      [
        "Ġf",
        "ar"
      ],
      [
        "ft",
        "er"
      ],
      [
        "Ġdan",
        "cing"
      ],
      [
        "Ġa",
        "fter"
      ],
      [
        "Ġm",
        "ind"
      ],
      [
        "Ġsha",
        "p"
      ],
      [
        "Ġhapp",
        "iness"
      ],
      [
        "Ġhum",
        "an"
      ],
      [
        "Ġb",
        "it"
      ],
      [
        "ri",
        "ed"
      ],
      [
        "iz",
        "e"
      ],
      [
        "i",
        "er"
      ],
      [
        "Ġh",
        "ea"
      ],
      [
        "Ġc",
        "all"
      ],
      [
        "Ġsa",
        "id"
      ],
      [
        "Ġsw",
        "ish"
      ],
      [
        "Ġsurpr",
        "ise"
      ],
      [
        "Ġcou",
        "nt"
      ],
      [
        "Ġcat",
        "ch"
      ],
      [
        "Ġtemp",
        "er"
      ],
      [
        "Ġlov",
        "ely"
      ],
      [
        "Ġhea",
        "v"
      ],
      [
        "Ġwarm",
        "er"
      ],
      [
        "Ġs",
        "ide"
      ],
      [
        "Ġl",
        "ess"
      ],
      [
        "Ġha",
        "d"
      ],
      [
        "Ġgold",
        "en"
      ],
      [
        "Ġf",
        "il"
      ],
      [
        "Ġtemper",
        "ature"
      ],
      [
        "Ġna",
        "me"
      ],
      [
        "Ġfe",
        "ed"
      ],
      [
        "p",
        "t"
      ],
      [
        "at",
        "ion"
      ],
      [
        "Ġj",
        "ud"
      ],
      [
        "Ġbo",
        "red"
      ],
      [
        "re",
        "e"
      ],
      [
        "Ġcolor",
        "s"
      ],
      [
        "Ġfil",
        "ter"
      ],
      [
        "ab",
        "le"
      ],
      [
        "Ġpat",
        "i"
      ],
      [
        "o",
        "ice"
      ],
      [
        "Ġam",
        "az"
      ],
      [
        "Ġt",
        "ow"
      ],
      [
        "Ġan",
        "g"
      ],
      [
        "Ġshap",
        "es"
      ],
      [
        "Ġe",
        "nd"
      ],
      [
        "Ġhand",
        "le"
      ],
      [
        "Ġl",
        "oud"
      ],
      [
        "Ġtow",
        "ard"
      ],
      [
        "ll",
        "ow"
      ],
      [
        "Ġfa",
        "il"
      ],
      [
        "Ġta",
        "ke"
      ],
      [
        "Ġ",
        "ri"
      ],
      [
        "Ġh",
        "on"
      ],
      [
        "l",
        "ess"
      ],
      [
        "Ġ",
        "ra"
      ],
      [
        "Ġfall",
        "ing"
      ],
      [
        "Ġhold",
        "ing"
      ],
      [
        "Ġapp",
        "ear"
      ],
      [
        "Ġbu",
        "mp"
      ],
      [
        "ti",
        "ve"
      ],
      [
        "Ġmean",
        "ing"
      ],
      [
        "Ġdes",
        "er"
      ],
      [
        "Ġfor",
        "ward"
      ],
      [
        "Ġch",
        "ance"
      ],
      [
        "Ġstr",
        "ang"
      ],
      [
        "Ġs",
        "ing"
      ],
      [
        "Ġmeet",
        "ing"
      ],
      [
        "Ġfo",
        "llow"
      ],
      [
        "Ġl",
        "u"
      ],
      [
        "Ġre",
        "f"
      ],
      [
        "Ġforgi",
        "ven"
      ],
      [
        "Ġqui",
        "ck"
      ],
      [
        "Ġsp",
        "ot"
      ],
      [
        "Ġde",
        "ep"
      ],
      [
        "Ġa",
        "w"
      ],
      [
        "Ġhung",
        "ry"
      ],
      [
        "u",
        "mp"
      ],
      [
        "Ġturn",
        "ing"
      ],
      [
        "Ġs",
        "en"
      ],
      [
        "t",
        "ely"
      ],
      [
        "Ġg",
        "u"
      ],
      [
        "Ġcon",
        "t"
      ],
      [
        "Ġsha",
        "pe"
      ],
      [
        "Ġheav",
        "y"
      ],
      [
        "f",
        "in"
      ],
      [
        "m",
        "m"
      ],
      [
        "z",
        "y"
      ],
      [
        "Ġas",
        "k"
      ],
      [
        "Ġsh",
        "i"
      ],
      [
        "Ġtal",
        "k"
      ],
      [
        "Ġchang",
        "ed"
      ],
      [
        "w",
        "e"
      ],
      [
        "Ġstu",
        "ck"
      ],
      [
        "Ġhon",
        "est"
      ],
      [
        "Ġact",
        "ually"
      ],
      [
        "Ġa",
        "d"
      ],
      [
        "Ġsu",
        "dd"
      ],
      [
        "Ġsudd",
        "en"
      ],
      [
        "Ġg",
        "reat"
      ],
      [
        "Ġchang",
        "ing"
      ],
      [
        "Ġmi",
        "sta"
      ],
      [
        "Ġlear",
        "n"
      ],
      [
        "ou",
        "r"
      ],
      [
        "Ġf",
        "ound"
      ],
      [
        "Ġthe",
        "se"
      ],
      [
        "Ġexp",
        "lo"
      ],
      [
        "o",
        "nd"
      ],
      [
        "Ġy",
        "et"
      ],
      [
        "ir",
        "d"
      ],
      [
        "st",
        "er"
      ],
      [
        "Ġp",
        "ur"
      ],
      [
        "ce",
        "pt"
      ],
      [
        "we",
        "en"
      ],
      [
        "Ġc",
        "l"
      ],
      [
        "Ġe",
        "mp"
      ],
      [
        "Ġneed",
        "s"
      ],
      [
        "Ġrea",
        "son"
      ],
      [
        "Ġbet",
        "ween"
      ],
      [
        "Ġmy",
        "ster"
      ],
      [
        "Ġro",
        "cks"
      ],
      [
        "es",
        "tion"
      ],
      [
        "Ġh",
        "ide"
      ],
      [
        "Ġmoment",
        "s"
      ],
      [
        "Ġqu",
        "estion"
      ],
      [
        "Ġamaz",
        "ing"
      ],
      [
        "ere",
        "d"
      ],
      [
        "Ġpur",
        "p"
      ],
      [
        "Ġs",
        "ill"
      ],
      [
        "Ġwhat",
        "ever"
      ],
      [
        "Ġp",
        "res"
      ],
      [
        "on",
        "es"
      ],
      [
        "Ġloo",
        "ked"
      ],
      [
        "Ġdis",
        "co"
      ],
      [
        "Ġb",
        "is"
      ],
      [
        "Ġsh",
        "iny"
      ],
      [
        "Ġbis",
        "cu"
      ],
      [
        "Ġforgiven",
        "ess"
      ],
      [
        "le",
        "ase"
      ],
      [
        "Ġother",
        "s"
      ],
      [
        "Ġli",
        "ving"
      ],
      [
        "pp",
        "ing"
      ],
      [
        "Ġnoti",
        "cing"
      ],
      [
        "Ġcur",
        "ve"
      ],
      [
        "owl",
        "y"
      ],
      [
        "id",
        "es"
      ],
      [
        "Ġu",
        "m"
      ],
      [
        "Ġsl",
        "owly"
      ],
      [
        "y",
        "ond"
      ],
      [
        "Ġf",
        "low"
      ],
      [
        "Ġe",
        "d"
      ],
      [
        "Ġme",
        "t"
      ],
      [
        "Ġbe",
        "yond"
      ],
      [
        "Ġas",
        "king"
      ],
      [
        "Ġbigg",
        "er"
      ],
      [
        "Ġaw",
        "a"
      ],
      [
        "i",
        "p"
      ],
      [
        "g",
        "es"
      ],
      [
        "Ġeat",
        "ing"
      ],
      [
        "Ġr",
        "is"
      ],
      [
        "Ġstu",
        "ff"
      ],
      [
        "Ġt",
        "w"
      ],
      [
        "Ġit",
        "s"
      ],
      [
        "la",
        "in"
      ],
      [
        "Ġre",
        "m"
      ],
      [
        "Ġta",
        "kes"
      ],
      [
        "Ġi",
        "d"
      ],
      [
        "o",
        "y"
      ],
      [
        "Ġexplo",
        "re"
      ],
      [
        "at",
        "er"
      ],
      [
        "Ġpl",
        "ay"
      ],
      [
        "Ġsee",
        "ing"
      ],
      [
        "Ġf",
        "r"
      ],
      [
        "ea",
        "k"
      ],
      [
        "s",
        "i"
      ],
      [
        "Ġp",
        "r"
      ],
      [
        "Ġt",
        "ra"
      ],
      [
        "Ġm",
        "ine"
      ],
      [
        "Ġemp",
        "ty"
      ],
      [
        "Ġb",
        "rea"
      ],
      [
        "Ġit",
        "self"
      ],
      [
        "im",
        "m"
      ],
      [
        "Ġbright",
        "ness"
      ],
      [
        "Ġtr",
        "u"
      ],
      [
        "Ġra",
        "in"
      ],
      [
        "Ġi",
        "m"
      ],
      [
        "Ġdi",
        "re"
      ],
      [
        "in",
        "ning"
      ],
      [
        "?",
        "!"
      ],
      [
        "Ġs",
        "elf"
      ],
      [
        "Ġst",
        "ones"
      ],
      [
        "Ġti",
        "mes"
      ],
      [
        "Ġch",
        "oo"
      ],
      [
        "Ġlea",
        "ving"
      ],
      [
        "Ġle",
        "ft"
      ],
      [
        "Ġsill",
        "y"
      ],
      [
        "i",
        "ly"
      ],
      [
        "n",
        "e"
      ],
      [
        "Ġg",
        "r"
      ],
      [
        "Ġst",
        "e"
      ],
      [
        "Ġshi",
        "ft"
      ],
      [
        "Ġst",
        "o"
      ],
      [
        "Ġsurpris",
        "ed"
      ],
      [
        "Ġref",
        "le"
      ],
      [
        "Ġm",
        "ess"
      ],
      [
        "Ġp",
        "lease"
      ],
      [
        "Ġdark",
        "ness"
      ],
      [
        "Ġg",
        "row"
      ],
      [
        "Ġcomp",
        "le"
      ],
      [
        "Ġbigg",
        "est"
      ],
      [
        "m",
        "o"
      ],
      [
        "Ġde",
        "c"
      ],
      [
        "Ġexcit",
        "ed"
      ],
      [
        "re",
        "nt"
      ],
      [
        "Ġkind",
        "ly"
      ],
      [
        "Ġco",
        "m"
      ],
      [
        "Ġlu",
        "ck"
      ],
      [
        "Ġsen",
        "se"
      ],
      [
        "i",
        "es"
      ],
      [
        "Ġremember",
        "ing"
      ],
      [
        "Ġw",
        "ent"
      ],
      [
        "Ġwe",
        "ird"
      ],
      [
        "Ġlove",
        "d"
      ],
      [
        "Ġdire",
        "ction"
      ],
      [
        "Ġcom",
        "f"
      ],
      [
        "Ġpurp",
        "ose"
      ],
      [
        "Ġa",
        "ch"
      ],
      [
        "Ġgi",
        "ving"
      ],
      [
        "Ġri",
        "pp"
      ],
      [
        "Ġdisapp",
        "o"
      ],
      [
        "Ġdisco",
        "ver"
      ],
      [
        "t",
        "e"
      ],
      [
        "ct",
        "ed"
      ],
      [
        "Ġsay",
        "s"
      ],
      [
        "Ġtast",
        "es"
      ],
      [
        "Ġwork",
        "s"
      ],
      [
        "Ġgood",
        "ness"
      ],
      [
        "ss",
        "ible"
      ],
      [
        "Ġf",
        "i"
      ],
      [
        "Ġj",
        "ump"
      ],
      [
        "Ġa",
        "r"
      ],
      [
        "Ġcar",
        "ry"
      ],
      [
        "Ġrem",
        "ind"
      ],
      [
        "t",
        "ure"
      ],
      [
        "Ġfu",
        "ture"
      ],
      [
        "Ġrea",
        "ch"
      ],
      [
        "Ġvisit",
        "or"
      ],
      [
        "Ġdeser",
        "ve"
      ],
      [
        "Ġde",
        "fin"
      ],
      [
        "Ġlet",
        "ting"
      ],
      [
        "Ġbrea",
        "k"
      ],
      [
        "Ġgent",
        "l"
      ],
      [
        "Ġdisappo",
        "int"
      ],
      [
        "Ġawa",
        "ke"
      ],
      [
        "Ġ",
        "es"
      ],
      [
        "Ġwa",
        "ke"
      ],
      [
        "m",
        "ore"
      ],
      [
        "Ġha",
        "ving"
      ],
      [
        "Ġac",
        "cept"
      ],
      [
        "Ġany",
        "more"
      ],
      [
        "Ġsp",
        "ark"
      ],
      [
        "Ġbel",
        "ly"
      ],
      [
        "st",
        "ant"
      ],
      [
        "Ġno",
        "ise"
      ],
      [
        "Ġid",
        "ea"
      ],
      [
        "Ġstart",
        "led"
      ],
      [
        "Ġste",
        "ady"
      ],
      [
        "mo",
        "st"
      ],
      [
        "o",
        "s"
      ],
      [
        "Ġconfu",
        "sed"
      ],
      [
        "k",
        "y"
      ],
      [
        "Ġha",
        "ven"
      ],
      [
        "Ġal",
        "most"
      ],
      [
        "Ġbel",
        "ong"
      ],
      [
        "Ġa",
        "tten"
      ],
      [
        "Ġch",
        "e"
      ],
      [
        "Ġeven",
        "ing"
      ],
      [
        "imm",
        "er"
      ],
      [
        "Ġf",
        "lu"
      ],
      [
        "Ġv",
        "oice"
      ],
      [
        "Ġad",
        "v"
      ],
      [
        "i",
        "est"
      ],
      [
        "i",
        "ck"
      ],
      [
        "Ġcon",
        "stant"
      ],
      [
        "Ġjud",
        "ge"
      ],
      [
        "Ġcomf",
        "ort"
      ],
      [
        "Ġatten",
        "tion"
      ],
      [
        "Ġst",
        "or"
      ],
      [
        "Ġhope",
        "ful"
      ],
      [
        "Ġcur",
        "rent"
      ],
      [
        "Ġs",
        "et"
      ],
      [
        "id",
        "ing"
      ],
      [
        "Ġsp",
        "ace"
      ],
      [
        "Ġ",
        "-"
      ],
      [
        "Ġsh",
        "ar"
      ],
      [
        "Ġsad",
        "ness"
      ],
      [
        "Ġon",
        "to"
      ],
      [
        "Ġexp",
        "lain"
      ],
      [
        "h",
        "y"
      ],
      [
        "j",
        "oy"
      ],
      [
        "Ġd",
        "el"
      ],
      [
        "Ġen",
        "joy"
      ],
      [
        "Ġpart",
        "s"
      ],
      [
        "Ġach",
        "e"
      ],
      [
        "Ġnotice",
        "d"
      ],
      [
        "Ġus",
        "ually"
      ],
      [
        "a",
        "m"
      ],
      [
        "Ġbe",
        "g"
      ],
      [
        "Ġha",
        "nds"
      ],
      [
        "Ġhum",
        "ming"
      ],
      [
        "si",
        "tive"
      ],
      [
        "Ġluck",
        "y"
      ],
      [
        "b",
        "t"
      ],
      [
        "o",
        "tten"
      ],
      [
        "Ġforg",
        "otten"
      ],
      [
        "Ġin",
        "v"
      ],
      [
        "Ġbeco",
        "mes"
      ],
      [
        "Ġ",
        "z"
      ],
      [
        "Ġw",
        "ow"
      ],
      [
        "it",
        "ely"
      ],
      [
        "Ġsu",
        "ch"
      ],
      [
        "Ġrefle",
        "ction"
      ],
      [
        "er",
        "t"
      ],
      [
        "Ġd",
        "ou"
      ],
      [
        "Ġru",
        "sh"
      ],
      [
        "Ġchoo",
        "se"
      ],
      [
        "Ġsa",
        "w"
      ],
      [
        "Ġdefin",
        "itely"
      ],
      [
        "Ġflu",
        "tter"
      ],
      [
        "Ġcomple",
        "tely"
      ],
      [
        "at",
        "h"
      ],
      [
        "Ġbu",
        "s"
      ],
      [
        "Ġs",
        "me"
      ],
      [
        "ti",
        "l"
      ],
      [
        "Ġhel",
        "d"
      ],
      [
        "a",
        "g"
      ],
      [
        "f",
        "er"
      ],
      [
        "Ġb",
        "ro"
      ],
      [
        "Ġst",
        "re"
      ],
      [
        "Ġbl",
        "ue"
      ],
      [
        "Ġpres",
        "ent"
      ],
      [
        "Ġwor",
        "ried"
      ],
      [
        "me",
        "d"
      ],
      [
        "ng",
        "th"
      ],
      [
        "Ġstre",
        "ngth"
      ],
      [
        "Ġr",
        "oom"
      ],
      [
        "Ġris",
        "ing"
      ],
      [
        "Ġli",
        "ves"
      ],
      [
        "Ġdiffer",
        "ence"
      ],
      [
        "g",
        "y"
      ],
      [
        "Ġshar",
        "p"
      ],
      [
        "Ġs",
        "ides"
      ],
      [
        "Ġb",
        "its"
      ],
      [
        "ver",
        "s"
      ],
      [
        "Ġslow",
        "er"
      ],
      [
        "Ġun",
        "til"
      ],
      [
        "Ġr",
        "es"
      ],
      [
        "Ġexcit",
        "ing"
      ],
      [
        "Ġbe",
        "h"
      ],
      [
        "ad",
        "ing"
      ],
      [
        "Ġag",
        "o"
      ],
      [
        "Ġcirc",
        "le"
      ],
      [
        "Ġf",
        "ree"
      ],
      [
        "Ġquiet",
        "er"
      ],
      [
        "Ġdou",
        "bt"
      ],
      [
        "k",
        "en"
      ],
      [
        "u",
        "l"
      ],
      [
        "Ġstop",
        "s"
      ],
      [
        "an",
        "ces"
      ],
      [
        "Ġsh",
        "immer"
      ],
      [
        "Ġany",
        "where"
      ],
      [
        "Ġqu",
        "ite"
      ],
      [
        "Ġwa",
        "st"
      ],
      [
        "Ġglow",
        "ing"
      ],
      [
        "Ġg",
        "a"
      ],
      [
        "Ġstart",
        "ing"
      ],
      [
        "Ġdark",
        "er"
      ],
      [
        "Ġsleep",
        "ing"
      ],
      [
        "Ġsudden",
        "ly"
      ],
      [
        "g",
        "n"
      ],
      [
        "Ġen",
        "er"
      ],
      [
        "en",
        "ess"
      ],
      [
        "Ġe",
        "ar"
      ],
      [
        "Ġti",
        "ck"
      ],
      [
        "Ġpati",
        "ence"
      ],
      [
        "Ġde",
        "al"
      ],
      [
        "Ġcont",
        "ent"
      ],
      [
        "Ġstay",
        "ing"
      ],
      [
        "Ġpo",
        "sitive"
      ],
      [
        "Ġpati",
        "ent"
      ],
      [
        "Ġripp",
        "les"
      ],
      [
        "Ġsleep",
        "y"
      ],
      [
        "Ġang",
        "ry"
      ],
      [
        "Ġmista",
        "kes"
      ],
      [
        "Ġbiscu",
        "its"
      ],
      [
        "Ġstor",
        "y"
      ],
      [
        "Ġstrang",
        "er"
      ],
      [
        "s",
        "ic"
      ],
      [
        "ro",
        "ss"
      ],
      [
        "Ġcur",
        "ves"
      ],
      [
        "ert",
        "ain"
      ],
      [
        "Ġbro",
        "ken"
      ],
      [
        "Ġbeh",
        "ind"
      ],
      [
        "Ġsm",
        "art"
      ],
      [
        "Ġch",
        "ances"
      ],
      [
        "Ġbo",
        "ther"
      ],
      [
        "Ġtouch",
        "es"
      ],
      [
        "Ġsing",
        "le"
      ],
      [
        "f",
        "ace"
      ],
      [
        "Ġsur",
        "face"
      ],
      [
        "Ġcool",
        "er"
      ],
      [
        "Ġim",
        "ag"
      ],
      [
        "Ġpla",
        "st"
      ],
      [
        "Ġeas",
        "ier"
      ],
      [
        "ra",
        "ge"
      ],
      [
        "Ġni",
        "c"
      ],
      [
        "Ġset",
        "t"
      ],
      [
        "Ġplast",
        "ic"
      ],
      [
        "ri",
        "es"
      ],
      [
        "Ġgi",
        "ves"
      ],
      [
        "Ġshow",
        "ing"
      ],
      [
        "at",
        "ur"
      ],
      [
        "Ġfr",
        "ust"
      ],
      [
        "Ġ",
        "'"
      ],
      [
        "Ġf",
        "it"
      ],
      [
        "or",
        "ing"
      ],
      [
        "Ġpla",
        "ces"
      ],
      [
        "s",
        "w"
      ],
      [
        "Ġch",
        "a"
      ],
      [
        "Ġgu",
        "ess"
      ],
      [
        "Ġfrust",
        "rat"
      ],
      [
        "Ġr",
        "ise"
      ],
      [
        "Ġwould",
        "n"
      ],
      [
        "l",
        "i"
      ],
      [
        "t",
        "en"
      ],
      [
        "or",
        "m"
      ],
      [
        "Ġw",
        "eak"
      ],
      [
        "Ġs",
        "it"
      ],
      [
        "Ġs",
        "ize"
      ],
      [
        "Ġyour",
        "s"
      ],
      [
        "Ġkind",
        "est"
      ],
      [
        "Ġwa",
        "lls"
      ],
      [
        "Ġwor",
        "king"
      ],
      [
        "Ġhu",
        "g"
      ],
      [
        "Ġlon",
        "el"
      ],
      [
        "Ġshow",
        "s"
      ],
      [
        "Ġbus",
        "y"
      ],
      [
        "at",
        "ions"
      ],
      [
        "Ġfloat",
        "y"
      ],
      [
        "Ġtell",
        "s"
      ],
      [
        "Ġar",
        "ri"
      ],
      [
        "Ġgentl",
        "eness"
      ],
      [
        "ou",
        "n"
      ],
      [
        "Ġsw",
        "am"
      ],
      [
        "Ġwant",
        "s"
      ],
      [
        "Ġbright",
        "er"
      ],
      [
        "Ġsca",
        "re"
      ],
      [
        "Ġsto",
        "pped"
      ],
      [
        "Ġa",
        "h"
      ],
      [
        "Ġh",
        "iding"
      ],
      [
        "oo",
        "f"
      ],
      [
        "Ġun",
        "c"
      ],
      [
        "Ġcou",
        "rage"
      ],
      [
        "Ġmovement",
        "s"
      ],
      [
        "Ġb",
        "oun"
      ],
      [
        "Ġf",
        "ight"
      ],
      [
        "Ġl",
        "au"
      ],
      [
        "Ġfeeling",
        "s"
      ],
      [
        "Ġlet",
        "s"
      ],
      [
        "Ġdisapp",
        "ear"
      ],
      [
        "h",
        "ip"
      ],
      [
        "at",
        "ed"
      ],
      [
        "Ġan",
        "sw"
      ],
      [
        "Ġbra",
        "in"
      ],
      [
        "Ġed",
        "ges"
      ],
      [
        "Ġpr",
        "ess"
      ],
      [
        "Ġlonel",
        "iness"
      ],
      [
        "Ġt",
        "ried"
      ],
      [
        "ea",
        "red"
      ],
      [
        "Ġfa",
        "m"
      ],
      [
        "Ġfriends",
        "hip"
      ],
      [
        "Ġclo",
        "s"
      ],
      [
        "Ġimag",
        "ine"
      ],
      [
        "Ġb",
        "oring"
      ],
      [
        "Ġn",
        "atur"
      ],
      [
        "Ġp",
        "rom"
      ],
      [
        "il",
        "ity"
      ],
      [
        "Ġa",
        "p"
      ],
      [
        "Ġs",
        "ink"
      ],
      [
        "Ġta",
        "pping"
      ],
      [
        "Ġcar",
        "ing"
      ],
      [
        "p",
        "s"
      ],
      [
        "s",
        "et"
      ],
      [
        "Ġp",
        "h"
      ],
      [
        "Ġhe",
        "al"
      ],
      [
        "Ġlau",
        "gh"
      ],
      [
        "h",
        "a"
      ],
      [
        "Ġ",
        "our"
      ],
      [
        "Ġl",
        "ater"
      ],
      [
        "Ġsh",
        "e"
      ],
      [
        "Ġagain",
        "st"
      ],
      [
        "Ġeas",
        "ily"
      ],
      [
        "Ġlot",
        "s"
      ],
      [
        "Ġ",
        "Y"
      ],
      [
        "Ġd",
        "ro"
      ],
      [
        "Ġdifferent",
        "ly"
      ],
      [
        "Ġperfect",
        "ly"
      ],
      [
        "Ġfast",
        "er"
      ],
      [
        "Ġsh",
        "ine"
      ],
      [
        "Ġener",
        "gy"
      ],
      [
        "Ġp",
        "ain"
      ],
      [
        "is",
        "p"
      ],
      [
        "Ġpu",
        "n"
      ],
      [
        "Ġdel",
        "ic"
      ],
      [
        "a",
        "nd"
      ],
      [
        "Ġt",
        "reat"
      ],
      [
        "Ġremember",
        "s"
      ],
      [
        "Ġhard",
        "est"
      ],
      [
        "Ġu",
        "se"
      ],
      [
        "Ġpl",
        "an"
      ],
      [
        "Ġcomp",
        "any"
      ],
      [
        "Ġfo",
        "cu"
      ],
      [
        "Ġhonest",
        "ly"
      ],
      [
        "a",
        "ge"
      ],
      [
        "er",
        "v"
      ],
      [
        "Ġco",
        "zy"
      ],
      [
        "Ġmyster",
        "y"
      ],
      [
        "Ġto",
        "ld"
      ],
      [
        "Ġfa",
        "ces"
      ],
      [
        "Ġwonder",
        "ing"
      ],
      [
        "Ġdrea",
        "ming"
      ],
      [
        "ci",
        "ally"
      ],
      [
        "Ġhuman",
        "s"
      ],
      [
        "c",
        "y"
      ],
      [
        "ti",
        "me"
      ],
      [
        "Ġse",
        "es"
      ],
      [
        "pe",
        "cially"
      ],
      [
        "Ġwigg",
        "les"
      ],
      [
        "Ġstart",
        "ed"
      ],
      [
        "Ġturn",
        "ed"
      ],
      [
        "Ġcount",
        "s"
      ],
      [
        "Ġes",
        "pecially"
      ],
      [
        "Ġvibrat",
        "ion"
      ],
      [
        "Ġdrift",
        "ing"
      ],
      [
        "Ġend",
        "less"
      ],
      [
        "Ġcomfort",
        "able"
      ],
      [
        "r",
        "u"
      ],
      [
        "fu",
        "ll"
      ],
      [
        "Ġsoft",
        "ly"
      ],
      [
        "Ġmiss",
        "ing"
      ],
      [
        "Ġtru",
        "ly"
      ],
      [
        "Ġf",
        "re"
      ],
      [
        "re",
        "ly"
      ],
      [
        "Ġp",
        "atter"
      ],
      [
        "Ġch",
        "oice"
      ],
      [
        "pe",
        "ct"
      ],
      [
        "Ġhe",
        "ad"
      ],
      [
        "Ġcurve",
        "d"
      ],
      [
        "il",
        "i"
      ],
      [
        "Ġca",
        "red"
      ],
      [
        "Ġsha",
        "king"
      ],
      [
        "Ġang",
        "er"
      ],
      [
        "l",
        "ight"
      ],
      [
        "Ġsu",
        "pp"
      ],
      [
        "full",
        "y"
      ],
      [
        "Ġt",
        "re"
      ],
      [
        "Ġno",
        "se"
      ],
      [
        "Ġsh",
        "in"
      ],
      [
        "Ġrememb",
        "ered"
      ],
      [
        "il",
        "ing"
      ],
      [
        "Ġmista",
        "ke"
      ],
      [
        "Ġgr",
        "ud"
      ],
      [
        "Ġof",
        "ten"
      ],
      [
        "Ġstr",
        "u"
      ],
      [
        "Ġlear",
        "ning"
      ],
      [
        "Ġcha",
        "sing"
      ],
      [
        "Ġre",
        "co"
      ],
      [
        "Ġof",
        "f"
      ],
      [
        "Ġsoft",
        "ness"
      ],
      [
        "Ġdi",
        "st"
      ],
      [
        "Ġhard",
        "er"
      ],
      [
        "Ġlea",
        "ves"
      ],
      [
        "Ġforgi",
        "ving"
      ],
      [
        "ck",
        "ing"
      ],
      [
        "Ġmu",
        "sic"
      ],
      [
        "Ġnoti",
        "ces"
      ],
      [
        "Ġpo",
        "ssible"
      ],
      [
        "co",
        "me"
      ],
      [
        "Ġthought",
        "s"
      ],
      [
        "Ġfrustrat",
        "ed"
      ],
      [
        "e",
        "w"
      ],
      [
        "n",
        "er"
      ],
      [
        "Ġe",
        "ff"
      ],
      [
        "mb",
        "le"
      ],
      [
        "Ġsc",
        "ar"
      ],
      [
        "Ġway",
        "s"
      ],
      [
        "Ġwigg",
        "ly"
      ],
      [
        "Ġjo",
        "kes"
      ],
      [
        "Ġcon",
        "ne"
      ],
      [
        "Ġru",
        "n"
      ],
      [
        "Ġmyster",
        "ious"
      ],
      [
        "Ġpe",
        "bb"
      ],
      [
        "Ġdec",
        "or"
      ],
      [
        "Ġw",
        "el"
      ],
      [
        "Ġn",
        "orm"
      ],
      [
        "Ġg",
        "l"
      ],
      [
        "Ġp",
        "ay"
      ],
      [
        "Ġsurpris",
        "es"
      ],
      [
        "Ġhung",
        "er"
      ],
      [
        "Ġconfu",
        "sing"
      ],
      [
        "Ġ",
        "*"
      ],
      [
        "Ġ",
        "I"
      ],
      [
        "ra",
        "c"
      ],
      [
        "Ġpre",
        "fer"
      ],
      [
        "Ġtw",
        "o"
      ],
      [
        "ve",
        "d"
      ],
      [
        "oo",
        "k"
      ],
      [
        "ti",
        "m"
      ],
      [
        "Ġday",
        "s"
      ],
      [
        "Ġflow",
        "s"
      ],
      [
        "Ġadv",
        "ice"
      ],
      [
        "Ġinv",
        "is"
      ],
      [
        "Ġnorm",
        "al"
      ],
      [
        "Ġt",
        "ing"
      ],
      [
        "Ġs",
        "il"
      ],
      [
        "Ġn",
        "erv"
      ],
      [
        "Ġinvis",
        "ible"
      ],
      [
        "Ġnerv",
        "ous"
      ],
      [
        "Ġw",
        "is"
      ],
      [
        "Ġh",
        "mm"
      ],
      [
        "Ġc",
        "reat"
      ],
      [
        "Ġab",
        "so"
      ],
      [
        "ss",
        "ib"
      ],
      [
        "Ġneed",
        "ed"
      ],
      [
        "Ġstart",
        "s"
      ],
      [
        "Ġac",
        "ross"
      ],
      [
        "Ġansw",
        "er"
      ],
      [
        "Ġabso",
        "lu"
      ],
      [
        "Ġne",
        "ither"
      ],
      [
        "Ġst",
        "one"
      ],
      [
        "Ġch",
        "ase"
      ],
      [
        "Ġimp",
        "o"
      ],
      [
        "Ġjud",
        "g"
      ],
      [
        "Ġgreat",
        "est"
      ],
      [
        "Ġprom",
        "ise"
      ],
      [
        "Ġstru",
        "gg"
      ],
      [
        "ow",
        "er"
      ],
      [
        "Ġsw",
        "e"
      ],
      [
        "ist",
        "ic"
      ],
      [
        "Ġfi",
        "x"
      ],
      [
        "Ġz",
        "oom"
      ],
      [
        "Ġsme",
        "ll"
      ],
      [
        "n",
        "a"
      ],
      [
        "Ġop",
        "tim"
      ],
      [
        "Ġed",
        "ge"
      ],
      [
        "Ġdisappoint",
        "ment"
      ],
      [
        "Ġbeg",
        "inning"
      ],
      [
        "Ġabsolu",
        "tely"
      ],
      [
        "Ġdon",
        "e"
      ],
      [
        "Ġpo",
        "ssib"
      ],
      [
        "Ġbeco",
        "me"
      ],
      [
        "o",
        "lo"
      ],
      [
        "Ġs",
        "ky"
      ],
      [
        "Ġl",
        "ate"
      ],
      [
        "Ġp",
        "ure"
      ],
      [
        "Ġstill",
        "ness"
      ],
      [
        "Ġba",
        "rely"
      ],
      [
        "Ġbelie",
        "ving"
      ],
      [
        "Ġgift",
        "s"
      ],
      [
        "Ġimpo",
        "ssible"
      ],
      [
        "O",
        "U"
      ],
      [
        "Ġ",
        "W"
      ],
      [
        "Ġh",
        "its"
      ],
      [
        "Ġst",
        "ar"
      ],
      [
        "Ġlight",
        "er"
      ],
      [
        "Ġreco",
        "gn"
      ],
      [
        "Ġeff",
        "ort"
      ],
      [
        "Ġswe",
        "et"
      ],
      [
        "s",
        "p"
      ],
      [
        "Ġf",
        "ading"
      ],
      [
        "Ġli",
        "m"
      ],
      [
        "Ġho",
        "p"
      ],
      [
        "d",
        "om"
      ],
      [
        "Ġt",
        "u"
      ],
      [
        "la",
        "x"
      ],
      [
        "Ġre",
        "lax"
      ],
      [
        "Ġkn",
        "ew"
      ],
      [
        "Ġsp",
        "inning"
      ],
      [
        "Ġtrust",
        "ing"
      ],
      [
        "Ġglow",
        "s"
      ],
      [
        "Ġsurpris",
        "ing"
      ],
      [
        "Ġunc",
        "ertain"
      ],
      [
        "Ġwel",
        "come"
      ],
      [
        "c",
        "a"
      ],
      [
        "Ġwas",
        "n"
      ],
      [
        "Ġag",
        "e"
      ],
      [
        "Ġbump",
        "y"
      ],
      [
        "Ġsing",
        "ing"
      ],
      [
        "Ġdiscover",
        "ing"
      ],
      [
        "Ġc",
        "ra"
      ],
      [
        "Ġbiscu",
        "it"
      ],
      [
        "ĠY",
        "OU"
      ],
      [
        "Ġpebb",
        "les"
      ],
      [
        "z",
        "zy"
      ],
      [
        "Ġo",
        "pp"
      ],
      [
        "Ġso",
        "ng"
      ],
      [
        "Ġsp",
        "in"
      ],
      [
        "Ġpro",
        "te"
      ],
      [
        "Ġtru",
        "th"
      ],
      [
        "e",
        "e"
      ],
      [
        "i",
        "ld"
      ],
      [
        "i",
        "lo"
      ],
      [
        "s",
        "op"
      ],
      [
        "Ġnow",
        "here"
      ],
      [
        "Ġsm",
        "iling"
      ],
      [
        "Ġlo",
        "ves"
      ],
      [
        "Ġus",
        "ed"
      ],
      [
        "Ġph",
        "ilo"
      ],
      [
        "Ġwis",
        "dom"
      ],
      [
        "Ġphilo",
        "sop"
      ],
      [
        "re",
        "ci"
      ],
      [
        "Ġtouch",
        "ing"
      ],
      [
        "Ġapp",
        "reci"
      ],
      [
        "Ġfi",
        "lls"
      ],
      [
        "Ġap",
        "olo"
      ],
      [
        "el",
        "e"
      ],
      [
        "Ġme",
        "ant"
      ],
      [
        "Ġtell",
        "ing"
      ],
      [
        "Ġle",
        "ast"
      ],
      [
        "Ġoptim",
        "istic"
      ],
      [
        "e",
        "nd"
      ],
      [
        "f",
        "ast"
      ],
      [
        "s",
        "ure"
      ],
      [
        "id",
        "ent"
      ],
      [
        "ch",
        "ed"
      ],
      [
        "ent",
        "y"
      ],
      [
        "Ġpl",
        "enty"
      ],
      [
        "Ġbelie",
        "f"
      ],
      [
        "Ġsun",
        "light"
      ],
      [
        "Ġbreak",
        "fast"
      ],
      [
        "?",
        "?"
      ],
      [
        "e",
        "k"
      ],
      [
        "Ġc",
        "ele"
      ],
      [
        "Ġteach",
        "es"
      ],
      [
        "Ġpass",
        "es"
      ],
      [
        "Ġlearn",
        "ed"
      ],
      [
        "Ġcl",
        "oud"
      ],
      [
        "Ġnatur",
        "al"
      ],
      [
        "Ġscar",
        "es"
      ],
      [
        "Ġcele",
        "b"
      ],
      [
        "Ġf",
        "l"
      ],
      [
        "Ġse",
        "ar"
      ],
      [
        "Ġwa",
        "king"
      ],
      [
        "Ġsa",
        "f"
      ],
      [
        "Ġkeep",
        "ing"
      ],
      [
        "Ġsp",
        "eak"
      ],
      [
        "Ġfall",
        "s"
      ],
      [
        "Ġtouch",
        "ed"
      ],
      [
        "Ġpush",
        "ing"
      ],
      [
        "Ġquick",
        "ly"
      ],
      [
        "Ġdelic",
        "ious"
      ],
      [
        "Ġfre",
        "ed"
      ],
      [
        "ili",
        "ar"
      ],
      [
        "Ġb",
        "lo"
      ],
      [
        "th",
        "m"
      ],
      [
        "ke",
        "t"
      ],
      [
        "Ġbl",
        "ur"
      ],
      [
        "Ġga",
        "ve"
      ],
      [
        "Ġfight",
        "ing"
      ],
      [
        "Ġopp",
        "os"
      ],
      [
        "Ġphilosop",
        "hy"
      ],
      [
        "Ġfreed",
        "om"
      ],
      [
        "b",
        "le"
      ],
      [
        "i",
        "ence"
      ],
      [
        "Ġli",
        "kes"
      ],
      [
        "Ġas",
        "ked"
      ],
      [
        "Ġlong",
        "er"
      ],
      [
        "ud",
        "e"
      ],
      [
        "iz",
        "ed"
      ],
      [
        "Ġregret",
        "s"
      ],
      [
        "c",
        "ess"
      ],
      [
        "Ġw",
        "ise"
      ],
      [
        "at",
        "ing"
      ],
      [
        "Ġex",
        "pect"
      ],
      [
        "Ġhe",
        "ard"
      ],
      [
        "Ġappear",
        "s"
      ],
      [
        "Ġrecogn",
        "ize"
      ],
      [
        "Ġd",
        "art"
      ],
      [
        "ic",
        "es"
      ],
      [
        "Ġfind",
        "s"
      ],
      [
        "Ġnear",
        "by"
      ],
      [
        "hy",
        "thm"
      ],
      [
        "Ġclos",
        "er"
      ],
      [
        "Ġtre",
        "mb"
      ],
      [
        "Ġpossib",
        "ility"
      ],
      [
        "o",
        "h"
      ],
      [
        "Ġsh",
        "ort"
      ],
      [
        "ur",
        "es"
      ],
      [
        "Ġr",
        "hythm"
      ],
      [
        "Ġsmall",
        "er"
      ],
      [
        "Ġhurt",
        "s"
      ],
      [
        "Ġcatch",
        "es"
      ],
      [
        "Ġstrang",
        "ers"
      ],
      [
        "Ġfocu",
        "s"
      ],
      [
        "Ġpatter",
        "n"
      ],
      [
        "a",
        "re"
      ],
      [
        "Ġth",
        "ick"
      ],
      [
        "Ġp",
        "op"
      ],
      [
        "Ġp",
        "ret"
      ],
      [
        "Ġta",
        "king"
      ],
      [
        "Ġpass",
        "ed"
      ],
      [
        "Ġsear",
        "ch"
      ],
      [
        "o",
        "ices"
      ],
      [
        "u",
        "t"
      ],
      [
        "w",
        "or"
      ],
      [
        "ou",
        "dy"
      ],
      [
        "Ġlo",
        "se"
      ],
      [
        "Ġup",
        "set"
      ],
      [
        "Ġwant",
        "ing"
      ],
      [
        "Ġcl",
        "oudy"
      ],
      [
        "Ġshift",
        "s"
      ],
      [
        "Ġm",
        "ad"
      ],
      [
        "Ġf",
        "ill"
      ],
      [
        "oo",
        "t"
      ],
      [
        "au",
        "ght"
      ],
      [
        "Ġbelie",
        "ves"
      ],
      [
        "Ġcon",
        "vers"
      ],
      [
        "Ġplay",
        "ing"
      ],
      [
        "Ġoppos",
        "ite"
      ],
      [
        "Ġt",
        "er"
      ],
      [
        "Ġb",
        "rou"
      ],
      [
        "Ġbe",
        "nds"
      ],
      [
        "Ġsha",
        "re"
      ],
      [
        "Ġsha",
        "kes"
      ],
      [
        "Ġes",
        "ca"
      ],
      [
        "Ġbrou",
        "ght"
      ],
      [
        "Ġre",
        "d"
      ],
      [
        "Ġkind",
        "er"
      ],
      [
        "Ġfloat",
        "s"
      ],
      [
        "Ġback",
        "ward"
      ],
      [
        "Ġcar",
        "ries"
      ],
      [
        "Ġfeed",
        "s"
      ],
      [
        "Ġremind",
        "s"
      ],
      [
        "Ġfam",
        "iliar"
      ],
      [
        "c",
        "ked"
      ],
      [
        "la",
        "sh"
      ],
      [
        "Ġwa",
        "l"
      ],
      [
        "Ġex",
        "ha"
      ],
      [
        "Ġexp",
        "er"
      ],
      [
        "Ġexist",
        "s"
      ],
      [
        "Ġbeco",
        "ming"
      ],
      [
        "Ġfail",
        "ure"
      ],
      [
        "Ġpr",
        "oof"
      ],
      [
        "Ġspark",
        "les"
      ],
      [
        "Ġconstant",
        "ly"
      ],
      [
        "Ġapolo",
        "g"
      ],
      [
        "Ġexha",
        "ust"
      ],
      [
        "r",
        "ess"
      ],
      [
        "Ġp",
        "ie"
      ],
      [
        "Ġsp",
        "lash"
      ],
      [
        "l",
        "ic"
      ],
      [
        "n",
        "ight"
      ],
      [
        "in",
        "s"
      ],
      [
        "Ġs",
        "na"
      ],
      [
        "on",
        "t"
      ],
      [
        "ti",
        "c"
      ],
      [
        "Ġsp",
        "re"
      ],
      [
        "Ġstrong",
        "er"
      ],
      [
        "Ġpush",
        "es"
      ],
      [
        "Ġf",
        "ive"
      ],
      [
        "Ġwarm",
        "est"
      ],
      [
        "ep",
        "s"
      ],
      [
        "Ġpat",
        "ch"
      ],
      [
        "Ġpres",
        "ence"
      ],
      [
        "Ġfr",
        "ont"
      ],
      [
        "Ġche",
        "er"
      ],
      [
        "Ġgrud",
        "ges"
      ],
      [
        "Ġso",
        "l"
      ],
      [
        "Ġp",
        "ower"
      ],
      [
        "Ġswim",
        "s"
      ],
      [
        "ci",
        "ous"
      ],
      [
        "os",
        "ity"
      ],
      [
        "Ġc",
        "ry"
      ],
      [
        "oo",
        "sh"
      ],
      [
        "Ġwant",
        "ed"
      ],
      [
        "sh",
        "ine"
      ],
      [
        "Ġfind",
        "ing"
      ],
      [
        "Ġsun",
        "shine"
      ],
      [
        "Ġold",
        "er"
      ],
      [
        "t",
        "ra"
      ],
      [
        "Ġb",
        "oom"
      ],
      [
        "Ġl",
        "az"
      ],
      [
        "Ġwo",
        "ke"
      ],
      [
        "Ġun",
        "k"
      ],
      [
        "Ġapp",
        "eared"
      ],
      [
        "Ġter",
        "ri"
      ],
      [
        "r",
        "se"
      ],
      [
        "Ġh",
        "it"
      ],
      [
        "Ġn",
        "et"
      ],
      [
        "Ġwa",
        "ll"
      ],
      [
        "Ġwor",
        "st"
      ],
      [
        "Ġfriend",
        "ly"
      ],
      [
        "Ġpu",
        "t"
      ],
      [
        "Ġcuri",
        "osity"
      ],
      [
        "Ġcou",
        "rse"
      ],
      [
        "Ġbl",
        "an"
      ],
      [
        "Ġsil",
        "ence"
      ],
      [
        "Ġstrugg",
        "ling"
      ],
      [
        "s",
        "el"
      ],
      [
        "u",
        "mb"
      ],
      [
        "w",
        "ater"
      ],
      [
        "Ġfe",
        "w"
      ],
      [
        "Ġlo",
        "sing"
      ],
      [
        "Ġgrow",
        "ing"
      ],
      [
        "Ġsme",
        "lls"
      ],
      [
        "Ġappreci",
        "ate"
      ],
      [
        "Ġconvers",
        "ation"
      ],
      [
        "Ġb",
        "al"
      ],
      [
        "Ġwh",
        "isp"
      ],
      [
        "Ġp",
        "ink"
      ],
      [
        "Ġti",
        "ght"
      ],
      [
        "Ġsha",
        "ke"
      ],
      [
        "Ġgra",
        "ce"
      ],
      [
        "Ġspe",
        "nd"
      ],
      [
        "Ġvisitor",
        "s"
      ],
      [
        "Ġdist",
        "ra"
      ],
      [
        "n",
        "o"
      ],
      [
        "at",
        "t"
      ],
      [
        "Ġex",
        "tra"
      ],
      [
        "Ġfo",
        "g"
      ],
      [
        "Ġac",
        "c"
      ],
      [
        "Ġtra",
        "pped"
      ],
      [
        "Ġdecor",
        "ations"
      ],
      [
        "Ġexper",
        "ience"
      ],
      [
        "o",
        "sed"
      ],
      [
        "Ġe",
        "nds"
      ],
      [
        "Ġre",
        "t"
      ],
      [
        "Ġkn",
        "o"
      ],
      [
        "Ġsc",
        "ore"
      ],
      [
        "Ġwhere",
        "ver"
      ],
      [
        "Ġhelp",
        "ing"
      ],
      [
        "Ġhur",
        "ting"
      ],
      [
        "Ġexp",
        "lor"
      ],
      [
        "Ġpat",
        "h"
      ],
      [
        "Ġmagic",
        "al"
      ],
      [
        "Ġdeser",
        "ves"
      ],
      [
        "Ġcont",
        "ro"
      ],
      [
        "Ġtw",
        "ice"
      ],
      [
        "Ġprote",
        "ct"
      ],
      [
        "Ġw",
        "ind"
      ],
      [
        "Ġa",
        "dd"
      ],
      [
        "Ġs",
        "er"
      ],
      [
        "le",
        "m"
      ],
      [
        "Ġwa",
        "ves"
      ],
      [
        "Ġpu",
        "ll"
      ],
      [
        "Ġprob",
        "lem"
      ],
      [
        "Ġstrong",
        "est"
      ],
      [
        "Ġswish",
        "es"
      ],
      [
        "Ġquestion",
        "s"
      ],
      [
        "Ġadv",
        "ent"
      ],
      [
        "Ġesca",
        "pe"
      ],
      [
        "sel",
        "ves"
      ],
      [
        "Ġth",
        "ree"
      ],
      [
        "Ġat",
        "e"
      ],
      [
        "Ġsu",
        "c"
      ],
      [
        "Ġdi",
        "g"
      ],
      [
        "Ġhu",
        "ge"
      ],
      [
        "Ġbeau",
        "ty"
      ],
      [
        "Ġmemor",
        "ies"
      ],
      [
        "Ġjump",
        "ed"
      ],
      [
        "Ġah",
        "ead"
      ],
[...]
